#pragma once

#include <cstdint>

const uint8_t layer_0[] = {
28, 0, 0, 0, 84, 70, 76, 51, 20, 0, 32, 0, 28, 0, 24, 0, 20, 0, 16, 0, 12, 0, 0, 0, 8, 0, 4, 0, 20, 0, 0, 0, 28, 0, 0, 0, 148, 0, 0, 0, 236, 0, 0, 0, 176, 15, 0, 0, 192, 15, 0, 0, 44, 18, 0, 0, 3, 0, 0, 0, 1, 0, 0, 0, 16, 0, 0, 0, 0, 0, 10, 0, 16, 0, 12, 0, 8, 0, 4, 0, 10, 0, 0, 0, 12, 0, 0, 0, 28, 0, 0, 0, 56, 0, 0, 0, 15, 0, 0, 0, 115, 101, 114, 118, 105, 110, 103, 95, 100, 101, 102, 97, 117, 108, 116, 0, 1, 0, 0, 0, 4, 0, 0, 0, 148, 255, 255, 255, 3, 0, 0, 0, 4, 0, 0, 0, 7, 0, 0, 0, 108, 97, 121, 101, 114, 95, 48, 0, 1, 0, 0, 0, 4, 0, 0, 0, 90, 241, 255, 255, 4, 0, 0, 0, 13, 0, 0, 0, 108, 97, 121, 101, 114, 95, 48, 95, 105, 110, 112, 117, 116, 0, 0, 0, 2, 0, 0, 0, 52, 0, 0, 0, 4, 0, 0, 0, 220, 255, 255, 255, 6, 0, 0, 0, 4, 0, 0, 0, 19, 0, 0, 0, 67, 79, 78, 86, 69, 82, 83, 73, 79, 78, 95, 77, 69, 84, 65, 68, 65, 84, 65, 0, 8, 0, 12, 0, 8, 0, 4, 0, 8, 0, 0, 0, 5, 0, 0, 0, 4, 0, 0, 0, 19, 0, 0, 0, 109, 105, 110, 95, 114, 117, 110, 116, 105, 109, 101, 95, 118, 101, 114, 115, 105, 111, 110, 0, 7, 0, 0, 0, 192, 14, 0, 0, 184, 14, 0, 0, 40, 14, 0, 0, 144, 0, 0, 0, 136, 0, 0, 0, 104, 0, 0, 0, 4, 0, 0, 0, 242, 241, 255, 255, 4, 0, 0, 0, 84, 0, 0, 0, 12, 0, 0, 0, 8, 0, 14, 0, 8, 0, 4, 0, 8, 0, 0, 0, 16, 0, 0, 0, 36, 0, 0, 0, 0, 0, 6, 0, 8, 0, 4, 0, 6, 0, 0, 0, 4, 0, 0, 0, 0, 0, 0, 0, 0, 0, 10, 0, 16, 0, 12, 0, 8, 0, 4, 0, 10, 0, 0, 0, 2, 0, 0, 0, 2, 0, 0, 0, 4, 0, 0, 0, 6, 0, 0, 0, 50, 46, 49, 51, 46, 48, 0, 0, 82, 242, 255, 255, 4, 0, 0, 0, 16, 0, 0, 0, 49, 46, 53, 46, 48, 0, 0, 0, 0, 0, 0, 0, 0, 0, 0, 0, 144, 239, 255, 255, 114, 242, 255, 255, 4, 0, 0, 0, 128, 13, 0, 0, 91, 87, 211, 61, 86, 45, 28, 61, 227, 235, 97, 189, 196, 193, 155, 61, 67, 247, 81, 189, 222, 234, 164, 60, 231, 117, 115, 60, 93, 175, 207, 61, 102, 170, 120, 189, 184, 112, 231, 189, 79, 216, 203, 59, 190, 105, 200, 60, 76, 88, 34, 190, 218, 89, 143, 189, 230, 100, 160, 189, 239, 13, 82, 60, 225, 27, 67, 189, 172, 146, 223, 61, 181, 105, 225, 189, 183, 11, 180, 61, 61, 42, 212, 189, 71, 167, 183, 61, 154, 49, 159, 61, 81, 16, 99, 61, 227, 4, 192, 61, 122, 57, 163, 59, 53, 168, 238, 61, 107, 215, 155, 61, 211, 98, 80, 189, 193, 29, 203, 61, 113, 62, 81, 189, 199, 94, 83, 189, 137, 115, 86, 61, 50, 184, 119, 189, 54, 133, 5, 61, 250, 249, 241, 60, 94, 235, 178, 60, 65, 19, 84, 61, 220, 20, 224, 61, 199, 1, 1, 62, 3, 128, 14, 62, 219, 172, 6, 62, 77, 206, 242, 189, 114, 95, 131, 189, 132, 254, 187, 189, 0, 107, 231, 189, 217, 80, 213, 189, 160, 179, 45, 61, 152, 160, 196, 189, 11, 79, 9, 187, 169, 240, 60, 61, 31, 54, 158, 61, 78, 166, 0, 62, 73, 182, 16, 62, 34, 78, 150, 61, 2, 44, 97, 186, 33, 157, 2, 61, 102, 141, 208, 60, 11, 174, 30, 189, 255, 79, 61, 59, 252, 80, 189, 189, 4, 71, 129, 189, 209, 103, 7, 62, 58, 139, 33, 62, 46, 89, 128, 61, 128, 17, 187, 189, 83, 222, 25, 189, 19, 14, 113, 61, 45, 240, 161, 189, 177, 204, 121, 189, 5, 245, 167, 59, 251, 50, 193, 188, 79, 102, 132, 61, 96, 80, 99, 61, 141, 148, 18, 62, 3, 187, 4, 62, 239, 250, 143, 188, 166, 169, 82, 61, 240, 22, 33, 190, 246, 118, 4, 190, 43, 99, 23, 61, 41, 137, 222, 60, 93, 82, 31, 189, 45, 212, 24, 62, 168, 74, 142, 189, 232, 98, 145, 61, 104, 231, 154, 61, 188, 228, 149, 61, 191, 102, 23, 62, 74, 248, 230, 188, 151, 91, 36, 190, 81, 202, 23, 190, 61, 213, 231, 188, 228, 138, 175, 189, 22, 115, 243, 61, 232, 16, 22, 62, 48, 182, 168, 189, 53, 200, 0, 62, 12, 3, 68, 61, 180, 48, 33, 190, 224, 152, 242, 189, 249, 105, 56, 190, 130, 245, 178, 188, 234, 50, 177, 189, 188, 198, 181, 61, 206, 204, 33, 189, 170, 91, 218, 60, 116, 43, 237, 61, 198, 36, 104, 189, 91, 68, 159, 61, 91, 65, 34, 60, 103, 220, 177, 61, 16, 230, 9, 62, 93, 247, 78, 61, 120, 185, 70, 188, 160, 110, 132, 61, 67, 125, 97, 189, 188, 104, 142, 188, 183, 111, 203, 189, 71, 192, 15, 190, 217, 117, 220, 61, 225, 208, 217, 61, 76, 74, 180, 189, 158, 133, 15, 61, 246, 124, 103, 61, 198, 207, 186, 61, 27, 214, 106, 61, 13, 31, 41, 190, 97, 127, 203, 189, 75, 29, 74, 188, 42, 162, 155, 189, 176, 25, 198, 61, 235, 176, 141, 189, 185, 66, 237, 61, 195, 74, 144, 189, 33, 80, 139, 188, 139, 84, 179, 61, 59, 207, 252, 59, 121, 163, 204, 189, 83, 2, 4, 62, 131, 101, 154, 189, 214, 145, 6, 62, 204, 54, 217, 189, 218, 245, 211, 61, 155, 130, 83, 61, 242, 53, 191, 61, 110, 155, 230, 61, 148, 202, 247, 61, 43, 122, 16, 60, 2, 56, 235, 189, 69, 83, 19, 60, 7, 107, 155, 61, 137, 88, 115, 61, 120, 209, 248, 189, 138, 247, 170, 60, 95, 11, 7, 190, 145, 138, 195, 189, 198, 55, 70, 189, 89, 102, 38, 190, 228, 167, 229, 60, 85, 251, 206, 189, 105, 101, 220, 61, 68, 105, 35, 189, 111, 102, 9, 59, 16, 191, 230, 61, 235, 221, 238, 59, 95, 166, 227, 186, 165, 226, 78, 189, 42, 253, 87, 61, 149, 51, 27, 62, 127, 245, 65, 188, 175, 62, 176, 189, 38, 19, 145, 189, 112, 79, 210, 61, 138, 142, 174, 189, 180, 129, 53, 189, 106, 109, 84, 189, 187, 1, 5, 62, 146, 3, 198, 189, 189, 183, 4, 62, 199, 133, 155, 188, 253, 234, 243, 59, 130, 36, 26, 189, 134, 200, 169, 189, 255, 183, 239, 187, 179, 131, 58, 61, 124, 24, 11, 62, 136, 29, 39, 61, 223, 44, 39, 189, 155, 101, 239, 60, 38, 123, 183, 61, 116, 37, 173, 61, 7, 67, 182, 61, 243, 4, 151, 189, 186, 105, 230, 189, 170, 123, 109, 189, 129, 24, 219, 61, 187, 158, 229, 61, 135, 251, 140, 189, 74, 39, 42, 61, 198, 126, 175, 61, 202, 214, 236, 61, 11, 68, 221, 188, 159, 173, 169, 61, 31, 253, 133, 189, 149, 94, 75, 187, 116, 48, 207, 60, 221, 51, 66, 189, 54, 77, 86, 187, 175, 5, 123, 189, 83, 127, 184, 60, 101, 163, 92, 60, 87, 123, 5, 62, 8, 178, 27, 62, 95, 60, 17, 62, 35, 85, 174, 61, 219, 89, 167, 61, 228, 144, 103, 61, 212, 184, 180, 189, 144, 88, 74, 61, 78, 82, 251, 189, 82, 177, 143, 60, 193, 133, 181, 188, 200, 140, 19, 62, 42, 39, 64, 60, 202, 93, 187, 61, 20, 95, 216, 189, 220, 122, 21, 190, 228, 63, 13, 62, 79, 207, 67, 61, 119, 188, 174, 188, 131, 197, 28, 62, 242, 196, 167, 189, 54, 47, 20, 62, 25, 60, 71, 189, 179, 206, 167, 61, 187, 191, 57, 60, 94, 192, 229, 60, 147, 141, 246, 189, 192, 197, 183, 189, 41, 40, 134, 189, 207, 150, 29, 62, 183, 42, 180, 189, 175, 201, 220, 61, 139, 200, 50, 60, 131, 235, 35, 61, 228, 220, 77, 189, 123, 13, 105, 61, 171, 212, 241, 61, 219, 212, 160, 61, 13, 122, 136, 61, 77, 36, 68, 189, 66, 29, 254, 60, 95, 44, 118, 61, 184, 224, 184, 189, 74, 36, 113, 61, 37, 208, 17, 62, 186, 126, 96, 61, 14, 98, 196, 189, 214, 59, 130, 187, 173, 21, 137, 61, 102, 92, 111, 61, 185, 94, 31, 190, 185, 86, 211, 189, 207, 146, 17, 188, 74, 104, 150, 60, 46, 178, 26, 189, 18, 225, 143, 60, 180, 204, 93, 189, 71, 54, 116, 61, 201, 84, 119, 188, 191, 208, 111, 61, 59, 79, 45, 188, 125, 46, 45, 61, 82, 236, 18, 62, 48, 197, 200, 189, 228, 7, 18, 190, 43, 200, 120, 61, 76, 145, 103, 60, 87, 238, 197, 61, 131, 24, 23, 190, 225, 179, 184, 189, 252, 15, 30, 62, 224, 35, 78, 61, 228, 224, 231, 61, 206, 164, 176, 61, 148, 172, 62, 189, 114, 87, 177, 189, 148, 170, 76, 189, 110, 11, 124, 61, 152, 134, 238, 189, 129, 131, 66, 61, 163, 155, 158, 189, 237, 64, 102, 189, 13, 65, 12, 61, 235, 138, 114, 189, 169, 194, 209, 61, 165, 252, 219, 189, 199, 81, 6, 62, 143, 57, 230, 188, 209, 215, 228, 61, 55, 57, 227, 61, 109, 68, 249, 61, 80, 42, 196, 60, 193, 64, 188, 60, 111, 98, 219, 184, 222, 73, 8, 190, 125, 231, 190, 60, 38, 253, 2, 190, 162, 163, 239, 61, 37, 3, 177, 60, 54, 30, 91, 189, 111, 248, 40, 189, 200, 214, 227, 61, 8, 173, 227, 61, 113, 19, 38, 190, 155, 215, 111, 190, 101, 31, 51, 190, 202, 128, 10, 61, 160, 195, 242, 188, 192, 10, 228, 188, 117, 145, 149, 187, 140, 42, 53, 189, 57, 93, 205, 188, 104, 19, 25, 62, 29, 146, 157, 188, 155, 214, 90, 61, 92, 38, 138, 61, 124, 110, 116, 61, 246, 40, 181, 61, 136, 149, 232, 61, 244, 7, 225, 61, 26, 103, 241, 61, 36, 2, 72, 189, 181, 4, 30, 190, 105, 11, 29, 190, 29, 41, 156, 189, 37, 70, 15, 62, 97, 31, 170, 189, 164, 214, 183, 61, 154, 176, 25, 62, 202, 109, 211, 61, 181, 67, 146, 60, 7, 113, 116, 187, 77, 117, 211, 189, 143, 66, 177, 61, 65, 10, 22, 62, 76, 56, 28, 62, 21, 223, 127, 60, 80, 43, 11, 190, 4, 119, 226, 61, 60, 222, 150, 61, 164, 241, 216, 61, 136, 103, 240, 60, 193, 42, 12, 60, 96, 64, 156, 59, 94, 68, 201, 60, 133, 24, 255, 189, 252, 49, 46, 60, 82, 197, 3, 187, 179, 6, 192, 189, 55, 188, 4, 62, 91, 207, 1, 60, 252, 215, 214, 189, 54, 193, 214, 189, 37, 80, 108, 188, 86, 58, 242, 189, 63, 76, 162, 61, 149, 171, 195, 61, 38, 213, 59, 189, 221, 119, 19, 62, 134, 48, 3, 189, 63, 217, 35, 189, 198, 186, 1, 189, 217, 79, 129, 61, 40, 204, 153, 189, 187, 247, 217, 189, 25, 169, 11, 189, 47, 6, 243, 189, 43, 98, 226, 189, 155, 115, 233, 189, 54, 234, 159, 189, 33, 8, 141, 61, 35, 229, 11, 189, 214, 214, 240, 188, 136, 170, 8, 62, 153, 118, 252, 61, 82, 104, 119, 188, 125, 106, 33, 62, 90, 97, 159, 189, 62, 134, 168, 61, 248, 37, 104, 189, 154, 210, 215, 61, 205, 230, 189, 188, 113, 56, 210, 61, 10, 193, 68, 60, 228, 254, 172, 61, 128, 143, 216, 189, 14, 235, 171, 61, 255, 238, 10, 190, 51, 204, 87, 61, 115, 238, 53, 61, 72, 142, 160, 189, 177, 164, 0, 190, 176, 49, 243, 61, 207, 115, 155, 61, 64, 86, 124, 59, 74, 125, 250, 61, 128, 196, 81, 60, 32, 94, 147, 61, 163, 6, 3, 190, 76, 103, 135, 188, 190, 170, 152, 189, 66, 196, 228, 189, 80, 171, 58, 189, 26, 76, 210, 189, 33, 200, 244, 189, 248, 94, 64, 61, 89, 200, 132, 59, 202, 4, 73, 189, 252, 200, 176, 61, 129, 37, 183, 189, 208, 101, 166, 189, 152, 33, 191, 61, 91, 46, 60, 189, 26, 121, 133, 188, 244, 209, 125, 189, 236, 211, 169, 189, 146, 150, 214, 61, 157, 107, 173, 188, 155, 132, 199, 189, 72, 151, 224, 189, 110, 182, 160, 61, 108, 92, 214, 61, 188, 221, 59, 189, 216, 214, 137, 61, 107, 42, 245, 61, 71, 153, 186, 61, 7, 35, 162, 189, 0, 202, 37, 189, 197, 250, 246, 60, 138, 163, 136, 188, 222, 162, 211, 61, 246, 195, 197, 189, 43, 230, 26, 190, 230, 1, 252, 61, 77, 128, 110, 61, 233, 48, 151, 61, 105, 101, 221, 61, 87, 205, 43, 61, 109, 207, 8, 62, 93, 236, 7, 61, 175, 21, 237, 189, 83, 17, 67, 61, 187, 83, 188, 60, 34, 206, 246, 60, 209, 196, 125, 60, 100, 164, 229, 61, 20, 67, 158, 189, 94, 76, 251, 61, 192, 55, 17, 189, 52, 77, 53, 189, 179, 113, 207, 61, 175, 142, 60, 61, 114, 180, 10, 190, 131, 205, 1, 62, 38, 29, 2, 190, 219, 104, 58, 189, 144, 14, 145, 61, 179, 227, 81, 61, 2, 193, 50, 188, 191, 85, 202, 60, 80, 193, 229, 61, 253, 68, 89, 189, 210, 90, 116, 61, 240, 112, 7, 61, 34, 138, 140, 189, 56, 253, 125, 61, 254, 20, 147, 189, 153, 81, 180, 189, 38, 118, 91, 61, 124, 59, 196, 189, 79, 40, 54, 188, 217, 43, 208, 61, 224, 10, 215, 189, 137, 31, 87, 189, 90, 161, 118, 60, 48, 163, 182, 189, 139, 111, 180, 189, 146, 180, 6, 62, 122, 235, 252, 61, 49, 215, 38, 62, 30, 50, 233, 189, 69, 120, 26, 62, 230, 161, 91, 61, 24, 236, 231, 61, 232, 96, 16, 190, 154, 166, 189, 189, 233, 130, 206, 60, 5, 215, 175, 189, 140, 237, 119, 61, 11, 233, 177, 61, 252, 113, 167, 61, 185, 162, 7, 62, 192, 68, 38, 61, 87, 94, 254, 189, 194, 246, 231, 189, 231, 122, 16, 190, 225, 37, 248, 60, 114, 184, 229, 61, 194, 240, 133, 61, 0, 90, 144, 187, 146, 71, 178, 61, 153, 34, 180, 61, 231, 87, 3, 62, 255, 28, 25, 62, 88, 70, 252, 60, 247, 147, 92, 188, 234, 87, 103, 189, 124, 155, 4, 189, 234, 59, 229, 61, 127, 24, 245, 189, 176, 163, 138, 59, 0, 76, 178, 61, 72, 205, 156, 61, 32, 122, 22, 188, 252, 158, 95, 61, 244, 90, 141, 188, 93, 10, 61, 189, 60, 55, 187, 61, 192, 196, 140, 186, 223, 117, 158, 61, 147, 178, 147, 187, 75, 26, 177, 189, 136, 110, 242, 61, 120, 41, 231, 60, 48, 130, 248, 186, 17, 248, 251, 189, 170, 127, 13, 190, 110, 119, 12, 189, 167, 82, 172, 189, 45, 149, 135, 61, 3, 249, 28, 62, 27, 221, 201, 61, 54, 231, 11, 188, 203, 115, 250, 60, 128, 247, 155, 61, 57, 217, 27, 188, 8, 70, 178, 61, 119, 58, 1, 60, 205, 130, 136, 61, 212, 20, 22, 62, 42, 58, 252, 189, 175, 14, 231, 61, 187, 25, 139, 61, 202, 119, 58, 189, 188, 122, 225, 61, 104, 25, 86, 189, 153, 116, 108, 58, 189, 120, 190, 61, 145, 73, 196, 61, 197, 195, 175, 189, 25, 120, 246, 189, 105, 214, 160, 60, 206, 102, 121, 188, 156, 53, 218, 188, 74, 227, 20, 190, 25, 222, 118, 60, 93, 219, 95, 188, 50, 222, 203, 61, 120, 132, 132, 61, 20, 9, 24, 62, 14, 53, 221, 189, 44, 116, 173, 189, 246, 249, 137, 189, 130, 189, 100, 61, 57, 144, 216, 189, 229, 67, 225, 189, 205, 13, 240, 61, 175, 81, 161, 61, 117, 23, 180, 61, 247, 254, 207, 61, 93, 169, 3, 61, 119, 103, 204, 189, 161, 66, 220, 61, 127, 173, 141, 189, 195, 4, 4, 189, 49, 124, 8, 190, 144, 9, 234, 61, 220, 55, 135, 61, 39, 101, 35, 62, 153, 197, 112, 61, 17, 85, 224, 189, 13, 27, 177, 61, 0, 71, 140, 189, 87, 70, 12, 189, 60, 82, 95, 61, 177, 240, 223, 189, 155, 233, 220, 61, 237, 82, 203, 61, 139, 191, 199, 189, 198, 88, 32, 62, 132, 135, 23, 62, 164, 242, 178, 189, 79, 52, 218, 189, 197, 63, 50, 189, 216, 238, 191, 189, 214, 134, 187, 188, 52, 90, 209, 189, 214, 32, 241, 61, 143, 50, 57, 61, 61, 21, 112, 60, 192, 155, 33, 58, 248, 78, 155, 189, 63, 167, 48, 60, 130, 101, 1, 62, 187, 147, 93, 61, 200, 166, 26, 62, 202, 247, 26, 62, 244, 222, 202, 61, 204, 40, 186, 188, 135, 63, 133, 189, 46, 111, 72, 189, 95, 197, 233, 57, 156, 254, 115, 61, 19, 207, 241, 61, 135, 7, 205, 61, 166, 194, 255, 61, 202, 239, 94, 60, 205, 74, 141, 189, 221, 165, 118, 61, 14, 238, 22, 190, 0, 69, 50, 188, 185, 77, 20, 62, 136, 82, 190, 61, 93, 65, 93, 61, 170, 124, 173, 188, 188, 125, 1, 62, 64, 179, 227, 189, 105, 165, 78, 61, 163, 137, 218, 189, 210, 89, 200, 187, 200, 37, 197, 189, 61, 155, 72, 188, 238, 48, 174, 188, 50, 9, 211, 189, 145, 89, 3, 61, 20, 74, 173, 60, 15, 132, 154, 61, 107, 14, 190, 61, 163, 4, 15, 189, 87, 230, 166, 189, 40, 129, 82, 189, 222, 115, 22, 190, 162, 7, 50, 61, 66, 59, 255, 61, 28, 65, 201, 61, 96, 184, 150, 61, 100, 214, 187, 61, 84, 84, 208, 60, 121, 21, 6, 189, 224, 244, 205, 61, 13, 174, 200, 189, 196, 209, 34, 62, 228, 171, 159, 189, 16, 173, 3, 62, 86, 81, 43, 190, 17, 12, 171, 189, 13, 204, 151, 188, 244, 131, 250, 60, 144, 148, 181, 187, 215, 40, 158, 61, 253, 205, 152, 189, 160, 174, 29, 62, 32, 104, 168, 189, 219, 11, 128, 61, 194, 253, 227, 189, 228, 54, 173, 61, 40, 76, 105, 60, 0, 61, 203, 189, 78, 141, 112, 189, 119, 87, 13, 62, 146, 8, 17, 62, 26, 36, 219, 61, 22, 170, 1, 62, 46, 201, 75, 61, 39, 4, 24, 60, 189, 106, 236, 188, 229, 116, 120, 189, 233, 44, 3, 62, 154, 159, 26, 189, 147, 132, 165, 188, 4, 88, 32, 62, 135, 216, 16, 62, 31, 57, 211, 189, 15, 173, 208, 58, 161, 241, 172, 61, 139, 231, 247, 61, 0, 94, 65, 61, 159, 150, 255, 59, 181, 78, 167, 61, 168, 17, 169, 189, 231, 65, 145, 189, 7, 147, 55, 189, 231, 243, 3, 190, 69, 35, 209, 61, 205, 111, 134, 189, 225, 12, 168, 186, 206, 108, 206, 189, 130, 255, 231, 189, 187, 189, 23, 189, 228, 48, 204, 189, 184, 76, 189, 61, 211, 114, 253, 61, 211, 196, 6, 61, 191, 4, 88, 187, 167, 24, 181, 61, 58, 175, 217, 59, 55, 236, 5, 190, 50, 226, 202, 61, 203, 152, 165, 189, 177, 79, 59, 188, 185, 211, 131, 61, 10, 40, 216, 61, 53, 130, 13, 62, 178, 197, 226, 188, 250, 7, 154, 189, 242, 4, 212, 189, 253, 25, 41, 59, 130, 40, 123, 61, 2, 40, 136, 189, 222, 171, 100, 61, 81, 147, 196, 61, 219, 220, 251, 61, 133, 50, 153, 61, 26, 4, 10, 62, 197, 126, 225, 61, 21, 14, 199, 61, 74, 13, 32, 62, 230, 6, 23, 62, 50, 86, 50, 60, 194, 176, 2, 190, 70, 190, 179, 60, 192, 5, 154, 61, 248, 187, 2, 190, 140, 166, 221, 60, 47, 74, 252, 188, 21, 121, 221, 188, 205, 24, 203, 189, 203, 228, 148, 188, 174, 195, 175, 189, 99, 156, 203, 189, 100, 237, 10, 62, 171, 77, 140, 61, 130, 138, 234, 60, 138, 227, 165, 189, 206, 64, 0, 62, 218, 37, 187, 185, 218, 25, 150, 189, 212, 227, 223, 61, 180, 59, 184, 188, 42, 131, 22, 190, 31, 12, 187, 189, 77, 154, 175, 61, 164, 144, 13, 189, 23, 178, 93, 190, 205, 63, 75, 190, 216, 252, 149, 187, 200, 149, 102, 61, 68, 120, 74, 61, 103, 227, 162, 61, 143, 96, 184, 61, 18, 81, 147, 61, 244, 99, 24, 62, 93, 235, 163, 60, 119, 137, 137, 189, 179, 111, 69, 189, 17, 66, 223, 61, 221, 2, 130, 189, 62, 68, 96, 188, 159, 149, 142, 189, 32, 191, 174, 60, 38, 70, 150, 61, 207, 204, 248, 189, 29, 8, 151, 61, 81, 216, 27, 186, 116, 167, 127, 188, 29, 239, 230, 189, 184, 93, 8, 62, 232, 167, 6, 190, 110, 240, 166, 61, 139, 243, 160, 188, 136, 111, 247, 61, 164, 135, 2, 190, 224, 152, 131, 60, 49, 240, 114, 189, 47, 216, 15, 61, 143, 81, 103, 189, 152, 147, 156, 59, 170, 0, 161, 189, 130, 94, 233, 61, 132, 15, 201, 61, 198, 232, 194, 61, 92, 131, 7, 61, 142, 156, 25, 188, 53, 224, 122, 61, 240, 136, 1, 61, 162, 231, 0, 61, 255, 140, 10, 62, 142, 75, 202, 189, 26, 47, 182, 189, 192, 254, 212, 61, 52, 43, 34, 62, 78, 1, 130, 61, 70, 144, 99, 189, 253, 116, 15, 190, 250, 78, 132, 61, 2, 116, 230, 188, 142, 126, 181, 189, 162, 219, 53, 187, 39, 26, 246, 61, 144, 42, 55, 189, 219, 30, 92, 189, 196, 160, 126, 187, 19, 55, 164, 61, 57, 251, 6, 190, 144, 112, 37, 189, 87, 65, 2, 190, 139, 107, 127, 61, 6, 62, 232, 61, 142, 201, 161, 189, 192, 108, 35, 61, 229, 62, 222, 189, 127, 198, 139, 61, 209, 34, 123, 189, 172, 185, 74, 60, 150, 32, 4, 190, 129, 186, 168, 61, 213, 146, 183, 189, 106, 153, 207, 188, 194, 220, 57, 189, 43, 27, 162, 188, 231, 171, 230, 61, 242, 246, 14, 62, 22, 36, 186, 189, 122, 150, 234, 58, 234, 70, 19, 62, 36, 248, 28, 62, 175, 58, 61, 60, 54, 22, 113, 61, 96, 226, 61, 58, 170, 190, 213, 189, 20, 18, 161, 59, 218, 167, 23, 190, 223, 149, 133, 61, 101, 140, 32, 62, 116, 73, 131, 189, 227, 236, 44, 62, 202, 121, 26, 62, 220, 51, 244, 60, 15, 131, 131, 188, 35, 218, 219, 188, 40, 29, 85, 189, 161, 76, 172, 189, 0, 0, 6, 0, 8, 0, 4, 0, 6, 0, 0, 0, 4, 0, 0, 0, 128, 0, 0, 0, 23, 119, 53, 60, 143, 95, 36, 60, 165, 1, 194, 60, 46, 141, 255, 60, 83, 216, 220, 60, 108, 91, 180, 60, 69, 65, 123, 60, 251, 41, 235, 59, 26, 162, 1, 60, 241, 168, 225, 58, 9, 135, 80, 185, 36, 174, 28, 61, 132, 199, 108, 60, 53, 38, 231, 60, 248, 115, 95, 186, 212, 47, 1, 61, 106, 79, 228, 59, 238, 179, 156, 186, 12, 23, 204, 60, 69, 203, 136, 60, 35, 58, 212, 60, 143, 226, 223, 60, 201, 84, 220, 60, 62, 99, 176, 60, 71, 37, 6, 187, 134, 82, 178, 186, 143, 81, 242, 59, 205, 248, 146, 60, 68, 207, 122, 60, 32, 122, 171, 186, 190, 0, 178, 60, 25, 157, 208, 60, 180, 253, 255, 255, 184, 253, 255, 255, 15, 0, 0, 0, 77, 76, 73, 82, 32, 67, 111, 110, 118, 101, 114, 116, 101, 100, 46, 0, 1, 0, 0, 0, 20, 0, 0, 0, 0, 0, 14, 0, 24, 0, 20, 0, 16, 0, 12, 0, 8, 0, 4, 0, 14, 0, 0, 0, 20, 0, 0, 0, 28, 0, 0, 0, 124, 0, 0, 0, 128, 0, 0, 0, 132, 0, 0, 0, 4, 0, 0, 0, 109, 97, 105, 110, 0, 0, 0, 0, 1, 0, 0, 0, 20, 0, 0, 0, 0, 0, 14, 0, 20, 0, 0, 0, 16, 0, 12, 0, 11, 0, 4, 0, 14, 0, 0, 0, 28, 0, 0, 0, 0, 0, 0, 1, 40, 0, 0, 0, 44, 0, 0, 0, 12, 0, 20, 0, 19, 0, 12, 0, 8, 0, 7, 0, 12, 0, 0, 0, 0, 0, 0, 1, 1, 0, 0, 0, 1, 0, 0, 0, 0, 0, 0, 1, 1, 0, 0, 0, 3, 0, 0, 0, 3, 0, 0, 0, 0, 0, 0, 0, 2, 0, 0, 0, 1, 0, 0, 0, 1, 0, 0, 0, 3, 0, 0, 0, 1, 0, 0, 0, 0, 0, 0, 0, 4, 0, 0, 0, 76, 1, 0, 0, 220, 0, 0, 0, 112, 0, 0, 0, 4, 0, 0, 0, 218, 254, 255, 255, 0, 0, 0, 1, 20, 0, 0, 0, 36, 0, 0, 0, 36, 0, 0, 0, 4, 0, 0, 0, 60, 0, 0, 0, 4, 0, 0, 0, 255, 255, 255, 255, 8, 0, 0, 0, 8, 0, 0, 0, 32, 0, 0, 0, 196, 254, 255, 255, 25, 0, 0, 0, 83, 116, 97, 116, 101, 102, 117, 108, 80, 97, 114, 116, 105, 116, 105, 111, 110, 101, 100, 67, 97, 108, 108, 58, 48, 0, 0, 0, 4, 0, 0, 0, 1, 0, 0, 0, 8, 0, 0, 0, 8, 0, 0, 0, 32, 0, 0, 0, 174, 255, 255, 255, 0, 0, 0, 1, 16, 0, 0, 0, 16, 0, 0, 0, 3, 0, 0, 0, 40, 0, 0, 0, 20, 255, 255, 255, 27, 0, 0, 0, 115, 101, 113, 117, 101, 110, 116, 105, 97, 108, 95, 53, 47, 108, 97, 121, 101, 114, 95, 48, 47, 67, 111, 110, 118, 50, 68, 0, 4, 0, 0, 0, 32, 0, 0, 0, 3, 0, 0, 0, 3, 0, 0, 0, 3, 0, 0, 0, 0, 0, 22, 0, 24, 0, 20, 0, 0, 0, 16, 0, 12, 0, 8, 0, 0, 0, 0, 0, 0, 0, 7, 0, 22, 0, 0, 0, 0, 0, 0, 1, 16, 0, 0, 0, 16, 0, 0, 0, 2, 0, 0, 0, 56, 0, 0, 0, 124, 255, 255, 255, 43, 0, 0, 0, 115, 101, 113, 117, 101, 110, 116, 105, 97, 108, 95, 53, 47, 108, 97, 121, 101, 114, 95, 48, 47, 66, 105, 97, 115, 65, 100, 100, 47, 82, 101, 97, 100, 86, 97, 114, 105, 97, 98, 108, 101, 79, 112, 0, 1, 0, 0, 0, 32, 0, 0, 0, 0, 0, 22, 0, 28, 0, 24, 0, 0, 0, 20, 0, 16, 0, 12, 0, 0, 0, 0, 0, 8, 0, 7, 0, 22, 0, 0, 0, 0, 0, 0, 1, 20, 0, 0, 0, 40, 0, 0, 0, 40, 0, 0, 0, 1, 0, 0, 0, 68, 0, 0, 0, 4, 0, 0, 0, 255, 255, 255, 255, 10, 0, 0, 0, 10, 0, 0, 0, 3, 0, 0, 0, 4, 0, 4, 0, 4, 0, 0, 0, 31, 0, 0, 0, 115, 101, 114, 118, 105, 110, 103, 95, 100, 101, 102, 97, 117, 108, 116, 95, 108, 97, 121, 101, 114, 95, 48, 95, 105, 110, 112, 117, 116, 58, 48, 0, 4, 0, 0, 0, 1, 0, 0, 0, 10, 0, 0, 0, 10, 0, 0, 0, 3, 0, 0, 0, 1, 0, 0, 0, 16, 0, 0, 0, 12, 0, 12, 0, 11, 0, 0, 0, 0, 0, 4, 0, 12, 0, 0, 0, 3, 0, 0, 0, 0, 0, 0, 3
};
