#pragma once

#include <cstdint>

const uint8_t layer_3[] = {
28, 0, 0, 0, 84, 70, 76, 51, 20, 0, 32, 0, 28, 0, 24, 0, 20, 0, 16, 0, 12, 0, 0, 0, 8, 0, 4, 0, 20, 0, 0, 0, 28, 0, 0, 0, 148, 0, 0, 0, 236, 0, 0, 0, 176, 34, 0, 0, 192, 34, 0, 0, 244, 36, 0, 0, 3, 0, 0, 0, 1, 0, 0, 0, 16, 0, 0, 0, 0, 0, 10, 0, 16, 0, 12, 0, 8, 0, 4, 0, 10, 0, 0, 0, 12, 0, 0, 0, 28, 0, 0, 0, 56, 0, 0, 0, 15, 0, 0, 0, 115, 101, 114, 118, 105, 110, 103, 95, 100, 101, 102, 97, 117, 108, 116, 0, 1, 0, 0, 0, 4, 0, 0, 0, 148, 255, 255, 255, 3, 0, 0, 0, 4, 0, 0, 0, 7, 0, 0, 0, 108, 97, 121, 101, 114, 95, 51, 0, 1, 0, 0, 0, 4, 0, 0, 0, 218, 222, 255, 255, 4, 0, 0, 0, 13, 0, 0, 0, 108, 97, 121, 101, 114, 95, 51, 95, 105, 110, 112, 117, 116, 0, 0, 0, 2, 0, 0, 0, 52, 0, 0, 0, 4, 0, 0, 0, 220, 255, 255, 255, 6, 0, 0, 0, 4, 0, 0, 0, 19, 0, 0, 0, 67, 79, 78, 86, 69, 82, 83, 73, 79, 78, 95, 77, 69, 84, 65, 68, 65, 84, 65, 0, 8, 0, 12, 0, 8, 0, 4, 0, 8, 0, 0, 0, 5, 0, 0, 0, 4, 0, 0, 0, 19, 0, 0, 0, 109, 105, 110, 95, 114, 117, 110, 116, 105, 109, 101, 95, 118, 101, 114, 115, 105, 111, 110, 0, 7, 0, 0, 0, 192, 33, 0, 0, 184, 33, 0, 0, 168, 32, 0, 0, 144, 0, 0, 0, 136, 0, 0, 0, 104, 0, 0, 0, 4, 0, 0, 0, 114, 223, 255, 255, 4, 0, 0, 0, 84, 0, 0, 0, 12, 0, 0, 0, 8, 0, 14, 0, 8, 0, 4, 0, 8, 0, 0, 0, 16, 0, 0, 0, 36, 0, 0, 0, 0, 0, 6, 0, 8, 0, 4, 0, 6, 0, 0, 0, 4, 0, 0, 0, 0, 0, 0, 0, 0, 0, 10, 0, 16, 0, 12, 0, 8, 0, 4, 0, 10, 0, 0, 0, 2, 0, 0, 0, 2, 0, 0, 0, 4, 0, 0, 0, 6, 0, 0, 0, 50, 46, 49, 51, 46, 48, 0, 0, 210, 223, 255, 255, 4, 0, 0, 0, 16, 0, 0, 0, 49, 46, 53, 46, 48, 0, 0, 0, 0, 0, 0, 0, 0, 0, 0, 0, 192, 220, 255, 255, 242, 223, 255, 255, 4, 0, 0, 0, 0, 32, 0, 0, 77, 75, 184, 189, 31, 138, 124, 62, 154, 198, 205, 61, 20, 220, 126, 190, 9, 181, 169, 189, 164, 18, 92, 62, 0, 251, 89, 62, 30, 107, 72, 190, 144, 139, 80, 189, 123, 239, 129, 62, 169, 125, 219, 61, 218, 96, 39, 62, 179, 211, 194, 61, 118, 237, 212, 189, 232, 181, 64, 62, 130, 96, 89, 189, 48, 227, 3, 62, 6, 11, 58, 190, 237, 106, 105, 190, 138, 240, 157, 189, 103, 170, 154, 61, 102, 186, 230, 189, 195, 3, 48, 62, 56, 79, 34, 62, 45, 60, 81, 62, 245, 235, 9, 62, 145, 167, 175, 61, 36, 32, 119, 62, 250, 158, 148, 62, 184, 51, 53, 189, 122, 147, 196, 60, 251, 83, 141, 61, 208, 184, 87, 189, 32, 46, 232, 61, 92, 58, 28, 190, 220, 228, 122, 190, 104, 217, 199, 61, 144, 23, 222, 189, 16, 69, 52, 61, 128, 90, 246, 188, 176, 181, 20, 189, 44, 41, 55, 190, 212, 128, 9, 62, 204, 62, 33, 190, 152, 102, 85, 190, 192, 179, 88, 62, 48, 250, 93, 190, 0, 118, 108, 189, 64, 97, 42, 190, 208, 11, 189, 189, 108, 117, 86, 190, 12, 123, 127, 190, 176, 37, 4, 190, 160, 135, 136, 60, 64, 31, 161, 60, 160, 4, 72, 61, 144, 12, 73, 62, 16, 235, 155, 189, 228, 59, 74, 190, 156, 17, 5, 62, 160, 87, 12, 190, 96, 3, 91, 62, 48, 83, 186, 189, 0, 123, 150, 189, 145, 52, 18, 189, 63, 211, 113, 190, 48, 254, 225, 59, 23, 60, 195, 61, 204, 243, 169, 189, 244, 203, 59, 62, 160, 69, 149, 61, 116, 237, 110, 62, 155, 188, 252, 189, 26, 243, 14, 62, 137, 200, 157, 62, 119, 137, 144, 60, 70, 102, 143, 190, 202, 28, 69, 189, 240, 64, 77, 189, 5, 249, 71, 62, 48, 132, 127, 189, 235, 54, 244, 189, 146, 180, 26, 62, 35, 127, 3, 62, 82, 140, 8, 62, 114, 108, 145, 62, 88, 103, 184, 189, 10, 41, 92, 62, 232, 177, 115, 55, 107, 45, 134, 190, 142, 12, 243, 61, 244, 147, 25, 62, 196, 143, 86, 61, 108, 172, 134, 62, 92, 125, 164, 62, 245, 118, 215, 61, 137, 234, 183, 60, 163, 2, 147, 62, 139, 87, 106, 190, 113, 179, 57, 62, 60, 42, 197, 189, 128, 255, 88, 62, 248, 149, 159, 189, 250, 123, 43, 62, 175, 23, 23, 62, 78, 216, 179, 189, 34, 131, 134, 62, 57, 181, 128, 189, 118, 6, 59, 62, 242, 30, 129, 62, 160, 172, 115, 189, 199, 99, 74, 62, 48, 183, 137, 61, 74, 126, 125, 189, 145, 218, 16, 62, 239, 240, 69, 190, 229, 26, 96, 62, 68, 4, 96, 61, 30, 199, 251, 189, 230, 240, 116, 62, 188, 180, 8, 190, 198, 155, 152, 189, 125, 83, 7, 62, 128, 153, 187, 59, 221, 63, 163, 189, 71, 100, 138, 188, 180, 11, 26, 62, 148, 223, 105, 190, 160, 249, 52, 190, 126, 71, 131, 189, 207, 91, 21, 62, 248, 248, 198, 189, 208, 26, 76, 190, 140, 47, 64, 190, 8, 210, 98, 190, 197, 234, 15, 61, 0, 17, 211, 59, 79, 57, 65, 62, 246, 232, 131, 190, 137, 30, 17, 189, 123, 235, 155, 61, 176, 183, 198, 61, 56, 111, 254, 61, 143, 196, 46, 190, 56, 39, 104, 62, 226, 221, 34, 190, 24, 54, 81, 62, 3, 184, 135, 59, 173, 51, 202, 189, 187, 111, 1, 190, 17, 34, 98, 61, 220, 139, 120, 190, 150, 87, 140, 61, 24, 193, 69, 62, 74, 21, 16, 190, 0, 137, 235, 61, 108, 47, 135, 190, 244, 99, 127, 62, 65, 197, 177, 189, 3, 204, 31, 190, 253, 99, 54, 188, 130, 158, 113, 62, 43, 113, 39, 190, 131, 60, 97, 61, 192, 13, 200, 61, 46, 183, 128, 62, 0, 34, 104, 187, 33, 31, 142, 59, 209, 168, 117, 61, 44, 140, 154, 189, 42, 93, 177, 61, 164, 199, 73, 189, 113, 19, 184, 189, 120, 133, 113, 62, 0, 183, 211, 189, 224, 80, 135, 61, 252, 67, 6, 190, 207, 9, 92, 190, 205, 177, 4, 62, 230, 226, 14, 62, 252, 109, 76, 190, 51, 232, 18, 62, 16, 135, 100, 62, 215, 47, 40, 62, 231, 189, 100, 190, 72, 252, 107, 190, 184, 125, 23, 62, 216, 48, 110, 62, 26, 48, 164, 62, 103, 36, 53, 189, 74, 27, 140, 187, 192, 187, 125, 189, 33, 255, 222, 61, 103, 18, 129, 61, 43, 150, 218, 60, 9, 115, 51, 62, 98, 209, 70, 62, 99, 43, 149, 61, 192, 40, 4, 189, 76, 236, 101, 190, 8, 122, 108, 190, 211, 135, 130, 190, 233, 35, 174, 61, 144, 40, 78, 189, 139, 92, 144, 61, 55, 21, 8, 189, 208, 215, 21, 62, 169, 85, 208, 189, 28, 163, 51, 190, 60, 198, 6, 190, 75, 46, 209, 61, 1, 55, 36, 190, 189, 4, 250, 60, 102, 109, 4, 62, 228, 138, 116, 62, 61, 113, 216, 61, 11, 222, 184, 61, 214, 248, 14, 61, 129, 109, 103, 190, 204, 6, 123, 190, 123, 123, 109, 190, 242, 68, 131, 190, 141, 91, 19, 62, 220, 150, 17, 62, 214, 187, 236, 189, 148, 222, 192, 61, 229, 115, 21, 62, 249, 87, 17, 189, 80, 160, 74, 62, 137, 164, 10, 190, 140, 120, 83, 62, 90, 155, 150, 61, 221, 2, 76, 190, 56, 153, 173, 62, 175, 17, 247, 61, 139, 220, 82, 62, 188, 168, 155, 61, 98, 48, 116, 189, 0, 236, 25, 61, 46, 73, 13, 60, 240, 197, 33, 189, 101, 114, 185, 189, 192, 37, 200, 60, 67, 35, 114, 189, 17, 79, 64, 62, 148, 244, 101, 190, 151, 170, 239, 189, 199, 50, 39, 62, 193, 118, 152, 189, 116, 113, 11, 62, 71, 117, 143, 190, 152, 220, 104, 190, 94, 234, 235, 60, 204, 235, 19, 189, 105, 60, 223, 61, 184, 81, 191, 189, 39, 35, 5, 189, 62, 61, 181, 188, 209, 5, 75, 190, 59, 66, 35, 62, 116, 224, 11, 62, 180, 102, 60, 190, 0, 163, 208, 61, 77, 18, 136, 190, 61, 102, 75, 62, 56, 98, 168, 188, 162, 136, 101, 61, 62, 190, 61, 62, 24, 59, 14, 60, 64, 194, 19, 62, 128, 108, 201, 60, 76, 160, 55, 188, 252, 191, 14, 190, 61, 44, 151, 189, 61, 247, 42, 62, 0, 186, 219, 189, 115, 207, 119, 190, 80, 50, 63, 190, 0, 98, 33, 190, 137, 200, 105, 190, 204, 158, 94, 62, 0, 207, 236, 61, 212, 251, 98, 62, 224, 229, 114, 189, 100, 67, 5, 190, 44, 75, 40, 189, 25, 220, 122, 189, 184, 130, 239, 61, 132, 149, 115, 190, 80, 189, 242, 61, 96, 216, 73, 62, 88, 235, 152, 61, 28, 59, 94, 190, 80, 155, 80, 190, 128, 110, 18, 190, 144, 194, 247, 189, 200, 219, 106, 62, 240, 111, 80, 189, 244, 10, 105, 190, 160, 46, 125, 61, 216, 204, 126, 190, 52, 228, 71, 190, 200, 199, 45, 62, 32, 150, 167, 188, 28, 160, 99, 190, 236, 168, 9, 62, 160, 126, 227, 189, 64, 154, 23, 188, 192, 211, 48, 189, 0, 215, 74, 59, 144, 38, 3, 61, 184, 232, 13, 62, 60, 71, 25, 190, 144, 110, 41, 190, 44, 34, 4, 62, 0, 173, 82, 187, 32, 71, 142, 61, 128, 51, 63, 60, 72, 156, 204, 61, 48, 199, 186, 189, 180, 53, 49, 190, 224, 248, 253, 189, 160, 233, 122, 62, 36, 126, 0, 190, 232, 145, 104, 190, 60, 135, 9, 62, 84, 114, 53, 190, 112, 151, 97, 190, 224, 226, 54, 62, 116, 254, 20, 190, 208, 152, 175, 61, 88, 241, 36, 190, 0, 52, 205, 186, 128, 49, 66, 189, 128, 218, 170, 187, 224, 66, 224, 188, 176, 197, 96, 61, 96, 201, 123, 62, 104, 51, 121, 190, 168, 214, 200, 61, 144, 113, 204, 189, 64, 230, 9, 188, 24, 96, 181, 189, 80, 178, 204, 189, 32, 147, 236, 61, 160, 172, 114, 189, 0, 177, 48, 59, 24, 137, 70, 62, 148, 159, 64, 62, 232, 9, 133, 189, 248, 247, 155, 189, 128, 89, 26, 190, 215, 77, 128, 61, 167, 196, 142, 62, 73, 2, 171, 189, 212, 243, 95, 190, 197, 217, 88, 61, 146, 91, 33, 62, 208, 249, 253, 61, 97, 214, 188, 61, 15, 81, 26, 189, 246, 11, 185, 189, 56, 204, 140, 190, 90, 145, 48, 62, 60, 84, 179, 60, 19, 56, 54, 62, 64, 234, 159, 189, 185, 249, 27, 190, 148, 125, 58, 62, 145, 121, 81, 62, 127, 125, 21, 62, 32, 156, 112, 62, 246, 49, 5, 190, 172, 97, 66, 62, 176, 183, 29, 61, 150, 220, 151, 190, 68, 165, 132, 62, 128, 226, 156, 189, 103, 229, 33, 190, 88, 16, 140, 61, 208, 208, 198, 186, 145, 134, 25, 62, 161, 171, 64, 190, 70, 21, 131, 61, 4, 108, 68, 190, 159, 58, 132, 190, 165, 4, 28, 62, 169, 139, 13, 190, 82, 36, 12, 62, 244, 74, 28, 190, 40, 81, 137, 61, 59, 43, 74, 190, 89, 124, 92, 190, 65, 204, 58, 190, 126, 226, 201, 60, 235, 181, 163, 61, 63, 141, 197, 60, 15, 33, 43, 62, 12, 234, 45, 62, 11, 115, 246, 189, 24, 169, 44, 62, 157, 169, 16, 60, 225, 14, 236, 61, 128, 208, 75, 62, 250, 211, 169, 61, 205, 184, 204, 189, 192, 106, 75, 190, 79, 0, 75, 188, 193, 140, 167, 189, 176, 233, 100, 61, 7, 69, 100, 61, 232, 158, 142, 61, 169, 126, 152, 189, 223, 241, 53, 62, 168, 158, 62, 62, 8, 166, 5, 62, 47, 100, 88, 60, 56, 53, 59, 62, 59, 161, 173, 61, 146, 169, 41, 190, 59, 175, 149, 62, 128, 39, 34, 190, 196, 101, 4, 190, 189, 73, 133, 61, 146, 14, 141, 189, 48, 85, 105, 62, 26, 141, 150, 190, 26, 213, 65, 61, 125, 236, 251, 61, 63, 186, 40, 187, 104, 129, 185, 61, 109, 233, 224, 61, 232, 163, 233, 189, 144, 78, 104, 61, 224, 13, 167, 61, 6, 144, 105, 62, 138, 76, 213, 189, 191, 173, 26, 62, 66, 188, 80, 62, 75, 86, 109, 189, 141, 103, 122, 62, 246, 225, 94, 189, 223, 206, 87, 190, 144, 68, 167, 61, 56, 49, 2, 62, 253, 83, 209, 61, 193, 137, 66, 190, 215, 120, 107, 62, 146, 83, 254, 188, 35, 130, 96, 62, 56, 244, 185, 59, 160, 157, 162, 62, 70, 45, 58, 190, 225, 129, 51, 190, 180, 113, 17, 190, 106, 66, 58, 62, 124, 197, 61, 62, 14, 154, 49, 189, 193, 37, 130, 62, 24, 5, 85, 62, 198, 35, 18, 61, 86, 198, 189, 61, 224, 129, 21, 190, 228, 248, 44, 62, 4, 148, 52, 62, 216, 37, 78, 190, 11, 105, 207, 61, 68, 85, 55, 190, 96, 149, 226, 61, 224, 71, 116, 62, 102, 154, 128, 190, 162, 224, 145, 62, 79, 5, 30, 190, 213, 82, 34, 62, 78, 244, 66, 61, 48, 138, 102, 190, 217, 191, 45, 190, 69, 11, 134, 61, 111, 23, 84, 62, 233, 216, 2, 62, 204, 154, 68, 62, 224, 176, 88, 190, 100, 16, 46, 62, 20, 197, 17, 190, 56, 120, 159, 61, 128, 77, 68, 60, 88, 63, 140, 189, 192, 213, 26, 62, 232, 174, 182, 61, 152, 111, 172, 189, 252, 60, 109, 62, 0, 45, 20, 190, 132, 0, 73, 190, 168, 251, 8, 62, 148, 136, 100, 62, 176, 232, 55, 61, 200, 69, 81, 62, 72, 110, 94, 190, 184, 132, 58, 62, 208, 29, 126, 189, 216, 202, 230, 189, 48, 74, 255, 189, 236, 176, 33, 62, 32, 248, 51, 189, 228, 140, 44, 62, 104, 240, 181, 189, 144, 168, 247, 189, 80, 82, 157, 189, 128, 3, 189, 187, 8, 49, 208, 189, 12, 123, 109, 190, 16, 146, 124, 190, 223, 150, 223, 189, 162, 165, 139, 62, 213, 116, 236, 189, 155, 129, 139, 62, 95, 197, 126, 190, 216, 100, 96, 190, 128, 234, 39, 62, 144, 240, 1, 62, 59, 24, 248, 189, 105, 41, 125, 190, 77, 174, 186, 60, 34, 97, 205, 61, 128, 163, 74, 190, 198, 208, 215, 60, 124, 111, 76, 190, 177, 8, 28, 62, 224, 226, 217, 189, 100, 64, 8, 62, 123, 12, 54, 62, 164, 224, 64, 62, 66, 55, 137, 61, 23, 111, 145, 62, 73, 191, 5, 190, 81, 89, 152, 62, 7, 210, 215, 189, 185, 13, 131, 189, 25, 245, 177, 60, 224, 38, 204, 61, 41, 152, 98, 62, 141, 98, 224, 189, 185, 53, 223, 60, 88, 29, 223, 189, 254, 81, 35, 190, 228, 45, 161, 62, 47, 145, 0, 190, 115, 70, 133, 59, 123, 222, 71, 62, 199, 158, 240, 61, 244, 182, 114, 62, 110, 159, 108, 62, 196, 98, 112, 189, 11, 165, 63, 62, 236, 225, 2, 189, 203, 190, 160, 62, 67, 141, 210, 61, 248, 50, 21, 188, 48, 133, 208, 61, 186, 236, 19, 190, 0, 24, 59, 188, 134, 76, 215, 61, 149, 146, 135, 190, 183, 7, 172, 188, 252, 241, 22, 186, 119, 219, 189, 189, 196, 29, 99, 62, 239, 112, 23, 62, 169, 86, 157, 189, 31, 252, 116, 62, 90, 14, 226, 189, 48, 107, 69, 61, 139, 154, 73, 62, 12, 123, 83, 190, 5, 136, 130, 190, 81, 62, 55, 190, 178, 4, 250, 61, 190, 189, 190, 189, 69, 138, 44, 189, 18, 224, 45, 62, 41, 140, 232, 61, 150, 69, 87, 189, 168, 157, 176, 61, 101, 53, 242, 60, 32, 224, 107, 190, 185, 215, 209, 189, 175, 227, 199, 61, 229, 246, 8, 190, 192, 161, 236, 189, 240, 9, 78, 62, 196, 69, 53, 62, 75, 45, 114, 62, 224, 211, 183, 189, 230, 207, 150, 61, 187, 13, 19, 190, 135, 187, 56, 190, 230, 135, 144, 190, 16, 57, 121, 62, 16, 212, 234, 61, 176, 56, 177, 62, 250, 186, 60, 62, 206, 242, 201, 61, 229, 129, 23, 62, 24, 173, 166, 189, 108, 68, 95, 62, 0, 255, 212, 61, 237, 211, 29, 61, 183, 106, 40, 61, 18, 127, 127, 61, 210, 39, 9, 190, 192, 221, 163, 60, 88, 56, 81, 190, 128, 91, 31, 189, 16, 100, 146, 189, 176, 224, 90, 62, 5, 72, 16, 62, 64, 190, 48, 61, 192, 144, 42, 62, 82, 172, 11, 62, 246, 252, 66, 61, 39, 178, 87, 190, 126, 138, 131, 190, 112, 129, 28, 62, 56, 123, 186, 189, 40, 11, 92, 190, 64, 148, 31, 190, 63, 157, 61, 62, 216, 101, 95, 190, 63, 116, 128, 189, 35, 55, 19, 62, 192, 122, 2, 61, 34, 79, 217, 188, 24, 131, 231, 189, 0, 96, 238, 187, 28, 196, 216, 61, 128, 24, 245, 187, 173, 149, 120, 61, 237, 62, 210, 61, 243, 61, 32, 190, 64, 227, 7, 62, 64, 96, 214, 61, 180, 206, 14, 62, 96, 47, 58, 190, 250, 210, 183, 188, 136, 124, 108, 62, 168, 66, 251, 189, 192, 195, 93, 60, 107, 53, 170, 60, 128, 37, 255, 188, 242, 30, 83, 190, 88, 15, 108, 60, 238, 136, 57, 190, 66, 54, 162, 189, 156, 88, 45, 190, 40, 27, 1, 190, 246, 255, 137, 61, 140, 69, 62, 190, 74, 144, 242, 189, 107, 115, 127, 190, 63, 6, 170, 61, 213, 136, 93, 60, 199, 91, 87, 62, 243, 7, 76, 62, 176, 13, 62, 61, 75, 194, 195, 60, 183, 6, 40, 62, 243, 53, 102, 61, 168, 45, 55, 62, 140, 120, 250, 189, 72, 87, 107, 190, 92, 70, 179, 61, 140, 35, 1, 62, 148, 154, 93, 190, 163, 195, 152, 62, 91, 120, 247, 189, 129, 71, 14, 190, 116, 216, 166, 62, 197, 184, 40, 62, 0, 125, 130, 60, 202, 175, 44, 62, 132, 147, 182, 189, 49, 83, 206, 60, 142, 228, 140, 61, 237, 56, 184, 61, 103, 224, 63, 62, 101, 209, 129, 189, 128, 57, 140, 60, 8, 19, 19, 187, 228, 127, 66, 62, 113, 174, 104, 61, 139, 120, 80, 189, 12, 153, 106, 62, 113, 89, 153, 62, 136, 52, 220, 189, 77, 245, 183, 187, 192, 109, 140, 60, 0, 78, 255, 187, 223, 79, 109, 62, 75, 70, 168, 189, 196, 59, 28, 62, 105, 231, 125, 62, 95, 173, 9, 190, 63, 104, 48, 190, 190, 45, 123, 188, 135, 120, 254, 61, 16, 158, 218, 61, 50, 53, 236, 188, 30, 133, 133, 190, 33, 125, 17, 61, 8, 110, 15, 62, 32, 103, 93, 190, 18, 217, 53, 62, 4, 249, 215, 188, 17, 63, 135, 62, 152, 127, 150, 190, 152, 102, 205, 61, 203, 85, 158, 187, 191, 182, 125, 190, 184, 2, 195, 61, 162, 200, 43, 62, 80, 200, 111, 189, 245, 198, 55, 190, 32, 177, 69, 190, 66, 175, 168, 188, 150, 27, 82, 62, 35, 109, 121, 61, 184, 137, 53, 61, 129, 39, 157, 189, 24, 185, 34, 62, 16, 2, 222, 61, 250, 52, 172, 60, 172, 201, 8, 62, 228, 20, 104, 61, 61, 61, 250, 61, 104, 69, 83, 62, 174, 80, 130, 62, 55, 213, 40, 190, 249, 129, 11, 62, 253, 11, 157, 60, 68, 127, 36, 189, 240, 182, 211, 188, 28, 75, 113, 62, 16, 153, 17, 189, 14, 22, 91, 62, 197, 10, 10, 190, 81, 151, 26, 61, 1, 154, 51, 190, 141, 155, 34, 190, 130, 255, 153, 189, 134, 168, 96, 190, 144, 92, 198, 189, 14, 74, 121, 60, 112, 47, 223, 189, 109, 159, 192, 61, 166, 90, 140, 61, 61, 8, 17, 62, 139, 72, 198, 61, 14, 151, 187, 61, 188, 125, 10, 190, 88, 215, 117, 62, 95, 143, 12, 62, 215, 169, 54, 190, 68, 253, 231, 61, 96, 148, 71, 190, 142, 44, 128, 190, 202, 182, 60, 190, 13, 166, 124, 62, 117, 252, 6, 188, 11, 25, 14, 190, 132, 174, 11, 190, 250, 123, 167, 61, 146, 183, 167, 62, 52, 174, 159, 189, 112, 13, 71, 62, 56, 151, 2, 62, 34, 206, 164, 189, 145, 27, 24, 190, 210, 128, 54, 61, 183, 249, 0, 62, 52, 101, 130, 60, 246, 61, 251, 189, 212, 91, 214, 61, 156, 169, 100, 190, 71, 9, 134, 62, 0, 219, 53, 189, 45, 210, 69, 62, 36, 198, 32, 62, 211, 31, 175, 61, 95, 199, 210, 189, 251, 129, 53, 62, 244, 60, 77, 62, 103, 27, 19, 62, 22, 127, 86, 190, 133, 128, 131, 190, 79, 40, 153, 62, 160, 246, 173, 188, 7, 3, 158, 61, 68, 197, 4, 62, 4, 46, 46, 62, 203, 57, 2, 190, 128, 189, 93, 189, 208, 147, 247, 189, 216, 20, 209, 61, 64, 72, 16, 188, 196, 13, 80, 62, 104, 146, 215, 61, 40, 139, 23, 62, 244, 58, 3, 190, 16, 2, 124, 61, 80, 18, 242, 189, 232, 80, 236, 189, 16, 44, 22, 189, 64, 65, 221, 60, 248, 47, 104, 190, 160, 148, 255, 188, 112, 36, 216, 61, 20, 16, 77, 62, 0, 217, 155, 189, 80, 81, 98, 190, 168, 144, 26, 62, 216, 70, 146, 61, 112, 76, 253, 61, 192, 174, 15, 60, 28, 13, 1, 62, 0, 161, 193, 61, 148, 50, 20, 190, 240, 245, 77, 62, 112, 234, 141, 189, 248, 66, 89, 190, 120, 242, 36, 62, 192, 108, 134, 60, 0, 222, 62, 187, 128, 77, 23, 190, 43, 1, 44, 190, 204, 76, 96, 188, 40, 107, 15, 190, 14, 165, 115, 61, 216, 203, 202, 189, 128, 120, 149, 189, 245, 251, 16, 190, 112, 218, 93, 62, 106, 249, 122, 189, 192, 237, 95, 61, 253, 124, 203, 189, 164, 115, 2, 61, 20, 122, 50, 190, 184, 16, 243, 61, 10, 5, 66, 62, 208, 154, 213, 61, 67, 33, 7, 61, 201, 55, 126, 190, 140, 228, 17, 62, 124, 54, 119, 61, 46, 31, 152, 189, 55, 27, 210, 60, 192, 117, 245, 61, 77, 255, 229, 188, 215, 199, 32, 190, 48, 188, 131, 61, 32, 122, 186, 189, 120, 171, 124, 61, 168, 57, 160, 61, 124, 98, 105, 190, 48, 37, 17, 190, 192, 13, 6, 190, 143, 79, 156, 189, 4, 209, 164, 62, 16, 96, 61, 190, 204, 87, 63, 62, 33, 189, 75, 62, 108, 229, 79, 190, 118, 124, 152, 62, 54, 36, 18, 62, 149, 6, 101, 62, 71, 103, 41, 190, 102, 97, 28, 188, 9, 158, 67, 62, 233, 206, 31, 62, 24, 51, 182, 189, 69, 67, 101, 61, 32, 222, 245, 61, 155, 63, 7, 62, 31, 17, 86, 190, 20, 19, 249, 61, 1, 21, 62, 62, 182, 11, 145, 61, 214, 73, 12, 62, 116, 123, 80, 190, 9, 159, 2, 61, 228, 45, 172, 62, 241, 51, 84, 190, 104, 104, 196, 189, 137, 76, 146, 62, 232, 231, 137, 60, 229, 243, 14, 189, 42, 17, 20, 189, 117, 89, 51, 61, 98, 78, 155, 188, 21, 198, 84, 62, 76, 162, 138, 60, 84, 86, 170, 62, 28, 177, 70, 61, 28, 148, 53, 190, 107, 11, 134, 62, 90, 222, 83, 62, 119, 65, 32, 62, 83, 21, 151, 189, 84, 16, 133, 189, 57, 97, 113, 59, 121, 124, 32, 62, 32, 70, 232, 60, 31, 246, 103, 62, 160, 199, 125, 62, 107, 200, 85, 190, 160, 141, 48, 190, 103, 247, 32, 62, 149, 121, 26, 62, 77, 167, 200, 189, 188, 171, 32, 62, 253, 87, 247, 189, 20, 94, 11, 62, 236, 116, 81, 189, 197, 143, 102, 190, 192, 184, 141, 189, 53, 45, 184, 61, 228, 94, 140, 190, 221, 96, 195, 61, 82, 191, 236, 188, 149, 14, 23, 61, 110, 124, 62, 62, 187, 126, 222, 189, 70, 78, 127, 62, 22, 175, 28, 190, 198, 163, 41, 190, 80, 160, 234, 61, 236, 26, 102, 62, 123, 32, 0, 190, 207, 29, 115, 190, 146, 13, 125, 62, 31, 253, 83, 190, 37, 237, 135, 60, 89, 195, 135, 62, 184, 25, 120, 190, 111, 138, 142, 62, 80, 78, 100, 189, 4, 122, 224, 189, 58, 138, 168, 62, 188, 168, 228, 187, 159, 41, 212, 188, 148, 61, 53, 62, 227, 161, 36, 62, 57, 206, 35, 62, 65, 86, 25, 62, 21, 111, 133, 190, 237, 42, 55, 62, 104, 86, 63, 62, 21, 119, 251, 60, 204, 241, 134, 62, 91, 68, 10, 62, 198, 67, 63, 62, 197, 183, 136, 187, 162, 26, 32, 189, 197, 61, 22, 190, 176, 61, 24, 190, 160, 167, 131, 60, 208, 27, 21, 61, 188, 12, 12, 62, 161, 61, 40, 62, 144, 224, 70, 62, 37, 37, 133, 190, 2, 52, 120, 190, 113, 122, 250, 61, 247, 30, 78, 190, 2, 131, 77, 190, 176, 189, 99, 61, 10, 242, 87, 62, 236, 65, 107, 62, 160, 182, 107, 60, 186, 183, 95, 190, 128, 3, 199, 188, 235, 113, 228, 189, 223, 102, 67, 189, 144, 148, 138, 61, 56, 69, 240, 59, 32, 105, 171, 189, 20, 143, 94, 62, 8, 159, 221, 61, 72, 166, 227, 61, 30, 96, 226, 186, 201, 254, 83, 62, 245, 191, 87, 62, 240, 177, 113, 189, 209, 89, 31, 61, 241, 33, 59, 190, 19, 135, 97, 62, 137, 41, 44, 190, 225, 210, 234, 189, 127, 87, 7, 189, 192, 175, 39, 61, 40, 228, 21, 185, 28, 228, 98, 62, 222, 175, 43, 190, 41, 182, 0, 189, 38, 192, 160, 62, 239, 13, 22, 62, 160, 147, 191, 188, 0, 146, 26, 188, 142, 57, 27, 61, 68, 134, 27, 62, 28, 34, 211, 187, 171, 6, 193, 61, 2, 134, 149, 62, 58, 63, 78, 62, 113, 117, 224, 189, 239, 142, 114, 62, 154, 150, 41, 190, 34, 194, 206, 189, 121, 94, 88, 62, 169, 106, 123, 190, 40, 89, 230, 61, 169, 32, 26, 60, 79, 130, 87, 62, 84, 221, 224, 61, 133, 36, 84, 189, 174, 118, 181, 62, 112, 182, 148, 60, 37, 117, 107, 190, 45, 151, 107, 62, 132, 223, 10, 190, 57, 83, 173, 62, 0, 151, 163, 189, 166, 170, 136, 61, 183, 254, 21, 61, 233, 35, 41, 190, 133, 142, 19, 62, 72, 20, 158, 189, 230, 180, 242, 189, 138, 122, 239, 61, 176, 230, 84, 189, 24, 157, 142, 62, 72, 254, 78, 190, 119, 67, 20, 190, 111, 224, 192, 62, 180, 38, 30, 189, 243, 248, 5, 62, 139, 189, 181, 62, 22, 30, 37, 62, 64, 101, 222, 61, 188, 153, 167, 189, 250, 76, 182, 189, 92, 34, 149, 188, 116, 89, 105, 190, 142, 237, 142, 62, 112, 203, 103, 62, 205, 75, 252, 59, 143, 217, 109, 190, 220, 96, 61, 190, 93, 192, 192, 189, 132, 130, 3, 190, 158, 35, 129, 190, 64, 40, 215, 61, 224, 175, 46, 190, 16, 158, 98, 61, 119, 101, 82, 61, 248, 82, 213, 61, 17, 81, 22, 190, 37, 159, 126, 190, 195, 1, 241, 61, 235, 200, 60, 62, 104, 118, 113, 62, 224, 87, 182, 60, 77, 84, 200, 61, 200, 64, 246, 189, 247, 179, 188, 189, 78, 114, 160, 189, 221, 26, 210, 61, 175, 251, 114, 190, 39, 192, 33, 190, 144, 45, 8, 62, 104, 53, 72, 62, 227, 183, 153, 189, 200, 192, 61, 189, 34, 92, 102, 190, 192, 49, 195, 188, 170, 51, 139, 190, 244, 65, 73, 190, 129, 246, 131, 190, 185, 192, 90, 190, 58, 18, 134, 61, 224, 151, 16, 62, 8, 89, 173, 188, 91, 107, 159, 62, 220, 50, 132, 190, 41, 241, 31, 62, 76, 135, 105, 190, 114, 55, 204, 61, 142, 121, 24, 61, 52, 43, 37, 190, 190, 65, 47, 62, 9, 92, 106, 62, 89, 242, 34, 190, 207, 94, 109, 62, 184, 236, 91, 62, 196, 115, 137, 62, 192, 62, 125, 190, 96, 133, 86, 62, 192, 5, 183, 188, 7, 249, 82, 190, 104, 62, 73, 190, 3, 190, 50, 189, 124, 37, 15, 189, 6, 242, 169, 60, 138, 104, 242, 189, 97, 188, 114, 189, 45, 195, 160, 62, 44, 99, 15, 62, 138, 210, 36, 62, 232, 12, 21, 190, 228, 125, 76, 62, 88, 147, 103, 62, 189, 210, 242, 61, 187, 66, 46, 61, 15, 182, 174, 61, 216, 115, 109, 189, 194, 228, 217, 61, 39, 226, 134, 190, 132, 46, 34, 62, 90, 169, 75, 62, 208, 13, 134, 190, 122, 57, 77, 190, 190, 108, 120, 59, 217, 197, 101, 190, 12, 29, 193, 189, 9, 3, 244, 185, 152, 246, 240, 189, 31, 132, 154, 61, 232, 218, 77, 62, 243, 14, 24, 190, 97, 90, 150, 189, 196, 154, 140, 62, 226, 243, 244, 61, 73, 214, 49, 62, 59, 179, 157, 60, 170, 6, 134, 190, 109, 248, 89, 62, 58, 3, 177, 189, 91, 222, 80, 62, 200, 4, 26, 190, 20, 227, 131, 190, 36, 176, 1, 62, 235, 34, 67, 61, 234, 250, 126, 62, 226, 3, 85, 190, 14, 94, 95, 62, 56, 200, 71, 62, 210, 32, 121, 190, 34, 59, 207, 61, 1, 125, 194, 188, 132, 132, 108, 190, 25, 54, 99, 62, 144, 48, 208, 189, 180, 158, 75, 61, 16, 138, 81, 189, 163, 122, 171, 62, 130, 180, 188, 60, 101, 139, 22, 190, 120, 66, 56, 62, 111, 147, 42, 61, 4, 107, 11, 62, 209, 0, 86, 61, 161, 60, 241, 189, 127, 164, 233, 61, 79, 230, 146, 62, 188, 255, 1, 62, 182, 141, 152, 62, 44, 181, 116, 190, 219, 15, 80, 62, 20, 234, 13, 62, 236, 159, 50, 62, 112, 153, 5, 61, 117, 80, 32, 62, 75, 9, 43, 190, 187, 69, 34, 190, 112, 23, 83, 62, 198, 187, 46, 190, 237, 115, 46, 188, 233, 169, 76, 62, 254, 183, 60, 190, 107, 248, 67, 62, 210, 33, 46, 62, 196, 83, 42, 62, 72, 19, 9, 62, 192, 103, 138, 61, 205, 20, 243, 189, 140, 68, 241, 61, 148, 202, 238, 189, 161, 128, 0, 60, 61, 159, 129, 190, 196, 80, 119, 62, 9, 51, 11, 62, 32, 139, 58, 62, 190, 65, 10, 60, 149, 207, 162, 61, 165, 166, 105, 62, 157, 59, 22, 188, 49, 228, 41, 61, 175, 222, 119, 62, 134, 146, 103, 61, 163, 250, 8, 62, 9, 59, 116, 62, 29, 92, 158, 61, 192, 60, 9, 61, 167, 182, 240, 61, 17, 193, 249, 61, 211, 106, 74, 190, 34, 77, 225, 189, 114, 56, 238, 189, 114, 233, 121, 62, 164, 24, 170, 62, 193, 180, 220, 60, 106, 64, 6, 62, 90, 118, 151, 189, 16, 255, 176, 189, 172, 127, 140, 62, 211, 216, 101, 62, 77, 190, 102, 62, 193, 26, 99, 190, 81, 38, 206, 187, 202, 80, 91, 62, 74, 197, 120, 190, 28, 190, 53, 62, 14, 213, 57, 189, 28, 66, 104, 62, 90, 201, 12, 62, 95, 48, 112, 61, 67, 32, 4, 61, 80, 24, 244, 189, 135, 45, 188, 60, 209, 87, 75, 62, 26, 217, 218, 61, 195, 3, 155, 62, 77, 240, 51, 61, 162, 213, 67, 62, 72, 158, 11, 62, 75, 254, 223, 61, 125, 141, 149, 190, 27, 162, 39, 189, 53, 111, 100, 190, 106, 241, 135, 62, 24, 121, 53, 62, 70, 57, 106, 189, 20, 23, 179, 189, 248, 165, 196, 61, 88, 95, 68, 190, 0, 20, 8, 61, 67, 22, 28, 59, 165, 92, 6, 61, 205, 237, 62, 62, 68, 60, 112, 62, 152, 93, 156, 60, 210, 33, 185, 189, 20, 202, 138, 62, 96, 9, 172, 61, 47, 101, 179, 61, 180, 208, 47, 190, 139, 100, 40, 62, 255, 122, 21, 62, 209, 133, 148, 60, 142, 116, 4, 190, 254, 115, 74, 189, 74, 146, 185, 188, 3, 172, 84, 189, 16, 170, 109, 61, 102, 245, 182, 60, 76, 193, 12, 190, 152, 160, 5, 190, 149, 20, 31, 62, 150, 180, 133, 188, 235, 125, 165, 189, 243, 70, 67, 190, 124, 19, 11, 190, 208, 55, 18, 190, 204, 184, 50, 190, 216, 110, 70, 190, 208, 29, 138, 61, 104, 180, 211, 189, 64, 233, 121, 189, 0, 228, 166, 189, 0, 149, 67, 60, 0, 198, 60, 187, 128, 234, 101, 188, 132, 0, 97, 190, 232, 119, 234, 189, 172, 131, 39, 190, 20, 35, 76, 190, 32, 84, 35, 190, 88, 249, 91, 190, 40, 152, 242, 189, 108, 187, 117, 190, 236, 159, 113, 62, 192, 97, 207, 60, 232, 17, 34, 62, 80, 64, 107, 189, 152, 67, 204, 61, 32, 100, 38, 189, 232, 115, 102, 190, 24, 176, 208, 61, 232, 196, 239, 189, 192, 236, 128, 60, 232, 213, 181, 189, 252, 233, 25, 62, 64, 114, 101, 61, 175, 127, 134, 190, 115, 85, 134, 62, 31, 99, 133, 60, 162, 214, 225, 189, 145, 117, 35, 62, 78, 230, 15, 62, 0, 50, 227, 189, 203, 252, 3, 62, 33, 181, 109, 190, 164, 232, 134, 61, 156, 82, 26, 190, 60, 138, 134, 62, 119, 131, 149, 62, 150, 43, 104, 190, 32, 7, 47, 61, 175, 106, 96, 62, 160, 151, 60, 189, 245, 20, 79, 62, 224, 169, 251, 60, 183, 246, 135, 62, 118, 24, 129, 62, 112, 52, 143, 60, 70, 113, 125, 62, 53, 217, 118, 190, 203, 76, 77, 189, 195, 232, 6, 189, 119, 219, 179, 189, 48, 122, 192, 61, 157, 187, 93, 189, 222, 131, 39, 62, 236, 98, 178, 189, 114, 134, 52, 62, 156, 106, 100, 62, 89, 205, 84, 190, 84, 84, 65, 190, 77, 141, 70, 62, 84, 22, 24, 190, 31, 5, 52, 62, 36, 134, 71, 62, 247, 254, 211, 189, 172, 235, 51, 62, 160, 182, 227, 188, 217, 76, 105, 190, 250, 6, 89, 61, 6, 234, 34, 62, 252, 102, 169, 187, 232, 121, 233, 189, 237, 205, 76, 190, 76, 6, 65, 190, 96, 109, 199, 189, 116, 68, 119, 61, 0, 228, 157, 186, 40, 177, 121, 190, 182, 91, 201, 189, 240, 246, 161, 189, 197, 85, 82, 190, 184, 181, 185, 189, 208, 154, 61, 62, 155, 91, 104, 186, 168, 32, 33, 62, 229, 93, 199, 61, 186, 1, 61, 62, 142, 116, 157, 60, 144, 141, 60, 62, 66, 120, 102, 62, 212, 152, 6, 62, 247, 205, 237, 60, 23, 19, 140, 189, 184, 123, 159, 61, 235, 28, 119, 189, 96, 171, 8, 62, 47, 36, 50, 62, 181, 207, 117, 189, 141, 46, 76, 190, 110, 214, 116, 59, 169, 223, 225, 61, 86, 244, 194, 189, 92, 85, 74, 62, 192, 240, 214, 188, 63, 32, 196, 59, 248, 59, 232, 61, 225, 192, 35, 190, 61, 67, 220, 61, 38, 82, 156, 190, 100, 145, 70, 61, 156, 63, 85, 189, 166, 76, 191, 61, 230, 234, 131, 62, 30, 175, 62, 62, 197, 253, 83, 189, 252, 248, 160, 62, 8, 111, 124, 62, 122, 254, 22, 62, 162, 46, 117, 62, 216, 61, 98, 62, 65, 201, 79, 62, 36, 72, 75, 190, 136, 78, 211, 189, 224, 29, 49, 190, 0, 125, 125, 61, 144, 126, 9, 190, 236, 72, 27, 62, 68, 42, 51, 190, 128, 159, 144, 60, 200, 211, 186, 189, 0, 205, 95, 188, 112, 138, 2, 189, 188, 126, 41, 62, 200, 94, 63, 62, 164, 53, 117, 190, 152, 165, 155, 189, 208, 174, 62, 61, 8, 170, 171, 189, 176, 224, 207, 61, 4, 21, 43, 62, 180, 86, 96, 62, 208, 42, 3, 190, 112, 71, 136, 189, 12, 5, 5, 190, 184, 87, 100, 62, 168, 167, 16, 190, 136, 99, 54, 190, 244, 159, 16, 62, 148, 147, 62, 190, 160, 216, 45, 189, 92, 122, 101, 190, 72, 216, 30, 190, 132, 48, 112, 190, 192, 16, 107, 190, 113, 226, 197, 61, 91, 235, 32, 190, 28, 60, 64, 62, 108, 238, 131, 190, 248, 206, 134, 61, 128, 15, 90, 60, 213, 112, 138, 188, 44, 250, 127, 190, 208, 237, 102, 62, 243, 137, 232, 61, 224, 222, 239, 61, 5, 61, 213, 189, 240, 123, 19, 190, 48, 10, 174, 189, 204, 248, 40, 190, 248, 238, 122, 62, 93, 232, 214, 61, 6, 50, 87, 190, 82, 179, 120, 189, 26, 181, 0, 190, 133, 247, 11, 190, 60, 219, 83, 60, 40, 44, 66, 190, 110, 109, 205, 61, 157, 28, 137, 61, 57, 246, 3, 190, 192, 184, 87, 188, 117, 152, 172, 189, 56, 25, 98, 62, 209, 168, 204, 61, 20, 41, 30, 62, 192, 102, 160, 188, 13, 86, 68, 189, 19, 12, 145, 189, 104, 14, 68, 190, 72, 202, 99, 62, 48, 0, 9, 190, 192, 117, 88, 62, 36, 186, 133, 61, 196, 135, 56, 190, 78, 59, 246, 188, 4, 40, 93, 190, 95, 139, 197, 61, 251, 160, 252, 60, 48, 71, 30, 190, 88, 171, 254, 61, 43, 195, 151, 62, 152, 126, 225, 61, 163, 160, 54, 190, 64, 158, 223, 189, 210, 115, 118, 62, 253, 188, 157, 188, 116, 23, 29, 190, 8, 221, 114, 189, 60, 252, 3, 62, 56, 46, 132, 62, 42, 240, 170, 62, 40, 204, 27, 190, 32, 2, 181, 61, 35, 247, 163, 62, 76, 153, 51, 190, 208, 218, 29, 61, 240, 253, 244, 189, 159, 234, 125, 62, 52, 30, 233, 189, 213, 155, 209, 61, 211, 179, 64, 62, 32, 229, 17, 190, 196, 175, 47, 190, 96, 127, 186, 61, 56, 116, 203, 189, 72, 228, 26, 189, 240, 91, 62, 62, 90, 251, 49, 62, 37, 233, 78, 189, 208, 155, 8, 60, 184, 122, 129, 62, 32, 52, 62, 61, 50, 253, 162, 62, 136, 2, 233, 61, 29, 175, 67, 62, 117, 136, 146, 189, 231, 238, 119, 190, 246, 91, 216, 61, 108, 95, 69, 62, 202, 97, 170, 60, 21, 96, 152, 61, 36, 23, 131, 190, 202, 249, 128, 190, 87, 32, 218, 189, 140, 191, 109, 190, 75, 174, 54, 62, 79, 51, 215, 61, 73, 22, 137, 189, 0, 193, 213, 61, 48, 243, 117, 62, 116, 194, 4, 62, 160, 7, 86, 190, 8, 224, 215, 189, 144, 164, 219, 189, 116, 118, 92, 62, 48, 104, 35, 190, 152, 129, 217, 189, 24, 54, 11, 190, 112, 246, 68, 61, 208, 124, 15, 190, 64, 26, 56, 188, 160, 33, 148, 60, 12, 178, 13, 190, 16, 196, 237, 61, 0, 12, 203, 60, 120, 140, 248, 61, 64, 111, 21, 189, 176, 129, 33, 189, 120, 177, 205, 189, 204, 245, 90, 62, 52, 2, 117, 190, 60, 203, 123, 190, 84, 237, 32, 62, 100, 43, 22, 62, 240, 68, 58, 62, 56, 133, 239, 189, 212, 139, 61, 62, 192, 112, 130, 61, 208, 214, 249, 189, 156, 76, 95, 190, 92, 241, 77, 62, 187, 159, 139, 188, 188, 251, 52, 190, 97, 140, 250, 189, 24, 195, 84, 62, 115, 255, 109, 62, 60, 209, 6, 61, 52, 56, 98, 190, 128, 194, 142, 61, 91, 72, 52, 61, 29, 77, 140, 189, 179, 52, 3, 62, 180, 45, 170, 189, 225, 180, 24, 190, 222, 58, 8, 62, 176, 75, 67, 189, 216, 120, 127, 190, 144, 188, 218, 189, 247, 185, 129, 189, 73, 141, 152, 61, 101, 4, 114, 190, 214, 60, 156, 61, 219, 65, 60, 189, 28, 122, 23, 62, 162, 85, 88, 62, 177, 100, 84, 190, 25, 251, 140, 189, 150, 111, 96, 190, 196, 65, 66, 190, 208, 167, 248, 61, 248, 74, 107, 190, 29, 61, 68, 189, 72, 146, 211, 189, 255, 99, 40, 190, 14, 121, 157, 62, 188, 27, 178, 61, 49, 76, 223, 188, 66, 76, 12, 190, 39, 248, 112, 190, 152, 89, 178, 189, 60, 224, 3, 190, 208, 177, 59, 61, 34, 50, 0, 62, 154, 0, 114, 190, 233, 225, 160, 62, 72, 189, 2, 62, 136, 185, 158, 60, 48, 149, 17, 190, 27, 131, 38, 190, 48, 197, 188, 61, 237, 209, 81, 62, 183, 151, 40, 189, 157, 111, 145, 189, 162, 228, 25, 190, 57, 253, 81, 189, 124, 24, 72, 62, 188, 86, 69, 190, 177, 156, 205, 189, 131, 212, 150, 61, 166, 198, 122, 62, 80, 206, 15, 62, 132, 165, 83, 62, 207, 251, 207, 61, 51, 187, 23, 190, 233, 158, 157, 189, 43, 84, 42, 62, 213, 4, 193, 59, 32, 164, 88, 190, 110, 191, 11, 190, 48, 252, 94, 190, 58, 60, 223, 188, 188, 158, 29, 190, 240, 82, 19, 62, 126, 224, 1, 189, 42, 159, 92, 190, 250, 10, 111, 190, 94, 243, 249, 61, 132, 101, 69, 190, 0, 3, 133, 61, 64, 156, 223, 60, 68, 117, 127, 190, 24, 77, 212, 189, 94, 230, 19, 61, 73, 79, 228, 61, 198, 237, 168, 60, 146, 173, 108, 190, 249, 167, 196, 61, 216, 215, 186, 61, 218, 250, 84, 189, 131, 138, 214, 189, 84, 149, 112, 190, 41, 112, 252, 61, 0, 155, 16, 60, 68, 225, 185, 188, 12, 241, 146, 60, 238, 50, 242, 60, 28, 183, 80, 190, 23, 131, 5, 62, 41, 71, 80, 61, 43, 241, 13, 190, 14, 230, 49, 62, 142, 101, 141, 62, 27, 186, 136, 189, 32, 216, 138, 188, 182, 42, 82, 61, 131, 224, 15, 190, 124, 2, 147, 62, 152, 131, 131, 190, 221, 248, 58, 62, 229, 167, 65, 190, 233, 57, 182, 59, 80, 187, 78, 189, 87, 230, 83, 189, 0, 7, 186, 189, 231, 129, 67, 190, 147, 102, 195, 188, 245, 211, 90, 62, 211, 127, 113, 62, 214, 180, 152, 60, 122, 83, 120, 62, 25, 239, 169, 61, 142, 202, 144, 62, 124, 185, 180, 189, 72, 11, 36, 190, 36, 217, 14, 190, 117, 15, 24, 189, 52, 69, 71, 187, 60, 191, 220, 189, 198, 102, 25, 62, 199, 69, 19, 188, 187, 201, 43, 62, 138, 142, 29, 190, 158, 135, 130, 190, 135, 244, 11, 62, 66, 192, 102, 190, 36, 177, 51, 190, 168, 219, 177, 61, 144, 158, 98, 62, 117, 255, 188, 60, 86, 130, 244, 61, 82, 168, 59, 62, 20, 78, 151, 62, 175, 150, 32, 190, 208, 218, 123, 189, 189, 217, 45, 62, 164, 164, 88, 62, 230, 211, 41, 187, 60, 231, 145, 189, 125, 173, 90, 188, 203, 43, 81, 59, 79, 64, 114, 190, 193, 196, 86, 189, 242, 113, 59, 61, 220, 75, 92, 62, 252, 19, 163, 189, 176, 194, 79, 62, 72, 18, 231, 61, 141, 132, 36, 62, 102, 221, 66, 190, 200, 186, 159, 189, 10, 3, 72, 61, 107, 152, 59, 62, 197, 221, 240, 61, 69, 56, 107, 62, 31, 69, 65, 189, 203, 41, 93, 189, 219, 144, 198, 61, 100, 29, 0, 190, 77, 155, 29, 189, 220, 2, 7, 61, 157, 157, 84, 190, 221, 25, 84, 190, 167, 238, 82, 190, 35, 116, 176, 188, 135, 195, 100, 190, 36, 113, 68, 62, 214, 172, 49, 62, 44, 154, 51, 62, 78, 224, 113, 62, 95, 153, 46, 189, 17, 88, 70, 60, 140, 196, 10, 62, 29, 210, 169, 60, 144, 7, 37, 190, 75, 170, 6, 62, 124, 194, 84, 190, 94, 195, 152, 61, 27, 115, 81, 190, 0, 68, 6, 61, 157, 92, 56, 61, 155, 208, 140, 61, 192, 45, 40, 59, 232, 99, 206, 189, 128, 226, 242, 187, 240, 113, 31, 190, 80, 190, 59, 190, 240, 117, 87, 62, 240, 108, 125, 61, 64, 212, 146, 188, 96, 110, 5, 189, 120, 246, 33, 62, 208, 230, 144, 189, 64, 120, 222, 60, 208, 133, 108, 190, 116, 238, 59, 190, 68, 151, 2, 190, 216, 26, 192, 189, 180, 213, 125, 62, 32, 149, 148, 188, 8, 232, 214, 61, 200, 18, 7, 190, 180, 67, 41, 190, 64, 59, 239, 60, 0, 88, 51, 190, 32, 98, 232, 189, 232, 140, 234, 61, 64, 198, 38, 62, 120, 127, 79, 62, 128, 66, 89, 60, 24, 10, 254, 189, 120, 178, 146, 189, 116, 164, 100, 190, 0, 80, 221, 58, 76, 216, 114, 190, 240, 59, 126, 61, 128, 174, 133, 59, 176, 117, 254, 61, 56, 183, 180, 61, 176, 39, 95, 189, 24, 12, 34, 62, 0, 208, 117, 62, 112, 176, 81, 189, 224, 184, 198, 60, 16, 90, 254, 61, 128, 210, 200, 60, 64, 247, 18, 188, 56, 29, 27, 62, 228, 10, 31, 190, 152, 22, 227, 189, 236, 66, 101, 190, 16, 199, 219, 61, 160, 222, 166, 60, 16, 136, 23, 61, 48, 171, 9, 190, 88, 9, 176, 189, 12, 69, 18, 190, 168, 163, 105, 190, 172, 142, 93, 190, 32, 117, 207, 60, 12, 242, 121, 190, 0, 169, 86, 190, 100, 163, 23, 190, 156, 137, 8, 190, 0, 11, 145, 189, 64, 56, 161, 188, 0, 171, 54, 190, 160, 255, 253, 60, 99, 136, 71, 188, 189, 160, 108, 62, 21, 231, 155, 62, 51, 182, 121, 190, 59, 242, 2, 62, 37, 73, 107, 189, 164, 100, 40, 62, 175, 27, 136, 62, 16, 121, 13, 61, 243, 254, 132, 62, 92, 133, 57, 61, 76, 17, 97, 61, 233, 127, 221, 61, 42, 149, 229, 189, 200, 103, 230, 189, 6, 237, 140, 62, 0, 174, 210, 187, 10, 62, 179, 189, 138, 71, 95, 190, 220, 238, 5, 62, 24, 41, 178, 189, 14, 169, 133, 190, 173, 202, 109, 61, 89, 164, 229, 61, 178, 82, 13, 189, 22, 191, 45, 62, 125, 185, 135, 190, 32, 188, 43, 61, 88, 71, 121, 62, 174, 53, 89, 189, 62, 117, 198, 60, 165, 71, 42, 190, 179, 97, 150, 62, 228, 148, 142, 61, 183, 20, 141, 190, 248, 218, 38, 190, 132, 45, 30, 190, 218, 127, 108, 62, 228, 211, 34, 62, 135, 28, 37, 62, 45, 215, 40, 62, 73, 129, 216, 188, 96, 57, 82, 189, 225, 167, 236, 61, 77, 171, 25, 62, 181, 207, 35, 62, 240, 191, 16, 62, 23, 231, 209, 60, 216, 166, 53, 62, 171, 86, 163, 189, 250, 87, 174, 60, 16, 31, 62, 62, 220, 130, 224, 61, 57, 48, 33, 61, 53, 155, 70, 62, 46, 127, 88, 62, 148, 21, 224, 61, 195, 140, 54, 190, 216, 27, 155, 62, 120, 143, 93, 190, 224, 8, 124, 188, 61, 222, 162, 62, 56, 62, 157, 187, 225, 17, 200, 188, 2, 240, 31, 62, 190, 159, 195, 59, 138, 254, 244, 189, 119, 153, 47, 62, 178, 12, 67, 190, 50, 164, 242, 61, 176, 105, 127, 61, 3, 148, 158, 61, 72, 21, 97, 60, 148, 21, 118, 190, 83, 65, 127, 62, 9, 34, 220, 188, 191, 175, 161, 61, 139, 21, 16, 62, 80, 87, 192, 61, 131, 18, 155, 61, 4, 82, 29, 190, 228, 5, 199, 189, 118, 142, 138, 61, 237, 206, 160, 61, 3, 30, 44, 190, 223, 121, 134, 62, 65, 223, 191, 61, 42, 59, 104, 189, 29, 92, 146, 189, 13, 15, 100, 61, 137, 70, 166, 189, 144, 125, 49, 61, 216, 205, 126, 62, 25, 178, 127, 188, 74, 247, 185, 189, 208, 44, 31, 60, 251, 6, 155, 189, 117, 50, 15, 62, 122, 74, 109, 189, 192, 84, 69, 62, 211, 179, 77, 189, 84, 41, 47, 62, 252, 179, 24, 62, 65, 198, 90, 62, 168, 222, 142, 189, 229, 7, 125, 190, 160, 45, 44, 62, 114, 220, 163, 62, 58, 69, 135, 62, 188, 3, 153, 62, 192, 142, 101, 62, 123, 10, 247, 187, 192, 110, 2, 61, 92, 132, 4, 190, 21, 148, 132, 62, 240, 75, 122, 190, 111, 211, 123, 190, 254, 175, 174, 189, 112, 141, 125, 189, 180, 122, 67, 188, 153, 159, 44, 189, 50, 24, 145, 190, 234, 231, 126, 62, 32, 193, 71, 189, 70, 110, 31, 190, 98, 221, 98, 62, 151, 10, 145, 59, 192, 21, 16, 60, 147, 47, 68, 62, 163, 139, 94, 62, 148, 79, 6, 190, 11, 96, 19, 190, 9, 161, 140, 62, 125, 185, 111, 62, 128, 228, 176, 187, 22, 232, 232, 61, 96, 35, 162, 60, 69, 209, 14, 187, 160, 34, 89, 190, 187, 149, 213, 61, 129, 255, 129, 62, 164, 192, 142, 60, 192, 227, 222, 188, 195, 12, 51, 62, 100, 113, 69, 190, 197, 131, 133, 189, 145, 162, 82, 190, 184, 152, 188, 61, 76, 123, 93, 60, 26, 110, 145, 189, 207, 40, 84, 62, 46, 58, 85, 62, 107, 31, 161, 188, 147, 133, 143, 61, 254, 101, 254, 189, 20, 191, 49, 62, 27, 209, 218, 189, 12, 223, 63, 190, 51, 119, 235, 189, 69, 54, 44, 61, 48, 61, 19, 190, 165, 193, 35, 62, 210, 186, 210, 61, 174, 170, 41, 190, 144, 154, 44, 62, 164, 153, 77, 62, 0, 0, 231, 183, 83, 153, 53, 190, 32, 224, 14, 190, 174, 133, 155, 62, 201, 160, 54, 190, 124, 180, 61, 189, 90, 254, 34, 62, 60, 246, 70, 190, 128, 178, 251, 60, 232, 166, 125, 62, 252, 134, 24, 190, 83, 51, 213, 189, 209, 240, 221, 189, 42, 58, 53, 62, 191, 212, 135, 62, 194, 110, 174, 61, 37, 241, 200, 189, 184, 17, 240, 61, 41, 100, 170, 61, 234, 230, 167, 62, 42, 243, 131, 62, 48, 214, 52, 62, 246, 10, 225, 59, 168, 46, 234, 189, 90, 93, 250, 189, 146, 200, 145, 59, 109, 199, 201, 61, 153, 227, 152, 188, 70, 75, 156, 190, 218, 97, 227, 189, 77, 201, 220, 187, 172, 47, 14, 190, 176, 163, 104, 190, 2, 115, 94, 62, 87, 148, 196, 189, 59, 127, 184, 61, 217, 118, 140, 189, 45, 103, 172, 60, 217, 113, 51, 62, 52, 95, 58, 62, 96, 172, 206, 61, 157, 42, 195, 189, 128, 36, 121, 61, 241, 113, 136, 61, 187, 236, 153, 61, 62, 141, 248, 187, 136, 185, 60, 62, 185, 134, 149, 61, 235, 112, 138, 187, 0, 199, 157, 62, 15, 195, 134, 190, 75, 63, 60, 188, 125, 41, 242, 61, 152, 165, 150, 61, 5, 124, 30, 189, 166, 37, 82, 62, 96, 224, 161, 62, 142, 113, 199, 61, 0, 0, 6, 0, 8, 0, 4, 0, 6, 0, 0, 0, 4, 0, 0, 0, 0, 1, 0, 0, 42, 176, 23, 61, 0, 0, 0, 0, 196, 214, 81, 61, 81, 118, 184, 61, 16, 107, 36, 189, 248, 113, 130, 61, 136, 218, 142, 188, 85, 169, 117, 188, 17, 44, 197, 188, 0, 0, 0, 0, 0, 0, 0, 0, 170, 176, 193, 58, 218, 120, 163, 188, 87, 34, 65, 60, 17, 205, 46, 61, 0, 0, 0, 0, 42, 194, 68, 60, 172, 195, 17, 61, 173, 45, 99, 61, 10, 187, 50, 188, 121, 97, 41, 188, 103, 55, 66, 61, 16, 161, 7, 61, 51, 221, 151, 188, 40, 70, 131, 61, 0, 0, 0, 0, 113, 84, 181, 187, 215, 127, 101, 61, 9, 146, 236, 60, 109, 126, 93, 61, 32, 40, 46, 188, 7, 156, 68, 61, 186, 143, 146, 61, 177, 81, 25, 189, 169, 176, 56, 61, 1, 247, 245, 188, 183, 166, 154, 61, 223, 22, 43, 61, 76, 17, 26, 61, 131, 91, 16, 61, 0, 0, 0, 0, 245, 6, 30, 188, 180, 97, 94, 188, 215, 232, 44, 61, 0, 0, 0, 0, 152, 100, 158, 188, 42, 249, 151, 61, 176, 183, 128, 61, 0, 0, 0, 0, 182, 100, 252, 188, 246, 222, 57, 61, 205, 103, 84, 188, 21, 100, 196, 60, 157, 196, 98, 60, 107, 186, 196, 187, 0, 0, 0, 0, 0, 0, 0, 0, 32, 142, 218, 60, 35, 53, 26, 61, 128, 218, 106, 61, 199, 68, 114, 61, 246, 230, 57, 61, 71, 208, 123, 61, 246, 203, 46, 61, 228, 253, 255, 255, 232, 253, 255, 255, 15, 0, 0, 0, 77, 76, 73, 82, 32, 67, 111, 110, 118, 101, 114, 116, 101, 100, 46, 0, 1, 0, 0, 0, 20, 0, 0, 0, 0, 0, 14, 0, 24, 0, 20, 0, 16, 0, 12, 0, 8, 0, 4, 0, 14, 0, 0, 0, 20, 0, 0, 0, 28, 0, 0, 0, 108, 0, 0, 0, 112, 0, 0, 0, 116, 0, 0, 0, 4, 0, 0, 0, 109, 97, 105, 110, 0, 0, 0, 0, 1, 0, 0, 0, 20, 0, 0, 0, 0, 0, 14, 0, 22, 0, 0, 0, 16, 0, 12, 0, 11, 0, 4, 0, 14, 0, 0, 0, 24, 0, 0, 0, 0, 0, 0, 8, 24, 0, 0, 0, 28, 0, 0, 0, 0, 0, 6, 0, 8, 0, 7, 0, 6, 0, 0, 0, 0, 0, 0, 1, 1, 0, 0, 0, 3, 0, 0, 0, 3, 0, 0, 0, 0, 0, 0, 0, 2, 0, 0, 0, 1, 0, 0, 0, 1, 0, 0, 0, 3, 0, 0, 0, 1, 0, 0, 0, 0, 0, 0, 0, 4, 0, 0, 0, 52, 1, 0, 0, 196, 0, 0, 0, 96, 0, 0, 0, 4, 0, 0, 0, 242, 254, 255, 255, 0, 0, 0, 1, 20, 0, 0, 0, 28, 0, 0, 0, 28, 0, 0, 0, 4, 0, 0, 0, 52, 0, 0, 0, 2, 0, 0, 0, 255, 255, 255, 255, 64, 0, 0, 0, 220, 254, 255, 255, 25, 0, 0, 0, 83, 116, 97, 116, 101, 102, 117, 108, 80, 97, 114, 116, 105, 116, 105, 111, 110, 101, 100, 67, 97, 108, 108, 58, 48, 0, 0, 0, 2, 0, 0, 0, 1, 0, 0, 0, 64, 0, 0, 0, 182, 255, 255, 255, 0, 0, 0, 1, 16, 0, 0, 0, 16, 0, 0, 0, 3, 0, 0, 0, 40, 0, 0, 0, 36, 255, 255, 255, 27, 0, 0, 0, 115, 101, 113, 117, 101, 110, 116, 105, 97, 108, 95, 51, 47, 108, 97, 121, 101, 114, 95, 51, 47, 77, 97, 116, 77, 117, 108, 0, 2, 0, 0, 0, 64, 0, 0, 0, 32, 0, 0, 0, 0, 0, 22, 0, 24, 0, 20, 0, 0, 0, 16, 0, 12, 0, 8, 0, 0, 0, 0, 0, 0, 0, 7, 0, 22, 0, 0, 0, 0, 0, 0, 1, 16, 0, 0, 0, 16, 0, 0, 0, 2, 0, 0, 0, 56, 0, 0, 0, 132, 255, 255, 255, 43, 0, 0, 0, 115, 101, 113, 117, 101, 110, 116, 105, 97, 108, 95, 51, 47, 108, 97, 121, 101, 114, 95, 51, 47, 66, 105, 97, 115, 65, 100, 100, 47, 82, 101, 97, 100, 86, 97, 114, 105, 97, 98, 108, 101, 79, 112, 0, 1, 0, 0, 0, 64, 0, 0, 0, 0, 0, 22, 0, 28, 0, 24, 0, 0, 0, 20, 0, 16, 0, 12, 0, 0, 0, 0, 0, 8, 0, 7, 0, 22, 0, 0, 0, 0, 0, 0, 1, 20, 0, 0, 0, 32, 0, 0, 0, 32, 0, 0, 0, 1, 0, 0, 0, 60, 0, 0, 0, 2, 0, 0, 0, 255, 255, 255, 255, 32, 0, 0, 0, 4, 0, 4, 0, 4, 0, 0, 0, 31, 0, 0, 0, 115, 101, 114, 118, 105, 110, 103, 95, 100, 101, 102, 97, 117, 108, 116, 95, 108, 97, 121, 101, 114, 95, 51, 95, 105, 110, 112, 117, 116, 58, 48, 0, 2, 0, 0, 0, 1, 0, 0, 0, 32, 0, 0, 0, 1, 0, 0, 0, 16, 0, 0, 0, 12, 0, 12, 0, 11, 0, 0, 0, 0, 0, 4, 0, 12, 0, 0, 0, 9, 0, 0, 0, 0, 0, 0, 9
};
