#pragma once

#include <cstdint>

const uint8_t layer_0[] = {
28, 0, 0, 0, 84, 70, 76, 51, 20, 0, 32, 0, 28, 0, 24, 0, 20, 0, 16, 0, 12, 0, 0, 0, 8, 0, 4, 0, 20, 0, 0, 0, 28, 0, 0, 0, 148, 0, 0, 0, 236, 0, 0, 0, 176, 15, 0, 0, 192, 15, 0, 0, 44, 18, 0, 0, 3, 0, 0, 0, 1, 0, 0, 0, 16, 0, 0, 0, 0, 0, 10, 0, 16, 0, 12, 0, 8, 0, 4, 0, 10, 0, 0, 0, 12, 0, 0, 0, 28, 0, 0, 0, 56, 0, 0, 0, 15, 0, 0, 0, 115, 101, 114, 118, 105, 110, 103, 95, 100, 101, 102, 97, 117, 108, 116, 0, 1, 0, 0, 0, 4, 0, 0, 0, 148, 255, 255, 255, 3, 0, 0, 0, 4, 0, 0, 0, 7, 0, 0, 0, 108, 97, 121, 101, 114, 95, 48, 0, 1, 0, 0, 0, 4, 0, 0, 0, 90, 241, 255, 255, 4, 0, 0, 0, 13, 0, 0, 0, 108, 97, 121, 101, 114, 95, 48, 95, 105, 110, 112, 117, 116, 0, 0, 0, 2, 0, 0, 0, 52, 0, 0, 0, 4, 0, 0, 0, 220, 255, 255, 255, 6, 0, 0, 0, 4, 0, 0, 0, 19, 0, 0, 0, 67, 79, 78, 86, 69, 82, 83, 73, 79, 78, 95, 77, 69, 84, 65, 68, 65, 84, 65, 0, 8, 0, 12, 0, 8, 0, 4, 0, 8, 0, 0, 0, 5, 0, 0, 0, 4, 0, 0, 0, 19, 0, 0, 0, 109, 105, 110, 95, 114, 117, 110, 116, 105, 109, 101, 95, 118, 101, 114, 115, 105, 111, 110, 0, 7, 0, 0, 0, 192, 14, 0, 0, 184, 14, 0, 0, 40, 14, 0, 0, 144, 0, 0, 0, 136, 0, 0, 0, 104, 0, 0, 0, 4, 0, 0, 0, 242, 241, 255, 255, 4, 0, 0, 0, 84, 0, 0, 0, 12, 0, 0, 0, 8, 0, 14, 0, 8, 0, 4, 0, 8, 0, 0, 0, 16, 0, 0, 0, 36, 0, 0, 0, 0, 0, 6, 0, 8, 0, 4, 0, 6, 0, 0, 0, 4, 0, 0, 0, 0, 0, 0, 0, 0, 0, 10, 0, 16, 0, 12, 0, 8, 0, 4, 0, 10, 0, 0, 0, 2, 0, 0, 0, 2, 0, 0, 0, 4, 0, 0, 0, 6, 0, 0, 0, 50, 46, 49, 51, 46, 48, 0, 0, 82, 242, 255, 255, 4, 0, 0, 0, 16, 0, 0, 0, 49, 46, 53, 46, 48, 0, 0, 0, 0, 0, 0, 0, 0, 0, 0, 0, 144, 239, 255, 255, 114, 242, 255, 255, 4, 0, 0, 0, 128, 13, 0, 0, 62, 40, 131, 61, 160, 7, 120, 189, 168, 27, 221, 60, 222, 157, 206, 189, 70, 108, 164, 189, 226, 7, 142, 189, 30, 37, 15, 62, 119, 101, 35, 62, 250, 13, 241, 61, 109, 108, 11, 62, 32, 18, 167, 189, 91, 243, 234, 189, 14, 37, 178, 61, 133, 248, 232, 189, 216, 165, 214, 60, 82, 6, 137, 189, 78, 70, 155, 61, 199, 149, 26, 189, 192, 18, 46, 188, 183, 240, 146, 189, 80, 214, 44, 61, 202, 35, 214, 61, 0, 216, 61, 57, 112, 150, 0, 190, 121, 40, 98, 189, 244, 100, 255, 61, 215, 188, 214, 60, 94, 105, 4, 190, 116, 154, 8, 189, 16, 3, 14, 61, 108, 129, 183, 189, 90, 87, 175, 189, 192, 168, 110, 60, 252, 252, 130, 61, 166, 195, 131, 60, 113, 195, 132, 189, 203, 29, 11, 62, 23, 226, 77, 62, 147, 46, 74, 62, 60, 159, 217, 61, 192, 224, 90, 187, 82, 162, 1, 190, 117, 150, 9, 62, 99, 101, 136, 61, 14, 171, 34, 62, 112, 255, 195, 188, 83, 101, 39, 62, 240, 10, 32, 61, 120, 145, 70, 61, 2, 146, 203, 189, 128, 95, 134, 58, 126, 86, 131, 60, 61, 24, 245, 61, 230, 104, 23, 60, 8, 212, 50, 62, 36, 128, 81, 189, 164, 237, 75, 62, 106, 199, 246, 189, 62, 42, 46, 189, 187, 1, 2, 190, 213, 232, 115, 188, 13, 12, 107, 189, 37, 189, 58, 189, 155, 230, 67, 62, 25, 5, 176, 188, 204, 117, 34, 62, 80, 96, 142, 61, 157, 26, 196, 189, 33, 119, 186, 189, 147, 52, 202, 60, 74, 34, 222, 60, 178, 168, 186, 189, 124, 52, 61, 62, 188, 95, 11, 62, 99, 46, 31, 62, 144, 196, 103, 61, 102, 68, 109, 189, 244, 197, 113, 61, 222, 189, 183, 61, 188, 171, 100, 187, 189, 86, 135, 60, 200, 3, 86, 188, 185, 147, 175, 189, 49, 222, 255, 61, 147, 147, 177, 189, 199, 160, 50, 188, 92, 230, 29, 61, 190, 121, 67, 62, 51, 125, 75, 61, 103, 13, 46, 62, 18, 211, 159, 188, 47, 196, 211, 189, 188, 161, 130, 189, 251, 44, 167, 187, 14, 7, 13, 190, 127, 132, 155, 61, 190, 138, 146, 61, 181, 3, 177, 61, 65, 3, 243, 188, 192, 229, 172, 59, 23, 158, 34, 61, 137, 99, 195, 189, 167, 68, 44, 61, 86, 195, 210, 60, 157, 83, 246, 61, 183, 54, 61, 62, 82, 97, 130, 59, 82, 5, 82, 62, 17, 106, 153, 61, 90, 180, 195, 60, 41, 4, 224, 61, 22, 198, 248, 189, 84, 190, 177, 61, 105, 145, 92, 59, 119, 73, 194, 60, 228, 222, 159, 61, 8, 77, 206, 187, 221, 233, 161, 58, 141, 27, 229, 61, 133, 109, 187, 61, 96, 110, 12, 189, 220, 78, 144, 189, 62, 50, 228, 61, 188, 200, 118, 189, 6, 244, 64, 189, 0, 224, 2, 190, 211, 9, 13, 62, 234, 212, 199, 60, 49, 169, 187, 187, 100, 18, 36, 60, 163, 90, 200, 188, 107, 46, 82, 57, 94, 146, 29, 61, 26, 17, 47, 61, 62, 129, 44, 188, 32, 72, 252, 188, 40, 31, 172, 60, 53, 88, 159, 189, 12, 127, 123, 189, 174, 226, 226, 61, 120, 11, 146, 188, 14, 28, 81, 189, 89, 35, 212, 61, 194, 248, 51, 61, 38, 190, 187, 189, 48, 29, 149, 188, 8, 120, 185, 61, 150, 105, 237, 61, 208, 4, 147, 189, 128, 129, 221, 189, 81, 139, 7, 62, 185, 18, 89, 186, 199, 240, 52, 61, 54, 78, 33, 189, 0, 68, 147, 60, 60, 59, 196, 189, 124, 120, 86, 61, 24, 179, 213, 60, 192, 19, 248, 189, 99, 98, 13, 60, 119, 44, 198, 189, 68, 150, 250, 60, 78, 49, 255, 61, 154, 235, 153, 61, 80, 187, 232, 189, 0, 48, 188, 184, 140, 36, 73, 61, 186, 121, 171, 61, 206, 49, 10, 190, 66, 73, 10, 189, 90, 57, 179, 61, 200, 198, 58, 189, 105, 227, 159, 189, 134, 37, 175, 61, 96, 223, 216, 60, 94, 64, 25, 189, 208, 93, 241, 189, 65, 55, 6, 190, 246, 150, 161, 61, 141, 224, 2, 62, 136, 215, 209, 189, 116, 79, 209, 189, 254, 80, 243, 61, 67, 183, 248, 189, 240, 81, 91, 61, 2, 56, 185, 189, 184, 177, 28, 61, 50, 147, 175, 189, 160, 253, 43, 188, 250, 37, 114, 189, 208, 141, 249, 60, 236, 162, 25, 61, 12, 144, 205, 187, 203, 190, 201, 61, 173, 178, 47, 62, 76, 91, 26, 61, 175, 111, 5, 190, 178, 163, 185, 61, 227, 119, 150, 60, 124, 153, 178, 61, 91, 8, 109, 61, 170, 17, 71, 61, 146, 103, 39, 62, 199, 144, 163, 61, 56, 231, 161, 61, 100, 117, 66, 61, 224, 41, 132, 187, 251, 113, 243, 59, 86, 17, 166, 61, 124, 128, 68, 189, 143, 145, 235, 61, 75, 87, 149, 189, 120, 72, 240, 61, 181, 163, 139, 189, 68, 216, 231, 188, 176, 150, 73, 189, 79, 96, 1, 190, 8, 157, 148, 60, 242, 132, 240, 61, 63, 114, 151, 189, 190, 182, 73, 189, 11, 93, 8, 62, 116, 23, 200, 61, 26, 30, 210, 189, 169, 82, 134, 189, 205, 102, 5, 190, 46, 207, 128, 61, 244, 227, 132, 61, 192, 47, 125, 189, 252, 65, 208, 61, 81, 118, 12, 190, 53, 14, 197, 60, 182, 84, 138, 61, 70, 124, 241, 61, 220, 214, 10, 189, 192, 158, 164, 61, 220, 129, 124, 189, 17, 212, 173, 189, 244, 200, 75, 61, 230, 130, 244, 61, 220, 254, 165, 189, 224, 126, 96, 189, 235, 125, 34, 189, 196, 44, 230, 189, 182, 199, 0, 189, 82, 102, 250, 61, 153, 233, 181, 188, 148, 247, 8, 190, 248, 246, 51, 190, 0, 195, 145, 61, 154, 205, 213, 189, 202, 35, 104, 189, 218, 155, 17, 62, 228, 234, 89, 62, 16, 30, 57, 61, 133, 21, 109, 60, 94, 231, 146, 61, 47, 236, 153, 61, 0, 138, 91, 60, 148, 5, 193, 61, 9, 214, 137, 189, 22, 101, 89, 62, 163, 91, 20, 61, 191, 91, 222, 61, 141, 164, 161, 60, 252, 12, 89, 188, 233, 215, 20, 62, 88, 166, 53, 189, 192, 49, 1, 188, 96, 160, 147, 187, 128, 5, 5, 61, 32, 175, 235, 60, 232, 89, 209, 189, 158, 55, 172, 189, 74, 113, 49, 189, 32, 234, 220, 59, 26, 185, 60, 62, 71, 107, 109, 61, 222, 129, 161, 188, 134, 54, 221, 61, 96, 119, 241, 189, 193, 5, 16, 61, 8, 207, 49, 61, 254, 166, 239, 61, 99, 109, 167, 189, 165, 125, 5, 189, 14, 179, 217, 61, 168, 111, 148, 61, 252, 227, 232, 189, 105, 81, 1, 61, 23, 110, 145, 188, 245, 10, 7, 62, 26, 52, 1, 190, 189, 138, 253, 189, 68, 254, 11, 62, 68, 37, 216, 61, 246, 196, 26, 62, 107, 174, 3, 61, 215, 112, 139, 61, 95, 1, 81, 62, 44, 92, 86, 62, 21, 179, 64, 58, 24, 91, 17, 62, 240, 65, 177, 60, 233, 213, 4, 62, 228, 45, 94, 61, 93, 36, 31, 61, 44, 171, 243, 61, 78, 133, 114, 61, 66, 37, 152, 61, 181, 139, 140, 61, 186, 205, 39, 62, 80, 231, 221, 60, 152, 189, 200, 61, 50, 131, 92, 189, 24, 49, 83, 61, 98, 12, 22, 62, 61, 137, 36, 62, 242, 42, 43, 62, 16, 39, 145, 60, 30, 107, 181, 186, 88, 76, 141, 188, 249, 149, 0, 190, 8, 10, 5, 190, 112, 176, 117, 60, 167, 246, 2, 190, 110, 85, 241, 189, 134, 255, 89, 60, 141, 121, 27, 190, 166, 48, 185, 189, 54, 67, 194, 189, 39, 122, 255, 189, 88, 214, 197, 61, 118, 44, 170, 61, 209, 136, 198, 188, 247, 160, 87, 62, 80, 130, 152, 61, 222, 114, 164, 61, 227, 183, 225, 61, 2, 98, 250, 61, 140, 174, 214, 189, 114, 233, 178, 189, 27, 11, 218, 61, 197, 55, 59, 62, 187, 135, 76, 62, 148, 122, 243, 61, 106, 49, 47, 62, 206, 80, 67, 189, 224, 125, 245, 187, 48, 236, 48, 188, 254, 216, 240, 61, 250, 176, 238, 189, 86, 202, 157, 61, 50, 235, 228, 189, 231, 207, 146, 189, 20, 245, 147, 189, 163, 84, 253, 189, 28, 59, 198, 61, 1, 34, 90, 62, 45, 6, 39, 62, 118, 211, 198, 189, 126, 212, 230, 61, 236, 229, 186, 189, 224, 66, 165, 187, 8, 62, 164, 188, 160, 76, 113, 61, 55, 97, 254, 61, 135, 149, 88, 62, 160, 88, 167, 61, 241, 202, 12, 190, 244, 129, 165, 61, 80, 152, 131, 188, 240, 247, 225, 189, 146, 116, 246, 189, 242, 200, 48, 189, 214, 53, 0, 189, 122, 115, 3, 62, 199, 233, 217, 61, 4, 101, 207, 188, 38, 28, 167, 61, 160, 138, 191, 187, 52, 50, 130, 61, 26, 146, 159, 189, 176, 231, 48, 189, 84, 179, 194, 61, 184, 253, 201, 189, 92, 140, 165, 61, 251, 153, 173, 189, 164, 160, 113, 61, 6, 123, 83, 189, 46, 146, 185, 61, 0, 20, 205, 58, 0, 208, 44, 189, 15, 178, 240, 189, 142, 159, 160, 61, 91, 161, 247, 189, 218, 254, 238, 189, 240, 216, 54, 60, 242, 120, 167, 189, 76, 4, 229, 189, 64, 142, 156, 61, 64, 146, 13, 59, 192, 105, 225, 59, 0, 178, 118, 61, 78, 203, 75, 189, 82, 150, 144, 187, 20, 192, 81, 188, 233, 47, 103, 61, 174, 104, 246, 61, 16, 186, 94, 62, 198, 216, 17, 62, 203, 81, 205, 189, 26, 248, 110, 189, 236, 4, 192, 61, 236, 234, 9, 190, 82, 254, 117, 61, 211, 194, 214, 59, 55, 81, 45, 61, 77, 239, 58, 62, 68, 59, 140, 61, 24, 131, 218, 189, 240, 29, 112, 60, 182, 17, 184, 61, 66, 30, 201, 189, 48, 144, 224, 61, 76, 12, 227, 188, 135, 191, 54, 62, 127, 211, 10, 61, 7, 246, 72, 187, 152, 248, 210, 60, 227, 13, 230, 189, 241, 250, 153, 189, 236, 126, 8, 189, 146, 163, 81, 189, 53, 12, 9, 62, 58, 104, 162, 189, 64, 96, 172, 188, 170, 70, 194, 189, 98, 40, 243, 189, 211, 186, 11, 62, 92, 31, 149, 189, 172, 145, 4, 61, 74, 89, 195, 189, 180, 202, 237, 189, 80, 167, 41, 61, 240, 237, 54, 188, 116, 88, 239, 189, 158, 42, 5, 190, 144, 102, 218, 60, 0, 163, 195, 187, 98, 254, 64, 189, 24, 247, 15, 61, 162, 66, 138, 61, 167, 61, 6, 62, 142, 251, 238, 189, 67, 185, 231, 189, 72, 46, 12, 190, 168, 234, 253, 189, 209, 0, 239, 189, 18, 210, 222, 187, 197, 32, 179, 61, 229, 85, 79, 189, 98, 115, 134, 60, 209, 85, 24, 190, 186, 73, 83, 61, 48, 16, 96, 60, 36, 133, 156, 189, 172, 10, 133, 61, 51, 207, 203, 60, 238, 187, 12, 60, 160, 49, 72, 189, 38, 240, 160, 189, 109, 44, 61, 61, 143, 23, 38, 189, 206, 177, 51, 189, 112, 249, 19, 60, 107, 179, 247, 189, 94, 228, 79, 61, 127, 128, 208, 61, 217, 179, 243, 189, 246, 34, 211, 60, 10, 31, 180, 60, 56, 77, 215, 61, 0, 69, 21, 186, 176, 243, 180, 188, 150, 1, 160, 189, 208, 196, 162, 189, 16, 16, 79, 188, 41, 2, 181, 189, 25, 12, 210, 189, 158, 221, 245, 61, 212, 203, 51, 61, 80, 66, 255, 61, 247, 103, 79, 62, 54, 24, 14, 60, 234, 202, 157, 189, 161, 18, 166, 189, 119, 202, 232, 60, 176, 72, 156, 61, 144, 66, 34, 189, 152, 171, 8, 61, 177, 23, 216, 186, 193, 149, 116, 59, 17, 97, 64, 62, 214, 153, 211, 59, 157, 211, 209, 61, 88, 121, 156, 188, 204, 94, 8, 190, 233, 26, 130, 189, 32, 204, 186, 189, 51, 239, 49, 62, 111, 93, 28, 61, 100, 221, 41, 187, 80, 140, 222, 189, 18, 121, 176, 61, 182, 19, 10, 190, 184, 203, 194, 188, 68, 161, 225, 189, 0, 42, 132, 57, 220, 13, 21, 190, 150, 119, 237, 61, 190, 103, 150, 189, 143, 213, 8, 61, 162, 232, 66, 62, 222, 148, 53, 62, 158, 198, 246, 61, 0, 127, 68, 60, 190, 193, 199, 61, 225, 213, 249, 189, 242, 7, 83, 61, 170, 137, 179, 61, 222, 113, 83, 61, 157, 83, 62, 62, 62, 118, 223, 61, 53, 171, 246, 189, 2, 213, 181, 189, 214, 200, 38, 189, 142, 93, 26, 61, 219, 174, 145, 60, 128, 74, 28, 189, 88, 167, 212, 60, 184, 153, 41, 61, 48, 5, 237, 188, 167, 105, 232, 189, 215, 140, 166, 60, 176, 155, 14, 190, 122, 26, 136, 61, 236, 155, 241, 189, 214, 63, 133, 61, 2, 255, 151, 188, 162, 57, 84, 62, 195, 41, 186, 61, 53, 105, 16, 62, 4, 116, 105, 187, 190, 253, 181, 57, 176, 198, 159, 189, 222, 59, 242, 61, 132, 23, 240, 189, 50, 66, 220, 60, 59, 83, 0, 62, 238, 209, 82, 62, 106, 86, 163, 59, 198, 105, 112, 61, 68, 70, 47, 60, 32, 84, 247, 60, 158, 191, 240, 189, 0, 81, 224, 59, 16, 153, 56, 188, 6, 253, 203, 189, 12, 115, 32, 61, 128, 156, 207, 186, 110, 109, 182, 189, 156, 11, 15, 61, 222, 156, 117, 60, 65, 149, 19, 62, 223, 73, 136, 61, 23, 145, 74, 188, 35, 195, 192, 57, 80, 72, 145, 60, 232, 55, 134, 188, 217, 62, 212, 61, 54, 47, 155, 189, 100, 194, 24, 62, 179, 192, 210, 61, 20, 190, 194, 61, 65, 97, 225, 189, 73, 201, 61, 61, 214, 88, 84, 189, 40, 185, 60, 59, 1, 176, 250, 189, 72, 221, 168, 61, 99, 157, 66, 62, 183, 146, 76, 62, 26, 185, 22, 62, 34, 213, 8, 62, 161, 115, 183, 61, 64, 104, 15, 62, 24, 32, 111, 189, 56, 207, 31, 61, 22, 2, 241, 189, 166, 53, 155, 189, 96, 205, 213, 188, 76, 162, 255, 189, 0, 52, 182, 61, 253, 224, 60, 62, 58, 75, 107, 61, 183, 68, 2, 62, 232, 110, 63, 61, 12, 48, 240, 189, 126, 60, 254, 61, 58, 31, 106, 189, 160, 127, 218, 189, 121, 140, 31, 62, 195, 129, 190, 61, 171, 216, 81, 62, 220, 244, 69, 189, 144, 178, 3, 188, 208, 136, 249, 188, 120, 213, 72, 61, 168, 239, 212, 60, 64, 8, 235, 60, 80, 253, 59, 61, 231, 149, 134, 189, 192, 69, 25, 189, 131, 167, 236, 189, 185, 184, 232, 189, 22, 134, 173, 61, 157, 225, 157, 61, 22, 158, 137, 61, 33, 207, 76, 62, 182, 66, 223, 61, 58, 107, 179, 189, 90, 197, 81, 189, 8, 222, 205, 188, 38, 47, 135, 189, 142, 189, 127, 189, 73, 72, 223, 60, 11, 62, 72, 189, 192, 194, 88, 62, 80, 201, 35, 189, 236, 121, 73, 61, 254, 22, 219, 189, 68, 246, 191, 188, 65, 117, 219, 189, 32, 32, 94, 189, 139, 198, 0, 61, 109, 185, 20, 62, 146, 251, 204, 61, 46, 10, 27, 62, 188, 113, 59, 62, 77, 211, 174, 61, 65, 170, 119, 187, 122, 171, 135, 188, 218, 167, 175, 189, 216, 2, 136, 189, 24, 6, 124, 61, 64, 182, 82, 61, 209, 103, 235, 188, 65, 38, 48, 62, 99, 129, 178, 61, 93, 51, 203, 61, 163, 2, 165, 61, 28, 141, 143, 189, 220, 59, 103, 189, 64, 230, 22, 189, 152, 97, 210, 61, 127, 241, 181, 61, 103, 133, 142, 61, 27, 213, 11, 62, 77, 62, 229, 189, 33, 86, 149, 61, 234, 214, 224, 188, 14, 101, 232, 189, 112, 98, 48, 61, 252, 129, 161, 189, 173, 241, 72, 60, 171, 172, 60, 62, 171, 68, 188, 61, 89, 123, 218, 60, 113, 178, 3, 62, 99, 84, 241, 189, 126, 195, 74, 189, 237, 43, 140, 189, 38, 7, 168, 188, 66, 215, 37, 62, 191, 167, 166, 61, 42, 58, 25, 62, 223, 60, 6, 190, 178, 72, 146, 61, 42, 128, 0, 61, 128, 98, 216, 61, 174, 175, 78, 61, 2, 180, 84, 61, 237, 169, 202, 60, 249, 26, 189, 61, 227, 61, 223, 188, 100, 146, 140, 188, 155, 144, 6, 190, 94, 123, 162, 61, 70, 13, 11, 61, 13, 93, 241, 189, 200, 97, 181, 189, 184, 172, 209, 61, 152, 125, 243, 189, 45, 235, 199, 60, 196, 243, 17, 61, 60, 96, 234, 188, 64, 98, 157, 60, 61, 210, 144, 187, 4, 238, 40, 62, 124, 145, 98, 61, 202, 179, 238, 188, 95, 136, 135, 61, 94, 248, 234, 60, 152, 134, 43, 189, 72, 245, 60, 189, 212, 129, 74, 189, 217, 111, 213, 61, 173, 196, 213, 61, 49, 73, 33, 62, 60, 189, 30, 190, 163, 51, 79, 185, 206, 241, 101, 188, 38, 251, 182, 189, 136, 179, 106, 61, 136, 229, 241, 189, 37, 126, 127, 187, 41, 236, 250, 188, 195, 60, 235, 61, 0, 221, 255, 58, 101, 49, 181, 189, 200, 221, 130, 188, 34, 233, 247, 61, 181, 99, 226, 189, 100, 15, 108, 61, 218, 221, 91, 189, 184, 177, 243, 188, 240, 52, 217, 188, 116, 235, 204, 189, 197, 108, 11, 190, 89, 254, 192, 189, 198, 129, 92, 189, 192, 218, 84, 60, 128, 13, 199, 59, 128, 233, 252, 187, 57, 177, 225, 189, 206, 185, 175, 189, 214, 166, 247, 61, 204, 47, 143, 61, 148, 7, 30, 61, 38, 83, 43, 189, 96, 254, 130, 187, 125, 66, 235, 189, 34, 201, 195, 61, 16, 119, 232, 189, 248, 111, 224, 188, 191, 74, 219, 189, 26, 45, 233, 189, 232, 233, 219, 60, 158, 228, 139, 61, 85, 30, 26, 188, 207, 243, 200, 61, 200, 14, 196, 189, 36, 112, 106, 61, 37, 100, 2, 190, 115, 213, 23, 62, 190, 196, 9, 60, 85, 190, 16, 61, 166, 251, 75, 62, 129, 198, 22, 61, 178, 99, 57, 62, 184, 143, 191, 188, 88, 104, 68, 61, 93, 240, 213, 189, 103, 235, 240, 61, 55, 129, 224, 61, 192, 204, 167, 189, 208, 214, 1, 60, 127, 140, 85, 189, 198, 116, 77, 62, 232, 230, 197, 189, 104, 235, 220, 61, 128, 18, 83, 188, 245, 170, 138, 189, 90, 200, 254, 61, 216, 180, 92, 189, 167, 39, 11, 190, 24, 13, 212, 189, 50, 215, 189, 61, 208, 235, 61, 62, 12, 255, 9, 61, 152, 24, 1, 189, 229, 115, 242, 189, 232, 238, 97, 61, 130, 132, 5, 190, 90, 95, 194, 61, 128, 53, 16, 59, 48, 36, 166, 189, 8, 218, 201, 188, 77, 186, 81, 62, 166, 200, 56, 62, 208, 19, 3, 60, 96, 142, 219, 189, 194, 12, 232, 61, 176, 237, 14, 61, 188, 126, 246, 189, 54, 212, 177, 189, 20, 110, 188, 61, 163, 8, 60, 62, 81, 70, 68, 189, 16, 254, 44, 188, 126, 90, 187, 61, 44, 149, 195, 189, 86, 88, 46, 189, 128, 71, 16, 187, 214, 88, 10, 190, 57, 73, 253, 61, 163, 125, 102, 189, 233, 69, 5, 62, 5, 231, 160, 61, 54, 168, 0, 61, 217, 146, 164, 188, 85, 21, 234, 189, 95, 204, 158, 59, 159, 168, 134, 59, 241, 27, 68, 62, 162, 78, 58, 62, 228, 214, 184, 60, 155, 11, 235, 61, 106, 241, 17, 190, 59, 247, 235, 189, 155, 48, 143, 61, 220, 7, 229, 61, 137, 184, 9, 190, 203, 16, 74, 189, 217, 117, 197, 60, 83, 118, 78, 62, 147, 184, 159, 189, 140, 230, 183, 189, 62, 156, 172, 189, 66, 210, 45, 189, 72, 207, 95, 189, 42, 172, 237, 189, 44, 38, 136, 61, 14, 239, 182, 61, 254, 190, 102, 189, 147, 162, 36, 189, 250, 131, 219, 61, 53, 95, 246, 189, 40, 73, 104, 189, 116, 119, 48, 189, 70, 197, 194, 189, 80, 236, 212, 189, 156, 145, 193, 189, 66, 211, 220, 61, 80, 139, 21, 189, 71, 1, 129, 188, 84, 24, 184, 61, 68, 145, 144, 61, 180, 62, 87, 61, 187, 62, 152, 189, 165, 202, 221, 189, 0, 138, 12, 190, 66, 218, 169, 61, 0, 0, 6, 0, 8, 0, 4, 0, 6, 0, 0, 0, 4, 0, 0, 0, 128, 0, 0, 0, 121, 76, 42, 61, 19, 70, 160, 61, 41, 51, 175, 60, 131, 225, 65, 61, 173, 207, 19, 61, 159, 3, 115, 59, 0, 0, 0, 0, 182, 66, 79, 61, 182, 44, 208, 187, 86, 104, 152, 60, 116, 211, 152, 61, 85, 151, 158, 61, 114, 12, 82, 61, 227, 125, 160, 61, 0, 0, 0, 0, 170, 227, 167, 61, 0, 0, 0, 0, 56, 251, 159, 188, 187, 206, 232, 59, 238, 126, 138, 61, 250, 24, 166, 60, 175, 224, 146, 61, 82, 53, 141, 61, 130, 95, 162, 61, 14, 167, 78, 61, 201, 149, 116, 61, 240, 12, 154, 61, 0, 0, 0, 0, 204, 139, 146, 61, 46, 202, 165, 61, 171, 4, 49, 61, 105, 254, 153, 188, 180, 253, 255, 255, 184, 253, 255, 255, 15, 0, 0, 0, 77, 76, 73, 82, 32, 67, 111, 110, 118, 101, 114, 116, 101, 100, 46, 0, 1, 0, 0, 0, 20, 0, 0, 0, 0, 0, 14, 0, 24, 0, 20, 0, 16, 0, 12, 0, 8, 0, 4, 0, 14, 0, 0, 0, 20, 0, 0, 0, 28, 0, 0, 0, 124, 0, 0, 0, 128, 0, 0, 0, 132, 0, 0, 0, 4, 0, 0, 0, 109, 97, 105, 110, 0, 0, 0, 0, 1, 0, 0, 0, 20, 0, 0, 0, 0, 0, 14, 0, 20, 0, 0, 0, 16, 0, 12, 0, 11, 0, 4, 0, 14, 0, 0, 0, 28, 0, 0, 0, 0, 0, 0, 1, 40, 0, 0, 0, 44, 0, 0, 0, 12, 0, 20, 0, 19, 0, 12, 0, 8, 0, 7, 0, 12, 0, 0, 0, 0, 0, 0, 1, 1, 0, 0, 0, 1, 0, 0, 0, 0, 0, 0, 1, 1, 0, 0, 0, 3, 0, 0, 0, 3, 0, 0, 0, 0, 0, 0, 0, 2, 0, 0, 0, 1, 0, 0, 0, 1, 0, 0, 0, 3, 0, 0, 0, 1, 0, 0, 0, 0, 0, 0, 0, 4, 0, 0, 0, 76, 1, 0, 0, 220, 0, 0, 0, 112, 0, 0, 0, 4, 0, 0, 0, 218, 254, 255, 255, 0, 0, 0, 1, 20, 0, 0, 0, 36, 0, 0, 0, 36, 0, 0, 0, 4, 0, 0, 0, 60, 0, 0, 0, 4, 0, 0, 0, 255, 255, 255, 255, 3, 0, 0, 0, 3, 0, 0, 0, 32, 0, 0, 0, 196, 254, 255, 255, 25, 0, 0, 0, 83, 116, 97, 116, 101, 102, 117, 108, 80, 97, 114, 116, 105, 116, 105, 111, 110, 101, 100, 67, 97, 108, 108, 58, 48, 0, 0, 0, 4, 0, 0, 0, 1, 0, 0, 0, 3, 0, 0, 0, 3, 0, 0, 0, 32, 0, 0, 0, 174, 255, 255, 255, 0, 0, 0, 1, 16, 0, 0, 0, 16, 0, 0, 0, 3, 0, 0, 0, 40, 0, 0, 0, 20, 255, 255, 255, 25, 0, 0, 0, 115, 101, 113, 117, 101, 110, 116, 105, 97, 108, 47, 108, 97, 121, 101, 114, 95, 48, 47, 67, 111, 110, 118, 50, 68, 0, 0, 0, 4, 0, 0, 0, 32, 0, 0, 0, 3, 0, 0, 0, 3, 0, 0, 0, 3, 0, 0, 0, 0, 0, 22, 0, 24, 0, 20, 0, 0, 0, 16, 0, 12, 0, 8, 0, 0, 0, 0, 0, 0, 0, 7, 0, 22, 0, 0, 0, 0, 0, 0, 1, 16, 0, 0, 0, 16, 0, 0, 0, 2, 0, 0, 0, 56, 0, 0, 0, 124, 255, 255, 255, 41, 0, 0, 0, 115, 101, 113, 117, 101, 110, 116, 105, 97, 108, 47, 108, 97, 121, 101, 114, 95, 48, 47, 66, 105, 97, 115, 65, 100, 100, 47, 82, 101, 97, 100, 86, 97, 114, 105, 97, 98, 108, 101, 79, 112, 0, 0, 0, 1, 0, 0, 0, 32, 0, 0, 0, 0, 0, 22, 0, 28, 0, 24, 0, 0, 0, 20, 0, 16, 0, 12, 0, 0, 0, 0, 0, 8, 0, 7, 0, 22, 0, 0, 0, 0, 0, 0, 1, 20, 0, 0, 0, 40, 0, 0, 0, 40, 0, 0, 0, 1, 0, 0, 0, 68, 0, 0, 0, 4, 0, 0, 0, 255, 255, 255, 255, 5, 0, 0, 0, 5, 0, 0, 0, 3, 0, 0, 0, 4, 0, 4, 0, 4, 0, 0, 0, 31, 0, 0, 0, 115, 101, 114, 118, 105, 110, 103, 95, 100, 101, 102, 97, 117, 108, 116, 95, 108, 97, 121, 101, 114, 95, 48, 95, 105, 110, 112, 117, 116, 58, 48, 0, 4, 0, 0, 0, 1, 0, 0, 0, 5, 0, 0, 0, 5, 0, 0, 0, 3, 0, 0, 0, 1, 0, 0, 0, 16, 0, 0, 0, 12, 0, 12, 0, 11, 0, 0, 0, 0, 0, 4, 0, 12, 0, 0, 0, 3, 0, 0, 0, 0, 0, 0, 3
};
