#pragma once

#include <cstdint>

const uint8_t layer_3[] = {
28, 0, 0, 0, 84, 70, 76, 51, 20, 0, 32, 0, 28, 0, 24, 0, 20, 0, 16, 0, 12, 0, 0, 0, 8, 0, 4, 0, 20, 0, 0, 0, 28, 0, 0, 0, 148, 0, 0, 0, 236, 0, 0, 0, 176, 2, 2, 0, 192, 2, 2, 0, 244, 4, 2, 0, 3, 0, 0, 0, 1, 0, 0, 0, 16, 0, 0, 0, 0, 0, 10, 0, 16, 0, 12, 0, 8, 0, 4, 0, 10, 0, 0, 0, 12, 0, 0, 0, 28, 0, 0, 0, 56, 0, 0, 0, 15, 0, 0, 0, 115, 101, 114, 118, 105, 110, 103, 95, 100, 101, 102, 97, 117, 108, 116, 0, 1, 0, 0, 0, 4, 0, 0, 0, 148, 255, 255, 255, 3, 0, 0, 0, 4, 0, 0, 0, 7, 0, 0, 0, 108, 97, 121, 101, 114, 95, 51, 0, 1, 0, 0, 0, 4, 0, 0, 0, 218, 254, 253, 255, 4, 0, 0, 0, 13, 0, 0, 0, 108, 97, 121, 101, 114, 95, 51, 95, 105, 110, 112, 117, 116, 0, 0, 0, 2, 0, 0, 0, 52, 0, 0, 0, 4, 0, 0, 0, 220, 255, 255, 255, 6, 0, 0, 0, 4, 0, 0, 0, 19, 0, 0, 0, 67, 79, 78, 86, 69, 82, 83, 73, 79, 78, 95, 77, 69, 84, 65, 68, 65, 84, 65, 0, 8, 0, 12, 0, 8, 0, 4, 0, 8, 0, 0, 0, 5, 0, 0, 0, 4, 0, 0, 0, 19, 0, 0, 0, 109, 105, 110, 95, 114, 117, 110, 116, 105, 109, 101, 95, 118, 101, 114, 115, 105, 111, 110, 0, 7, 0, 0, 0, 192, 1, 2, 0, 184, 1, 2, 0, 168, 0, 2, 0, 144, 0, 0, 0, 136, 0, 0, 0, 104, 0, 0, 0, 4, 0, 0, 0, 114, 255, 253, 255, 4, 0, 0, 0, 84, 0, 0, 0, 12, 0, 0, 0, 8, 0, 14, 0, 8, 0, 4, 0, 8, 0, 0, 0, 16, 0, 0, 0, 36, 0, 0, 0, 0, 0, 6, 0, 8, 0, 4, 0, 6, 0, 0, 0, 4, 0, 0, 0, 0, 0, 0, 0, 0, 0, 10, 0, 16, 0, 12, 0, 8, 0, 4, 0, 10, 0, 0, 0, 2, 0, 0, 0, 2, 0, 0, 0, 4, 0, 0, 0, 6, 0, 0, 0, 50, 46, 49, 51, 46, 48, 0, 0, 210, 255, 253, 255, 4, 0, 0, 0, 16, 0, 0, 0, 49, 46, 53, 46, 48, 0, 0, 0, 0, 0, 0, 0, 0, 0, 0, 0, 192, 252, 253, 255, 242, 255, 253, 255, 4, 0, 0, 0, 0, 0, 2, 0, 240, 166, 158, 61, 72, 202, 107, 188, 167, 165, 213, 189, 253, 18, 20, 61, 145, 16, 102, 189, 249, 32, 165, 61, 177, 139, 106, 61, 72, 108, 135, 60, 1, 169, 144, 61, 17, 9, 189, 189, 200, 214, 105, 61, 75, 47, 19, 61, 202, 175, 213, 61, 190, 244, 132, 188, 238, 169, 183, 189, 55, 33, 10, 188, 44, 38, 180, 60, 220, 49, 185, 189, 87, 81, 187, 188, 79, 85, 196, 61, 154, 24, 159, 61, 110, 206, 231, 189, 149, 186, 61, 61, 43, 221, 56, 61, 35, 237, 221, 61, 65, 29, 6, 61, 73, 31, 186, 61, 189, 67, 141, 61, 158, 199, 94, 188, 120, 150, 115, 61, 238, 226, 148, 60, 176, 112, 154, 58, 116, 54, 70, 61, 207, 213, 133, 59, 82, 224, 133, 189, 5, 131, 114, 61, 55, 8, 212, 61, 178, 80, 149, 61, 66, 133, 141, 189, 149, 144, 124, 60, 144, 223, 25, 189, 128, 51, 76, 61, 97, 53, 239, 61, 226, 20, 137, 61, 217, 144, 165, 188, 77, 236, 216, 61, 233, 197, 165, 189, 116, 42, 209, 60, 228, 9, 235, 61, 12, 151, 195, 61, 149, 167, 95, 189, 19, 93, 101, 188, 48, 109, 25, 189, 216, 173, 177, 189, 103, 178, 31, 61, 134, 112, 187, 189, 113, 161, 226, 61, 216, 2, 200, 60, 109, 253, 33, 189, 189, 236, 141, 61, 221, 234, 148, 188, 40, 206, 6, 188, 115, 87, 146, 189, 115, 2, 143, 60, 42, 132, 189, 61, 40, 182, 241, 60, 84, 176, 67, 189, 128, 177, 140, 61, 157, 171, 96, 189, 181, 9, 190, 61, 129, 192, 98, 61, 66, 211, 97, 61, 253, 47, 244, 61, 232, 172, 48, 61, 245, 194, 98, 189, 158, 61, 123, 60, 28, 91, 29, 189, 42, 115, 58, 61, 3, 84, 184, 58, 56, 61, 55, 188, 99, 181, 153, 60, 78, 162, 185, 60, 198, 242, 93, 189, 24, 60, 63, 59, 70, 62, 169, 61, 67, 245, 134, 186, 0, 25, 96, 61, 233, 188, 132, 188, 72, 121, 36, 60, 17, 175, 215, 187, 171, 174, 128, 189, 164, 60, 164, 61, 26, 111, 37, 189, 16, 247, 193, 61, 224, 104, 221, 59, 13, 139, 218, 61, 224, 126, 58, 61, 184, 233, 56, 189, 112, 190, 146, 61, 30, 82, 25, 189, 194, 2, 67, 60, 254, 26, 170, 189, 158, 107, 57, 189, 201, 227, 79, 61, 126, 127, 163, 60, 154, 139, 148, 61, 143, 254, 212, 188, 208, 77, 68, 61, 105, 224, 100, 62, 128, 46, 210, 60, 16, 231, 141, 188, 82, 215, 202, 61, 72, 59, 97, 62, 162, 7, 68, 189, 255, 139, 27, 189, 67, 1, 94, 189, 216, 19, 188, 60, 240, 210, 145, 189, 97, 85, 93, 189, 199, 210, 223, 61, 4, 192, 74, 62, 224, 22, 157, 61, 61, 69, 205, 61, 1, 2, 136, 60, 184, 41, 232, 188, 184, 180, 133, 60, 0, 47, 114, 61, 139, 213, 71, 188, 160, 201, 64, 189, 200, 195, 114, 61, 199, 109, 92, 189, 198, 140, 239, 61, 152, 170, 165, 61, 229, 226, 244, 60, 59, 133, 95, 189, 47, 184, 139, 61, 169, 118, 206, 61, 204, 175, 128, 188, 87, 227, 82, 189, 28, 33, 127, 189, 220, 10, 164, 189, 189, 88, 97, 61, 122, 2, 241, 61, 22, 142, 212, 188, 83, 52, 95, 190, 131, 15, 177, 61, 94, 12, 182, 61, 4, 64, 99, 61, 47, 18, 233, 59, 62, 243, 185, 61, 139, 136, 26, 189, 22, 42, 86, 61, 175, 59, 236, 189, 105, 71, 198, 61, 80, 219, 185, 61, 235, 69, 40, 188, 253, 131, 95, 60, 218, 120, 140, 60, 125, 188, 129, 61, 119, 47, 206, 59, 226, 129, 176, 61, 128, 100, 67, 61, 60, 36, 138, 189, 185, 130, 223, 61, 243, 73, 92, 189, 229, 197, 121, 189, 47, 62, 243, 60, 65, 50, 43, 188, 8, 174, 113, 61, 110, 25, 18, 60, 93, 80, 160, 61, 63, 83, 97, 188, 56, 130, 22, 62, 96, 197, 205, 60, 107, 132, 227, 59, 183, 252, 147, 188, 179, 100, 6, 62, 47, 222, 253, 59, 104, 73, 49, 189, 147, 99, 153, 59, 46, 211, 212, 61, 176, 123, 167, 189, 53, 224, 197, 61, 105, 84, 156, 189, 69, 4, 17, 186, 11, 81, 76, 189, 114, 47, 137, 61, 92, 0, 118, 189, 2, 68, 123, 189, 179, 79, 35, 189, 218, 117, 82, 61, 191, 153, 132, 189, 41, 143, 223, 61, 66, 120, 125, 189, 19, 70, 131, 59, 203, 13, 248, 188, 114, 250, 99, 61, 250, 116, 229, 187, 69, 202, 39, 189, 146, 153, 26, 189, 81, 14, 40, 60, 212, 32, 119, 189, 101, 196, 156, 60, 204, 143, 32, 61, 225, 79, 165, 188, 194, 115, 55, 189, 93, 232, 202, 60, 254, 226, 22, 61, 221, 11, 194, 189, 156, 160, 168, 61, 22, 245, 184, 61, 179, 14, 177, 61, 250, 221, 200, 60, 243, 232, 168, 61, 214, 188, 143, 61, 210, 146, 149, 61, 160, 48, 152, 189, 30, 203, 147, 60, 253, 245, 164, 185, 155, 183, 66, 61, 193, 216, 48, 187, 148, 192, 52, 61, 64, 220, 126, 189, 114, 114, 167, 189, 36, 83, 7, 61, 176, 250, 9, 61, 46, 89, 18, 189, 194, 22, 162, 188, 24, 185, 144, 61, 202, 148, 39, 189, 227, 154, 143, 59, 133, 213, 97, 189, 248, 181, 131, 189, 200, 140, 152, 188, 243, 147, 63, 188, 70, 42, 148, 61, 89, 55, 80, 62, 200, 230, 120, 188, 144, 209, 83, 61, 120, 101, 54, 61, 221, 211, 31, 62, 78, 64, 55, 188, 169, 20, 77, 61, 109, 76, 63, 61, 55, 253, 46, 189, 254, 254, 186, 189, 120, 195, 170, 61, 5, 236, 146, 61, 100, 104, 159, 62, 104, 251, 166, 189, 200, 44, 135, 189, 104, 251, 213, 60, 78, 230, 179, 61, 128, 246, 159, 186, 197, 155, 128, 61, 208, 122, 75, 61, 22, 199, 53, 189, 193, 50, 110, 60, 242, 114, 116, 189, 89, 39, 150, 188, 194, 96, 191, 189, 190, 165, 192, 189, 3, 88, 148, 189, 150, 169, 81, 189, 215, 229, 135, 189, 68, 31, 99, 61, 87, 171, 110, 189, 212, 119, 35, 189, 117, 198, 10, 190, 244, 8, 45, 189, 175, 136, 203, 61, 95, 55, 216, 189, 227, 22, 154, 61, 137, 235, 190, 189, 25, 31, 26, 189, 186, 166, 169, 61, 135, 144, 229, 61, 23, 69, 179, 188, 233, 62, 146, 189, 8, 127, 69, 189, 153, 60, 121, 189, 209, 90, 34, 61, 157, 219, 31, 190, 116, 178, 9, 189, 58, 176, 79, 61, 81, 203, 155, 189, 7, 217, 90, 189, 34, 230, 149, 188, 141, 67, 9, 189, 36, 3, 154, 189, 33, 15, 23, 60, 13, 137, 129, 61, 235, 255, 163, 61, 186, 184, 28, 61, 239, 156, 141, 189, 218, 4, 63, 61, 178, 32, 166, 189, 149, 150, 111, 189, 21, 24, 214, 59, 108, 17, 182, 60, 14, 76, 4, 62, 194, 179, 101, 61, 85, 199, 157, 189, 64, 182, 75, 187, 174, 184, 154, 189, 138, 91, 199, 61, 79, 54, 119, 61, 249, 175, 5, 61, 45, 108, 139, 61, 36, 93, 175, 60, 206, 205, 17, 189, 86, 197, 211, 189, 243, 165, 237, 61, 133, 195, 103, 189, 198, 121, 211, 61, 21, 83, 130, 61, 7, 92, 210, 188, 235, 254, 121, 189, 157, 203, 96, 189, 236, 241, 70, 61, 72, 63, 228, 60, 246, 228, 64, 189, 138, 10, 9, 189, 125, 65, 184, 189, 180, 251, 133, 189, 139, 109, 126, 189, 102, 94, 168, 60, 177, 109, 132, 61, 201, 26, 155, 60, 108, 222, 87, 189, 210, 255, 134, 189, 104, 202, 66, 187, 125, 218, 134, 61, 208, 40, 49, 61, 226, 81, 49, 61, 107, 64, 173, 187, 237, 201, 81, 189, 105, 206, 171, 188, 224, 138, 248, 61, 214, 52, 245, 61, 13, 171, 57, 60, 140, 40, 139, 61, 193, 174, 131, 61, 229, 85, 162, 61, 173, 196, 43, 189, 120, 56, 143, 61, 254, 215, 30, 189, 214, 173, 185, 189, 60, 112, 209, 188, 81, 27, 128, 61, 78, 148, 119, 189, 81, 217, 161, 189, 64, 124, 224, 188, 144, 198, 63, 189, 230, 26, 172, 61, 68, 251, 17, 60, 53, 185, 199, 60, 128, 137, 134, 61, 64, 213, 78, 188, 30, 58, 42, 187, 58, 169, 215, 61, 240, 14, 78, 61, 252, 233, 31, 189, 192, 184, 67, 59, 170, 188, 0, 62, 0, 122, 215, 188, 115, 85, 202, 189, 211, 98, 248, 59, 92, 167, 140, 62, 196, 66, 135, 189, 121, 27, 42, 61, 7, 90, 131, 188, 219, 112, 63, 189, 94, 101, 184, 61, 165, 219, 157, 188, 213, 206, 125, 189, 101, 140, 76, 62, 18, 237, 75, 189, 52, 36, 165, 61, 172, 111, 146, 188, 234, 58, 200, 61, 212, 153, 223, 188, 53, 7, 138, 59, 235, 7, 192, 61, 160, 57, 110, 189, 122, 115, 176, 61, 201, 94, 150, 60, 41, 166, 24, 189, 170, 184, 223, 187, 128, 8, 185, 60, 15, 96, 76, 189, 69, 28, 228, 61, 12, 143, 31, 61, 26, 180, 147, 61, 92, 106, 193, 189, 139, 95, 103, 187, 230, 165, 192, 61, 233, 195, 35, 61, 197, 80, 21, 61, 227, 156, 140, 189, 49, 86, 114, 189, 36, 22, 130, 189, 70, 166, 227, 61, 68, 113, 247, 60, 150, 197, 172, 61, 110, 196, 160, 189, 55, 73, 182, 189, 1, 197, 39, 61, 172, 194, 58, 190, 254, 137, 182, 60, 246, 254, 228, 59, 110, 95, 182, 61, 129, 239, 161, 61, 0, 109, 213, 188, 90, 78, 153, 61, 79, 79, 147, 60, 159, 115, 152, 189, 96, 92, 129, 189, 210, 37, 126, 189, 196, 146, 147, 189, 134, 21, 91, 188, 66, 241, 108, 189, 24, 237, 219, 61, 84, 195, 78, 61, 100, 165, 180, 188, 192, 218, 247, 58, 33, 23, 134, 189, 61, 140, 233, 189, 212, 94, 173, 188, 59, 231, 139, 189, 72, 191, 13, 189, 53, 98, 136, 61, 29, 186, 137, 61, 124, 217, 93, 189, 12, 19, 28, 60, 97, 198, 176, 61, 178, 42, 159, 59, 168, 215, 122, 61, 140, 204, 161, 189, 222, 97, 194, 189, 104, 242, 255, 61, 108, 133, 154, 187, 58, 79, 127, 61, 170, 143, 237, 61, 66, 83, 202, 60, 94, 144, 220, 60, 146, 39, 63, 61, 139, 134, 131, 189, 71, 244, 63, 189, 241, 50, 183, 61, 119, 200, 44, 189, 167, 225, 144, 61, 214, 235, 144, 189, 186, 15, 240, 60, 108, 45, 43, 61, 16, 20, 87, 189, 114, 41, 134, 60, 169, 94, 181, 61, 93, 153, 57, 61, 32, 216, 167, 189, 103, 244, 213, 61, 154, 60, 12, 189, 86, 209, 59, 189, 159, 138, 88, 189, 244, 84, 143, 61, 219, 53, 152, 60, 130, 71, 72, 60, 225, 60, 220, 189, 32, 128, 8, 189, 8, 186, 142, 189, 123, 137, 158, 61, 93, 168, 160, 61, 79, 99, 207, 189, 225, 18, 122, 61, 163, 169, 124, 58, 119, 155, 47, 189, 215, 61, 83, 187, 54, 202, 140, 61, 88, 100, 166, 188, 2, 251, 188, 61, 204, 11, 32, 189, 14, 199, 125, 189, 24, 66, 61, 188, 216, 103, 100, 189, 98, 144, 103, 188, 23, 38, 193, 188, 114, 235, 162, 189, 68, 76, 201, 61, 144, 194, 130, 60, 213, 140, 68, 189, 19, 164, 86, 189, 148, 147, 33, 190, 30, 75, 133, 189, 130, 163, 206, 189, 154, 151, 82, 60, 118, 12, 158, 189, 58, 155, 223, 59, 190, 251, 196, 189, 124, 158, 159, 189, 235, 144, 40, 189, 96, 239, 173, 189, 84, 110, 15, 189, 103, 116, 196, 189, 116, 180, 28, 189, 187, 175, 134, 190, 186, 48, 92, 189, 74, 170, 151, 189, 149, 248, 173, 61, 31, 31, 72, 61, 240, 199, 148, 188, 163, 24, 224, 189, 131, 12, 96, 61, 120, 57, 158, 61, 144, 100, 210, 60, 128, 140, 50, 188, 125, 222, 104, 60, 119, 176, 187, 188, 228, 55, 213, 189, 183, 219, 165, 60, 137, 196, 214, 189, 150, 247, 103, 188, 94, 160, 159, 189, 175, 98, 236, 60, 139, 178, 209, 189, 144, 79, 238, 60, 232, 94, 205, 61, 192, 176, 105, 61, 88, 38, 209, 189, 48, 163, 69, 61, 20, 125, 152, 188, 131, 225, 97, 60, 34, 179, 122, 189, 184, 10, 77, 188, 172, 65, 33, 189, 116, 32, 146, 61, 213, 78, 229, 187, 82, 57, 192, 61, 199, 101, 252, 58, 163, 197, 254, 60, 5, 57, 51, 189, 68, 187, 222, 189, 164, 175, 50, 61, 17, 65, 101, 189, 207, 14, 151, 187, 189, 31, 194, 59, 140, 117, 203, 61, 94, 231, 144, 189, 140, 116, 106, 189, 172, 164, 166, 189, 18, 63, 182, 189, 88, 74, 76, 61, 14, 38, 156, 189, 5, 31, 141, 188, 232, 3, 188, 188, 192, 253, 111, 61, 253, 186, 140, 60, 88, 250, 31, 60, 214, 150, 60, 189, 254, 166, 152, 60, 82, 95, 152, 189, 51, 53, 55, 189, 27, 82, 100, 188, 32, 243, 171, 61, 136, 89, 235, 60, 178, 156, 53, 189, 130, 58, 14, 61, 84, 239, 30, 189, 58, 56, 91, 59, 202, 206, 149, 189, 74, 237, 17, 61, 55, 228, 78, 189, 170, 22, 159, 189, 210, 140, 189, 189, 120, 221, 70, 188, 99, 169, 227, 60, 184, 253, 151, 60, 120, 74, 39, 61, 6, 79, 128, 61, 0, 70, 195, 187, 44, 44, 70, 189, 219, 252, 147, 189, 142, 160, 200, 189, 222, 149, 128, 61, 193, 187, 49, 61, 247, 58, 62, 189, 60, 243, 184, 189, 53, 202, 12, 60, 248, 70, 238, 60, 56, 94, 216, 188, 40, 88, 132, 61, 219, 127, 97, 188, 63, 39, 175, 189, 61, 154, 176, 189, 98, 230, 18, 61, 50, 130, 69, 189, 234, 129, 164, 189, 26, 104, 206, 61, 86, 50, 49, 61, 143, 176, 128, 189, 109, 61, 255, 188, 126, 92, 214, 189, 141, 49, 133, 60, 218, 208, 136, 61, 77, 194, 188, 188, 55, 98, 95, 60, 130, 45, 41, 189, 242, 157, 184, 189, 177, 50, 159, 60, 128, 126, 245, 58, 68, 77, 135, 189, 125, 108, 184, 189, 169, 67, 168, 189, 138, 62, 179, 187, 95, 102, 7, 61, 66, 138, 16, 189, 130, 65, 15, 189, 19, 161, 163, 61, 112, 145, 205, 60, 212, 204, 176, 61, 160, 47, 106, 61, 144, 62, 137, 189, 208, 138, 194, 187, 154, 250, 14, 189, 25, 212, 148, 61, 98, 44, 41, 189, 236, 255, 98, 61, 93, 29, 10, 189, 24, 150, 162, 188, 203, 1, 166, 189, 96, 4, 11, 61, 216, 191, 62, 189, 44, 28, 177, 61, 146, 3, 150, 61, 131, 47, 9, 189, 220, 1, 17, 61, 187, 77, 74, 61, 69, 6, 101, 188, 125, 142, 202, 189, 103, 80, 193, 189, 196, 15, 253, 188, 110, 65, 190, 61, 204, 43, 205, 188, 248, 19, 95, 189, 53, 54, 124, 189, 22, 234, 151, 61, 151, 138, 20, 61, 90, 89, 173, 188, 53, 2, 217, 189, 207, 6, 84, 61, 0, 6, 235, 187, 210, 251, 148, 189, 220, 92, 167, 61, 92, 210, 140, 60, 88, 138, 3, 61, 30, 138, 195, 189, 46, 120, 233, 60, 115, 20, 114, 189, 224, 218, 199, 189, 75, 173, 194, 188, 195, 71, 188, 60, 79, 127, 152, 61, 200, 24, 181, 60, 1, 88, 31, 61, 166, 110, 118, 189, 140, 181, 166, 61, 229, 221, 146, 189, 19, 149, 178, 189, 13, 200, 122, 189, 207, 207, 59, 189, 116, 65, 105, 61, 102, 88, 158, 189, 31, 226, 107, 60, 202, 229, 32, 61, 101, 137, 84, 189, 147, 191, 8, 189, 76, 109, 164, 61, 21, 102, 154, 61, 24, 2, 145, 189, 40, 84, 68, 60, 222, 194, 129, 61, 33, 205, 135, 61, 16, 54, 147, 189, 159, 172, 110, 61, 149, 48, 181, 61, 192, 114, 179, 188, 47, 244, 121, 59, 179, 200, 173, 61, 44, 88, 246, 188, 242, 44, 133, 189, 136, 26, 134, 189, 89, 209, 65, 189, 227, 24, 37, 61, 59, 157, 243, 58, 8, 90, 58, 61, 174, 169, 140, 60, 24, 112, 137, 189, 114, 99, 201, 61, 70, 134, 37, 61, 160, 56, 94, 59, 49, 238, 76, 60, 68, 171, 145, 61, 213, 218, 159, 61, 49, 21, 73, 61, 138, 167, 138, 59, 5, 188, 222, 60, 88, 60, 19, 60, 56, 233, 16, 60, 211, 255, 146, 189, 70, 188, 78, 188, 59, 223, 131, 61, 251, 118, 138, 189, 151, 245, 104, 189, 62, 107, 187, 189, 106, 19, 82, 189, 139, 11, 42, 61, 111, 59, 42, 189, 42, 1, 177, 61, 112, 156, 168, 61, 211, 81, 207, 189, 40, 181, 127, 61, 59, 120, 174, 188, 119, 154, 147, 61, 159, 77, 42, 61, 175, 254, 41, 189, 154, 75, 37, 189, 216, 196, 235, 60, 197, 171, 62, 189, 8, 46, 7, 189, 209, 242, 150, 61, 136, 144, 166, 61, 48, 113, 168, 189, 162, 253, 148, 188, 213, 235, 148, 61, 216, 78, 133, 61, 224, 12, 123, 189, 206, 183, 221, 189, 128, 63, 26, 188, 166, 79, 196, 61, 160, 47, 131, 188, 132, 174, 147, 189, 22, 221, 216, 188, 164, 101, 180, 189, 247, 121, 20, 189, 148, 189, 119, 61, 203, 9, 145, 61, 60, 250, 135, 61, 199, 164, 175, 189, 66, 192, 198, 61, 174, 234, 145, 189, 252, 77, 130, 189, 252, 202, 70, 61, 177, 59, 109, 61, 184, 217, 244, 60, 196, 144, 11, 61, 232, 108, 135, 61, 212, 126, 78, 61, 138, 45, 165, 61, 84, 86, 235, 188, 72, 221, 154, 61, 8, 122, 64, 188, 108, 174, 148, 188, 100, 230, 220, 60, 100, 23, 161, 61, 95, 71, 136, 61, 132, 141, 190, 60, 34, 105, 133, 61, 68, 163, 153, 187, 84, 96, 151, 60, 54, 15, 204, 61, 248, 12, 190, 61, 242, 60, 12, 189, 236, 202, 47, 61, 72, 80, 196, 189, 145, 45, 81, 188, 169, 2, 135, 189, 124, 216, 149, 60, 28, 74, 60, 189, 104, 112, 76, 188, 143, 87, 135, 60, 16, 85, 27, 61, 96, 61, 147, 189, 4, 216, 173, 189, 210, 103, 137, 61, 87, 236, 164, 61, 226, 235, 158, 61, 112, 78, 53, 61, 61, 103, 166, 189, 244, 66, 144, 60, 16, 147, 200, 60, 252, 157, 139, 60, 246, 2, 85, 61, 118, 113, 93, 60, 94, 131, 177, 61, 162, 93, 163, 61, 216, 103, 102, 61, 255, 0, 43, 61, 92, 95, 191, 188, 178, 53, 147, 61, 150, 131, 197, 189, 227, 230, 142, 189, 58, 177, 149, 184, 244, 10, 147, 61, 9, 94, 139, 189, 76, 44, 71, 189, 191, 154, 33, 188, 19, 98, 23, 61, 191, 69, 59, 189, 39, 112, 235, 188, 21, 55, 67, 189, 216, 150, 161, 189, 117, 241, 192, 188, 147, 68, 190, 189, 30, 192, 22, 189, 126, 253, 146, 61, 119, 30, 92, 60, 0, 119, 37, 189, 108, 93, 224, 188, 232, 212, 54, 61, 181, 0, 151, 189, 158, 239, 143, 60, 182, 65, 190, 189, 215, 86, 25, 61, 75, 7, 234, 188, 72, 8, 146, 189, 198, 134, 164, 189, 232, 149, 172, 61, 104, 26, 91, 61, 78, 112, 31, 61, 79, 130, 118, 189, 142, 209, 71, 189, 138, 19, 61, 189, 189, 213, 213, 189, 55, 26, 28, 61, 172, 205, 20, 189, 232, 105, 135, 61, 51, 229, 214, 188, 185, 49, 131, 189, 42, 202, 119, 189, 111, 83, 254, 60, 82, 76, 131, 60, 233, 225, 120, 189, 236, 25, 90, 189, 214, 122, 165, 60, 137, 33, 125, 189, 64, 232, 209, 188, 5, 19, 142, 188, 244, 219, 4, 61, 99, 242, 29, 58, 252, 96, 241, 59, 117, 142, 48, 61, 37, 112, 156, 189, 204, 239, 172, 61, 80, 131, 15, 189, 24, 106, 249, 188, 114, 191, 179, 61, 54, 48, 211, 60, 19, 177, 102, 188, 146, 69, 76, 189, 128, 122, 83, 186, 57, 126, 104, 61, 91, 229, 34, 61, 244, 228, 145, 188, 70, 151, 40, 61, 59, 126, 70, 61, 164, 217, 3, 61, 40, 44, 77, 189, 37, 169, 163, 189, 24, 93, 23, 61, 53, 138, 58, 60, 58, 188, 204, 189, 201, 112, 189, 61, 56, 6, 58, 61, 154, 59, 107, 61, 14, 62, 91, 189, 241, 24, 246, 188, 136, 31, 236, 60, 208, 196, 179, 60, 188, 224, 49, 61, 48, 230, 200, 61, 8, 40, 106, 189, 200, 136, 77, 188, 81, 249, 53, 189, 151, 226, 6, 189, 184, 203, 211, 188, 108, 79, 142, 188, 90, 206, 148, 189, 56, 96, 142, 189, 120, 52, 151, 61, 200, 168, 92, 61, 171, 137, 137, 189, 12, 154, 26, 61, 135, 163, 68, 61, 96, 42, 83, 189, 22, 103, 195, 61, 188, 219, 100, 189, 74, 199, 66, 189, 224, 237, 77, 187, 152, 76, 204, 188, 187, 48, 198, 189, 7, 105, 6, 61, 86, 237, 48, 189, 31, 215, 100, 61, 195, 16, 83, 59, 55, 133, 24, 61, 26, 16, 78, 61, 88, 238, 73, 60, 40, 108, 195, 189, 84, 249, 91, 61, 216, 193, 37, 60, 196, 159, 12, 189, 111, 194, 199, 189, 245, 76, 157, 61, 132, 155, 16, 61, 22, 46, 13, 189, 48, 26, 69, 188, 229, 28, 217, 188, 140, 156, 40, 61, 64, 83, 165, 61, 54, 122, 49, 61, 227, 67, 104, 61, 224, 151, 15, 187, 97, 176, 198, 60, 64, 58, 139, 60, 119, 134, 159, 61, 74, 0, 212, 59, 128, 255, 251, 186, 247, 48, 119, 61, 81, 193, 147, 61, 101, 125, 78, 189, 24, 235, 169, 189, 255, 92, 104, 61, 187, 72, 100, 60, 161, 93, 216, 60, 246, 137, 80, 189, 112, 55, 39, 60, 99, 220, 4, 61, 55, 138, 154, 189, 223, 68, 144, 189, 26, 179, 63, 189, 87, 52, 90, 61, 249, 213, 207, 59, 138, 27, 171, 189, 209, 131, 31, 189, 40, 3, 211, 60, 221, 111, 53, 61, 148, 238, 152, 60, 113, 31, 83, 61, 247, 26, 12, 60, 216, 225, 51, 189, 121, 204, 191, 189, 135, 68, 200, 189, 162, 146, 33, 188, 206, 191, 140, 189, 111, 251, 193, 189, 75, 161, 67, 189, 171, 109, 81, 61, 149, 15, 179, 189, 70, 86, 203, 61, 61, 1, 53, 61, 3, 195, 183, 60, 111, 95, 132, 188, 243, 120, 194, 189, 173, 196, 126, 189, 97, 229, 166, 189, 156, 69, 203, 59, 172, 118, 171, 189, 61, 221, 164, 61, 176, 101, 205, 189, 245, 251, 153, 61, 128, 235, 75, 189, 106, 15, 167, 61, 34, 137, 99, 60, 107, 119, 22, 61, 219, 188, 60, 61, 212, 113, 219, 188, 229, 148, 133, 61, 72, 204, 199, 189, 213, 167, 158, 189, 135, 254, 220, 188, 182, 217, 103, 188, 204, 126, 197, 189, 218, 168, 154, 60, 132, 201, 179, 189, 143, 119, 151, 61, 127, 62, 12, 188, 125, 205, 153, 60, 238, 37, 150, 188, 248, 34, 129, 189, 156, 21, 78, 60, 216, 73, 221, 58, 30, 66, 135, 60, 28, 154, 20, 189, 152, 77, 172, 188, 240, 159, 99, 188, 216, 4, 198, 60, 149, 82, 105, 61, 247, 208, 159, 189, 207, 253, 42, 188, 144, 123, 220, 189, 205, 50, 47, 189, 22, 222, 129, 189, 12, 104, 176, 61, 216, 185, 25, 189, 22, 117, 134, 61, 131, 28, 42, 189, 120, 195, 112, 61, 195, 98, 140, 189, 250, 238, 37, 60, 12, 206, 204, 188, 240, 209, 20, 189, 243, 124, 198, 183, 208, 140, 204, 61, 64, 118, 219, 60, 192, 25, 236, 187, 235, 125, 185, 61, 101, 240, 162, 59, 44, 17, 89, 61, 30, 187, 175, 61, 198, 60, 150, 189, 141, 14, 175, 59, 195, 205, 189, 189, 116, 144, 171, 61, 164, 43, 143, 61, 7, 142, 207, 189, 194, 234, 204, 61, 48, 91, 101, 61, 73, 80, 40, 189, 56, 145, 20, 60, 188, 11, 110, 189, 6, 176, 58, 189, 84, 157, 16, 61, 56, 43, 18, 60, 64, 145, 61, 59, 44, 42, 36, 61, 153, 191, 91, 189, 160, 249, 148, 61, 174, 89, 185, 189, 182, 71, 173, 189, 156, 177, 193, 189, 174, 21, 22, 189, 153, 4, 158, 189, 217, 50, 148, 189, 220, 150, 187, 188, 152, 138, 167, 61, 12, 78, 166, 189, 105, 170, 195, 189, 228, 13, 188, 61, 96, 40, 218, 60, 27, 20, 160, 189, 100, 146, 52, 61, 22, 42, 14, 189, 177, 41, 205, 189, 195, 8, 78, 189, 117, 212, 136, 189, 59, 30, 66, 189, 224, 167, 180, 189, 145, 135, 154, 189, 124, 165, 167, 189, 64, 185, 5, 61, 163, 45, 76, 189, 90, 210, 128, 189, 36, 35, 108, 61, 40, 122, 146, 61, 0, 160, 120, 55, 120, 42, 68, 61, 134, 141, 192, 61, 128, 255, 101, 188, 32, 242, 116, 189, 54, 73, 134, 189, 240, 164, 216, 60, 8, 70, 171, 61, 134, 79, 94, 189, 190, 136, 34, 189, 245, 224, 146, 189, 192, 208, 193, 58, 220, 154, 244, 188, 3, 196, 54, 189, 128, 75, 71, 58, 208, 5, 215, 60, 224, 208, 237, 59, 214, 0, 130, 189, 206, 113, 107, 189, 8, 120, 193, 60, 67, 166, 72, 189, 84, 200, 105, 61, 120, 91, 139, 61, 160, 193, 45, 188, 69, 85, 46, 189, 219, 245, 141, 189, 24, 30, 17, 188, 168, 50, 120, 188, 72, 228, 68, 61, 68, 129, 110, 61, 182, 157, 169, 61, 124, 142, 146, 188, 156, 40, 60, 61, 121, 67, 161, 189, 207, 160, 156, 189, 144, 252, 33, 189, 124, 143, 164, 61, 155, 254, 197, 189, 127, 82, 117, 189, 144, 109, 173, 61, 20, 48, 153, 60, 112, 16, 199, 59, 188, 30, 122, 61, 217, 189, 87, 189, 246, 87, 192, 61, 70, 152, 156, 189, 48, 23, 12, 189, 140, 37, 215, 188, 28, 121, 196, 61, 175, 112, 175, 189, 20, 62, 121, 61, 112, 172, 174, 187, 136, 249, 20, 188, 64, 91, 238, 58, 62, 217, 137, 61, 179, 0, 165, 189, 102, 53, 207, 189, 236, 133, 181, 61, 120, 13, 110, 61, 112, 119, 151, 61, 166, 159, 1, 189, 124, 46, 171, 189, 204, 81, 171, 61, 200, 164, 196, 189, 40, 61, 73, 60, 190, 129, 142, 189, 192, 194, 244, 186, 192, 135, 213, 58, 34, 134, 143, 189, 248, 18, 6, 188, 16, 98, 31, 188, 192, 34, 70, 59, 64, 145, 23, 60, 44, 101, 144, 189, 96, 8, 9, 188, 152, 80, 53, 60, 168, 114, 104, 61, 176, 83, 184, 60, 30, 153, 161, 189, 0, 72, 51, 188, 232, 208, 58, 61, 72, 157, 74, 61, 0, 91, 43, 188, 52, 79, 16, 189, 72, 62, 228, 188, 109, 221, 72, 189, 8, 145, 90, 61, 250, 161, 190, 189, 48, 117, 142, 61, 162, 209, 165, 61, 48, 46, 133, 188, 91, 82, 172, 189, 202, 109, 156, 61, 228, 117, 144, 60, 208, 63, 176, 59, 178, 112, 166, 189, 176, 76, 255, 59, 247, 217, 68, 189, 124, 108, 199, 189, 170, 9, 130, 61, 232, 102, 17, 61, 9, 187, 80, 189, 0, 255, 177, 185, 8, 37, 126, 61, 109, 155, 197, 189, 80, 204, 152, 187, 100, 160, 198, 188, 252, 215, 92, 61, 195, 51, 145, 189, 159, 14, 187, 189, 192, 148, 112, 188, 100, 99, 179, 60, 94, 19, 181, 61, 109, 174, 164, 189, 232, 122, 243, 60, 0, 16, 230, 188, 26, 58, 187, 61, 236, 23, 161, 188, 216, 213, 196, 60, 144, 171, 188, 61, 15, 171, 145, 189, 192, 78, 214, 186, 14, 251, 184, 61, 88, 95, 23, 61, 13, 104, 73, 189, 140, 34, 254, 188, 106, 220, 147, 61, 196, 88, 193, 189, 104, 173, 72, 189, 190, 130, 132, 189, 120, 5, 90, 60, 200, 222, 190, 61, 216, 254, 99, 60, 116, 50, 71, 61, 128, 25, 137, 187, 188, 68, 122, 61, 116, 242, 128, 188, 188, 231, 116, 61, 72, 141, 244, 188, 48, 69, 71, 188, 228, 151, 207, 189, 120, 26, 166, 189, 234, 198, 129, 61, 63, 255, 77, 189, 12, 125, 149, 60, 180, 184, 9, 189, 100, 149, 175, 61, 8, 86, 103, 60, 40, 26, 87, 188, 73, 129, 188, 189, 22, 48, 22, 189, 0, 239, 12, 61, 64, 254, 66, 60, 218, 189, 208, 189, 160, 19, 29, 187, 192, 136, 155, 189, 84, 21, 168, 188, 228, 234, 180, 61, 101, 16, 178, 189, 144, 51, 29, 61, 150, 51, 203, 61, 174, 41, 200, 61, 212, 151, 115, 189, 152, 87, 197, 60, 76, 160, 8, 61, 144, 90, 160, 187, 52, 254, 165, 60, 140, 225, 85, 61, 80, 13, 4, 61, 120, 74, 129, 188, 252, 61, 215, 188, 216, 224, 142, 61, 10, 232, 178, 189, 0, 176, 157, 60, 11, 148, 141, 189, 64, 133, 188, 59, 64, 97, 186, 188, 34, 234, 154, 189, 40, 227, 67, 189, 224, 202, 138, 187, 202, 117, 142, 189, 28, 25, 82, 61, 240, 184, 189, 60, 16, 62, 32, 61, 236, 82, 2, 61, 40, 255, 36, 189, 232, 123, 31, 60, 124, 9, 50, 61, 150, 221, 188, 61, 8, 111, 219, 60, 80, 30, 100, 61, 177, 109, 178, 189, 172, 164, 231, 188, 202, 176, 143, 61, 40, 25, 195, 188, 160, 96, 200, 187, 154, 113, 139, 189, 53, 217, 176, 189, 84, 184, 173, 188, 192, 127, 246, 58, 238, 213, 134, 61, 107, 41, 180, 189, 144, 101, 133, 60, 200, 22, 165, 60, 110, 40, 205, 61, 244, 110, 12, 61, 112, 142, 203, 187, 223, 179, 178, 189, 16, 7, 178, 188, 224, 7, 203, 188, 41, 249, 81, 189, 92, 240, 91, 61, 176, 189, 227, 188, 236, 127, 76, 61, 248, 25, 83, 188, 72, 164, 198, 60, 115, 86, 108, 189, 76, 207, 135, 60, 120, 130, 181, 60, 12, 204, 1, 189, 180, 60, 7, 61, 160, 82, 227, 188, 196, 159, 169, 61, 220, 61, 5, 189, 232, 15, 172, 188, 138, 25, 169, 189, 128, 93, 180, 187, 215, 217, 173, 189, 24, 25, 35, 60, 133, 147, 159, 189, 219, 228, 153, 189, 98, 169, 174, 61, 26, 85, 79, 189, 134, 195, 0, 189, 112, 65, 214, 60, 45, 111, 144, 189, 191, 74, 51, 189, 128, 30, 149, 186, 188, 248, 193, 189, 105, 33, 170, 189, 101, 16, 164, 189, 80, 8, 116, 60, 38, 63, 198, 61, 139, 70, 199, 189, 192, 120, 194, 60, 200, 36, 40, 61, 162, 35, 182, 61, 248, 194, 23, 61, 16, 41, 48, 188, 124, 39, 165, 189, 252, 101, 126, 61, 40, 122, 177, 189, 208, 223, 33, 61, 96, 106, 165, 60, 134, 142, 28, 189, 112, 35, 232, 188, 110, 12, 149, 189, 42, 26, 178, 189, 50, 187, 177, 61, 132, 132, 197, 61, 246, 118, 24, 189, 220, 103, 146, 61, 56, 74, 120, 189, 244, 75, 177, 61, 0, 248, 174, 59, 87, 177, 162, 189, 96, 92, 128, 61, 224, 45, 188, 60, 186, 122, 193, 61, 128, 106, 170, 61, 8, 25, 116, 188, 166, 131, 177, 189, 158, 26, 176, 189, 40, 231, 178, 61, 40, 109, 173, 188, 146, 203, 171, 61, 66, 227, 135, 189, 0, 41, 112, 61, 154, 247, 155, 61, 60, 242, 103, 189, 156, 253, 187, 61, 8, 186, 93, 61, 103, 160, 128, 189, 228, 124, 158, 61, 84, 6, 238, 188, 84, 211, 135, 61, 16, 154, 97, 188, 168, 89, 143, 61, 4, 33, 164, 188, 114, 15, 137, 61, 164, 226, 43, 61, 145, 188, 171, 189, 85, 103, 139, 189, 232, 56, 104, 188, 14, 132, 160, 61, 144, 22, 129, 61, 152, 181, 147, 60, 29, 51, 125, 189, 144, 107, 137, 59, 232, 188, 154, 189, 48, 158, 51, 61, 171, 54, 177, 189, 48, 233, 104, 188, 24, 208, 125, 188, 54, 164, 149, 189, 178, 224, 181, 189, 61, 254, 118, 189, 54, 138, 139, 189, 156, 58, 244, 188, 131, 137, 193, 189, 88, 172, 78, 189, 108, 160, 157, 189, 143, 235, 169, 189, 109, 155, 183, 189, 16, 241, 242, 188, 144, 168, 115, 60, 120, 21, 172, 188, 208, 57, 149, 59, 94, 214, 133, 189, 112, 30, 38, 61, 0, 210, 54, 59, 84, 82, 221, 188, 3, 212, 140, 189, 54, 6, 133, 61, 192, 214, 201, 61, 62, 42, 131, 189, 66, 173, 171, 61, 84, 189, 175, 188, 54, 168, 178, 61, 160, 105, 168, 189, 96, 176, 159, 187, 60, 210, 114, 189, 90, 182, 204, 189, 82, 40, 154, 61, 0, 170, 95, 189, 159, 203, 171, 189, 222, 249, 207, 61, 153, 239, 139, 189, 58, 4, 141, 61, 124, 225, 100, 61, 0, 142, 39, 58, 60, 120, 52, 61, 180, 21, 196, 61, 240, 176, 108, 188, 176, 234, 20, 61, 194, 86, 158, 61, 236, 174, 48, 61, 184, 206, 231, 60, 51, 57, 84, 189, 0, 102, 217, 60, 60, 105, 187, 188, 66, 194, 153, 61, 174, 39, 141, 189, 224, 57, 187, 60, 136, 17, 6, 188, 0, 188, 26, 61, 102, 175, 130, 61, 192, 28, 8, 187, 176, 44, 210, 187, 15, 29, 147, 189, 24, 94, 175, 60, 68, 252, 174, 188, 88, 178, 130, 60, 41, 161, 154, 189, 144, 82, 52, 188, 24, 33, 109, 189, 148, 206, 204, 189, 28, 202, 64, 61, 4, 109, 160, 188, 138, 20, 82, 189, 230, 231, 177, 189, 64, 136, 76, 187, 160, 246, 141, 188, 134, 251, 140, 61, 29, 175, 164, 189, 52, 6, 56, 61, 4, 122, 211, 188, 176, 220, 172, 61, 218, 106, 144, 61, 216, 225, 24, 60, 76, 135, 150, 189, 108, 62, 58, 61, 184, 111, 179, 61, 20, 23, 169, 61, 232, 196, 26, 61, 254, 23, 139, 189, 108, 113, 180, 189, 16, 91, 207, 61, 240, 210, 184, 187, 147, 36, 183, 189, 194, 3, 138, 61, 142, 70, 198, 61, 152, 30, 168, 61, 84, 54, 172, 61, 136, 213, 19, 188, 244, 138, 229, 188, 114, 181, 126, 189, 222, 112, 168, 61, 50, 138, 168, 189, 68, 67, 140, 61, 24, 106, 200, 60, 0, 166, 244, 187, 208, 123, 131, 60, 20, 83, 206, 61, 252, 143, 64, 189, 124, 114, 152, 61, 78, 247, 190, 61, 88, 113, 200, 189, 184, 33, 170, 61, 114, 49, 193, 61, 148, 239, 7, 61, 247, 54, 62, 189, 80, 1, 197, 60, 118, 101, 201, 61, 117, 5, 74, 189, 108, 120, 150, 189, 128, 28, 136, 61, 240, 27, 55, 61, 158, 69, 156, 189, 85, 227, 77, 189, 38, 254, 173, 61, 4, 63, 184, 61, 48, 199, 167, 59, 156, 91, 32, 61, 12, 96, 131, 61, 14, 214, 195, 189, 132, 81, 187, 188, 238, 1, 150, 189, 112, 250, 8, 61, 38, 193, 138, 61, 4, 15, 206, 61, 8, 211, 158, 188, 122, 124, 160, 61, 232, 201, 7, 189, 62, 14, 44, 189, 100, 80, 87, 61, 72, 189, 27, 61, 148, 214, 123, 61, 244, 130, 198, 188, 52, 98, 207, 61, 0, 96, 132, 57, 56, 72, 137, 61, 43, 100, 175, 189, 20, 88, 137, 60, 0, 109, 9, 188, 178, 140, 17, 189, 54, 13, 193, 61, 205, 206, 161, 189, 238, 215, 21, 189, 232, 53, 12, 188, 72, 107, 14, 61, 215, 131, 168, 189, 18, 98, 14, 189, 80, 172, 127, 188, 63, 21, 66, 189, 197, 209, 185, 189, 178, 153, 186, 61, 136, 81, 181, 60, 234, 207, 32, 189, 27, 62, 169, 189, 194, 244, 59, 189, 248, 200, 87, 61, 6, 49, 134, 189, 13, 103, 207, 189, 4, 243, 7, 189, 128, 240, 80, 60, 200, 51, 24, 61, 82, 253, 181, 61, 31, 76, 188, 189, 246, 230, 148, 189, 125, 81, 149, 189, 250, 228, 54, 189, 204, 166, 174, 60, 80, 146, 132, 187, 52, 111, 144, 60, 180, 221, 183, 61, 124, 139, 212, 188, 126, 134, 155, 189, 32, 64, 86, 187, 245, 198, 128, 189, 236, 111, 167, 188, 217, 205, 205, 189, 184, 222, 127, 60, 102, 13, 150, 189, 164, 215, 251, 188, 66, 106, 157, 61, 94, 4, 163, 189, 216, 187, 229, 188, 208, 7, 107, 189, 80, 176, 154, 61, 101, 106, 102, 189, 166, 232, 197, 61, 60, 222, 77, 61, 36, 29, 18, 61, 72, 105, 73, 61, 14, 253, 144, 189, 149, 208, 84, 189, 64, 149, 47, 60, 128, 87, 15, 189, 87, 139, 169, 189, 168, 236, 159, 61, 120, 146, 178, 61, 32, 137, 148, 61, 114, 212, 194, 61, 192, 64, 31, 61, 254, 63, 168, 61, 16, 236, 162, 187, 176, 49, 208, 61, 30, 71, 131, 189, 177, 177, 54, 189, 189, 93, 189, 189, 168, 249, 41, 188, 106, 167, 138, 189, 120, 128, 197, 189, 162, 154, 146, 61, 0, 178, 183, 58, 80, 202, 87, 188, 176, 155, 177, 61, 72, 69, 42, 61, 104, 41, 192, 60, 30, 210, 129, 61, 218, 108, 163, 189, 0, 118, 141, 61, 162, 152, 28, 189, 152, 93, 59, 188, 200, 196, 70, 60, 178, 173, 124, 189, 24, 219, 13, 61, 0, 16, 51, 186, 90, 67, 148, 61, 175, 133, 184, 189, 50, 102, 170, 61, 56, 57, 186, 61, 122, 7, 142, 61, 148, 234, 6, 61, 106, 136, 15, 189, 176, 31, 129, 189, 176, 6, 56, 61, 80, 249, 203, 60, 204, 112, 48, 61, 202, 121, 208, 61, 52, 208, 194, 61, 187, 249, 133, 189, 208, 141, 222, 60, 164, 155, 94, 61, 145, 230, 175, 189, 250, 180, 207, 61, 54, 173, 133, 61, 240, 134, 247, 60, 192, 13, 136, 60, 180, 103, 49, 61, 188, 171, 205, 188, 215, 156, 74, 189, 10, 166, 157, 189, 44, 214, 86, 61, 16, 127, 164, 188, 221, 15, 84, 189, 13, 60, 150, 189, 172, 148, 102, 61, 132, 100, 5, 61, 147, 174, 161, 189, 196, 135, 193, 61, 236, 77, 166, 60, 54, 167, 151, 61, 12, 51, 140, 60, 238, 27, 86, 189, 156, 224, 21, 61, 72, 124, 237, 60, 192, 202, 172, 189, 1, 189, 78, 189, 166, 97, 195, 61, 181, 74, 165, 189, 196, 167, 154, 188, 198, 207, 191, 189, 80, 127, 241, 187, 252, 161, 185, 60, 80, 162, 128, 59, 154, 46, 134, 189, 170, 95, 198, 61, 54, 127, 135, 61, 39, 150, 120, 189, 0, 232, 207, 184, 140, 5, 141, 188, 112, 189, 173, 187, 40, 227, 245, 60, 224, 176, 71, 187, 136, 16, 82, 61, 232, 168, 102, 189, 212, 106, 190, 61, 173, 238, 108, 189, 208, 139, 107, 61, 208, 254, 191, 60, 32, 184, 128, 60, 248, 112, 96, 61, 250, 124, 195, 61, 100, 128, 93, 61, 16, 240, 123, 189, 168, 142, 14, 188, 224, 151, 164, 188, 210, 73, 159, 189, 30, 232, 72, 189, 99, 189, 50, 189, 238, 130, 155, 61, 144, 132, 2, 188, 206, 177, 164, 61, 220, 181, 22, 61, 140, 134, 18, 61, 96, 241, 83, 61, 200, 248, 162, 189, 224, 7, 237, 60, 148, 85, 144, 60, 176, 80, 15, 189, 196, 247, 152, 61, 143, 180, 179, 189, 112, 201, 46, 188, 208, 54, 41, 60, 116, 40, 89, 61, 162, 84, 37, 189, 56, 50, 125, 61, 192, 6, 102, 60, 210, 88, 142, 189, 42, 169, 1, 189, 114, 8, 173, 61, 214, 114, 58, 189, 216, 35, 194, 60, 136, 108, 168, 61, 90, 254, 168, 189, 168, 252, 128, 189, 64, 69, 187, 189, 112, 191, 232, 187, 178, 6, 184, 189, 40, 141, 207, 188, 39, 70, 206, 189, 99, 181, 92, 189, 236, 100, 255, 188, 240, 10, 174, 60, 173, 142, 153, 189, 32, 71, 125, 61, 58, 194, 127, 189, 216, 27, 107, 61, 102, 18, 141, 61, 86, 251, 129, 189, 56, 225, 71, 188, 136, 117, 26, 189, 204, 223, 182, 61, 212, 191, 176, 61, 88, 125, 243, 60, 100, 205, 186, 60, 48, 209, 149, 60, 184, 218, 31, 188, 38, 231, 145, 61, 100, 41, 211, 188, 228, 83, 17, 61, 197, 215, 161, 189, 120, 15, 68, 188, 110, 228, 191, 189, 152, 87, 41, 60, 168, 140, 173, 61, 152, 191, 208, 188, 148, 61, 106, 189, 168, 207, 32, 61, 99, 228, 138, 189, 157, 116, 157, 189, 0, 26, 92, 187, 122, 1, 143, 61, 46, 224, 177, 189, 192, 232, 197, 189, 114, 18, 146, 61, 64, 165, 99, 188, 44, 104, 250, 188, 56, 140, 159, 60, 248, 209, 210, 188, 36, 98, 166, 189, 21, 86, 130, 189, 64, 152, 76, 187, 20, 24, 193, 188, 52, 219, 201, 189, 208, 159, 137, 59, 105, 230, 204, 189, 90, 117, 140, 61, 200, 226, 202, 61, 144, 55, 242, 188, 160, 219, 33, 187, 48, 28, 179, 59, 214, 33, 173, 189, 64, 27, 107, 59, 18, 200, 195, 189, 104, 72, 94, 189, 224, 28, 228, 187, 60, 38, 188, 61, 76, 66, 15, 61, 114, 188, 14, 189, 137, 90, 199, 189, 110, 169, 199, 61, 240, 32, 249, 187, 240, 41, 168, 188, 84, 218, 191, 61, 100, 35, 145, 61, 160, 77, 194, 60, 26, 212, 173, 61, 88, 237, 193, 61, 223, 146, 126, 189, 32, 145, 189, 189, 104, 129, 4, 61, 120, 159, 133, 189, 153, 30, 204, 189, 12, 40, 226, 188, 148, 133, 145, 188, 8, 206, 115, 60, 43, 183, 208, 189, 144, 64, 14, 61, 3, 183, 86, 189, 8, 249, 156, 61, 188, 19, 62, 61, 104, 154, 15, 61, 28, 239, 72, 61, 208, 164, 115, 61, 168, 36, 102, 188, 0, 242, 61, 59, 165, 69, 123, 189, 128, 201, 145, 189, 236, 81, 76, 189, 168, 184, 212, 188, 149, 48, 192, 189, 200, 165, 207, 189, 5, 124, 200, 189, 180, 188, 121, 61, 20, 30, 82, 61, 150, 59, 172, 61, 220, 126, 74, 189, 67, 14, 146, 189, 116, 175, 180, 61, 196, 143, 198, 188, 196, 63, 147, 60, 64, 186, 114, 187, 193, 25, 70, 189, 248, 255, 252, 60, 115, 137, 193, 189, 25, 216, 189, 189, 32, 18, 159, 59, 244, 250, 23, 61, 96, 254, 128, 189, 216, 36, 205, 60, 112, 69, 188, 60, 230, 44, 153, 189, 79, 144, 181, 189, 2, 151, 16, 189, 36, 184, 30, 189, 17, 189, 207, 189, 42, 144, 137, 189, 72, 109, 203, 60, 216, 35, 66, 189, 240, 177, 119, 60, 80, 3, 226, 60, 23, 53, 112, 189, 40, 79, 169, 60, 113, 245, 52, 189, 136, 66, 121, 188, 184, 111, 129, 61, 52, 58, 168, 61, 56, 98, 97, 61, 210, 4, 166, 61, 78, 104, 161, 189, 45, 233, 68, 189, 150, 155, 84, 189, 162, 44, 186, 61, 110, 142, 81, 189, 4, 41, 105, 61, 48, 245, 158, 187, 210, 39, 135, 61, 88, 237, 92, 61, 87, 23, 167, 189, 116, 68, 118, 61, 92, 17, 214, 188, 76, 3, 154, 60, 224, 165, 203, 60, 20, 124, 3, 61, 64, 200, 222, 60, 40, 154, 102, 61, 70, 142, 142, 61, 128, 71, 117, 187, 193, 50, 186, 189, 7, 113, 153, 189, 89, 4, 202, 189, 0, 154, 85, 188, 147, 37, 150, 189, 196, 181, 184, 60, 118, 91, 169, 189, 222, 131, 72, 189, 232, 203, 35, 60, 88, 41, 99, 188, 156, 31, 108, 61, 20, 60, 77, 61, 94, 159, 132, 61, 0, 132, 204, 187, 152, 29, 148, 60, 144, 52, 16, 61, 0, 119, 27, 60, 128, 83, 82, 187, 128, 113, 114, 61, 111, 52, 174, 189, 73, 196, 175, 189, 46, 226, 87, 189, 12, 181, 170, 188, 116, 255, 204, 189, 198, 113, 64, 189, 62, 251, 208, 61, 4, 87, 156, 61, 184, 25, 59, 188, 228, 130, 150, 188, 54, 66, 202, 61, 32, 204, 93, 61, 56, 161, 101, 60, 4, 83, 178, 189, 24, 248, 103, 60, 224, 97, 201, 61, 148, 102, 91, 61, 102, 197, 5, 189, 120, 31, 4, 60, 235, 215, 203, 189, 84, 38, 236, 188, 41, 45, 151, 189, 120, 196, 211, 188, 108, 66, 81, 61, 144, 221, 148, 59, 128, 230, 130, 188, 45, 13, 42, 189, 164, 225, 17, 61, 3, 175, 100, 189, 64, 222, 211, 59, 30, 47, 140, 61, 25, 238, 182, 189, 192, 57, 103, 188, 40, 135, 48, 188, 188, 217, 189, 61, 156, 92, 111, 61, 120, 97, 183, 61, 36, 85, 212, 188, 217, 127, 163, 189, 158, 3, 111, 189, 211, 35, 191, 189, 2, 116, 150, 189, 236, 160, 83, 189, 22, 132, 149, 61, 48, 126, 80, 188, 220, 222, 208, 189, 108, 10, 96, 61, 112, 111, 46, 60, 232, 3, 182, 61, 230, 206, 154, 61, 188, 222, 202, 189, 42, 209, 151, 61, 48, 14, 106, 188, 160, 157, 228, 60, 143, 119, 39, 189, 248, 130, 210, 188, 160, 214, 50, 61, 248, 183, 234, 60, 93, 213, 45, 189, 6, 111, 176, 189, 123, 180, 207, 189, 236, 123, 75, 61, 48, 67, 105, 61, 84, 144, 22, 61, 96, 72, 57, 61, 216, 72, 156, 188, 24, 8, 204, 61, 56, 89, 187, 188, 44, 6, 46, 189, 75, 163, 112, 189, 48, 237, 188, 60, 0, 204, 197, 57, 0, 226, 49, 59, 128, 162, 32, 61, 109, 234, 196, 189, 8, 38, 86, 188, 172, 157, 151, 61, 210, 223, 184, 61, 121, 87, 208, 189, 240, 199, 2, 61, 190, 226, 68, 189, 22, 215, 137, 61, 36, 186, 159, 61, 188, 63, 143, 189, 18, 123, 180, 189, 128, 197, 187, 60, 24, 41, 30, 189, 128, 134, 174, 61, 252, 72, 8, 61, 192, 116, 247, 60, 40, 90, 96, 189, 158, 69, 174, 61, 206, 72, 139, 189, 64, 115, 19, 189, 52, 27, 186, 61, 36, 153, 37, 61, 90, 187, 163, 189, 20, 199, 33, 61, 8, 210, 107, 60, 152, 205, 0, 60, 36, 218, 89, 61, 0, 42, 222, 185, 78, 192, 65, 189, 186, 213, 23, 189, 151, 129, 119, 189, 76, 108, 7, 61, 224, 227, 60, 188, 216, 180, 107, 60, 42, 85, 48, 189, 136, 120, 38, 189, 222, 174, 142, 61, 152, 82, 55, 61, 96, 221, 11, 59, 160, 121, 122, 60, 232, 247, 193, 188, 48, 204, 77, 61, 128, 255, 201, 61, 0, 133, 113, 60, 56, 29, 52, 61, 213, 14, 88, 189, 227, 69, 178, 189, 0, 209, 60, 187, 200, 83, 139, 188, 26, 48, 175, 61, 88, 97, 172, 60, 80, 240, 79, 189, 76, 124, 33, 189, 36, 223, 171, 61, 34, 238, 157, 189, 101, 66, 199, 189, 203, 23, 192, 189, 12, 230, 171, 60, 176, 184, 189, 189, 92, 68, 69, 61, 84, 206, 183, 189, 64, 73, 203, 187, 192, 156, 92, 188, 114, 174, 193, 61, 188, 235, 140, 188, 248, 83, 253, 60, 160, 23, 227, 188, 208, 210, 90, 61, 250, 109, 6, 189, 144, 174, 172, 188, 208, 121, 225, 59, 97, 184, 199, 189, 192, 198, 126, 61, 64, 232, 160, 186, 50, 248, 116, 189, 140, 227, 209, 188, 50, 62, 187, 61, 242, 143, 169, 189, 240, 94, 134, 61, 248, 138, 126, 60, 252, 175, 200, 189, 204, 137, 114, 189, 148, 110, 11, 189, 36, 148, 55, 61, 100, 130, 128, 188, 185, 109, 162, 189, 232, 118, 203, 60, 240, 164, 125, 61, 136, 141, 171, 61, 72, 158, 92, 188, 64, 196, 27, 188, 192, 229, 239, 60, 163, 91, 170, 189, 28, 235, 169, 61, 228, 236, 164, 188, 190, 145, 189, 61, 142, 18, 144, 189, 246, 111, 137, 189, 27, 75, 150, 189, 88, 82, 2, 188, 92, 57, 10, 189, 26, 22, 180, 61, 255, 242, 59, 189, 102, 212, 79, 189, 216, 243, 124, 60, 64, 190, 18, 59, 224, 124, 101, 60, 232, 160, 178, 188, 176, 26, 220, 188, 0, 78, 90, 61, 55, 196, 187, 189, 22, 15, 189, 189, 144, 227, 113, 61, 158, 198, 136, 189, 240, 32, 147, 60, 98, 128, 30, 189, 173, 191, 108, 189, 82, 132, 178, 61, 248, 128, 3, 188, 32, 239, 227, 59, 117, 175, 174, 189, 176, 132, 144, 59, 164, 167, 108, 61, 222, 190, 87, 189, 128, 226, 155, 189, 96, 204, 63, 187, 112, 9, 126, 188, 66, 241, 147, 189, 190, 220, 181, 61, 137, 219, 119, 189, 130, 203, 178, 61, 118, 90, 198, 189, 192, 165, 230, 59, 208, 143, 148, 189, 172, 81, 145, 60, 236, 9, 122, 61, 93, 31, 190, 189, 164, 30, 178, 61, 100, 192, 71, 189, 36, 199, 142, 60, 96, 54, 116, 61, 14, 70, 200, 61, 52, 11, 177, 189, 48, 152, 41, 189, 232, 20, 38, 60, 108, 52, 174, 189, 202, 89, 137, 61, 64, 215, 212, 58, 228, 161, 157, 189, 112, 77, 8, 61, 98, 21, 154, 61, 180, 0, 197, 188, 154, 56, 124, 189, 240, 62, 146, 61, 248, 214, 142, 61, 156, 189, 159, 61, 158, 244, 133, 189, 192, 43, 55, 187, 192, 70, 131, 188, 36, 196, 197, 188, 175, 85, 200, 189, 120, 41, 66, 188, 8, 39, 162, 189, 192, 40, 10, 61, 232, 189, 17, 188, 80, 175, 253, 187, 128, 190, 12, 186, 14, 98, 9, 189, 90, 32, 192, 61, 188, 81, 181, 60, 162, 224, 2, 189, 39, 48, 204, 189, 70, 116, 178, 189, 16, 81, 239, 60, 54, 160, 147, 189, 64, 242, 7, 60, 14, 185, 144, 189, 90, 140, 112, 189, 8, 97, 11, 189, 252, 190, 191, 189, 150, 3, 49, 189, 124, 87, 136, 189, 154, 165, 158, 189, 44, 127, 127, 189, 86, 227, 208, 189, 212, 235, 78, 61, 177, 20, 206, 189, 80, 97, 247, 187, 120, 19, 201, 61, 100, 202, 29, 61, 128, 105, 11, 61, 144, 234, 56, 61, 252, 227, 158, 189, 56, 191, 62, 61, 176, 47, 146, 59, 96, 167, 2, 189, 118, 170, 130, 61, 240, 57, 28, 60, 192, 213, 11, 188, 76, 205, 144, 60, 220, 47, 14, 61, 128, 46, 159, 59, 161, 244, 137, 189, 41, 102, 111, 189, 184, 199, 152, 189, 32, 6, 49, 188, 222, 169, 124, 189, 72, 47, 24, 61, 56, 32, 57, 189, 171, 86, 195, 189, 36, 187, 81, 61, 128, 215, 62, 187, 32, 84, 42, 187, 8, 149, 129, 189, 253, 245, 158, 189, 184, 241, 181, 60, 149, 22, 191, 189, 156, 83, 210, 188, 96, 230, 92, 61, 118, 150, 193, 189, 96, 93, 50, 59, 96, 164, 123, 187, 253, 197, 146, 189, 132, 87, 173, 188, 230, 117, 140, 189, 204, 72, 63, 61, 32, 115, 11, 61, 96, 228, 30, 61, 148, 113, 15, 61, 142, 17, 204, 61, 204, 142, 188, 61, 183, 171, 193, 189, 16, 157, 151, 61, 168, 87, 188, 189, 16, 239, 152, 60, 153, 27, 58, 189, 114, 185, 55, 189, 120, 227, 219, 188, 240, 113, 251, 187, 254, 160, 145, 189, 227, 68, 65, 189, 114, 151, 141, 61, 218, 167, 201, 189, 96, 248, 236, 60, 238, 178, 4, 189, 202, 122, 179, 189, 16, 167, 31, 60, 132, 13, 166, 188, 222, 108, 157, 189, 112, 227, 186, 61, 14, 234, 27, 189, 0, 166, 147, 58, 54, 246, 146, 61, 237, 173, 187, 189, 110, 101, 53, 189, 248, 222, 203, 60, 16, 255, 16, 60, 53, 137, 197, 189, 24, 130, 138, 60, 240, 204, 23, 60, 139, 47, 194, 189, 194, 151, 149, 61, 224, 182, 18, 61, 48, 165, 178, 189, 105, 216, 77, 189, 16, 61, 61, 61, 16, 115, 115, 61, 196, 23, 161, 189, 4, 148, 84, 61, 0, 91, 8, 58, 54, 89, 134, 189, 222, 9, 185, 189, 56, 19, 166, 189, 16, 242, 28, 61, 32, 132, 115, 61, 126, 105, 156, 61, 169, 110, 128, 189, 228, 207, 106, 61, 170, 67, 132, 61, 50, 194, 166, 61, 12, 126, 27, 189, 12, 88, 175, 61, 128, 141, 31, 189, 120, 59, 244, 60, 176, 211, 158, 59, 88, 190, 91, 61, 204, 50, 158, 188, 48, 108, 116, 61, 136, 51, 242, 60, 180, 193, 79, 61, 16, 174, 98, 188, 224, 1, 37, 188, 94, 189, 3, 189, 241, 103, 177, 189, 29, 45, 182, 189, 218, 35, 172, 61, 144, 180, 162, 187, 54, 15, 187, 61, 22, 147, 58, 189, 91, 8, 205, 189, 199, 53, 121, 189, 212, 185, 175, 61, 166, 151, 88, 189, 2, 126, 187, 61, 156, 112, 202, 189, 232, 246, 5, 188, 92, 80, 51, 189, 100, 108, 19, 189, 64, 225, 128, 188, 76, 140, 164, 61, 107, 253, 65, 189, 218, 39, 101, 189, 3, 179, 134, 189, 0, 138, 126, 57, 204, 2, 86, 189, 78, 49, 142, 61, 88, 164, 190, 188, 192, 236, 182, 61, 224, 48, 157, 188, 68, 159, 249, 188, 0, 138, 8, 186, 16, 154, 22, 60, 92, 92, 104, 61, 68, 56, 172, 188, 166, 95, 3, 189, 120, 231, 39, 61, 66, 253, 48, 189, 0, 244, 115, 188, 32, 228, 180, 61, 248, 41, 82, 61, 161, 233, 60, 189, 236, 161, 64, 189, 14, 195, 123, 189, 168, 17, 74, 61, 10, 7, 11, 189, 16, 133, 72, 61, 137, 47, 118, 189, 236, 169, 5, 189, 170, 64, 194, 61, 154, 144, 154, 61, 226, 59, 137, 61, 198, 159, 167, 61, 177, 222, 204, 189, 192, 70, 131, 188, 199, 56, 153, 189, 182, 102, 206, 189, 188, 121, 35, 61, 0, 57, 65, 58, 188, 234, 132, 60, 108, 129, 189, 188, 213, 38, 156, 189, 104, 153, 143, 61, 180, 2, 83, 61, 136, 13, 191, 188, 162, 105, 142, 61, 4, 243, 77, 61, 11, 25, 146, 189, 51, 63, 201, 189, 119, 110, 79, 189, 248, 246, 21, 188, 186, 148, 179, 61, 160, 3, 205, 189, 88, 122, 255, 188, 40, 244, 38, 61, 204, 219, 5, 61, 232, 136, 40, 189, 116, 130, 176, 61, 36, 35, 109, 61, 202, 189, 208, 61, 28, 163, 205, 189, 20, 107, 94, 61, 216, 126, 118, 188, 96, 67, 188, 59, 84, 119, 184, 61, 96, 98, 41, 61, 35, 62, 166, 189, 40, 239, 152, 61, 196, 223, 203, 61, 204, 98, 184, 188, 96, 22, 183, 59, 96, 238, 96, 61, 56, 98, 101, 188, 80, 9, 37, 60, 172, 106, 112, 61, 121, 162, 136, 189, 160, 9, 65, 187, 156, 126, 132, 61, 121, 87, 181, 189, 252, 84, 28, 61, 240, 49, 168, 187, 240, 173, 179, 61, 120, 171, 99, 188, 166, 146, 161, 189, 182, 216, 185, 61, 136, 243, 12, 188, 0, 50, 136, 186, 112, 32, 152, 60, 120, 37, 146, 189, 176, 110, 7, 61, 117, 1, 108, 189, 204, 200, 87, 61, 17, 248, 194, 189, 136, 38, 144, 61, 120, 217, 56, 61, 92, 160, 28, 189, 100, 90, 141, 61, 48, 179, 187, 188, 76, 199, 142, 61, 136, 31, 171, 189, 114, 148, 134, 189, 224, 88, 109, 59, 20, 42, 208, 61, 88, 233, 208, 60, 184, 234, 163, 60, 168, 141, 191, 60, 196, 9, 199, 189, 82, 226, 0, 189, 162, 185, 70, 189, 84, 152, 64, 61, 196, 188, 81, 61, 53, 239, 160, 189, 128, 29, 127, 61, 0, 219, 248, 60, 144, 67, 151, 61, 90, 89, 193, 189, 115, 113, 134, 189, 129, 18, 167, 189, 72, 134, 82, 61, 113, 6, 206, 189, 163, 141, 201, 189, 206, 179, 101, 189, 192, 57, 39, 59, 128, 14, 34, 61, 189, 133, 156, 189, 194, 114, 154, 61, 180, 180, 184, 188, 16, 175, 212, 59, 192, 141, 165, 61, 10, 195, 138, 189, 228, 113, 15, 61, 228, 27, 173, 189, 228, 36, 19, 189, 44, 128, 147, 189, 242, 187, 202, 189, 198, 40, 188, 61, 204, 133, 91, 61, 139, 244, 150, 189, 57, 85, 73, 189, 42, 7, 2, 189, 238, 118, 145, 61, 184, 22, 33, 61, 128, 36, 131, 60, 33, 225, 167, 189, 164, 139, 3, 189, 42, 45, 27, 189, 160, 67, 8, 187, 249, 174, 87, 189, 128, 11, 167, 188, 190, 185, 132, 61, 248, 152, 230, 60, 166, 201, 177, 61, 12, 148, 17, 189, 192, 131, 134, 59, 23, 228, 61, 189, 27, 231, 206, 189, 152, 234, 133, 60, 199, 70, 161, 189, 136, 235, 151, 189, 244, 86, 67, 61, 112, 188, 117, 61, 240, 81, 113, 61, 0, 110, 18, 185, 104, 189, 42, 60, 171, 114, 164, 189, 64, 132, 47, 61, 180, 238, 181, 60, 0, 93, 10, 61, 192, 216, 28, 188, 148, 201, 196, 188, 168, 48, 199, 60, 248, 161, 122, 61, 246, 189, 165, 189, 176, 228, 210, 188, 140, 180, 164, 60, 112, 163, 138, 61, 240, 47, 14, 60, 112, 85, 52, 61, 84, 255, 248, 188, 170, 31, 173, 189, 88, 101, 189, 61, 0, 24, 149, 188, 206, 24, 172, 61, 12, 162, 210, 188, 237, 177, 207, 189, 168, 9, 152, 61, 64, 251, 255, 58, 230, 195, 172, 189, 152, 35, 163, 61, 104, 38, 242, 188, 40, 243, 58, 188, 208, 198, 152, 61, 220, 162, 230, 188, 0, 107, 59, 187, 6, 47, 187, 189, 168, 81, 110, 60, 100, 136, 77, 61, 0, 136, 26, 56, 12, 19, 159, 61, 60, 91, 158, 189, 180, 199, 28, 61, 112, 86, 206, 60, 176, 2, 23, 61, 152, 237, 163, 61, 21, 19, 165, 189, 138, 72, 143, 189, 81, 131, 114, 189, 0, 106, 236, 187, 140, 1, 190, 189, 250, 47, 207, 189, 30, 110, 208, 61, 192, 224, 104, 61, 20, 209, 162, 61, 17, 219, 122, 189, 184, 166, 79, 61, 50, 160, 171, 61, 232, 38, 158, 61, 192, 10, 99, 187, 92, 209, 17, 189, 148, 190, 161, 60, 140, 180, 74, 61, 8, 77, 99, 61, 84, 191, 225, 188, 226, 50, 44, 189, 96, 165, 114, 59, 100, 164, 152, 61, 176, 201, 23, 60, 240, 180, 107, 189, 232, 104, 4, 61, 112, 9, 150, 59, 190, 181, 66, 189, 65, 125, 192, 189, 240, 30, 169, 60, 121, 177, 78, 189, 183, 121, 34, 189, 204, 82, 253, 188, 160, 212, 170, 188, 76, 145, 105, 61, 16, 81, 141, 61, 80, 214, 71, 188, 174, 150, 184, 61, 220, 102, 134, 188, 104, 138, 205, 60, 74, 174, 94, 189, 230, 17, 205, 61, 240, 113, 210, 60, 56, 160, 52, 61, 114, 166, 158, 61, 145, 163, 160, 189, 152, 72, 140, 189, 34, 153, 205, 189, 208, 190, 135, 189, 212, 98, 139, 189, 68, 187, 61, 189, 44, 103, 133, 61, 96, 231, 9, 188, 172, 10, 73, 61, 60, 186, 170, 189, 64, 86, 205, 187, 189, 26, 174, 189, 96, 222, 228, 59, 238, 134, 195, 189, 188, 243, 7, 61, 220, 71, 135, 61, 80, 237, 48, 189, 240, 101, 8, 189, 55, 166, 88, 189, 136, 58, 54, 60, 224, 134, 7, 61, 36, 49, 82, 189, 105, 132, 179, 189, 60, 31, 225, 188, 238, 178, 128, 61, 74, 43, 154, 61, 148, 68, 204, 188, 218, 150, 144, 189, 180, 163, 129, 61, 124, 240, 75, 61, 59, 0, 164, 189, 224, 27, 123, 189, 200, 253, 62, 189, 54, 25, 204, 189, 169, 206, 87, 189, 12, 43, 9, 189, 44, 52, 37, 61, 236, 209, 194, 61, 36, 23, 188, 189, 246, 111, 1, 189, 108, 238, 191, 188, 251, 140, 162, 189, 58, 114, 193, 61, 108, 135, 114, 61, 32, 44, 133, 61, 196, 212, 142, 60, 106, 87, 137, 61, 220, 237, 182, 61, 74, 57, 25, 189, 45, 32, 159, 189, 240, 75, 174, 59, 46, 110, 204, 189, 148, 214, 229, 188, 162, 59, 195, 61, 0, 244, 222, 185, 44, 120, 112, 61, 52, 237, 152, 61, 52, 96, 192, 189, 24, 70, 164, 61, 188, 236, 184, 188, 152, 94, 152, 60, 29, 156, 115, 189, 53, 64, 202, 189, 36, 154, 72, 189, 36, 118, 127, 61, 184, 100, 189, 61, 104, 141, 123, 188, 88, 64, 140, 189, 12, 125, 45, 189, 200, 131, 177, 61, 249, 170, 146, 189, 208, 218, 222, 188, 116, 86, 182, 187, 81, 112, 103, 61, 218, 55, 138, 61, 73, 169, 205, 189, 238, 4, 220, 61, 117, 172, 31, 61, 143, 88, 52, 189, 49, 154, 75, 188, 216, 241, 182, 61, 99, 238, 137, 59, 159, 84, 107, 188, 54, 123, 78, 61, 102, 228, 53, 189, 223, 113, 140, 189, 176, 182, 166, 189, 209, 213, 51, 60, 89, 213, 78, 60, 236, 237, 79, 61, 203, 124, 173, 61, 100, 178, 243, 60, 191, 26, 29, 189, 19, 106, 105, 61, 177, 3, 183, 189, 80, 206, 139, 187, 145, 91, 126, 189, 128, 177, 230, 188, 37, 246, 60, 61, 44, 190, 161, 60, 31, 54, 158, 61, 68, 204, 200, 61, 251, 75, 17, 61, 159, 36, 162, 189, 69, 71, 73, 61, 131, 112, 133, 189, 88, 131, 157, 60, 134, 97, 149, 61, 228, 80, 209, 61, 207, 169, 167, 59, 168, 235, 24, 61, 63, 42, 62, 189, 238, 68, 2, 61, 138, 4, 121, 189, 102, 90, 81, 60, 65, 247, 170, 61, 254, 206, 180, 61, 111, 169, 167, 61, 112, 189, 243, 188, 91, 24, 43, 61, 5, 181, 15, 61, 82, 65, 52, 188, 201, 255, 173, 61, 234, 156, 219, 60, 155, 108, 174, 61, 212, 18, 255, 61, 32, 32, 177, 189, 192, 169, 105, 59, 36, 219, 134, 61, 150, 121, 173, 189, 16, 190, 165, 187, 92, 2, 212, 188, 200, 201, 189, 188, 62, 246, 185, 61, 211, 55, 199, 61, 87, 235, 103, 61, 27, 222, 129, 188, 9, 141, 98, 188, 114, 31, 141, 61, 144, 0, 90, 61, 148, 210, 178, 61, 129, 113, 252, 188, 11, 209, 206, 61, 54, 8, 15, 189, 71, 55, 46, 61, 174, 11, 123, 188, 56, 57, 61, 189, 200, 217, 20, 61, 30, 185, 30, 61, 58, 111, 32, 190, 104, 128, 165, 61, 132, 169, 125, 189, 29, 39, 174, 61, 91, 51, 48, 187, 241, 156, 61, 189, 98, 132, 33, 189, 160, 214, 6, 59, 245, 18, 136, 189, 95, 195, 142, 61, 0, 255, 8, 188, 25, 163, 20, 189, 171, 172, 97, 189, 136, 125, 93, 189, 196, 69, 34, 189, 0, 220, 98, 57, 1, 164, 214, 189, 153, 194, 176, 189, 97, 149, 115, 61, 168, 243, 150, 189, 228, 249, 174, 189, 215, 197, 155, 60, 0, 70, 15, 61, 195, 122, 152, 61, 221, 111, 172, 189, 85, 55, 2, 190, 8, 4, 183, 189, 170, 223, 185, 61, 119, 61, 210, 187, 40, 97, 24, 190, 54, 25, 88, 186, 206, 177, 205, 61, 53, 160, 57, 61, 208, 111, 36, 60, 72, 255, 137, 189, 181, 185, 71, 188, 121, 24, 145, 60, 66, 26, 153, 189, 104, 18, 69, 61, 150, 18, 21, 189, 120, 239, 47, 189, 47, 235, 55, 60, 96, 104, 50, 60, 29, 21, 179, 189, 56, 53, 130, 189, 40, 218, 247, 188, 107, 247, 48, 61, 207, 168, 180, 61, 183, 151, 95, 61, 219, 28, 231, 188, 167, 107, 63, 188, 194, 126, 193, 61, 58, 86, 123, 61, 227, 1, 203, 61, 34, 227, 148, 61, 211, 249, 134, 189, 152, 93, 134, 61, 178, 199, 85, 61, 151, 31, 120, 61, 212, 116, 218, 189, 207, 115, 231, 61, 8, 33, 221, 61, 177, 34, 135, 60, 83, 137, 232, 59, 30, 232, 49, 189, 30, 108, 105, 61, 242, 220, 36, 61, 106, 189, 156, 61, 208, 186, 162, 189, 250, 202, 56, 62, 214, 235, 115, 189, 44, 219, 143, 189, 42, 248, 255, 187, 253, 203, 232, 188, 138, 250, 131, 61, 146, 214, 164, 60, 223, 86, 165, 60, 25, 229, 35, 189, 68, 91, 92, 61, 25, 6, 76, 61, 201, 37, 142, 61, 33, 6, 209, 189, 95, 20, 143, 61, 196, 122, 149, 188, 104, 77, 144, 188, 237, 20, 40, 61, 160, 51, 90, 61, 219, 221, 138, 61, 220, 105, 6, 189, 57, 168, 147, 188, 66, 202, 63, 189, 94, 91, 243, 60, 185, 150, 39, 188, 153, 252, 57, 61, 89, 134, 115, 61, 117, 17, 46, 58, 224, 111, 243, 61, 91, 130, 198, 189, 6, 155, 151, 189, 159, 11, 64, 61, 185, 255, 152, 188, 229, 233, 31, 189, 154, 95, 6, 189, 193, 19, 123, 189, 156, 77, 31, 189, 39, 52, 222, 61, 149, 73, 206, 61, 168, 56, 206, 189, 160, 121, 214, 188, 244, 247, 25, 61, 49, 139, 190, 188, 162, 61, 249, 189, 153, 142, 132, 61, 142, 68, 131, 60, 58, 117, 179, 59, 20, 125, 232, 189, 78, 37, 129, 189, 150, 78, 2, 190, 224, 216, 129, 61, 158, 168, 91, 187, 55, 182, 26, 189, 109, 74, 88, 189, 192, 82, 173, 189, 90, 53, 149, 189, 75, 182, 195, 188, 210, 112, 17, 60, 139, 161, 70, 60, 63, 33, 203, 189, 176, 19, 199, 187, 89, 166, 71, 189, 208, 111, 200, 189, 224, 248, 85, 61, 100, 0, 48, 189, 54, 175, 116, 60, 184, 212, 189, 188, 42, 98, 94, 189, 53, 167, 176, 189, 186, 185, 73, 61, 6, 6, 201, 189, 47, 236, 9, 189, 107, 2, 43, 60, 199, 243, 159, 189, 231, 172, 197, 189, 59, 138, 95, 189, 49, 141, 241, 188, 229, 179, 164, 61, 194, 151, 200, 60, 109, 97, 169, 189, 119, 126, 40, 189, 211, 2, 142, 188, 150, 88, 128, 61, 66, 122, 179, 189, 151, 132, 188, 189, 28, 193, 18, 190, 176, 70, 94, 61, 62, 29, 196, 189, 10, 238, 71, 61, 15, 128, 29, 190, 136, 207, 132, 61, 102, 34, 139, 61, 235, 171, 82, 189, 154, 50, 200, 61, 12, 201, 136, 188, 35, 169, 28, 189, 58, 194, 136, 187, 128, 113, 169, 189, 142, 248, 132, 61, 158, 15, 24, 189, 158, 105, 158, 189, 253, 35, 235, 60, 120, 33, 254, 60, 190, 44, 175, 189, 24, 99, 26, 189, 127, 166, 14, 190, 187, 97, 24, 61, 44, 222, 55, 61, 144, 170, 78, 189, 155, 113, 167, 61, 166, 35, 189, 60, 104, 171, 215, 61, 38, 163, 141, 61, 249, 89, 155, 189, 139, 106, 191, 189, 61, 162, 64, 188, 37, 196, 134, 189, 151, 255, 24, 62, 62, 180, 226, 186, 102, 158, 0, 190, 230, 13, 196, 61, 50, 52, 221, 188, 30, 231, 211, 61, 84, 190, 36, 61, 73, 172, 194, 189, 207, 135, 220, 188, 232, 153, 8, 187, 28, 68, 137, 61, 222, 206, 135, 60, 11, 27, 11, 62, 4, 166, 149, 189, 31, 233, 16, 62, 213, 100, 101, 61, 23, 232, 103, 61, 96, 248, 10, 187, 228, 104, 71, 189, 188, 93, 10, 189, 106, 234, 3, 61, 156, 2, 155, 61, 98, 128, 149, 61, 30, 46, 134, 60, 167, 246, 83, 61, 235, 23, 54, 189, 24, 113, 6, 189, 226, 168, 121, 61, 158, 5, 208, 61, 176, 103, 132, 60, 8, 123, 156, 188, 205, 227, 93, 188, 249, 147, 55, 61, 207, 255, 127, 189, 31, 75, 133, 189, 82, 24, 91, 189, 107, 168, 82, 189, 113, 91, 117, 188, 121, 138, 67, 61, 148, 42, 212, 61, 102, 223, 185, 61, 48, 32, 151, 61, 142, 11, 229, 61, 104, 252, 200, 59, 200, 130, 76, 61, 21, 32, 88, 61, 251, 208, 164, 188, 81, 232, 232, 60, 26, 223, 67, 60, 51, 246, 195, 61, 189, 203, 13, 189, 232, 118, 187, 61, 254, 187, 95, 61, 67, 39, 50, 61, 175, 198, 253, 59, 231, 167, 124, 61, 30, 102, 38, 61, 116, 15, 168, 60, 65, 189, 50, 61, 239, 71, 28, 59, 96, 128, 40, 189, 68, 77, 130, 61, 241, 115, 129, 61, 123, 18, 190, 189, 2, 110, 196, 61, 163, 218, 112, 189, 218, 61, 139, 61, 159, 136, 127, 189, 242, 221, 135, 189, 114, 226, 172, 61, 209, 209, 103, 189, 253, 53, 240, 60, 147, 251, 49, 60, 108, 151, 74, 60, 27, 21, 139, 189, 88, 216, 28, 187, 62, 0, 93, 61, 91, 228, 143, 189, 37, 236, 202, 61, 170, 198, 51, 188, 213, 228, 172, 61, 161, 102, 150, 189, 190, 182, 216, 61, 191, 247, 178, 189, 88, 35, 176, 189, 8, 9, 65, 188, 92, 150, 175, 61, 213, 82, 176, 189, 202, 33, 103, 61, 198, 26, 51, 189, 201, 235, 83, 189, 15, 143, 198, 189, 113, 179, 158, 60, 101, 162, 41, 189, 227, 59, 161, 189, 179, 46, 98, 189, 199, 91, 75, 190, 124, 104, 212, 188, 204, 156, 45, 61, 171, 77, 145, 61, 208, 108, 73, 190, 210, 141, 44, 61, 113, 247, 30, 61, 45, 21, 17, 189, 168, 65, 167, 61, 160, 43, 30, 189, 202, 197, 126, 189, 180, 231, 238, 188, 157, 227, 150, 59, 54, 118, 177, 189, 16, 253, 95, 61, 53, 119, 170, 60, 147, 24, 181, 61, 48, 51, 72, 61, 25, 39, 135, 58, 25, 244, 149, 189, 80, 38, 205, 189, 59, 38, 125, 189, 206, 120, 144, 189, 98, 169, 182, 61, 32, 250, 218, 188, 119, 211, 230, 61, 56, 97, 196, 61, 112, 20, 39, 189, 202, 213, 23, 61, 186, 114, 166, 189, 127, 130, 29, 60, 68, 129, 220, 61, 161, 241, 184, 60, 125, 133, 199, 189, 117, 241, 180, 60, 151, 36, 114, 189, 114, 204, 105, 62, 91, 159, 154, 61, 79, 121, 159, 189, 196, 32, 112, 61, 244, 129, 51, 187, 110, 185, 179, 61, 150, 42, 112, 61, 158, 173, 166, 189, 54, 246, 139, 62, 114, 39, 147, 61, 78, 158, 41, 189, 46, 234, 151, 189, 24, 107, 67, 189, 144, 246, 157, 61, 79, 7, 55, 61, 246, 46, 130, 61, 243, 23, 246, 188, 162, 28, 5, 62, 89, 239, 254, 61, 96, 154, 59, 61, 218, 145, 150, 188, 154, 250, 70, 61, 58, 240, 94, 189, 208, 218, 148, 189, 127, 194, 38, 61, 226, 200, 137, 61, 242, 233, 142, 60, 22, 78, 250, 61, 10, 124, 89, 189, 13, 7, 167, 188, 160, 7, 192, 59, 112, 248, 112, 189, 23, 164, 194, 61, 165, 60, 157, 189, 49, 201, 51, 189, 215, 67, 249, 188, 208, 147, 241, 61, 57, 203, 12, 61, 223, 202, 90, 189, 95, 179, 0, 62, 132, 69, 248, 187, 198, 49, 17, 60, 9, 183, 194, 59, 20, 112, 72, 58, 31, 246, 46, 61, 216, 11, 145, 188, 254, 89, 146, 189, 143, 149, 212, 188, 241, 204, 100, 186, 247, 250, 67, 189, 0, 215, 156, 189, 137, 90, 2, 62, 194, 214, 219, 59, 244, 22, 245, 188, 130, 249, 40, 61, 8, 206, 75, 189, 4, 159, 35, 61, 172, 85, 238, 188, 79, 233, 2, 61, 142, 141, 59, 61, 62, 234, 182, 189, 43, 38, 140, 61, 105, 175, 210, 189, 173, 196, 127, 60, 8, 233, 199, 189, 250, 75, 16, 189, 225, 144, 190, 61, 14, 205, 2, 62, 135, 120, 242, 189, 184, 123, 94, 188, 117, 33, 233, 58, 185, 125, 158, 60, 231, 160, 19, 59, 210, 147, 134, 188, 41, 199, 99, 189, 208, 215, 65, 60, 121, 253, 85, 188, 21, 193, 27, 61, 61, 52, 137, 188, 232, 211, 155, 188, 120, 147, 183, 61, 116, 254, 93, 61, 150, 44, 151, 61, 72, 162, 137, 61, 194, 119, 60, 189, 52, 233, 9, 189, 206, 201, 130, 61, 201, 146, 173, 188, 69, 207, 127, 61, 16, 125, 178, 189, 48, 61, 189, 60, 41, 144, 76, 61, 243, 60, 71, 60, 44, 109, 78, 61, 221, 255, 210, 61, 197, 226, 179, 61, 107, 190, 75, 62, 177, 210, 85, 189, 20, 183, 183, 188, 31, 33, 224, 60, 245, 168, 121, 189, 2, 69, 230, 61, 167, 193, 40, 61, 42, 250, 223, 61, 130, 228, 20, 62, 77, 58, 26, 189, 201, 255, 14, 61, 202, 78, 41, 61, 5, 104, 123, 189, 164, 15, 170, 61, 46, 249, 226, 61, 199, 219, 128, 61, 48, 189, 203, 61, 148, 37, 38, 61, 170, 245, 49, 188, 148, 182, 223, 187, 127, 67, 205, 60, 14, 14, 72, 189, 187, 131, 36, 189, 75, 110, 72, 61, 251, 220, 111, 189, 88, 4, 7, 188, 220, 30, 239, 61, 116, 207, 201, 61, 174, 107, 187, 189, 56, 238, 15, 188, 41, 29, 119, 189, 204, 222, 14, 189, 147, 3, 19, 189, 252, 87, 158, 61, 241, 34, 212, 60, 232, 199, 210, 59, 162, 152, 188, 61, 210, 72, 187, 60, 47, 107, 2, 189, 120, 200, 230, 61, 251, 111, 202, 61, 88, 57, 165, 189, 6, 57, 138, 189, 82, 151, 145, 60, 47, 243, 137, 61, 200, 101, 150, 61, 125, 28, 146, 189, 49, 216, 173, 61, 46, 116, 132, 189, 73, 237, 5, 187, 154, 233, 241, 186, 33, 157, 17, 189, 243, 206, 81, 189, 143, 141, 134, 189, 177, 179, 243, 188, 11, 163, 226, 61, 30, 126, 139, 56, 126, 20, 131, 61, 244, 112, 161, 189, 246, 254, 152, 58, 121, 155, 150, 189, 105, 163, 77, 61, 91, 2, 24, 189, 205, 69, 12, 189, 65, 183, 31, 190, 3, 8, 14, 189, 13, 19, 167, 59, 39, 67, 16, 62, 204, 145, 158, 61, 241, 21, 214, 61, 157, 158, 227, 188, 207, 240, 93, 61, 28, 127, 185, 189, 224, 91, 224, 61, 177, 94, 4, 189, 93, 33, 83, 189, 93, 48, 13, 189, 16, 212, 6, 60, 200, 13, 166, 189, 219, 58, 31, 61, 222, 138, 197, 61, 200, 66, 176, 61, 216, 236, 61, 189, 169, 182, 142, 187, 19, 152, 170, 189, 56, 232, 133, 189, 147, 117, 33, 188, 163, 0, 200, 61, 136, 77, 153, 61, 56, 120, 122, 61, 79, 197, 172, 188, 18, 114, 130, 189, 143, 188, 254, 61, 222, 242, 51, 61, 8, 187, 229, 60, 33, 128, 121, 61, 58, 46, 1, 61, 17, 50, 254, 60, 222, 253, 214, 187, 185, 199, 230, 189, 196, 125, 169, 61, 35, 64, 153, 61, 60, 80, 167, 61, 36, 234, 8, 188, 166, 152, 100, 60, 2, 106, 109, 189, 176, 94, 176, 61, 200, 174, 67, 189, 180, 106, 42, 60, 134, 161, 79, 189, 224, 242, 42, 61, 21, 74, 226, 61, 60, 56, 205, 61, 160, 39, 206, 189, 224, 140, 215, 188, 194, 115, 223, 189, 89, 14, 234, 61, 109, 27, 224, 188, 215, 238, 217, 61, 232, 221, 41, 188, 226, 2, 91, 188, 122, 173, 196, 61, 141, 156, 135, 60, 200, 172, 217, 60, 50, 105, 232, 189, 88, 0, 41, 61, 28, 96, 149, 189, 5, 48, 176, 61, 96, 114, 34, 190, 82, 65, 55, 187, 92, 142, 108, 189, 113, 191, 212, 61, 240, 204, 201, 187, 156, 29, 185, 60, 242, 141, 13, 61, 199, 225, 132, 189, 102, 66, 107, 189, 248, 104, 52, 61, 250, 210, 135, 61, 47, 24, 62, 61, 89, 135, 143, 189, 129, 88, 145, 189, 79, 145, 161, 61, 156, 70, 37, 61, 27, 26, 255, 189, 112, 121, 164, 61, 206, 110, 91, 189, 249, 75, 7, 59, 69, 228, 26, 189, 6, 119, 217, 61, 22, 85, 231, 61, 19, 87, 141, 61, 159, 146, 182, 61, 102, 206, 177, 61, 23, 23, 253, 59, 205, 145, 183, 189, 2, 23, 78, 188, 157, 157, 213, 189, 52, 79, 160, 189, 210, 100, 228, 188, 30, 145, 63, 62, 80, 47, 199, 189, 122, 76, 150, 61, 63, 187, 184, 60, 186, 116, 115, 58, 190, 128, 104, 189, 178, 214, 208, 188, 37, 145, 171, 61, 171, 72, 36, 62, 199, 78, 200, 187, 98, 250, 146, 189, 222, 22, 150, 61, 114, 55, 33, 59, 192, 12, 148, 189, 48, 199, 249, 61, 117, 186, 43, 60, 204, 214, 76, 189, 176, 211, 69, 61, 173, 154, 240, 61, 95, 134, 125, 189, 237, 209, 11, 189, 56, 210, 136, 188, 166, 216, 186, 61, 54, 164, 207, 61, 88, 230, 74, 61, 48, 10, 15, 189, 69, 219, 12, 61, 209, 247, 54, 61, 236, 197, 90, 189, 117, 104, 122, 188, 252, 42, 206, 60, 78, 71, 161, 189, 241, 126, 165, 188, 161, 189, 91, 188, 248, 36, 21, 61, 33, 164, 208, 188, 35, 161, 53, 61, 78, 199, 0, 62, 96, 142, 150, 61, 146, 16, 89, 61, 210, 65, 119, 189, 198, 93, 60, 61, 201, 13, 206, 189, 81, 100, 209, 61, 94, 207, 212, 60, 212, 41, 242, 61, 244, 45, 175, 61, 202, 222, 209, 61, 106, 37, 42, 61, 169, 116, 62, 61, 182, 65, 135, 189, 214, 187, 20, 189, 149, 74, 53, 189, 95, 13, 185, 188, 63, 127, 229, 60, 200, 241, 191, 189, 204, 53, 2, 190, 72, 0, 84, 188, 227, 31, 7, 189, 245, 131, 107, 61, 66, 2, 200, 188, 25, 0, 144, 189, 104, 54, 61, 61, 206, 28, 143, 60, 167, 122, 66, 189, 213, 66, 145, 60, 123, 204, 232, 59, 145, 132, 229, 188, 116, 88, 72, 61, 253, 234, 163, 189, 137, 185, 128, 61, 64, 231, 227, 61, 101, 230, 158, 61, 171, 10, 1, 190, 15, 175, 162, 189, 52, 65, 52, 57, 34, 59, 152, 61, 121, 254, 158, 61, 139, 172, 148, 61, 186, 157, 214, 60, 177, 71, 103, 189, 36, 80, 90, 61, 72, 73, 52, 61, 124, 148, 23, 60, 159, 181, 172, 189, 8, 25, 38, 189, 205, 135, 154, 189, 45, 238, 135, 189, 55, 169, 81, 61, 236, 248, 28, 61, 171, 142, 227, 61, 8, 142, 83, 188, 157, 213, 252, 188, 164, 196, 241, 188, 200, 44, 91, 189, 207, 170, 177, 189, 12, 182, 59, 190, 198, 193, 17, 61, 21, 59, 216, 60, 203, 228, 157, 61, 232, 84, 195, 61, 107, 223, 172, 189, 147, 214, 47, 61, 182, 219, 90, 189, 94, 140, 10, 190, 146, 6, 230, 61, 107, 167, 158, 61, 80, 243, 51, 59, 242, 115, 250, 188, 16, 95, 220, 188, 8, 149, 58, 189, 164, 228, 91, 189, 34, 224, 60, 189, 106, 172, 170, 61, 27, 238, 177, 60, 206, 12, 74, 61, 14, 220, 136, 189, 60, 11, 21, 61, 48, 12, 78, 189, 222, 108, 148, 189, 249, 49, 47, 189, 86, 165, 30, 189, 230, 42, 81, 189, 5, 61, 199, 189, 91, 238, 54, 188, 38, 186, 132, 189, 22, 97, 120, 61, 238, 55, 39, 189, 50, 211, 14, 189, 119, 142, 4, 189, 77, 48, 134, 61, 206, 133, 42, 189, 35, 114, 20, 61, 106, 105, 6, 190, 226, 205, 162, 61, 234, 87, 146, 61, 218, 70, 48, 61, 117, 233, 227, 60, 158, 51, 243, 61, 120, 167, 62, 189, 173, 230, 125, 189, 96, 159, 114, 61, 104, 46, 32, 61, 15, 235, 210, 61, 128, 217, 145, 189, 118, 130, 173, 61, 199, 63, 190, 61, 48, 34, 113, 61, 203, 138, 83, 61, 1, 254, 157, 187, 84, 229, 195, 60, 96, 156, 169, 188, 139, 207, 178, 188, 224, 155, 30, 60, 188, 145, 193, 188, 76, 167, 174, 60, 133, 192, 200, 188, 18, 43, 8, 62, 130, 190, 84, 61, 63, 250, 174, 189, 122, 102, 125, 59, 184, 67, 121, 189, 63, 119, 91, 60, 8, 251, 194, 61, 93, 37, 67, 61, 209, 161, 88, 61, 243, 64, 116, 61, 110, 127, 134, 61, 182, 112, 226, 58, 24, 42, 34, 189, 236, 38, 20, 61, 239, 141, 106, 189, 154, 105, 95, 189, 32, 223, 75, 187, 26, 129, 59, 188, 140, 174, 3, 62, 241, 200, 151, 189, 137, 90, 9, 189, 194, 55, 212, 189, 180, 82, 149, 60, 189, 78, 114, 189, 251, 191, 163, 188, 79, 84, 173, 189, 54, 246, 203, 61, 66, 40, 250, 189, 113, 214, 171, 189, 115, 191, 236, 61, 51, 180, 195, 189, 172, 117, 37, 61, 244, 169, 251, 188, 16, 45, 113, 189, 108, 20, 162, 61, 104, 28, 235, 61, 12, 183, 88, 189, 97, 132, 216, 189, 189, 102, 222, 60, 222, 214, 23, 61, 178, 86, 147, 189, 33, 13, 29, 189, 56, 102, 182, 59, 207, 241, 99, 60, 247, 243, 70, 189, 95, 53, 86, 61, 110, 201, 50, 61, 122, 249, 120, 61, 89, 195, 122, 61, 166, 65, 69, 188, 139, 81, 104, 60, 64, 129, 151, 186, 56, 112, 106, 61, 254, 80, 153, 189, 228, 137, 131, 189, 4, 151, 223, 188, 145, 109, 118, 187, 142, 179, 28, 189, 92, 140, 120, 189, 201, 30, 137, 61, 125, 7, 173, 189, 247, 73, 127, 61, 80, 85, 191, 61, 167, 234, 34, 190, 36, 19, 144, 188, 168, 203, 58, 60, 214, 9, 168, 61, 252, 27, 207, 189, 46, 216, 69, 61, 254, 55, 82, 187, 211, 188, 154, 58, 65, 221, 152, 189, 8, 245, 233, 60, 211, 173, 121, 189, 19, 75, 163, 189, 183, 56, 161, 189, 66, 100, 183, 61, 222, 209, 183, 187, 88, 31, 154, 61, 161, 217, 110, 189, 12, 157, 191, 61, 223, 248, 170, 188, 183, 193, 141, 189, 80, 213, 236, 189, 58, 8, 134, 189, 124, 114, 8, 189, 195, 253, 179, 188, 77, 79, 45, 188, 209, 247, 180, 61, 195, 147, 90, 60, 227, 119, 127, 61, 36, 82, 154, 61, 8, 138, 54, 188, 208, 175, 195, 188, 129, 41, 86, 61, 186, 142, 13, 189, 131, 57, 147, 189, 103, 151, 191, 189, 31, 114, 48, 61, 76, 151, 159, 61, 16, 198, 85, 61, 186, 92, 180, 189, 124, 163, 164, 189, 35, 187, 0, 60, 51, 34, 149, 61, 137, 155, 143, 189, 120, 170, 234, 187, 222, 131, 96, 62, 185, 24, 127, 189, 208, 3, 15, 188, 69, 70, 159, 61, 160, 238, 194, 61, 156, 15, 207, 189, 29, 66, 198, 61, 203, 92, 190, 188, 108, 246, 210, 61, 223, 226, 26, 61, 179, 27, 208, 61, 129, 103, 187, 61, 0, 221, 95, 186, 57, 140, 104, 60, 246, 50, 202, 61, 231, 234, 104, 59, 3, 93, 215, 61, 78, 80, 130, 61, 158, 139, 38, 61, 122, 56, 147, 61, 26, 214, 184, 188, 19, 248, 4, 62, 154, 119, 50, 188, 57, 97, 86, 189, 40, 46, 149, 61, 168, 215, 0, 61, 10, 2, 216, 61, 158, 59, 174, 189, 195, 178, 32, 189, 106, 240, 42, 189, 203, 89, 205, 61, 145, 217, 9, 189, 115, 110, 80, 60, 233, 73, 69, 61, 131, 12, 227, 59, 180, 251, 157, 189, 186, 62, 49, 189, 23, 49, 179, 189, 95, 51, 166, 187, 254, 200, 155, 61, 103, 169, 48, 60, 123, 140, 235, 189, 4, 94, 6, 190, 130, 215, 8, 62, 128, 242, 2, 62, 164, 2, 90, 189, 249, 46, 40, 189, 191, 106, 24, 60, 89, 226, 218, 189, 240, 244, 200, 60, 151, 124, 173, 61, 165, 238, 206, 60, 153, 62, 188, 189, 125, 187, 78, 188, 192, 110, 30, 189, 109, 235, 119, 185, 123, 56, 35, 60, 29, 112, 49, 61, 76, 238, 200, 61, 199, 17, 134, 61, 71, 156, 71, 189, 6, 100, 179, 60, 71, 44, 96, 189, 93, 45, 71, 61, 10, 122, 50, 189, 9, 168, 193, 61, 42, 87, 117, 61, 237, 178, 90, 61, 237, 69, 241, 61, 12, 29, 69, 189, 192, 1, 175, 61, 146, 109, 191, 61, 128, 234, 34, 61, 152, 79, 38, 60, 96, 202, 125, 60, 140, 69, 144, 188, 125, 253, 216, 61, 1, 172, 128, 61, 153, 83, 161, 189, 149, 235, 243, 189, 59, 187, 176, 61, 48, 41, 195, 60, 89, 180, 51, 189, 94, 114, 12, 62, 189, 69, 62, 61, 175, 202, 247, 61, 87, 39, 27, 189, 247, 118, 160, 60, 197, 107, 151, 61, 230, 31, 0, 62, 226, 93, 118, 189, 216, 183, 135, 59, 192, 34, 19, 189, 89, 11, 224, 61, 87, 165, 195, 61, 181, 58, 154, 60, 14, 176, 99, 62, 204, 189, 67, 61, 24, 16, 151, 61, 49, 135, 152, 189, 187, 113, 12, 61, 192, 69, 179, 188, 151, 32, 183, 60, 148, 138, 151, 60, 40, 205, 164, 61, 40, 120, 98, 188, 25, 102, 176, 61, 171, 174, 205, 61, 89, 56, 12, 189, 28, 75, 57, 59, 102, 88, 0, 189, 35, 114, 90, 189, 175, 74, 171, 59, 166, 18, 18, 189, 62, 50, 133, 189, 36, 209, 156, 189, 28, 201, 66, 62, 84, 226, 12, 61, 115, 80, 219, 188, 95, 46, 154, 189, 60, 193, 97, 61, 92, 20, 194, 189, 233, 235, 189, 188, 217, 173, 229, 61, 146, 236, 208, 189, 11, 213, 5, 189, 38, 153, 62, 61, 110, 56, 77, 61, 98, 7, 237, 61, 151, 181, 42, 188, 113, 225, 149, 61, 139, 250, 45, 61, 167, 164, 10, 189, 152, 34, 83, 61, 72, 100, 148, 189, 64, 142, 168, 61, 169, 229, 41, 189, 193, 132, 24, 61, 119, 195, 130, 60, 85, 255, 146, 61, 250, 28, 146, 61, 56, 111, 133, 61, 197, 62, 60, 189, 85, 164, 150, 60, 132, 37, 111, 61, 126, 224, 154, 61, 186, 160, 196, 188, 76, 245, 239, 188, 31, 80, 3, 62, 22, 247, 179, 187, 158, 239, 200, 189, 115, 141, 72, 188, 1, 237, 43, 62, 28, 217, 135, 189, 114, 79, 40, 188, 139, 12, 42, 189, 73, 94, 34, 189, 173, 174, 112, 61, 18, 109, 141, 189, 92, 17, 215, 60, 211, 191, 27, 189, 237, 75, 235, 189, 133, 209, 153, 61, 232, 242, 186, 186, 163, 136, 80, 61, 64, 19, 144, 188, 146, 96, 98, 189, 246, 148, 144, 188, 128, 14, 121, 58, 126, 238, 27, 189, 136, 7, 9, 61, 16, 72, 169, 189, 17, 245, 153, 188, 106, 61, 222, 61, 90, 247, 199, 189, 22, 250, 130, 189, 184, 84, 128, 60, 102, 76, 159, 61, 156, 190, 98, 61, 246, 255, 10, 61, 101, 7, 5, 61, 60, 118, 155, 61, 92, 121, 37, 189, 117, 142, 176, 186, 245, 72, 2, 190, 187, 105, 112, 61, 251, 241, 186, 61, 19, 63, 241, 61, 120, 73, 23, 61, 225, 69, 4, 62, 73, 199, 140, 58, 202, 255, 180, 61, 215, 58, 166, 59, 67, 39, 20, 61, 181, 222, 75, 188, 40, 138, 167, 61, 190, 238, 91, 189, 9, 57, 184, 61, 24, 115, 176, 61, 54, 21, 206, 60, 112, 42, 90, 61, 245, 184, 161, 189, 24, 160, 115, 60, 131, 2, 31, 189, 158, 249, 121, 61, 218, 222, 181, 188, 141, 208, 211, 59, 106, 23, 99, 61, 208, 150, 172, 60, 92, 82, 31, 61, 201, 166, 183, 61, 37, 195, 154, 189, 80, 202, 131, 62, 240, 1, 191, 188, 174, 0, 195, 61, 178, 69, 169, 61, 154, 137, 245, 61, 192, 2, 190, 61, 125, 100, 33, 189, 82, 220, 185, 60, 216, 219, 140, 189, 6, 116, 175, 61, 162, 26, 41, 61, 70, 107, 126, 189, 136, 220, 43, 62, 208, 79, 120, 189, 49, 224, 31, 189, 247, 103, 195, 189, 132, 133, 193, 188, 94, 68, 147, 189, 123, 28, 95, 189, 74, 97, 167, 61, 209, 44, 143, 188, 41, 50, 88, 189, 252, 201, 138, 61, 217, 89, 153, 189, 187, 143, 120, 188, 46, 210, 171, 61, 211, 16, 208, 60, 53, 208, 157, 61, 225, 230, 113, 61, 136, 76, 193, 61, 247, 5, 249, 187, 49, 27, 157, 60, 87, 93, 235, 61, 102, 94, 93, 189, 37, 234, 167, 61, 4, 137, 120, 185, 98, 110, 21, 189, 171, 183, 161, 61, 13, 61, 164, 189, 93, 69, 146, 61, 137, 147, 203, 189, 221, 168, 38, 189, 247, 238, 8, 189, 246, 51, 177, 61, 52, 255, 117, 190, 6, 192, 164, 61, 130, 107, 251, 61, 103, 145, 64, 186, 125, 185, 145, 189, 239, 203, 164, 189, 228, 7, 112, 189, 29, 176, 25, 189, 31, 129, 123, 61, 180, 224, 52, 61, 100, 47, 203, 61, 154, 235, 75, 188, 255, 220, 252, 61, 29, 2, 225, 189, 106, 176, 152, 189, 157, 20, 14, 189, 23, 138, 132, 61, 118, 61, 158, 61, 194, 168, 195, 61, 214, 249, 97, 189, 244, 169, 47, 61, 167, 134, 234, 59, 164, 212, 156, 61, 29, 111, 173, 61, 5, 191, 196, 57, 118, 187, 146, 61, 96, 103, 184, 188, 237, 8, 253, 189, 106, 241, 128, 60, 201, 109, 254, 60, 237, 82, 195, 61, 93, 163, 13, 188, 130, 130, 103, 61, 69, 13, 58, 61, 254, 14, 105, 188, 13, 165, 84, 187, 34, 120, 23, 61, 225, 54, 94, 61, 235, 74, 137, 189, 28, 100, 78, 61, 242, 106, 183, 188, 3, 19, 50, 189, 45, 73, 156, 61, 213, 39, 219, 188, 104, 157, 187, 61, 241, 32, 197, 61, 247, 103, 101, 188, 68, 93, 163, 61, 47, 91, 97, 189, 251, 113, 147, 189, 137, 162, 183, 61, 18, 23, 7, 187, 231, 208, 45, 61, 36, 8, 45, 189, 35, 84, 246, 60, 68, 134, 231, 188, 252, 191, 109, 60, 17, 81, 216, 61, 39, 238, 13, 61, 66, 190, 93, 189, 51, 32, 253, 61, 205, 222, 22, 61, 91, 144, 154, 188, 44, 33, 136, 189, 78, 87, 190, 61, 99, 253, 205, 61, 4, 85, 106, 60, 106, 203, 91, 60, 32, 105, 251, 188, 224, 227, 164, 61, 192, 197, 91, 189, 15, 204, 28, 59, 120, 171, 44, 189, 28, 250, 134, 189, 132, 10, 159, 189, 38, 62, 114, 61, 183, 174, 151, 187, 73, 192, 44, 60, 207, 25, 214, 187, 1, 2, 54, 61, 194, 79, 188, 61, 164, 88, 108, 61, 126, 220, 190, 61, 212, 9, 61, 61, 129, 74, 15, 62, 180, 104, 177, 61, 177, 231, 170, 189, 185, 227, 142, 189, 112, 117, 49, 62, 217, 66, 167, 59, 190, 25, 130, 189, 94, 88, 214, 61, 40, 141, 9, 61, 72, 228, 75, 188, 60, 134, 197, 61, 42, 108, 65, 189, 142, 218, 22, 62, 205, 170, 200, 189, 145, 85, 185, 61, 138, 43, 62, 188, 3, 55, 205, 60, 128, 233, 100, 188, 142, 70, 227, 60, 200, 141, 180, 61, 188, 249, 66, 61, 27, 193, 170, 189, 221, 68, 48, 189, 161, 53, 168, 61, 137, 51, 170, 189, 7, 109, 34, 60, 146, 195, 109, 189, 216, 250, 146, 59, 201, 196, 116, 186, 104, 222, 187, 188, 58, 130, 67, 189, 72, 4, 227, 61, 79, 196, 183, 187, 191, 117, 91, 61, 131, 6, 81, 61, 239, 134, 243, 60, 74, 209, 151, 189, 113, 82, 229, 188, 114, 169, 167, 60, 126, 127, 118, 60, 76, 10, 157, 61, 135, 252, 36, 61, 113, 156, 246, 60, 55, 210, 110, 61, 79, 103, 38, 190, 58, 41, 57, 61, 151, 155, 32, 188, 8, 226, 23, 188, 59, 76, 185, 188, 81, 223, 195, 61, 105, 181, 89, 61, 119, 178, 154, 61, 176, 252, 63, 61, 99, 22, 114, 61, 139, 36, 174, 188, 174, 100, 211, 60, 198, 18, 140, 60, 13, 206, 63, 61, 182, 187, 107, 61, 92, 108, 52, 61, 142, 71, 78, 61, 55, 1, 133, 61, 207, 117, 142, 60, 200, 137, 191, 189, 24, 219, 230, 61, 182, 75, 63, 61, 32, 177, 221, 189, 73, 236, 241, 61, 69, 54, 185, 188, 54, 111, 159, 189, 201, 128, 243, 185, 201, 237, 141, 61, 44, 177, 45, 188, 144, 243, 220, 189, 175, 62, 135, 189, 155, 126, 249, 60, 222, 11, 220, 60, 229, 253, 163, 188, 40, 68, 27, 188, 252, 138, 188, 60, 78, 130, 235, 61, 216, 252, 173, 61, 108, 111, 115, 61, 24, 126, 167, 187, 253, 88, 169, 189, 163, 208, 184, 59, 20, 65, 240, 61, 134, 247, 4, 189, 126, 144, 149, 189, 223, 112, 222, 189, 99, 190, 186, 61, 43, 228, 72, 61, 72, 111, 195, 188, 151, 49, 130, 189, 54, 101, 197, 60, 3, 142, 48, 189, 101, 89, 32, 61, 31, 46, 136, 189, 91, 51, 11, 62, 44, 142, 91, 187, 12, 148, 156, 189, 62, 121, 23, 61, 224, 131, 97, 61, 160, 233, 208, 188, 252, 205, 65, 61, 141, 194, 156, 60, 21, 197, 174, 61, 110, 79, 64, 189, 212, 106, 86, 189, 118, 104, 106, 61, 117, 196, 175, 61, 237, 119, 151, 61, 165, 174, 96, 188, 123, 239, 20, 60, 133, 7, 174, 188, 94, 152, 29, 61, 168, 91, 6, 61, 56, 128, 99, 61, 236, 53, 35, 61, 26, 181, 209, 61, 60, 129, 234, 61, 217, 119, 7, 60, 192, 225, 14, 59, 153, 121, 16, 188, 34, 10, 133, 61, 83, 102, 88, 189, 79, 126, 48, 189, 2, 128, 142, 61, 216, 23, 135, 62, 122, 248, 190, 189, 212, 59, 158, 189, 73, 93, 155, 188, 243, 189, 7, 62, 93, 203, 185, 59, 4, 55, 46, 188, 78, 115, 8, 189, 64, 233, 195, 60, 2, 194, 183, 189, 126, 138, 221, 188, 1, 127, 234, 60, 8, 40, 165, 61, 43, 244, 52, 61, 205, 249, 208, 61, 191, 34, 92, 61, 18, 48, 45, 189, 72, 141, 231, 60, 131, 135, 38, 189, 215, 106, 149, 59, 164, 125, 178, 61, 200, 20, 104, 60, 210, 112, 1, 189, 159, 46, 39, 61, 175, 15, 142, 61, 155, 129, 252, 189, 244, 163, 206, 189, 50, 249, 159, 61, 98, 218, 113, 189, 208, 0, 202, 61, 131, 118, 214, 188, 238, 121, 79, 189, 126, 216, 211, 61, 123, 140, 217, 61, 253, 229, 231, 61, 133, 202, 253, 188, 71, 123, 45, 61, 3, 253, 170, 59, 108, 138, 227, 61, 102, 212, 64, 189, 116, 237, 197, 61, 1, 208, 166, 188, 237, 58, 18, 61, 14, 123, 79, 189, 94, 121, 72, 190, 174, 203, 136, 189, 9, 207, 34, 61, 155, 12, 145, 61, 31, 64, 122, 188, 136, 183, 10, 189, 65, 112, 254, 60, 135, 159, 83, 189, 121, 22, 145, 189, 212, 201, 233, 60, 217, 204, 56, 60, 50, 50, 3, 61, 186, 44, 172, 61, 102, 224, 138, 189, 137, 40, 142, 61, 118, 219, 64, 61, 163, 32, 156, 189, 38, 208, 171, 189, 73, 110, 150, 60, 188, 159, 20, 189, 248, 226, 136, 59, 173, 80, 56, 60, 125, 226, 225, 189, 224, 133, 58, 189, 90, 249, 163, 189, 6, 140, 229, 189, 128, 247, 196, 59, 136, 216, 236, 61, 154, 169, 142, 61, 227, 124, 135, 189, 199, 214, 128, 189, 113, 97, 219, 189, 72, 47, 28, 62, 57, 155, 179, 189, 4, 89, 82, 188, 210, 160, 24, 189, 181, 25, 2, 61, 45, 113, 235, 187, 198, 201, 163, 60, 95, 144, 127, 189, 92, 127, 40, 61, 61, 71, 231, 188, 96, 207, 152, 61, 45, 159, 63, 189, 106, 8, 220, 58, 16, 51, 134, 61, 208, 10, 252, 189, 194, 6, 35, 60, 252, 145, 171, 61, 142, 179, 167, 61, 198, 210, 48, 61, 140, 122, 79, 61, 227, 68, 66, 61, 216, 72, 241, 61, 78, 242, 225, 61, 233, 167, 165, 61, 36, 129, 32, 61, 8, 223, 168, 189, 189, 237, 251, 60, 87, 169, 43, 60, 55, 201, 186, 61, 18, 122, 83, 188, 162, 90, 15, 187, 158, 39, 112, 189, 44, 5, 151, 61, 29, 156, 244, 60, 102, 239, 109, 61, 99, 210, 93, 188, 231, 106, 107, 189, 226, 116, 54, 61, 33, 120, 130, 189, 178, 209, 25, 61, 16, 241, 140, 61, 102, 252, 129, 189, 180, 25, 207, 61, 124, 69, 169, 61, 114, 177, 24, 189, 57, 111, 37, 189, 124, 47, 158, 189, 81, 225, 184, 61, 223, 99, 63, 61, 24, 238, 202, 61, 220, 70, 38, 61, 105, 77, 38, 190, 250, 119, 21, 190, 180, 114, 2, 60, 79, 62, 130, 60, 245, 212, 223, 189, 200, 194, 60, 190, 187, 52, 41, 61, 116, 80, 181, 61, 52, 46, 49, 189, 188, 12, 163, 188, 114, 177, 103, 61, 13, 190, 118, 189, 238, 132, 49, 61, 210, 59, 221, 189, 141, 26, 130, 60, 74, 134, 149, 60, 66, 83, 177, 60, 110, 66, 96, 189, 240, 107, 172, 61, 202, 183, 121, 61, 86, 72, 160, 187, 103, 44, 208, 189, 160, 53, 112, 187, 192, 211, 193, 59, 144, 116, 32, 61, 52, 117, 113, 61, 173, 252, 47, 189, 177, 124, 56, 189, 152, 178, 41, 189, 221, 178, 110, 189, 73, 67, 191, 189, 28, 9, 230, 188, 251, 32, 187, 189, 170, 191, 22, 189, 79, 94, 199, 189, 88, 130, 192, 61, 12, 60, 180, 61, 59, 167, 159, 189, 32, 66, 253, 187, 64, 219, 202, 59, 88, 154, 52, 61, 80, 112, 87, 188, 204, 213, 10, 61, 24, 124, 49, 61, 147, 196, 118, 189, 116, 182, 147, 188, 192, 80, 88, 188, 200, 82, 162, 60, 170, 212, 149, 189, 164, 71, 181, 61, 34, 242, 112, 189, 239, 21, 131, 189, 68, 234, 151, 61, 32, 40, 127, 188, 40, 243, 166, 188, 229, 21, 191, 189, 24, 240, 141, 60, 110, 185, 194, 61, 223, 27, 180, 189, 202, 147, 205, 61, 126, 248, 137, 61, 65, 21, 110, 189, 40, 65, 168, 189, 64, 237, 182, 188, 139, 100, 78, 189, 16, 162, 215, 188, 37, 163, 128, 189, 214, 112, 198, 189, 47, 136, 171, 189, 216, 26, 136, 189, 208, 248, 183, 61, 224, 90, 208, 60, 156, 142, 205, 61, 15, 138, 93, 189, 63, 166, 160, 189, 112, 251, 233, 59, 178, 164, 207, 61, 136, 44, 62, 188, 7, 162, 208, 189, 96, 40, 90, 61, 236, 62, 55, 61, 182, 104, 75, 189, 94, 232, 134, 61, 136, 23, 72, 188, 38, 213, 176, 61, 176, 130, 37, 189, 64, 202, 4, 61, 204, 161, 26, 189, 232, 65, 86, 188, 70, 181, 188, 61, 216, 58, 155, 188, 48, 1, 234, 60, 88, 114, 132, 188, 132, 247, 94, 189, 18, 202, 5, 189, 252, 239, 179, 189, 160, 165, 149, 187, 210, 205, 156, 189, 28, 90, 123, 61, 66, 148, 196, 61, 88, 98, 104, 61, 213, 130, 40, 189, 98, 182, 27, 189, 22, 37, 160, 189, 48, 227, 159, 59, 88, 224, 140, 60, 161, 112, 81, 189, 192, 69, 184, 188, 128, 143, 250, 60, 0, 75, 143, 61, 132, 66, 45, 61, 144, 249, 83, 61, 80, 154, 234, 60, 104, 135, 241, 60, 10, 102, 172, 61, 108, 48, 130, 60, 198, 178, 142, 189, 168, 44, 25, 60, 152, 205, 149, 61, 68, 152, 70, 61, 112, 48, 162, 61, 172, 120, 13, 61, 32, 185, 7, 61, 164, 211, 94, 61, 28, 54, 123, 61, 148, 174, 137, 61, 102, 217, 89, 189, 32, 142, 150, 187, 208, 113, 6, 61, 112, 219, 155, 188, 56, 64, 88, 60, 159, 36, 148, 189, 208, 19, 104, 61, 166, 67, 166, 189, 85, 48, 125, 189, 89, 194, 152, 189, 4, 151, 122, 61, 114, 24, 196, 61, 160, 152, 132, 60, 173, 126, 85, 189, 220, 246, 94, 61, 214, 116, 169, 189, 118, 111, 151, 61, 56, 29, 141, 189, 28, 93, 81, 189, 196, 221, 24, 189, 248, 7, 209, 60, 202, 197, 193, 61, 163, 35, 48, 189, 114, 51, 6, 189, 229, 146, 191, 189, 140, 177, 59, 61, 72, 160, 11, 189, 192, 223, 71, 189, 200, 94, 7, 188, 64, 71, 8, 187, 156, 37, 231, 188, 64, 190, 96, 61, 22, 133, 188, 61, 58, 18, 189, 189, 64, 190, 158, 189, 0, 103, 129, 58, 64, 23, 213, 60, 128, 251, 183, 186, 122, 37, 180, 189, 160, 128, 89, 187, 227, 78, 103, 189, 25, 189, 127, 189, 152, 73, 167, 189, 56, 21, 175, 188, 68, 226, 185, 189, 64, 158, 9, 187, 207, 130, 58, 189, 136, 83, 75, 189, 212, 106, 188, 61, 92, 121, 161, 189, 207, 140, 155, 189, 152, 223, 178, 61, 128, 101, 63, 187, 12, 191, 88, 61, 187, 179, 165, 189, 160, 154, 196, 189, 212, 104, 139, 61, 124, 159, 68, 61, 32, 44, 161, 60, 48, 60, 183, 60, 84, 212, 12, 61, 20, 208, 142, 189, 130, 33, 186, 61, 240, 64, 5, 60, 232, 83, 102, 188, 1, 151, 71, 189, 32, 193, 46, 59, 99, 148, 187, 189, 168, 122, 121, 60, 0, 32, 2, 184, 125, 215, 106, 189, 160, 228, 187, 60, 70, 91, 199, 189, 158, 221, 132, 61, 172, 123, 30, 61, 32, 150, 112, 189, 124, 123, 188, 188, 174, 3, 193, 61, 0, 36, 97, 188, 108, 160, 9, 61, 5, 202, 104, 189, 63, 216, 173, 189, 42, 234, 184, 189, 0, 137, 235, 60, 68, 63, 146, 189, 148, 183, 138, 60, 168, 250, 244, 60, 10, 226, 170, 189, 108, 117, 156, 61, 53, 224, 163, 189, 72, 37, 94, 188, 39, 156, 151, 189, 146, 136, 68, 189, 117, 139, 173, 189, 64, 203, 167, 59, 210, 178, 52, 189, 19, 13, 192, 189, 240, 11, 207, 61, 226, 97, 62, 189, 128, 71, 244, 187, 245, 241, 103, 189, 112, 168, 77, 61, 63, 246, 84, 189, 180, 139, 140, 61, 48, 135, 254, 188, 224, 59, 36, 59, 40, 130, 106, 61, 16, 167, 136, 189, 20, 194, 7, 61, 242, 53, 61, 189, 48, 30, 226, 60, 87, 219, 143, 189, 155, 250, 204, 189, 48, 205, 199, 60, 0, 195, 139, 58, 224, 29, 71, 59, 130, 48, 187, 61, 100, 186, 156, 189, 168, 130, 253, 60, 220, 96, 88, 61, 116, 91, 162, 60, 96, 134, 175, 61, 90, 174, 177, 61, 32, 204, 192, 189, 48, 9, 41, 188, 120, 122, 146, 188, 224, 181, 136, 61, 38, 192, 39, 189, 164, 150, 178, 61, 32, 74, 145, 60, 200, 234, 128, 189, 40, 227, 129, 188, 51, 60, 148, 189, 34, 206, 57, 189, 60, 216, 113, 189, 17, 50, 116, 189, 208, 181, 73, 188, 36, 226, 162, 61, 63, 140, 104, 189, 224, 248, 133, 61, 225, 137, 148, 189, 16, 169, 92, 189, 180, 27, 198, 189, 36, 163, 102, 61, 200, 107, 24, 61, 236, 63, 159, 61, 160, 115, 220, 60, 192, 146, 129, 189, 32, 254, 98, 59, 157, 248, 76, 189, 208, 49, 209, 187, 204, 157, 42, 61, 108, 247, 64, 189, 48, 41, 146, 187, 100, 255, 154, 60, 108, 15, 191, 61, 152, 101, 231, 188, 0, 83, 94, 61, 52, 82, 159, 188, 184, 232, 230, 60, 164, 111, 174, 189, 68, 244, 63, 61, 154, 160, 135, 61, 188, 65, 70, 189, 216, 5, 88, 61, 48, 211, 2, 189, 159, 153, 121, 189, 93, 1, 201, 189, 152, 172, 84, 60, 45, 206, 115, 189, 120, 0, 179, 189, 112, 68, 167, 189, 208, 42, 108, 60, 120, 240, 60, 189, 64, 168, 201, 59, 40, 210, 16, 61, 56, 98, 242, 188, 194, 248, 193, 61, 134, 180, 141, 189, 97, 5, 198, 189, 113, 239, 81, 189, 198, 30, 145, 61, 140, 201, 128, 189, 196, 39, 13, 61, 43, 201, 154, 189, 140, 7, 170, 61, 224, 60, 57, 187, 148, 216, 62, 61, 55, 228, 199, 189, 158, 188, 7, 189, 157, 181, 39, 189, 214, 77, 169, 189, 78, 234, 162, 61, 124, 31, 201, 189, 59, 246, 208, 189, 178, 191, 178, 61, 230, 132, 132, 189, 96, 115, 120, 189, 43, 237, 164, 189, 98, 193, 131, 61, 66, 148, 155, 61, 56, 67, 98, 61, 168, 168, 38, 61, 232, 43, 192, 188, 233, 12, 64, 189, 200, 67, 106, 188, 144, 183, 182, 61, 160, 65, 92, 61, 216, 58, 213, 60, 36, 127, 102, 61, 220, 58, 4, 61, 132, 167, 15, 189, 108, 124, 58, 61, 8, 12, 96, 61, 0, 226, 76, 61, 192, 20, 134, 188, 17, 72, 60, 189, 24, 57, 38, 61, 129, 156, 94, 189, 90, 175, 188, 61, 238, 215, 177, 189, 16, 5, 171, 188, 3, 200, 184, 189, 126, 240, 202, 61, 150, 9, 199, 189, 24, 201, 23, 61, 224, 158, 207, 187, 182, 150, 168, 61, 200, 33, 37, 61, 236, 135, 210, 188, 24, 135, 225, 188, 212, 155, 7, 189, 221, 32, 201, 189, 32, 107, 61, 61, 120, 186, 240, 60, 140, 253, 143, 61, 254, 8, 50, 189, 234, 195, 204, 61, 104, 123, 230, 188, 230, 228, 46, 189, 255, 250, 119, 189, 25, 144, 197, 189, 83, 223, 192, 189, 32, 193, 157, 59, 96, 11, 119, 188, 146, 241, 204, 61, 240, 127, 164, 61, 238, 136, 13, 189, 96, 244, 164, 59, 40, 170, 246, 60, 56, 164, 252, 60, 104, 43, 228, 60, 28, 12, 85, 61, 101, 210, 48, 189, 187, 109, 95, 189, 136, 13, 155, 60, 96, 241, 169, 189, 168, 20, 90, 188, 108, 124, 175, 61, 32, 94, 51, 59, 196, 81, 41, 189, 40, 129, 247, 60, 128, 245, 155, 189, 216, 35, 77, 61, 228, 14, 32, 189, 34, 63, 156, 61, 227, 82, 155, 189, 124, 187, 152, 189, 192, 35, 88, 61, 212, 75, 49, 61, 76, 235, 128, 60, 26, 34, 173, 189, 152, 219, 15, 61, 46, 199, 98, 189, 60, 35, 56, 189, 134, 223, 181, 61, 159, 68, 124, 189, 64, 152, 91, 189, 184, 107, 116, 60, 224, 118, 127, 187, 2, 63, 129, 61, 204, 61, 119, 61, 252, 99, 51, 61, 214, 219, 138, 61, 80, 137, 116, 61, 210, 133, 66, 189, 4, 200, 169, 61, 198, 243, 187, 189, 180, 57, 79, 61, 48, 247, 194, 61, 191, 200, 204, 189, 108, 230, 208, 189, 135, 205, 151, 189, 187, 151, 177, 189, 188, 56, 105, 61, 104, 171, 209, 60, 222, 172, 164, 189, 35, 208, 34, 189, 192, 114, 230, 187, 32, 77, 192, 188, 72, 229, 139, 188, 138, 185, 144, 61, 170, 110, 168, 189, 240, 19, 0, 188, 176, 144, 203, 59, 68, 217, 117, 61, 229, 18, 164, 189, 24, 107, 208, 60, 64, 49, 130, 61, 136, 12, 156, 188, 36, 228, 25, 189, 228, 254, 179, 188, 182, 70, 189, 61, 24, 93, 115, 61, 176, 127, 243, 188, 174, 59, 168, 61, 241, 161, 198, 189, 245, 219, 86, 189, 134, 240, 186, 189, 41, 240, 175, 189, 108, 96, 147, 60, 0, 118, 38, 185, 174, 156, 155, 61, 16, 203, 168, 187, 94, 105, 156, 61, 182, 127, 180, 189, 149, 186, 160, 189, 132, 167, 207, 189, 55, 214, 87, 189, 13, 22, 98, 189, 146, 122, 158, 189, 56, 159, 171, 188, 184, 40, 157, 60, 52, 233, 199, 189, 100, 238, 54, 61, 96, 24, 239, 60, 216, 190, 92, 60, 24, 184, 108, 61, 112, 29, 72, 188, 14, 125, 135, 189, 96, 36, 204, 188, 204, 98, 19, 61, 0, 114, 127, 59, 128, 12, 254, 58, 196, 95, 70, 61, 0, 119, 132, 185, 207, 148, 159, 189, 152, 76, 254, 60, 152, 39, 71, 60, 84, 11, 130, 60, 170, 6, 203, 189, 192, 48, 204, 61, 20, 15, 168, 61, 152, 218, 118, 188, 246, 198, 48, 189, 192, 38, 118, 187, 224, 53, 100, 188, 200, 193, 140, 189, 14, 77, 110, 189, 28, 101, 208, 189, 96, 35, 72, 188, 144, 252, 42, 61, 255, 1, 125, 189, 3, 89, 196, 189, 114, 123, 8, 189, 0, 254, 202, 61, 128, 159, 42, 61, 245, 202, 34, 189, 182, 85, 108, 189, 32, 153, 91, 188, 40, 31, 82, 61, 11, 244, 196, 189, 52, 178, 145, 61, 136, 77, 94, 61, 241, 229, 166, 189, 36, 114, 206, 61, 78, 135, 147, 61, 66, 254, 199, 61, 229, 227, 103, 189, 132, 49, 147, 188, 56, 152, 11, 189, 104, 109, 108, 61, 224, 215, 105, 59, 55, 161, 161, 189, 170, 30, 144, 189, 45, 153, 139, 189, 209, 36, 156, 189, 196, 180, 162, 60, 180, 12, 227, 188, 200, 45, 72, 60, 240, 218, 189, 60, 240, 44, 161, 60, 32, 59, 194, 189, 224, 168, 50, 59, 102, 223, 60, 189, 124, 245, 150, 61, 184, 89, 89, 61, 178, 75, 196, 61, 87, 21, 207, 189, 113, 246, 77, 189, 251, 128, 205, 189, 28, 158, 204, 189, 175, 67, 94, 189, 24, 241, 116, 188, 58, 12, 117, 189, 113, 108, 178, 189, 146, 54, 94, 189, 6, 110, 100, 189, 197, 140, 36, 189, 88, 71, 77, 189, 236, 228, 115, 189, 140, 119, 111, 61, 88, 10, 81, 58, 199, 111, 248, 59, 205, 53, 178, 189, 162, 66, 95, 189, 134, 247, 192, 189, 52, 217, 205, 61, 247, 83, 40, 61, 108, 167, 14, 188, 10, 1, 156, 61, 240, 35, 165, 189, 28, 93, 170, 189, 15, 91, 43, 189, 226, 95, 22, 189, 17, 61, 204, 188, 133, 83, 153, 188, 92, 181, 30, 189, 139, 172, 146, 189, 232, 12, 194, 188, 42, 41, 60, 61, 3, 204, 96, 189, 36, 201, 9, 61, 184, 35, 149, 189, 93, 21, 195, 61, 120, 87, 178, 61, 152, 160, 65, 61, 206, 11, 175, 188, 1, 95, 79, 188, 108, 171, 19, 188, 209, 58, 44, 189, 37, 148, 111, 61, 205, 179, 0, 60, 62, 96, 225, 61, 100, 194, 247, 188, 103, 27, 180, 189, 139, 173, 192, 61, 132, 185, 5, 189, 232, 42, 12, 61, 211, 180, 162, 61, 242, 150, 205, 61, 164, 108, 207, 188, 55, 245, 145, 61, 227, 143, 62, 61, 53, 190, 190, 188, 40, 98, 133, 187, 105, 117, 3, 189, 91, 216, 221, 61, 8, 29, 202, 188, 144, 101, 191, 60, 231, 183, 109, 61, 195, 171, 192, 188, 172, 85, 220, 61, 178, 250, 219, 189, 141, 23, 82, 61, 116, 211, 183, 188, 130, 12, 1, 62, 12, 60, 138, 61, 75, 147, 76, 189, 159, 185, 170, 189, 206, 66, 50, 189, 184, 190, 93, 188, 246, 36, 135, 61, 76, 75, 160, 61, 19, 123, 204, 61, 105, 131, 147, 189, 132, 96, 73, 61, 198, 114, 187, 61, 24, 43, 204, 59, 73, 107, 53, 61, 152, 243, 29, 189, 121, 133, 83, 189, 173, 91, 253, 189, 143, 120, 105, 61, 11, 1, 4, 62, 236, 103, 182, 189, 97, 61, 214, 59, 108, 169, 58, 60, 155, 124, 114, 189, 32, 133, 26, 61, 13, 24, 34, 190, 248, 39, 122, 61, 31, 197, 158, 189, 67, 200, 139, 61, 29, 143, 156, 61, 144, 213, 220, 61, 243, 127, 35, 189, 250, 65, 86, 188, 168, 32, 229, 61, 26, 15, 118, 60, 175, 39, 229, 60, 197, 28, 166, 60, 89, 6, 25, 188, 248, 181, 89, 60, 64, 149, 199, 60, 64, 42, 240, 60, 98, 17, 101, 61, 146, 70, 203, 61, 73, 195, 81, 189, 69, 74, 122, 189, 139, 90, 182, 61, 135, 209, 204, 61, 142, 130, 199, 61, 25, 10, 147, 61, 18, 148, 146, 61, 107, 222, 227, 189, 243, 141, 52, 189, 224, 236, 15, 187, 178, 75, 69, 189, 178, 238, 253, 58, 246, 242, 218, 60, 128, 76, 191, 61, 156, 235, 156, 189, 208, 189, 178, 61, 48, 61, 131, 187, 99, 11, 176, 189, 212, 138, 198, 189, 224, 57, 97, 189, 221, 17, 145, 61, 23, 173, 135, 61, 183, 130, 59, 61, 130, 31, 10, 61, 2, 54, 135, 189, 52, 208, 66, 61, 236, 205, 66, 61, 144, 232, 41, 61, 44, 84, 19, 189, 48, 145, 168, 61, 245, 246, 35, 189, 183, 23, 0, 189, 201, 136, 188, 189, 135, 221, 24, 61, 92, 136, 126, 59, 138, 31, 246, 59, 24, 235, 118, 61, 198, 62, 245, 61, 254, 123, 153, 189, 121, 135, 26, 189, 153, 64, 138, 188, 34, 162, 132, 61, 44, 2, 136, 189, 219, 169, 29, 62, 86, 45, 169, 189, 205, 239, 44, 188, 225, 27, 76, 61, 151, 232, 220, 61, 187, 54, 123, 189, 222, 57, 232, 60, 140, 124, 215, 60, 64, 132, 147, 62, 224, 110, 42, 61, 90, 107, 206, 189, 255, 120, 135, 189, 26, 171, 167, 189, 214, 149, 87, 61, 217, 49, 156, 61, 120, 56, 223, 61, 189, 103, 220, 61, 0, 154, 169, 189, 39, 91, 152, 189, 51, 113, 180, 189, 236, 110, 161, 59, 178, 238, 135, 189, 212, 155, 187, 60, 124, 75, 120, 189, 42, 217, 173, 188, 56, 66, 198, 189, 205, 5, 29, 59, 2, 88, 132, 61, 65, 199, 180, 189, 165, 25, 19, 189, 229, 44, 171, 61, 28, 220, 136, 60, 224, 253, 50, 189, 153, 97, 147, 61, 102, 221, 201, 60, 176, 57, 56, 188, 174, 54, 168, 189, 75, 248, 236, 60, 116, 207, 13, 60, 224, 198, 54, 60, 138, 58, 49, 189, 36, 180, 61, 189, 232, 110, 211, 59, 103, 204, 150, 188, 177, 20, 112, 61, 161, 166, 184, 188, 86, 153, 113, 189, 157, 39, 122, 61, 41, 161, 67, 61, 22, 90, 145, 189, 211, 226, 73, 189, 120, 122, 196, 189, 47, 28, 240, 61, 61, 110, 188, 60, 100, 124, 166, 189, 128, 61, 3, 190, 243, 79, 175, 187, 246, 25, 199, 61, 146, 197, 178, 61, 0, 163, 49, 61, 19, 122, 18, 61, 51, 182, 173, 188, 131, 40, 250, 189, 166, 122, 60, 189, 58, 35, 70, 61, 47, 30, 160, 59, 15, 174, 191, 60, 33, 86, 245, 189, 122, 196, 104, 188, 122, 31, 48, 60, 14, 148, 40, 61, 79, 85, 172, 61, 152, 216, 174, 61, 226, 82, 143, 61, 215, 77, 133, 189, 198, 151, 187, 61, 235, 38, 184, 188, 14, 18, 101, 189, 47, 247, 128, 61, 45, 46, 66, 189, 47, 159, 94, 189, 97, 112, 179, 189, 11, 101, 91, 189, 192, 123, 128, 60, 54, 155, 41, 187, 203, 181, 189, 61, 248, 168, 110, 61, 219, 5, 160, 61, 153, 210, 65, 61, 60, 73, 127, 61, 21, 41, 182, 60, 56, 55, 198, 60, 93, 191, 243, 189, 224, 5, 189, 187, 248, 252, 126, 61, 80, 69, 140, 61, 117, 55, 156, 189, 45, 214, 146, 189, 100, 177, 81, 189, 202, 239, 126, 60, 0, 104, 69, 186, 208, 231, 91, 61, 229, 85, 48, 61, 211, 7, 45, 61, 133, 219, 26, 190, 39, 226, 107, 60, 201, 223, 189, 60, 61, 177, 179, 189, 218, 91, 205, 189, 120, 0, 149, 60, 87, 125, 187, 60, 239, 92, 154, 189, 121, 228, 122, 187, 80, 146, 171, 60, 164, 94, 215, 189, 42, 240, 49, 189, 221, 190, 182, 61, 171, 1, 198, 61, 96, 163, 192, 61, 103, 228, 149, 60, 211, 233, 130, 61, 156, 129, 11, 61, 57, 51, 74, 61, 74, 18, 204, 189, 71, 191, 234, 61, 124, 151, 130, 60, 232, 187, 212, 189, 211, 8, 1, 187, 197, 128, 23, 61, 170, 133, 26, 62, 117, 79, 43, 61, 108, 189, 156, 189, 189, 26, 157, 61, 251, 240, 186, 59, 240, 143, 149, 61, 213, 216, 121, 189, 89, 16, 8, 62, 98, 96, 239, 187, 187, 141, 170, 188, 28, 174, 192, 61, 131, 219, 152, 188, 250, 202, 75, 187, 87, 221, 47, 61, 24, 87, 94, 189, 203, 79, 139, 61, 203, 131, 191, 61, 41, 126, 225, 61, 176, 102, 57, 189, 93, 22, 172, 189, 227, 5, 24, 189, 48, 21, 159, 61, 216, 92, 194, 187, 155, 72, 193, 61, 235, 225, 205, 188, 63, 193, 207, 61, 37, 236, 151, 187, 242, 31, 219, 189, 93, 128, 135, 188, 54, 150, 111, 189, 214, 72, 74, 189, 8, 165, 29, 61, 69, 255, 240, 60, 18, 116, 188, 61, 89, 53, 5, 62, 38, 124, 1, 62, 86, 24, 48, 61, 56, 58, 113, 189, 107, 116, 15, 61, 134, 62, 225, 60, 143, 113, 248, 61, 51, 138, 31, 61, 211, 15, 225, 61, 39, 106, 72, 60, 139, 116, 140, 61, 64, 126, 80, 61, 203, 11, 59, 61, 180, 253, 210, 188, 160, 209, 122, 189, 228, 4, 100, 189, 101, 225, 42, 189, 35, 156, 138, 61, 116, 177, 103, 189, 122, 37, 251, 187, 5, 222, 205, 61, 171, 20, 52, 189, 194, 7, 197, 61, 90, 39, 131, 189, 197, 247, 72, 189, 208, 55, 171, 61, 75, 195, 227, 60, 193, 216, 117, 189, 162, 130, 7, 187, 44, 34, 190, 61, 48, 61, 140, 61, 234, 0, 224, 189, 246, 108, 167, 189, 180, 204, 206, 189, 189, 54, 1, 190, 40, 29, 66, 189, 179, 62, 93, 61, 173, 12, 135, 189, 38, 0, 177, 189, 115, 141, 249, 60, 213, 213, 182, 189, 175, 40, 164, 188, 23, 121, 42, 61, 198, 212, 88, 189, 113, 129, 226, 188, 144, 253, 204, 61, 76, 98, 113, 61, 216, 26, 182, 189, 214, 176, 167, 188, 50, 123, 223, 188, 137, 237, 148, 189, 177, 130, 185, 188, 20, 60, 177, 189, 38, 20, 136, 60, 126, 98, 117, 189, 206, 4, 171, 61, 16, 159, 207, 59, 150, 80, 201, 189, 216, 8, 230, 188, 8, 148, 240, 60, 209, 235, 129, 188, 13, 209, 51, 190, 38, 245, 229, 189, 241, 47, 20, 189, 204, 147, 243, 60, 52, 88, 129, 60, 10, 166, 88, 189, 131, 216, 162, 61, 189, 5, 115, 188, 201, 253, 81, 189, 4, 103, 148, 189, 164, 255, 245, 188, 118, 64, 125, 189, 7, 78, 180, 61, 252, 1, 222, 188, 11, 157, 122, 189, 42, 2, 131, 61, 65, 229, 161, 188, 36, 213, 193, 61, 248, 82, 121, 188, 153, 118, 193, 60, 61, 12, 240, 61, 159, 191, 94, 60, 119, 37, 129, 189, 77, 187, 110, 61, 105, 125, 135, 61, 15, 251, 78, 189, 123, 150, 247, 61, 78, 88, 197, 61, 31, 74, 208, 189, 28, 225, 215, 189, 72, 142, 135, 59, 85, 242, 156, 61, 224, 119, 47, 60, 171, 201, 145, 188, 32, 182, 247, 60, 68, 252, 71, 61, 137, 197, 13, 189, 4, 74, 227, 61, 218, 193, 189, 61, 79, 214, 250, 61, 99, 233, 111, 62, 196, 236, 213, 189, 78, 168, 191, 61, 27, 131, 98, 189, 38, 121, 143, 59, 244, 144, 183, 60, 93, 209, 89, 61, 1, 188, 170, 188, 33, 220, 136, 188, 92, 148, 11, 62, 156, 175, 88, 189, 79, 108, 157, 188, 136, 158, 148, 61, 133, 122, 146, 60, 62, 56, 141, 189, 230, 175, 67, 189, 239, 193, 35, 188, 0, 184, 206, 60, 130, 206, 26, 188, 66, 151, 62, 189, 73, 252, 148, 189, 84, 63, 8, 62, 84, 234, 138, 61, 205, 129, 165, 189, 25, 188, 132, 61, 175, 192, 130, 189, 154, 246, 1, 188, 235, 146, 254, 56, 28, 71, 251, 60, 12, 152, 5, 61, 215, 102, 132, 189, 43, 97, 211, 60, 152, 181, 191, 189, 73, 127, 168, 189, 198, 47, 166, 61, 54, 47, 36, 61, 73, 6, 163, 60, 60, 16, 169, 60, 220, 225, 134, 189, 243, 209, 35, 60, 233, 199, 139, 189, 60, 48, 14, 190, 245, 4, 3, 190, 129, 208, 248, 60, 154, 96, 13, 189, 189, 88, 114, 189, 164, 239, 35, 189, 164, 59, 200, 61, 148, 209, 248, 189, 196, 171, 146, 189, 156, 137, 217, 61, 198, 156, 158, 188, 150, 5, 140, 61, 230, 236, 122, 188, 175, 82, 101, 189, 219, 96, 61, 61, 1, 180, 204, 189, 113, 121, 171, 188, 100, 170, 2, 189, 211, 206, 43, 189, 28, 64, 86, 61, 59, 144, 158, 61, 185, 126, 129, 188, 108, 244, 217, 60, 201, 154, 122, 61, 82, 138, 245, 187, 229, 240, 107, 189, 249, 238, 187, 61, 227, 50, 228, 60, 235, 171, 52, 61, 23, 53, 14, 61, 172, 125, 89, 189, 240, 62, 105, 61, 56, 159, 36, 189, 110, 151, 208, 61, 42, 184, 52, 189, 140, 198, 167, 189, 151, 25, 26, 59, 54, 167, 161, 58, 163, 100, 237, 189, 12, 68, 221, 61, 10, 230, 2, 189, 209, 170, 132, 61, 239, 112, 37, 62, 101, 225, 20, 61, 96, 45, 64, 61, 247, 24, 22, 62, 111, 125, 141, 61, 201, 33, 86, 61, 213, 37, 6, 62, 228, 1, 32, 61, 60, 42, 128, 189, 64, 229, 49, 61, 181, 169, 13, 61, 182, 200, 126, 189, 246, 147, 22, 59, 176, 226, 48, 62, 188, 63, 4, 189, 132, 19, 249, 61, 8, 43, 81, 189, 244, 48, 237, 188, 226, 164, 165, 61, 227, 36, 143, 189, 101, 219, 206, 188, 57, 110, 180, 189, 48, 59, 49, 188, 161, 123, 120, 61, 180, 228, 241, 188, 88, 173, 152, 189, 210, 28, 207, 61, 100, 80, 166, 59, 34, 16, 164, 61, 35, 121, 53, 61, 64, 192, 168, 61, 166, 17, 188, 61, 89, 165, 38, 188, 11, 116, 99, 61, 13, 178, 65, 61, 205, 124, 34, 60, 249, 55, 77, 189, 193, 188, 188, 61, 129, 79, 176, 189, 126, 160, 214, 188, 191, 230, 180, 61, 230, 247, 149, 61, 14, 185, 211, 60, 71, 241, 137, 60, 222, 32, 40, 61, 196, 120, 184, 61, 232, 196, 61, 61, 145, 76, 128, 189, 231, 143, 165, 189, 239, 149, 232, 60, 104, 193, 129, 189, 110, 193, 244, 188, 43, 29, 77, 61, 223, 157, 154, 61, 15, 173, 124, 61, 131, 254, 167, 189, 117, 82, 161, 61, 252, 129, 15, 188, 218, 165, 153, 189, 179, 166, 197, 61, 124, 255, 169, 61, 116, 136, 169, 189, 52, 123, 114, 61, 254, 59, 60, 61, 210, 88, 81, 188, 85, 144, 215, 61, 3, 250, 163, 189, 85, 167, 46, 189, 93, 181, 129, 189, 76, 199, 11, 60, 88, 203, 40, 189, 162, 241, 158, 189, 183, 124, 150, 189, 234, 12, 162, 61, 196, 120, 137, 189, 2, 196, 148, 189, 90, 38, 163, 61, 213, 0, 190, 188, 112, 231, 132, 61, 10, 31, 205, 189, 46, 239, 47, 189, 35, 18, 170, 60, 128, 132, 5, 60, 224, 35, 237, 61, 112, 213, 84, 189, 194, 227, 199, 189, 99, 252, 192, 189, 32, 150, 85, 189, 138, 31, 194, 189, 138, 186, 166, 189, 6, 254, 190, 61, 174, 168, 9, 189, 111, 213, 195, 61, 88, 18, 159, 61, 8, 229, 5, 188, 76, 173, 111, 61, 210, 168, 114, 189, 237, 109, 52, 60, 241, 29, 235, 189, 235, 98, 236, 61, 11, 75, 78, 61, 138, 118, 81, 189, 196, 11, 60, 61, 196, 151, 59, 189, 178, 69, 167, 185, 160, 54, 1, 188, 110, 122, 143, 189, 164, 175, 211, 61, 38, 229, 186, 61, 189, 250, 13, 189, 255, 83, 57, 60, 112, 94, 222, 61, 114, 17, 109, 61, 119, 205, 171, 61, 232, 38, 205, 61, 212, 109, 1, 189, 225, 43, 63, 60, 240, 98, 168, 187, 220, 240, 30, 189, 170, 122, 207, 61, 104, 144, 77, 188, 27, 111, 171, 61, 79, 7, 117, 61, 213, 250, 86, 60, 17, 14, 164, 189, 182, 171, 39, 189, 160, 138, 143, 187, 143, 110, 184, 59, 112, 1, 126, 61, 156, 126, 11, 62, 208, 5, 176, 187, 96, 74, 50, 188, 49, 246, 72, 189, 87, 162, 196, 61, 136, 65, 82, 58, 35, 86, 167, 61, 220, 255, 116, 189, 184, 143, 80, 188, 32, 163, 8, 187, 164, 111, 4, 61, 240, 161, 80, 61, 28, 142, 68, 62, 163, 199, 192, 189, 25, 27, 243, 59, 90, 254, 183, 61, 89, 228, 149, 61, 89, 214, 172, 189, 168, 169, 129, 60, 191, 13, 75, 61, 137, 122, 240, 186, 148, 61, 188, 187, 219, 221, 198, 61, 121, 90, 193, 188, 100, 250, 33, 60, 62, 216, 34, 189, 185, 129, 155, 186, 174, 155, 64, 189, 51, 56, 80, 61, 164, 118, 65, 61, 139, 40, 3, 189, 53, 77, 198, 58, 176, 138, 235, 61, 166, 220, 131, 61, 127, 175, 106, 58, 10, 115, 128, 188, 14, 109, 172, 189, 118, 70, 127, 61, 97, 175, 129, 61, 250, 85, 125, 61, 1, 23, 168, 61, 25, 198, 67, 61, 255, 250, 123, 61, 205, 131, 142, 61, 171, 7, 198, 189, 210, 248, 189, 61, 41, 212, 173, 60, 84, 142, 201, 189, 172, 139, 168, 188, 226, 224, 150, 61, 185, 202, 143, 61, 56, 144, 36, 188, 62, 175, 140, 61, 128, 200, 192, 59, 49, 247, 91, 61, 82, 199, 61, 189, 86, 179, 36, 188, 208, 83, 220, 189, 196, 74, 143, 189, 175, 109, 62, 189, 72, 77, 125, 188, 101, 84, 139, 61, 203, 4, 48, 61, 163, 147, 212, 60, 190, 175, 88, 61, 93, 12, 75, 189, 240, 180, 168, 189, 140, 227, 27, 189, 93, 90, 0, 189, 64, 111, 224, 59, 214, 206, 208, 189, 83, 102, 181, 189, 78, 250, 104, 189, 58, 37, 129, 61, 97, 193, 185, 61, 156, 184, 95, 189, 234, 123, 51, 60, 219, 173, 181, 189, 10, 194, 255, 188, 122, 114, 125, 189, 84, 209, 110, 59, 166, 211, 31, 61, 99, 184, 55, 189, 76, 2, 89, 61, 18, 56, 172, 60, 3, 134, 99, 189, 236, 158, 250, 61, 138, 214, 8, 189, 135, 170, 158, 189, 240, 92, 50, 189, 220, 243, 131, 61, 221, 92, 165, 60, 117, 83, 159, 61, 45, 87, 133, 188, 26, 27, 129, 188, 78, 83, 192, 61, 248, 204, 248, 61, 108, 157, 3, 189, 238, 173, 250, 60, 124, 95, 74, 189, 84, 2, 187, 61, 248, 123, 140, 61, 219, 254, 251, 60, 91, 210, 135, 61, 242, 46, 131, 189, 135, 247, 15, 188, 139, 173, 55, 188, 241, 86, 158, 189, 232, 84, 56, 60, 205, 179, 87, 189, 203, 130, 222, 188, 180, 213, 0, 61, 72, 72, 196, 61, 164, 39, 157, 189, 221, 68, 44, 61, 24, 152, 107, 189, 150, 167, 132, 189, 192, 227, 2, 187, 216, 205, 88, 61, 122, 205, 233, 60, 5, 153, 94, 189, 27, 95, 161, 61, 30, 46, 33, 59, 42, 130, 194, 61, 216, 49, 209, 59, 176, 189, 87, 61, 204, 101, 254, 188, 90, 84, 193, 189, 233, 33, 107, 62, 236, 38, 182, 61, 220, 93, 216, 188, 172, 108, 115, 189, 241, 197, 101, 62, 40, 183, 182, 61, 7, 242, 42, 58, 218, 64, 31, 61, 26, 138, 132, 189, 182, 115, 157, 61, 73, 6, 104, 189, 179, 234, 169, 61, 135, 192, 95, 62, 47, 208, 69, 61, 174, 2, 145, 61, 42, 214, 140, 189, 187, 239, 174, 61, 192, 209, 221, 186, 148, 107, 130, 189, 116, 14, 111, 189, 152, 3, 63, 188, 49, 188, 203, 189, 156, 174, 241, 61, 36, 27, 136, 61, 252, 56, 69, 61, 217, 46, 128, 189, 142, 66, 157, 186, 169, 33, 