#pragma once

#include <cstdint>

const uint8_t layer_4[] = {
28, 0, 0, 0, 84, 70, 76, 51, 20, 0, 32, 0, 28, 0, 24, 0, 20, 0, 16, 0, 12, 0, 0, 0, 8, 0, 4, 0, 20, 0, 0, 0, 28, 0, 0, 0, 136, 0, 0, 0, 224, 0, 0, 0, 176, 2, 0, 0, 192, 2, 0, 0, 148, 5, 0, 0, 3, 0, 0, 0, 1, 0, 0, 0, 4, 0, 0, 0, 10, 253, 255, 255, 12, 0, 0, 0, 28, 0, 0, 0, 56, 0, 0, 0, 15, 0, 0, 0, 115, 101, 114, 118, 105, 110, 103, 95, 100, 101, 102, 97, 117, 108, 116, 0, 1, 0, 0, 0, 4, 0, 0, 0, 148, 255, 255, 255, 4, 0, 0, 0, 4, 0, 0, 0, 7, 0, 0, 0, 108, 97, 121, 101, 114, 95, 52, 0, 1, 0, 0, 0, 4, 0, 0, 0, 210, 253, 255, 255, 4, 0, 0, 0, 13, 0, 0, 0, 108, 97, 121, 101, 114, 95, 52, 95, 105, 110, 112, 117, 116, 0, 0, 0, 2, 0, 0, 0, 52, 0, 0, 0, 4, 0, 0, 0, 220, 255, 255, 255, 7, 0, 0, 0, 4, 0, 0, 0, 19, 0, 0, 0, 67, 79, 78, 86, 69, 82, 83, 73, 79, 78, 95, 77, 69, 84, 65, 68, 65, 84, 65, 0, 8, 0, 12, 0, 8, 0, 4, 0, 8, 0, 0, 0, 6, 0, 0, 0, 4, 0, 0, 0, 19, 0, 0, 0, 109, 105, 110, 95, 114, 117, 110, 116, 105, 109, 101, 95, 118, 101, 114, 115, 105, 111, 110, 0, 8, 0, 0, 0, 204, 1, 0, 0, 196, 1, 0, 0, 176, 1, 0, 0, 152, 0, 0, 0, 144, 0, 0, 0, 136, 0, 0, 0, 104, 0, 0, 0, 4, 0, 0, 0, 110, 254, 255, 255, 4, 0, 0, 0, 84, 0, 0, 0, 12, 0, 0, 0, 8, 0, 14, 0, 8, 0, 4, 0, 8, 0, 0, 0, 16, 0, 0, 0, 36, 0, 0, 0, 0, 0, 6, 0, 8, 0, 4, 0, 6, 0, 0, 0, 4, 0, 0, 0, 0, 0, 0, 0, 0, 0, 10, 0, 16, 0, 12, 0, 8, 0, 4, 0, 10, 0, 0, 0, 2, 0, 0, 0, 2, 0, 0, 0, 4, 0, 0, 0, 6, 0, 0, 0, 50, 46, 49, 51, 46, 48, 0, 0, 206, 254, 255, 255, 4, 0, 0, 0, 16, 0, 0, 0, 49, 46, 49, 52, 46, 48, 0, 0, 0, 0, 0, 0, 0, 0, 0, 0, 24, 252, 255, 255, 28, 252, 255, 255, 242, 254, 255, 255, 4, 0, 0, 0, 0, 1, 0, 0, 122, 255, 148, 190, 247, 101, 16, 190, 252, 125, 201, 61, 146, 208, 51, 62, 30, 148, 66, 62, 88, 8, 49, 62, 6, 244, 158, 61, 223, 26, 250, 189, 20, 16, 70, 62, 118, 193, 206, 61, 106, 188, 160, 190, 252, 134, 132, 190, 218, 135, 221, 189, 97, 28, 163, 190, 226, 223, 92, 189, 95, 160, 131, 62, 118, 253, 252, 61, 0, 119, 86, 60, 82, 43, 158, 62, 63, 148, 11, 190, 106, 212, 153, 190, 35, 118, 41, 190, 61, 75, 76, 62, 208, 143, 145, 62, 152, 127, 6, 189, 10, 253, 148, 190, 204, 7, 161, 190, 175, 47, 58, 62, 2, 210, 139, 190, 223, 126, 25, 190, 52, 16, 217, 61, 7, 229, 96, 190, 19, 30, 21, 62, 41, 17, 49, 190, 224, 33, 152, 62, 255, 234, 90, 190, 128, 205, 9, 187, 160, 255, 41, 190, 25, 55, 64, 62, 122, 192, 165, 62, 255, 136, 249, 61, 71, 166, 135, 62, 34, 197, 45, 190, 0, 110, 85, 62, 25, 52, 161, 189, 115, 89, 63, 62, 34, 158, 153, 190, 200, 57, 79, 62, 86, 79, 131, 189, 125, 111, 109, 61, 168, 39, 33, 61, 88, 44, 18, 62, 162, 51, 8, 190, 78, 159, 11, 190, 220, 178, 92, 189, 179, 108, 106, 190, 16, 132, 140, 189, 67, 69, 106, 190, 67, 31, 222, 61, 117, 168, 142, 62, 89, 255, 2, 190, 140, 34, 105, 62, 20, 112, 126, 190, 129, 60, 166, 62, 0, 0, 6, 0, 8, 0, 4, 0, 6, 0, 0, 0, 4, 0, 0, 0, 4, 0, 0, 0, 83, 17, 248, 58, 68, 253, 255, 255, 72, 253, 255, 255, 15, 0, 0, 0, 77, 76, 73, 82, 32, 67, 111, 110, 118, 101, 114, 116, 101, 100, 46, 0, 1, 0, 0, 0, 20, 0, 0, 0, 0, 0, 14, 0, 24, 0, 20, 0, 16, 0, 12, 0, 8, 0, 4, 0, 14, 0, 0, 0, 20, 0, 0, 0, 28, 0, 0, 0, 144, 0, 0, 0, 148, 0, 0, 0, 152, 0, 0, 0, 4, 0, 0, 0, 109, 97, 105, 110, 0, 0, 0, 0, 2, 0, 0, 0, 68, 0, 0, 0, 16, 0, 0, 0, 0, 0, 10, 0, 16, 0, 12, 0, 8, 0, 4, 0, 10, 0, 0, 0, 12, 0, 0, 0, 16, 0, 0, 0, 1, 0, 0, 0, 1, 0, 0, 0, 4, 0, 0, 0, 1, 0, 0, 0, 3, 0, 0, 0, 0, 0, 14, 0, 20, 0, 0, 0, 16, 0, 12, 0, 11, 0, 4, 0, 14, 0, 0, 0, 16, 0, 0, 0, 0, 0, 0, 8, 12, 0, 0, 0, 16, 0, 0, 0, 248, 253, 255, 255, 1, 0, 0, 0, 3, 0, 0, 0, 3, 0, 0, 0, 0, 0, 0, 0, 2, 0, 0, 0, 1, 0, 0, 0, 1, 0, 0, 0, 4, 0, 0, 0, 1, 0, 0, 0, 0, 0, 0, 0, 5, 0, 0, 0, 176, 1, 0, 0, 64, 1, 0, 0, 220, 0, 0, 0, 96, 0, 0, 0, 4, 0, 0, 0, 122, 254, 255, 255, 0, 0, 0, 1, 20, 0, 0, 0, 28, 0, 0, 0, 28, 0, 0, 0, 5, 0, 0, 0, 52, 0, 0, 0, 2, 0, 0, 0, 255, 255, 255, 255, 1, 0, 0, 0, 100, 254, 255, 255, 25, 0, 0, 0, 83, 116, 97, 116, 101, 102, 117, 108, 80, 97, 114, 116, 105, 116, 105, 111, 110, 101, 100, 67, 97, 108, 108, 58, 48, 0, 0, 0, 2, 0, 0, 0, 1, 0, 0, 0, 1, 0, 0, 0, 210, 254, 255, 255, 0, 0, 0, 1, 20, 0, 0, 0, 28, 0, 0, 0, 28, 0, 0, 0, 4, 0, 0, 0, 84, 0, 0, 0, 2, 0, 0, 0, 255, 255, 255, 255, 1, 0, 0, 0, 188, 254, 255, 255, 56, 0, 0, 0, 115, 101, 113, 117, 101, 110, 116, 105, 97, 108, 95, 52, 47, 108, 97, 121, 101, 114, 95, 52, 47, 77, 97, 116, 77, 117, 108, 59, 115, 101, 113, 117, 101, 110, 116, 105, 97, 108, 95, 52, 47, 108, 97, 121, 101, 114, 95, 52, 47, 66, 105, 97, 115, 65, 100, 100, 0, 0, 0, 0, 2, 0, 0, 0, 1, 0, 0, 0, 1, 0, 0, 0, 182, 255, 255, 255, 0, 0, 0, 1, 16, 0, 0, 0, 16, 0, 0, 0, 3, 0, 0, 0, 40, 0, 0, 0, 36, 255, 255, 255, 27, 0, 0, 0, 115, 101, 113, 117, 101, 110, 116, 105, 97, 108, 95, 52, 47, 108, 97, 121, 101, 114, 95, 52, 47, 77, 97, 116, 77, 117, 108, 0, 2, 0, 0, 0, 1, 0, 0, 0, 64, 0, 0, 0, 0, 0, 22, 0, 24, 0, 20, 0, 0, 0, 16, 0, 12, 0, 8, 0, 0, 0, 0, 0, 0, 0, 7, 0, 22, 0, 0, 0, 0, 0, 0, 1, 16, 0, 0, 0, 16, 0, 0, 0, 2, 0, 0, 0, 56, 0, 0, 0, 132, 255, 255, 255, 43, 0, 0, 0, 115, 101, 113, 117, 101, 110, 116, 105, 97, 108, 95, 52, 47, 108, 97, 121, 101, 114, 95, 52, 47, 66, 105, 97, 115, 65, 100, 100, 47, 82, 101, 97, 100, 86, 97, 114, 105, 97, 98, 108, 101, 79, 112, 0, 1, 0, 0, 0, 1, 0, 0, 0, 0, 0, 22, 0, 28, 0, 24, 0, 0, 0, 20, 0, 16, 0, 12, 0, 0, 0, 0, 0, 8, 0, 7, 0, 22, 0, 0, 0, 0, 0, 0, 1, 20, 0, 0, 0, 32, 0, 0, 0, 32, 0, 0, 0, 1, 0, 0, 0, 60, 0, 0, 0, 2, 0, 0, 0, 255, 255, 255, 255, 64, 0, 0, 0, 4, 0, 4, 0, 4, 0, 0, 0, 31, 0, 0, 0, 115, 101, 114, 118, 105, 110, 103, 95, 100, 101, 102, 97, 117, 108, 116, 95, 108, 97, 121, 101, 114, 95, 52, 95, 105, 110, 112, 117, 116, 58, 48, 0, 2, 0, 0, 0, 1, 0, 0, 0, 64, 0, 0, 0, 2, 0, 0, 0, 32, 0, 0, 0, 4, 0, 0, 0, 244, 255, 255, 255, 14, 0, 0, 0, 0, 0, 0, 14, 12, 0, 12, 0, 11, 0, 0, 0, 0, 0, 4, 0, 12, 0, 0, 0, 9, 0, 0, 0, 0, 0, 0, 9
};
