#pragma once

#include <cstdint>

const uint8_t layer_4[] = {
28, 0, 0, 0, 84, 70, 76, 51, 20, 0, 32, 0, 28, 0, 24, 0, 20, 0, 16, 0, 12, 0, 0, 0, 8, 0, 4, 0, 20, 0, 0, 0, 28, 0, 0, 0, 136, 0, 0, 0, 224, 0, 0, 0, 176, 2, 0, 0, 192, 2, 0, 0, 148, 5, 0, 0, 3, 0, 0, 0, 1, 0, 0, 0, 4, 0, 0, 0, 10, 253, 255, 255, 12, 0, 0, 0, 28, 0, 0, 0, 56, 0, 0, 0, 15, 0, 0, 0, 115, 101, 114, 118, 105, 110, 103, 95, 100, 101, 102, 97, 117, 108, 116, 0, 1, 0, 0, 0, 4, 0, 0, 0, 148, 255, 255, 255, 4, 0, 0, 0, 4, 0, 0, 0, 7, 0, 0, 0, 108, 97, 121, 101, 114, 95, 52, 0, 1, 0, 0, 0, 4, 0, 0, 0, 210, 253, 255, 255, 4, 0, 0, 0, 13, 0, 0, 0, 108, 97, 121, 101, 114, 95, 52, 95, 105, 110, 112, 117, 116, 0, 0, 0, 2, 0, 0, 0, 52, 0, 0, 0, 4, 0, 0, 0, 220, 255, 255, 255, 7, 0, 0, 0, 4, 0, 0, 0, 19, 0, 0, 0, 67, 79, 78, 86, 69, 82, 83, 73, 79, 78, 95, 77, 69, 84, 65, 68, 65, 84, 65, 0, 8, 0, 12, 0, 8, 0, 4, 0, 8, 0, 0, 0, 6, 0, 0, 0, 4, 0, 0, 0, 19, 0, 0, 0, 109, 105, 110, 95, 114, 117, 110, 116, 105, 109, 101, 95, 118, 101, 114, 115, 105, 111, 110, 0, 8, 0, 0, 0, 204, 1, 0, 0, 196, 1, 0, 0, 176, 1, 0, 0, 152, 0, 0, 0, 144, 0, 0, 0, 136, 0, 0, 0, 104, 0, 0, 0, 4, 0, 0, 0, 110, 254, 255, 255, 4, 0, 0, 0, 84, 0, 0, 0, 12, 0, 0, 0, 8, 0, 14, 0, 8, 0, 4, 0, 8, 0, 0, 0, 16, 0, 0, 0, 36, 0, 0, 0, 0, 0, 6, 0, 8, 0, 4, 0, 6, 0, 0, 0, 4, 0, 0, 0, 0, 0, 0, 0, 0, 0, 10, 0, 16, 0, 12, 0, 8, 0, 4, 0, 10, 0, 0, 0, 2, 0, 0, 0, 2, 0, 0, 0, 4, 0, 0, 0, 6, 0, 0, 0, 50, 46, 49, 51, 46, 48, 0, 0, 206, 254, 255, 255, 4, 0, 0, 0, 16, 0, 0, 0, 49, 46, 49, 52, 46, 48, 0, 0, 0, 0, 0, 0, 0, 0, 0, 0, 24, 252, 255, 255, 28, 252, 255, 255, 242, 254, 255, 255, 4, 0, 0, 0, 0, 1, 0, 0, 191, 77, 126, 62, 252, 157, 218, 61, 6, 209, 65, 190, 217, 229, 9, 190, 238, 70, 121, 189, 128, 54, 128, 190, 58, 245, 136, 60, 151, 69, 53, 62, 177, 155, 73, 62, 125, 209, 42, 190, 44, 68, 148, 62, 60, 72, 28, 62, 101, 1, 21, 62, 238, 127, 84, 62, 143, 21, 181, 190, 72, 66, 118, 190, 74, 20, 140, 189, 37, 69, 180, 62, 82, 95, 107, 190, 186, 213, 164, 61, 21, 125, 162, 189, 203, 83, 112, 62, 34, 121, 94, 62, 207, 4, 25, 190, 86, 16, 121, 190, 96, 55, 143, 60, 208, 17, 84, 190, 151, 47, 178, 61, 75, 0, 116, 62, 28, 245, 177, 190, 137, 89, 105, 62, 68, 112, 136, 62, 156, 98, 3, 190, 76, 233, 114, 190, 215, 35, 190, 190, 249, 1, 45, 62, 107, 94, 146, 61, 19, 188, 139, 62, 196, 59, 188, 61, 245, 168, 8, 190, 8, 41, 75, 190, 58, 200, 180, 62, 76, 252, 87, 62, 0, 193, 83, 190, 135, 8, 73, 190, 152, 53, 34, 190, 251, 136, 139, 62, 113, 65, 99, 190, 128, 156, 108, 59, 131, 226, 134, 62, 113, 132, 136, 62, 80, 47, 60, 61, 4, 182, 145, 62, 122, 250, 160, 62, 166, 71, 5, 61, 96, 3, 99, 188, 94, 61, 21, 62, 195, 132, 40, 62, 178, 188, 121, 190, 58, 122, 110, 190, 202, 189, 175, 190, 16, 151, 156, 62, 168, 149, 1, 62, 112, 54, 99, 190, 0, 0, 6, 0, 8, 0, 4, 0, 6, 0, 0, 0, 4, 0, 0, 0, 4, 0, 0, 0, 239, 131, 32, 189, 68, 253, 255, 255, 72, 253, 255, 255, 15, 0, 0, 0, 77, 76, 73, 82, 32, 67, 111, 110, 118, 101, 114, 116, 101, 100, 46, 0, 1, 0, 0, 0, 20, 0, 0, 0, 0, 0, 14, 0, 24, 0, 20, 0, 16, 0, 12, 0, 8, 0, 4, 0, 14, 0, 0, 0, 20, 0, 0, 0, 28, 0, 0, 0, 144, 0, 0, 0, 148, 0, 0, 0, 152, 0, 0, 0, 4, 0, 0, 0, 109, 97, 105, 110, 0, 0, 0, 0, 2, 0, 0, 0, 68, 0, 0, 0, 16, 0, 0, 0, 0, 0, 10, 0, 16, 0, 12, 0, 8, 0, 4, 0, 10, 0, 0, 0, 12, 0, 0, 0, 16, 0, 0, 0, 1, 0, 0, 0, 1, 0, 0, 0, 4, 0, 0, 0, 1, 0, 0, 0, 3, 0, 0, 0, 0, 0, 14, 0, 20, 0, 0, 0, 16, 0, 12, 0, 11, 0, 4, 0, 14, 0, 0, 0, 16, 0, 0, 0, 0, 0, 0, 8, 12, 0, 0, 0, 16, 0, 0, 0, 248, 253, 255, 255, 1, 0, 0, 0, 3, 0, 0, 0, 3, 0, 0, 0, 0, 0, 0, 0, 2, 0, 0, 0, 1, 0, 0, 0, 1, 0, 0, 0, 4, 0, 0, 0, 1, 0, 0, 0, 0, 0, 0, 0, 5, 0, 0, 0, 176, 1, 0, 0, 64, 1, 0, 0, 220, 0, 0, 0, 96, 0, 0, 0, 4, 0, 0, 0, 122, 254, 255, 255, 0, 0, 0, 1, 20, 0, 0, 0, 28, 0, 0, 0, 28, 0, 0, 0, 5, 0, 0, 0, 52, 0, 0, 0, 2, 0, 0, 0, 255, 255, 255, 255, 1, 0, 0, 0, 100, 254, 255, 255, 25, 0, 0, 0, 83, 116, 97, 116, 101, 102, 117, 108, 80, 97, 114, 116, 105, 116, 105, 111, 110, 101, 100, 67, 97, 108, 108, 58, 48, 0, 0, 0, 2, 0, 0, 0, 1, 0, 0, 0, 1, 0, 0, 0, 210, 254, 255, 255, 0, 0, 0, 1, 20, 0, 0, 0, 28, 0, 0, 0, 28, 0, 0, 0, 4, 0, 0, 0, 84, 0, 0, 0, 2, 0, 0, 0, 255, 255, 255, 255, 1, 0, 0, 0, 188, 254, 255, 255, 56, 0, 0, 0, 115, 101, 113, 117, 101, 110, 116, 105, 97, 108, 95, 52, 47, 108, 97, 121, 101, 114, 95, 52, 47, 77, 97, 116, 77, 117, 108, 59, 115, 101, 113, 117, 101, 110, 116, 105, 97, 108, 95, 52, 47, 108, 97, 121, 101, 114, 95, 52, 47, 66, 105, 97, 115, 65, 100, 100, 0, 0, 0, 0, 2, 0, 0, 0, 1, 0, 0, 0, 1, 0, 0, 0, 182, 255, 255, 255, 0, 0, 0, 1, 16, 0, 0, 0, 16, 0, 0, 0, 3, 0, 0, 0, 40, 0, 0, 0, 36, 255, 255, 255, 27, 0, 0, 0, 115, 101, 113, 117, 101, 110, 116, 105, 97, 108, 95, 52, 47, 108, 97, 121, 101, 114, 95, 52, 47, 77, 97, 116, 77, 117, 108, 0, 2, 0, 0, 0, 1, 0, 0, 0, 64, 0, 0, 0, 0, 0, 22, 0, 24, 0, 20, 0, 0, 0, 16, 0, 12, 0, 8, 0, 0, 0, 0, 0, 0, 0, 7, 0, 22, 0, 0, 0, 0, 0, 0, 1, 16, 0, 0, 0, 16, 0, 0, 0, 2, 0, 0, 0, 56, 0, 0, 0, 132, 255, 255, 255, 43, 0, 0, 0, 115, 101, 113, 117, 101, 110, 116, 105, 97, 108, 95, 52, 47, 108, 97, 121, 101, 114, 95, 52, 47, 66, 105, 97, 115, 65, 100, 100, 47, 82, 101, 97, 100, 86, 97, 114, 105, 97, 98, 108, 101, 79, 112, 0, 1, 0, 0, 0, 1, 0, 0, 0, 0, 0, 22, 0, 28, 0, 24, 0, 0, 0, 20, 0, 16, 0, 12, 0, 0, 0, 0, 0, 8, 0, 7, 0, 22, 0, 0, 0, 0, 0, 0, 1, 20, 0, 0, 0, 32, 0, 0, 0, 32, 0, 0, 0, 1, 0, 0, 0, 60, 0, 0, 0, 2, 0, 0, 0, 255, 255, 255, 255, 64, 0, 0, 0, 4, 0, 4, 0, 4, 0, 0, 0, 31, 0, 0, 0, 115, 101, 114, 118, 105, 110, 103, 95, 100, 101, 102, 97, 117, 108, 116, 95, 108, 97, 121, 101, 114, 95, 52, 95, 105, 110, 112, 117, 116, 58, 48, 0, 2, 0, 0, 0, 1, 0, 0, 0, 64, 0, 0, 0, 2, 0, 0, 0, 32, 0, 0, 0, 4, 0, 0, 0, 244, 255, 255, 255, 14, 0, 0, 0, 0, 0, 0, 14, 12, 0, 12, 0, 11, 0, 0, 0, 0, 0, 4, 0, 12, 0, 0, 0, 9, 0, 0, 0, 0, 0, 0, 9
};
