#pragma once

#include <cstdint>

const uint8_t mod_0[] = {
28, 0, 0, 0, 84, 70, 76, 51, 20, 0, 32, 0, 28, 0, 24, 0, 20, 0, 16, 0, 12, 0, 0, 0, 8, 0, 4, 0, 20, 0, 0, 0, 28, 0, 0, 0, 156, 0, 0, 0, 244, 0, 0, 0, 184, 41, 0, 0, 200, 41, 0, 0, 8, 44, 0, 0, 3, 0, 0, 0, 1, 0, 0, 0, 16, 0, 0, 0, 0, 0, 10, 0, 16, 0, 12, 0, 8, 0, 4, 0, 10, 0, 0, 0, 12, 0, 0, 0, 28, 0, 0, 0, 60, 0, 0, 0, 15, 0, 0, 0, 115, 101, 114, 118, 105, 110, 103, 95, 100, 101, 102, 97, 117, 108, 116, 0, 1, 0, 0, 0, 4, 0, 0, 0, 140, 255, 255, 255, 3, 0, 0, 0, 4, 0, 0, 0, 10, 0, 0, 0, 110, 110, 95, 108, 97, 121, 101, 114, 95, 49, 0, 0, 1, 0, 0, 0, 4, 0, 0, 0, 214, 218, 255, 255, 4, 0, 0, 0, 16, 0, 0, 0, 110, 110, 95, 108, 97, 121, 101, 114, 95, 49, 95, 105, 110, 112, 117, 116, 0, 0, 0, 0, 2, 0, 0, 0, 52, 0, 0, 0, 4, 0, 0, 0, 220, 255, 255, 255, 6, 0, 0, 0, 4, 0, 0, 0, 19, 0, 0, 0, 67, 79, 78, 86, 69, 82, 83, 73, 79, 78, 95, 77, 69, 84, 65, 68, 65, 84, 65, 0, 8, 0, 12, 0, 8, 0, 4, 0, 8, 0, 0, 0, 5, 0, 0, 0, 4, 0, 0, 0, 19, 0, 0, 0, 109, 105, 110, 95, 114, 117, 110, 116, 105, 109, 101, 95, 118, 101, 114, 115, 105, 111, 110, 0, 7, 0, 0, 0, 192, 40, 0, 0, 184, 40, 0, 0, 168, 36, 0, 0, 144, 0, 0, 0, 136, 0, 0, 0, 104, 0, 0, 0, 4, 0, 0, 0, 114, 219, 255, 255, 4, 0, 0, 0, 84, 0, 0, 0, 12, 0, 0, 0, 8, 0, 14, 0, 8, 0, 4, 0, 8, 0, 0, 0, 16, 0, 0, 0, 36, 0, 0, 0, 0, 0, 6, 0, 8, 0, 4, 0, 6, 0, 0, 0, 4, 0, 0, 0, 0, 0, 0, 0, 0, 0, 10, 0, 16, 0, 12, 0, 8, 0, 4, 0, 10, 0, 0, 0, 2, 0, 0, 0, 2, 0, 0, 0, 4, 0, 0, 0, 6, 0, 0, 0, 50, 46, 49, 51, 46, 48, 0, 0, 210, 219, 255, 255, 4, 0, 0, 0, 16, 0, 0, 0, 49, 46, 53, 46, 48, 0, 0, 0, 0, 0, 0, 0, 0, 0, 0, 0, 184, 213, 255, 255, 242, 219, 255, 255, 4, 0, 0, 0, 0, 36, 0, 0, 112, 8, 100, 188, 192, 208, 161, 189, 64, 129, 63, 188, 96, 66, 168, 187, 190, 49, 189, 61, 146, 229, 106, 189, 197, 253, 190, 189, 48, 29, 192, 189, 72, 16, 167, 188, 114, 139, 79, 189, 248, 164, 132, 189, 51, 192, 1, 190, 184, 124, 208, 188, 172, 91, 207, 189, 5, 240, 11, 62, 96, 102, 232, 189, 188, 93, 244, 189, 218, 100, 89, 189, 247, 52, 248, 61, 105, 86, 17, 190, 9, 239, 241, 59, 119, 180, 100, 60, 39, 186, 251, 60, 221, 117, 7, 188, 147, 226, 131, 189, 40, 49, 199, 61, 233, 184, 139, 61, 35, 188, 149, 189, 53, 76, 244, 189, 171, 140, 4, 190, 32, 253, 6, 189, 8, 200, 31, 61, 164, 212, 208, 189, 12, 235, 189, 61, 238, 2, 184, 61, 149, 57, 19, 62, 50, 225, 117, 189, 54, 213, 116, 189, 162, 212, 190, 189, 152, 9, 58, 61, 118, 10, 212, 61, 192, 123, 105, 60, 8, 108, 46, 189, 74, 132, 133, 61, 64, 31, 14, 60, 123, 239, 87, 61, 122, 45, 158, 189, 31, 44, 255, 188, 167, 130, 231, 61, 130, 203, 201, 61, 47, 141, 142, 189, 216, 187, 66, 60, 76, 225, 241, 189, 164, 193, 25, 62, 60, 198, 29, 62, 165, 56, 32, 62, 182, 3, 228, 61, 186, 125, 2, 190, 0, 249, 163, 188, 228, 162, 4, 62, 95, 165, 138, 189, 174, 219, 129, 189, 84, 13, 102, 188, 95, 129, 7, 62, 0, 221, 179, 59, 32, 135, 220, 189, 1, 112, 192, 189, 239, 116, 22, 190, 96, 121, 14, 61, 138, 48, 144, 61, 64, 4, 28, 60, 216, 25, 130, 189, 76, 60, 19, 190, 141, 140, 223, 61, 64, 168, 147, 61, 154, 222, 122, 188, 168, 61, 5, 62, 8, 131, 93, 189, 81, 173, 89, 188, 6, 183, 157, 60, 193, 16, 253, 189, 124, 61, 133, 61, 24, 195, 25, 60, 34, 42, 244, 189, 178, 45, 221, 61, 159, 201, 254, 61, 184, 220, 137, 61, 71, 181, 22, 189, 213, 16, 16, 60, 19, 98, 47, 61, 130, 174, 240, 61, 226, 197, 226, 189, 95, 118, 174, 61, 123, 107, 128, 61, 178, 199, 28, 62, 134, 210, 98, 189, 187, 170, 31, 60, 161, 168, 139, 189, 194, 174, 160, 60, 132, 192, 33, 189, 160, 38, 244, 59, 160, 60, 124, 61, 64, 230, 80, 60, 200, 118, 107, 189, 176, 7, 237, 189, 64, 151, 127, 188, 214, 137, 253, 61, 224, 89, 147, 188, 2, 20, 182, 61, 253, 17, 7, 62, 135, 114, 68, 61, 152, 250, 22, 61, 158, 54, 157, 188, 96, 218, 175, 189, 167, 100, 159, 61, 249, 190, 134, 189, 97, 57, 209, 60, 96, 235, 196, 60, 4, 207, 231, 189, 88, 129, 201, 188, 102, 180, 117, 189, 26, 98, 207, 189, 188, 7, 248, 188, 96, 38, 118, 61, 168, 205, 26, 61, 19, 160, 1, 62, 44, 145, 161, 61, 153, 30, 232, 189, 22, 152, 167, 189, 132, 117, 155, 61, 166, 94, 133, 189, 143, 11, 1, 190, 104, 13, 199, 189, 70, 144, 218, 61, 118, 119, 110, 189, 128, 125, 99, 188, 16, 90, 146, 60, 0, 51, 23, 189, 178, 33, 156, 189, 134, 211, 89, 189, 12, 136, 203, 189, 169, 98, 201, 189, 18, 67, 145, 61, 120, 51, 221, 189, 1, 53, 147, 61, 235, 221, 15, 62, 22, 36, 160, 189, 234, 84, 63, 61, 142, 165, 3, 186, 37, 241, 234, 187, 226, 43, 211, 61, 203, 245, 108, 189, 2, 103, 206, 60, 62, 106, 204, 189, 178, 182, 148, 189, 80, 77, 98, 189, 26, 106, 7, 190, 20, 178, 20, 190, 130, 166, 212, 61, 146, 217, 201, 189, 229, 207, 250, 189, 188, 247, 195, 61, 163, 121, 229, 189, 27, 38, 4, 61, 137, 58, 248, 61, 103, 176, 14, 62, 127, 177, 67, 60, 212, 14, 5, 190, 152, 222, 9, 190, 187, 188, 177, 189, 142, 45, 173, 188, 226, 119, 250, 189, 15, 134, 152, 60, 79, 163, 23, 62, 22, 83, 241, 189, 102, 82, 255, 188, 222, 11, 52, 61, 20, 35, 60, 186, 227, 41, 174, 189, 248, 31, 253, 61, 160, 83, 247, 60, 140, 73, 95, 61, 72, 245, 21, 189, 230, 183, 223, 189, 169, 19, 193, 189, 194, 38, 12, 190, 98, 104, 187, 189, 42, 181, 122, 189, 144, 19, 11, 60, 170, 89, 156, 61, 240, 121, 21, 61, 84, 238, 187, 61, 131, 134, 129, 61, 88, 199, 193, 189, 51, 3, 17, 190, 32, 10, 247, 189, 240, 42, 132, 189, 36, 155, 77, 189, 45, 100, 240, 189, 230, 135, 66, 61, 147, 212, 10, 62, 113, 164, 30, 189, 89, 141, 40, 189, 74, 48, 62, 59, 169, 90, 2, 189, 167, 78, 6, 190, 228, 5, 90, 61, 125, 164, 244, 60, 235, 162, 200, 189, 252, 105, 232, 61, 228, 120, 241, 61, 98, 225, 12, 190, 71, 19, 12, 190, 59, 215, 149, 61, 160, 120, 211, 61, 175, 192, 5, 62, 47, 118, 71, 61, 128, 220, 255, 189, 26, 151, 10, 188, 106, 117, 148, 61, 54, 123, 137, 61, 155, 250, 1, 62, 70, 102, 118, 61, 169, 112, 147, 60, 36, 13, 190, 61, 84, 138, 248, 188, 252, 80, 169, 189, 53, 1, 30, 62, 123, 22, 1, 62, 32, 198, 100, 189, 91, 174, 223, 61, 14, 19, 164, 188, 80, 3, 13, 190, 221, 4, 55, 189, 244, 70, 20, 62, 254, 247, 226, 189, 72, 36, 11, 62, 35, 106, 14, 62, 223, 181, 118, 61, 252, 210, 4, 190, 113, 233, 221, 61, 140, 114, 27, 56, 12, 54, 189, 61, 95, 233, 5, 62, 194, 118, 23, 189, 224, 229, 160, 61, 39, 103, 214, 189, 24, 204, 188, 61, 99, 199, 97, 189, 22, 202, 117, 61, 230, 112, 135, 189, 245, 214, 18, 62, 213, 179, 161, 189, 226, 168, 149, 189, 28, 227, 17, 190, 210, 54, 239, 61, 69, 14, 32, 62, 84, 44, 1, 188, 95, 24, 166, 61, 246, 239, 9, 61, 33, 240, 234, 61, 89, 89, 10, 62, 17, 155, 225, 189, 120, 23, 82, 61, 83, 190, 130, 189, 107, 193, 188, 61, 191, 48, 193, 61, 161, 156, 159, 189, 181, 47, 212, 189, 23, 250, 176, 60, 224, 55, 147, 187, 194, 216, 19, 190, 192, 210, 244, 187, 186, 68, 175, 189, 122, 19, 199, 189, 180, 44, 24, 189, 74, 5, 238, 61, 228, 20, 31, 189, 0, 128, 22, 183, 194, 186, 178, 189, 232, 132, 153, 188, 137, 239, 173, 189, 133, 238, 253, 189, 68, 241, 242, 188, 128, 14, 249, 187, 192, 102, 72, 60, 32, 47, 26, 189, 88, 222, 184, 188, 118, 44, 19, 189, 142, 71, 234, 61, 172, 111, 218, 189, 156, 179, 3, 61, 155, 35, 220, 189, 166, 186, 233, 61, 214, 107, 186, 61, 0, 65, 229, 60, 78, 178, 18, 190, 135, 59, 250, 59, 210, 204, 165, 188, 212, 9, 146, 61, 243, 125, 207, 61, 243, 201, 132, 61, 241, 237, 30, 61, 233, 74, 151, 187, 56, 110, 210, 61, 200, 238, 135, 189, 101, 223, 108, 185, 11, 82, 18, 61, 230, 88, 244, 189, 101, 122, 22, 61, 201, 169, 114, 188, 80, 129, 190, 61, 87, 87, 19, 190, 34, 9, 169, 61, 108, 225, 62, 61, 169, 235, 198, 189, 32, 237, 200, 189, 116, 150, 17, 189, 98, 43, 249, 189, 233, 114, 18, 62, 2, 250, 140, 189, 64, 168, 184, 59, 70, 125, 216, 61, 240, 213, 20, 60, 92, 209, 105, 189, 41, 227, 17, 62, 147, 115, 29, 189, 5, 243, 30, 189, 157, 161, 29, 190, 234, 147, 134, 61, 223, 75, 11, 62, 166, 146, 216, 61, 148, 44, 243, 61, 94, 142, 212, 61, 72, 167, 89, 189, 8, 111, 142, 60, 182, 254, 52, 189, 80, 229, 184, 61, 10, 104, 19, 190, 166, 30, 247, 61, 44, 189, 3, 189, 120, 163, 155, 189, 128, 217, 196, 186, 82, 199, 1, 190, 249, 136, 131, 189, 31, 29, 10, 62, 169, 211, 7, 62, 192, 61, 18, 187, 64, 209, 158, 187, 196, 233, 141, 189, 180, 222, 186, 189, 199, 146, 92, 61, 40, 175, 92, 61, 139, 239, 12, 190, 243, 92, 95, 188, 79, 143, 95, 61, 49, 205, 176, 61, 91, 45, 20, 62, 193, 19, 203, 61, 221, 15, 241, 61, 82, 224, 171, 61, 232, 243, 186, 60, 80, 193, 170, 60, 112, 167, 27, 188, 128, 174, 82, 188, 160, 165, 8, 188, 160, 29, 231, 188, 172, 39, 193, 189, 174, 98, 28, 189, 59, 1, 54, 189, 225, 24, 95, 61, 26, 155, 16, 190, 49, 68, 22, 189, 47, 27, 248, 61, 80, 143, 169, 189, 118, 24, 69, 188, 48, 53, 189, 188, 162, 182, 13, 62, 55, 43, 136, 61, 72, 98, 204, 61, 216, 3, 220, 59, 56, 48, 205, 59, 71, 246, 213, 187, 51, 64, 186, 61, 20, 240, 220, 61, 142, 50, 135, 189, 225, 25, 33, 189, 65, 226, 150, 189, 121, 236, 12, 62, 139, 119, 249, 189, 249, 109, 8, 190, 2, 36, 207, 61, 210, 36, 209, 189, 187, 83, 22, 62, 92, 166, 8, 61, 244, 178, 218, 189, 203, 214, 21, 62, 243, 68, 254, 60, 135, 78, 38, 187, 170, 100, 131, 189, 122, 36, 68, 61, 219, 159, 100, 60, 249, 38, 198, 61, 205, 55, 227, 61, 217, 217, 143, 61, 104, 83, 64, 61, 212, 60, 220, 189, 253, 165, 215, 189, 248, 141, 168, 188, 188, 173, 110, 61, 4, 101, 64, 61, 96, 102, 101, 61, 48, 9, 160, 188, 128, 247, 34, 59, 180, 149, 53, 61, 224, 94, 122, 61, 64, 82, 54, 59, 160, 211, 64, 60, 138, 197, 18, 189, 71, 75, 153, 189, 179, 24, 10, 62, 4, 150, 0, 190, 224, 77, 191, 189, 163, 67, 175, 189, 196, 46, 233, 189, 0, 148, 30, 58, 36, 220, 155, 189, 226, 121, 208, 189, 176, 168, 152, 60, 124, 214, 223, 189, 36, 37, 149, 189, 68, 104, 43, 61, 210, 81, 207, 61, 148, 136, 113, 189, 15, 10, 162, 189, 224, 60, 231, 189, 80, 50, 107, 189, 50, 169, 151, 189, 62, 224, 203, 189, 122, 173, 227, 61, 234, 90, 224, 189, 114, 36, 184, 61, 94, 170, 234, 61, 112, 109, 219, 60, 176, 4, 110, 61, 184, 75, 249, 189, 194, 216, 245, 61, 120, 69, 120, 189, 144, 10, 53, 189, 146, 100, 155, 189, 106, 213, 179, 61, 110, 168, 242, 189, 64, 242, 160, 187, 128, 37, 41, 188, 208, 110, 126, 61, 81, 36, 4, 190, 8, 92, 114, 189, 84, 33, 225, 189, 96, 165, 198, 60, 196, 76, 146, 189, 54, 205, 216, 189, 22, 252, 1, 189, 78, 169, 13, 190, 64, 175, 232, 59, 254, 215, 144, 61, 243, 120, 186, 189, 197, 230, 0, 62, 148, 191, 224, 189, 32, 74, 140, 61, 29, 82, 134, 189, 104, 3, 0, 189, 149, 79, 18, 62, 148, 89, 24, 61, 24, 225, 49, 61, 28, 196, 21, 189, 187, 52, 246, 189, 84, 130, 21, 190, 145, 182, 28, 62, 218, 187, 164, 188, 112, 170, 182, 60, 148, 197, 240, 60, 44, 238, 172, 189, 182, 100, 138, 61, 78, 130, 246, 61, 63, 35, 133, 189, 28, 162, 12, 62, 224, 208, 35, 60, 93, 100, 18, 190, 54, 222, 205, 189, 8, 37, 186, 60, 3, 1, 182, 189, 243, 247, 5, 62, 156, 114, 158, 61, 250, 114, 87, 189, 240, 68, 43, 61, 163, 241, 144, 61, 68, 130, 96, 189, 136, 220, 144, 61, 215, 76, 15, 62, 239, 97, 95, 189, 44, 180, 23, 62, 247, 135, 14, 190, 61, 175, 30, 62, 136, 175, 23, 62, 117, 83, 233, 61, 4, 65, 144, 189, 197, 79, 34, 189, 176, 115, 15, 62, 203, 154, 4, 62, 173, 247, 149, 61, 233, 125, 171, 189, 12, 99, 5, 190, 137, 243, 224, 61, 206, 42, 209, 188, 171, 33, 7, 62, 70, 169, 188, 61, 97, 157, 36, 189, 203, 197, 107, 61, 76, 154, 127, 189, 113, 44, 147, 61, 183, 74, 218, 59, 124, 245, 98, 188, 187, 230, 18, 62, 45, 33, 143, 189, 226, 115, 66, 61, 202, 124, 13, 62, 99, 147, 156, 189, 214, 208, 5, 190, 181, 79, 184, 189, 51, 9, 210, 60, 38, 68, 23, 62, 38, 85, 103, 61, 243, 250, 235, 61, 31, 8, 148, 189, 145, 235, 121, 61, 140, 108, 29, 62, 47, 234, 182, 189, 154, 144, 16, 190, 94, 48, 206, 61, 133, 56, 204, 61, 249, 143, 249, 59, 113, 57, 112, 61, 249, 118, 89, 189, 125, 209, 72, 61, 80, 223, 52, 189, 190, 109, 178, 60, 4, 60, 250, 189, 130, 82, 33, 60, 60, 252, 201, 60, 88, 190, 101, 189, 15, 47, 91, 189, 248, 12, 223, 61, 175, 49, 68, 61, 198, 148, 223, 61, 31, 94, 190, 60, 136, 212, 220, 61, 217, 94, 172, 189, 194, 116, 178, 189, 224, 240, 196, 189, 2, 190, 183, 61, 146, 58, 3, 190, 174, 208, 252, 189, 189, 119, 23, 62, 224, 88, 95, 60, 248, 105, 167, 188, 96, 154, 187, 59, 153, 212, 12, 190, 103, 35, 130, 189, 150, 241, 240, 61, 63, 146, 18, 62, 220, 20, 224, 189, 53, 181, 18, 62, 69, 126, 221, 188, 193, 98, 244, 189, 5, 247, 131, 61, 72, 199, 208, 189, 210, 141, 208, 189, 148, 122, 220, 189, 244, 50, 117, 189, 224, 7, 208, 60, 132, 150, 1, 61, 28, 45, 115, 61, 0, 165, 166, 60, 32, 249, 91, 188, 56, 22, 189, 188, 32, 54, 236, 60, 83, 140, 172, 187, 88, 208, 243, 61, 229, 129, 210, 60, 116, 59, 142, 187, 243, 237, 154, 189, 152, 2, 34, 188, 49, 91, 121, 189, 13, 132, 235, 61, 208, 29, 235, 189, 152, 219, 194, 61, 129, 54, 202, 61, 161, 68, 23, 189, 75, 144, 47, 189, 94, 187, 164, 61, 170, 215, 162, 189, 165, 140, 13, 61, 154, 94, 232, 61, 14, 74, 159, 189, 59, 169, 83, 189, 157, 100, 199, 61, 141, 120, 23, 61, 158, 68, 1, 62, 128, 247, 212, 61, 133, 78, 123, 61, 124, 59, 131, 189, 254, 185, 174, 189, 248, 206, 3, 61, 0, 217, 93, 188, 128, 98, 47, 189, 200, 230, 144, 60, 82, 64, 214, 61, 44, 180, 87, 189, 114, 81, 165, 61, 5, 9, 3, 62, 170, 159, 20, 190, 106, 32, 214, 60, 222, 180, 111, 60, 147, 20, 33, 61, 36, 57, 146, 61, 182, 33, 31, 190, 133, 139, 147, 189, 45, 184, 70, 189, 96, 55, 18, 61, 5, 180, 226, 61, 60, 172, 90, 189, 32, 134, 189, 59, 126, 25, 4, 190, 122, 218, 206, 61, 230, 203, 224, 61, 255, 179, 20, 62, 246, 7, 0, 190, 128, 88, 90, 189, 54, 203, 160, 189, 13, 86, 135, 189, 212, 178, 224, 189, 156, 123, 82, 61, 146, 205, 181, 189, 228, 133, 199, 189, 236, 111, 154, 61, 152, 144, 234, 188, 16, 24, 79, 60, 10, 45, 209, 61, 0, 69, 41, 186, 130, 28, 179, 189, 234, 75, 252, 61, 45, 118, 8, 190, 64, 221, 183, 189, 32, 226, 26, 60, 148, 48, 149, 61, 227, 149, 18, 62, 125, 220, 149, 189, 196, 27, 52, 189, 114, 26, 190, 189, 168, 47, 53, 61, 70, 3, 165, 189, 160, 66, 129, 187, 27, 119, 25, 62, 55, 7, 22, 190, 102, 27, 61, 189, 86, 230, 133, 189, 128, 78, 164, 61, 128, 12, 99, 60, 188, 15, 159, 61, 16, 246, 230, 60, 48, 126, 232, 189, 161, 59, 178, 189, 187, 249, 24, 190, 87, 51, 20, 62, 182, 235, 142, 189, 199, 10, 249, 189, 74, 220, 193, 60, 242, 77, 248, 60, 19, 192, 111, 188, 15, 106, 57, 189, 141, 78, 54, 61, 189, 90, 127, 60, 141, 123, 170, 61, 170, 168, 228, 61, 44, 87, 118, 189, 134, 194, 148, 189, 223, 138, 0, 190, 135, 35, 232, 189, 184, 197, 140, 188, 4, 82, 64, 61, 51, 208, 1, 62, 177, 106, 19, 62, 52, 160, 226, 189, 143, 144, 26, 189, 227, 200, 171, 189, 239, 62, 11, 62, 83, 102, 154, 188, 195, 205, 177, 60, 246, 192, 165, 61, 226, 162, 225, 189, 195, 67, 53, 61, 37, 103, 223, 61, 132, 82, 73, 61, 118, 181, 206, 61, 176, 172, 212, 188, 0, 148, 46, 188, 100, 0, 107, 61, 112, 218, 201, 189, 128, 20, 142, 189, 130, 141, 252, 61, 49, 60, 248, 189, 128, 152, 171, 60, 0, 198, 185, 188, 212, 119, 30, 61, 192, 88, 236, 189, 49, 242, 17, 190, 220, 184, 65, 189, 24, 32, 207, 188, 108, 187, 243, 188, 96, 123, 240, 59, 32, 94, 153, 189, 2, 185, 140, 61, 238, 103, 226, 189, 208, 91, 131, 189, 104, 29, 141, 189, 208, 228, 126, 60, 214, 252, 213, 61, 97, 230, 19, 62, 132, 18, 196, 61, 118, 50, 19, 190, 162, 59, 18, 190, 38, 215, 244, 61, 62, 175, 204, 61, 128, 70, 176, 59, 242, 56, 217, 61, 202, 132, 59, 189, 68, 192, 72, 61, 163, 228, 202, 189, 208, 244, 244, 189, 39, 225, 14, 62, 47, 81, 190, 189, 132, 188, 18, 62, 12, 106, 251, 61, 15, 61, 11, 190, 85, 92, 192, 189, 148, 19, 14, 61, 222, 158, 196, 189, 148, 29, 189, 189, 228, 219, 217, 189, 56, 150, 166, 61, 192, 240, 205, 187, 46, 90, 254, 189, 172, 52, 231, 189, 192, 46, 247, 187, 32, 232, 130, 188, 85, 9, 1, 190, 10, 32, 157, 189, 157, 162, 8, 62, 150, 175, 11, 62, 229, 111, 181, 61, 126, 86, 138, 61, 35, 175, 147, 188, 147, 30, 129, 61, 119, 32, 95, 189, 23, 22, 41, 189, 152, 120, 174, 188, 123, 208, 21, 190, 98, 162, 133, 61, 91, 0, 9, 62, 122, 122, 169, 189, 158, 155, 106, 189, 96, 159, 120, 189, 151, 54, 25, 62, 122, 143, 55, 189, 109, 38, 182, 61, 37, 13, 114, 61, 165, 38, 210, 61, 123, 234, 107, 61, 89, 226, 33, 189, 27, 198, 249, 61, 242, 147, 19, 62, 118, 32, 153, 61, 71, 25, 193, 189, 159, 103, 203, 61, 251, 153, 248, 189, 239, 243, 244, 61, 181, 233, 231, 188, 178, 242, 182, 189, 33, 253, 130, 61, 190, 17, 128, 188, 191, 97, 169, 189, 74, 249, 236, 61, 19, 156, 236, 61, 175, 230, 131, 61, 9, 117, 4, 62, 200, 35, 139, 60, 112, 230, 32, 60, 153, 204, 207, 60, 123, 239, 24, 62, 28, 118, 239, 61, 156, 165, 238, 188, 116, 107, 204, 61, 47, 24, 12, 62, 69, 166, 23, 62, 216, 172, 222, 189, 175, 61, 3, 62, 51, 246, 145, 60, 58, 145, 222, 189, 111, 150, 100, 189, 209, 177, 248, 61, 112, 178, 133, 189, 44, 100, 28, 190, 248, 162, 225, 60, 121, 112, 234, 61, 141, 114, 2, 62, 101, 235, 179, 59, 242, 106, 190, 61, 4, 160, 113, 61, 18, 248, 171, 189, 186, 82, 181, 61, 204, 75, 45, 61, 105, 235, 145, 189, 126, 75, 96, 189, 166, 103, 149, 61, 80, 135, 77, 188, 190, 16, 155, 61, 157, 99, 20, 62, 46, 254, 24, 190, 228, 184, 155, 189, 192, 77, 184, 189, 250, 121, 100, 189, 127, 156, 23, 190, 241, 23, 157, 189, 66, 217, 14, 189, 160, 74, 145, 60, 78, 28, 8, 190, 152, 201, 181, 60, 143, 16, 154, 189, 14, 63, 253, 188, 239, 59, 29, 187, 34, 73, 199, 61, 171, 81, 195, 189, 23, 165, 207, 61, 180, 91, 152, 188, 189, 196, 13, 190, 15, 109, 22, 62, 149, 254, 158, 189, 231, 58, 134, 189, 224, 134, 134, 187, 112, 52, 162, 189, 106, 147, 6, 189, 100, 218, 90, 61, 191, 141, 25, 62, 82, 114, 135, 189, 83, 140, 2, 190, 74, 198, 249, 61, 2, 129, 192, 189, 76, 250, 214, 188, 200, 72, 167, 188, 141, 6, 14, 62, 28, 56, 0, 189, 48, 158, 124, 188, 234, 28, 90, 189, 130, 207, 146, 189, 121, 43, 194, 188, 68, 75, 26, 62, 192, 62, 142, 61, 95, 109, 182, 61, 131, 146, 74, 189, 184, 194, 150, 61, 17, 113, 21, 187, 186, 239, 208, 189, 120, 222, 156, 189, 49, 172, 224, 189, 146, 27, 246, 61, 43, 21, 4, 62, 92, 149, 12, 62, 45, 6, 153, 189, 203, 180, 225, 189, 108, 123, 160, 60, 51, 79, 15, 62, 254, 242, 254, 61, 101, 217, 144, 61, 225, 141, 83, 61, 49, 226, 39, 189, 226, 110, 178, 188, 44, 95, 202, 60, 25, 196, 241, 189, 26, 148, 9, 62, 47, 176, 155, 61, 242, 157, 249, 61, 72, 10, 25, 61, 160, 11, 170, 61, 128, 199, 88, 59, 212, 236, 50, 189, 138, 251, 139, 61, 62, 166, 146, 61, 42, 60, 142, 189, 38, 149, 129, 61, 7, 69, 22, 190, 128, 14, 246, 59, 178, 36, 182, 189, 101, 51, 23, 190, 136, 22, 19, 190, 128, 139, 66, 60, 116, 29, 202, 189, 28, 184, 23, 190, 160, 186, 145, 187, 218, 129, 225, 61, 160, 152, 149, 187, 202, 13, 143, 189, 254, 20, 32, 189, 66, 95, 226, 189, 68, 119, 160, 61, 199, 41, 158, 189, 92, 48, 160, 189, 96, 167, 157, 187, 240, 126, 140, 188, 244, 157, 19, 61, 218, 104, 107, 61, 151, 252, 250, 189, 202, 169, 13, 62, 173, 207, 151, 189, 36, 162, 155, 189, 185, 152, 103, 60, 118, 55, 202, 61, 6, 19, 2, 62, 64, 77, 80, 61, 136, 94, 22, 61, 176, 243, 7, 190, 62, 48, 245, 61, 112, 165, 24, 190, 109, 134, 3, 190, 188, 69, 29, 61, 22, 243, 8, 190, 241, 151, 9, 62, 190, 7, 0, 189, 27, 79, 253, 60, 20, 193, 85, 60, 185, 71, 53, 61, 57, 68, 133, 188, 77, 38, 147, 189, 7, 187, 99, 189, 53, 48, 194, 61, 103, 136, 181, 61, 18, 119, 91, 189, 116, 94, 227, 189, 236, 73, 79, 61, 191, 128, 2, 190, 192, 53, 204, 189, 80, 76, 25, 60, 198, 155, 192, 61, 196, 46, 55, 189, 14, 163, 250, 189, 154, 46, 254, 61, 135, 137, 127, 189, 245, 243, 167, 188, 92, 74, 235, 61, 138, 44, 56, 189, 15, 61, 239, 189, 22, 254, 155, 61, 131, 66, 140, 188, 87, 54, 247, 60, 134, 148, 13, 190, 208, 161, 140, 189, 15, 205, 19, 190, 163, 99, 13, 190, 95, 102, 16, 62, 220, 97, 187, 61, 180, 175, 146, 189, 110, 74, 213, 189, 75, 221, 9, 190, 35, 27, 143, 61, 130, 53, 117, 61, 225, 201, 17, 62, 150, 193, 222, 189, 15, 111, 118, 61, 47, 95, 109, 61, 93, 181, 8, 188, 163, 99, 172, 61, 15, 19, 234, 60, 74, 163, 225, 189, 253, 228, 238, 61, 69, 127, 27, 190, 97, 227, 144, 61, 218, 113, 252, 61, 239, 172, 219, 189, 31, 217, 106, 189, 43, 176, 129, 189, 43, 169, 6, 62, 92, 128, 176, 61, 46, 142, 216, 58, 69, 83, 18, 62, 151, 5, 192, 61, 40, 178, 115, 189, 208, 123, 98, 189, 203, 167, 220, 61, 197, 62, 216, 189, 7, 121, 142, 189, 90, 199, 242, 188, 176, 68, 240, 189, 99, 104, 185, 61, 2, 249, 193, 61, 220, 254, 114, 59, 26, 34, 174, 188, 159, 248, 249, 61, 41, 171, 32, 61, 5, 81, 161, 189, 94, 136, 70, 60, 210, 35, 181, 61, 129, 144, 168, 189, 200, 174, 147, 61, 148, 45, 214, 61, 254, 11, 16, 62, 213, 39, 111, 61, 113, 170, 164, 61, 37, 201, 69, 61, 193, 86, 16, 190, 124, 129, 116, 189, 132, 196, 159, 61, 68, 146, 244, 61, 153, 74, 218, 188, 177, 12, 30, 188, 31, 131, 130, 189, 78, 118, 14, 190, 139, 76, 225, 61, 86, 187, 7, 190, 115, 38, 3, 62, 234, 74, 185, 189, 189, 194, 20, 62, 84, 32, 98, 61, 106, 220, 6, 190, 170, 210, 211, 61, 242, 215, 150, 61, 231, 46, 249, 189, 14, 200, 94, 188, 121, 96, 239, 61, 234, 187, 103, 188, 41, 69, 97, 61, 40, 171, 254, 61, 159, 0, 11, 62, 153, 142, 56, 188, 163, 122, 61, 189, 254, 131, 162, 189, 64, 226, 111, 59, 224, 144, 35, 61, 172, 70, 23, 61, 108, 140, 96, 189, 192, 215, 189, 187, 90, 223, 220, 61, 38, 166, 231, 189, 135, 65, 22, 62, 43, 147, 176, 189, 122, 111, 162, 61, 229, 234, 245, 189, 96, 46, 123, 187, 14, 73, 252, 61, 237, 136, 0, 62, 53, 252, 48, 61, 251, 199, 6, 62, 224, 162, 101, 189, 234, 110, 243, 189, 229, 190, 97, 60, 45, 232, 8, 188, 36, 11, 236, 61, 41, 195, 44, 61, 188, 125, 138, 189, 71, 7, 61, 61, 160, 28, 136, 188, 216, 173, 210, 187, 150, 219, 253, 188, 217, 136, 13, 62, 34, 76, 236, 61, 235, 156, 10, 62, 87, 86, 17, 62, 102, 118, 124, 189, 249, 26, 53, 60, 39, 130, 148, 189, 135, 140, 24, 190, 15, 192, 244, 189, 76, 117, 24, 62, 42, 82, 73, 61, 68, 214, 161, 61, 227, 179, 115, 61, 120, 83, 226, 61, 11, 142, 244, 60, 194, 234, 245, 189, 172, 67, 108, 61, 201, 17, 139, 189, 150, 179, 227, 188, 114, 190, 73, 189, 164, 65, 31, 61, 35, 112, 54, 187, 236, 156, 196, 61, 243, 229, 225, 189, 23, 141, 1, 189, 40, 159, 14, 190, 171, 247, 77, 61, 57, 142, 161, 189, 208, 172, 217, 189, 53, 119, 187, 189, 232, 201, 199, 60, 224, 245, 25, 189, 64, 195, 189, 60, 224, 14, 207, 189, 209, 220, 17, 190, 67, 205, 135, 189, 21, 99, 195, 61, 199, 248, 169, 189, 198, 20, 25, 62, 124, 72, 238, 189, 76, 190, 165, 61, 238, 132, 20, 62, 238, 244, 195, 61, 177, 201, 187, 61, 25, 14, 244, 61, 0, 70, 147, 58, 114, 8, 18, 190, 40, 99, 23, 61, 64, 89, 152, 188, 48, 242, 25, 189, 192, 184, 176, 61, 148, 151, 202, 61, 38, 93, 191, 189, 46, 34, 97, 189, 40, 37, 171, 188, 199, 177, 0, 190, 234, 253, 232, 189, 106, 148, 254, 61, 200, 209, 13, 190, 40, 203, 10, 189, 96, 120, 4, 190, 166, 122, 182, 61, 152, 163, 119, 61, 100, 58, 141, 189, 160, 83, 155, 61, 218, 215, 11, 190, 218, 66, 4, 190, 137, 62, 4, 62, 38, 88, 144, 61, 28, 86, 238, 189, 25, 41, 150, 189, 138, 29, 166, 189, 122, 182, 49, 189, 197, 158, 5, 62, 0, 66, 229, 57, 70, 174, 96, 189, 203, 5, 200, 189, 39, 103, 208, 189, 55, 113, 203, 189, 186, 41, 91, 189, 224, 95, 176, 59, 176, 155, 10, 62, 227, 50, 9, 62, 60, 124, 143, 61, 211, 0, 193, 189, 43, 186, 5, 190, 1, 120, 22, 62, 195, 165, 194, 61, 142, 54, 27, 61, 154, 89, 26, 62, 234, 127, 239, 189, 71, 10, 136, 189, 0, 217, 16, 60, 12, 78, 93, 189, 232, 182, 2, 190, 232, 196, 232, 188, 36, 137, 141, 61, 12, 132, 136, 61, 204, 66, 113, 61, 254, 39, 204, 61, 128, 218, 65, 188, 144, 245, 66, 60, 245, 3, 156, 189, 167, 151, 18, 190, 28, 97, 212, 189, 213, 244, 227, 189, 40, 61, 180, 188, 64, 10, 144, 60, 144, 78, 233, 189, 254, 201, 195, 59, 86, 218, 130, 61, 112, 108, 159, 61, 41, 112, 230, 60, 169, 50, 196, 189, 172, 184, 8, 190, 67, 202, 59, 188, 117, 128, 216, 61, 193, 55, 243, 188, 149, 8, 9, 62, 49, 188, 29, 62, 62, 113, 230, 189, 29, 235, 23, 62, 217, 50, 186, 189, 157, 88, 0, 190, 8, 242, 158, 61, 56, 90, 14, 62, 148, 195, 173, 61, 233, 37, 1, 190, 60, 72, 3, 190, 74, 1, 48, 189, 69, 21, 23, 190, 81, 96, 21, 62, 66, 29, 63, 189, 111, 157, 7, 62, 32, 236, 138, 60, 249, 35, 18, 62, 150, 71, 169, 61, 46, 198, 49, 60, 109, 51, 243, 60, 157, 113, 40, 61, 118, 210, 213, 61, 69, 143, 241, 61, 231, 245, 190, 61, 207, 58, 35, 189, 184, 187, 251, 189, 64, 229, 228, 59, 210, 236, 242, 61, 0, 27, 0, 61, 3, 92, 12, 190, 160, 226, 65, 60, 253, 41, 241, 189, 243, 216, 16, 62, 127, 139, 7, 190, 201, 11, 21, 190, 72, 180, 142, 189, 179, 160, 132, 189, 133, 94, 203, 189, 106, 46, 169, 189, 197, 60, 3, 62, 0, 0, 108, 61, 80, 146, 124, 61, 128, 25, 109, 189, 184, 46, 176, 61, 228, 121, 146, 61, 140, 49, 5, 60, 69, 90, 251, 60, 202, 249, 251, 188, 171, 245, 56, 61, 35, 81, 24, 190, 230, 167, 215, 61, 238, 1, 12, 62, 220, 156, 2, 61, 14, 154, 241, 189, 204, 63, 162, 61, 224, 120, 136, 60, 180, 216, 138, 61, 69, 97, 251, 189, 134, 17, 76, 189, 215, 203, 181, 189, 50, 226, 250, 189, 192, 245, 148, 186, 32, 122, 11, 62, 230, 220, 171, 61, 156, 103, 169, 60, 227, 81, 17, 62, 73, 9, 113, 189, 200, 224, 164, 61, 215, 237, 134, 61, 54, 119, 26, 62, 94, 2, 223, 61, 70, 128, 175, 61, 128, 146, 236, 187, 250, 72, 212, 189, 66, 25, 220, 61, 118, 220, 143, 189, 224, 126, 0, 61, 24, 17, 158, 60, 51, 6, 234, 189, 170, 25, 246, 188, 63, 144, 151, 60, 17, 222, 172, 59, 100, 246, 157, 61, 209, 168, 189, 61, 147, 36, 169, 189, 5, 163, 53, 61, 38, 8, 191, 61, 148, 140, 13, 190, 230, 253, 174, 61, 98, 104, 46, 189, 36, 70, 69, 61, 230, 188, 241, 189, 126, 135, 164, 61, 235, 154, 15, 62, 37, 129, 155, 185, 206, 250, 244, 189, 89, 159, 30, 61, 65, 124, 71, 189, 214, 9, 204, 61, 50, 188, 38, 61, 34, 68, 196, 61, 151, 122, 162, 188, 135, 70, 252, 60, 40, 53, 3, 61, 214, 218, 182, 188, 26, 103, 50, 61, 108, 72, 5, 62, 107, 6, 185, 189, 95, 178, 5, 62, 202, 147, 1, 61, 162, 187, 12, 188, 22, 68, 219, 60, 34, 205, 26, 62, 185, 188, 214, 61, 247, 108, 145, 189, 117, 138, 25, 190, 218, 242, 16, 190, 248, 66, 186, 188, 253, 112, 15, 62, 143, 55, 187, 189, 203, 229, 13, 62, 227, 13, 163, 189, 130, 7, 97, 189, 124, 18, 88, 61, 214, 24, 68, 189, 208, 255, 41, 60, 120, 173, 182, 189, 81, 77, 254, 189, 167, 20, 21, 190, 102, 35, 29, 189, 0, 30, 56, 60, 46, 114, 239, 61, 48, 210, 162, 61, 148, 81, 6, 190, 80, 32, 46, 61, 34, 121, 133, 61, 124, 238, 251, 189, 15, 251, 8, 190, 205, 175, 20, 62, 152, 238, 37, 61, 93, 21, 9, 62, 116, 160, 167, 61, 112, 72, 194, 188, 55, 119, 248, 189, 120, 96, 252, 60, 88, 192, 144, 188, 224, 186, 103, 60, 89, 67, 239, 189, 80, 161, 189, 188, 222, 79, 115, 189, 210, 99, 165, 189, 113, 60, 246, 189, 120, 185, 59, 189, 161, 242, 147, 61, 58, 244, 25, 62, 70, 142, 136, 61, 105, 90, 200, 61, 98, 162, 33, 60, 140, 188, 194, 188, 143, 200, 155, 61, 190, 60, 16, 190, 57, 221, 148, 60, 93, 36, 20, 190, 63, 86, 205, 61, 142, 45, 5, 189, 84, 32, 58, 187, 102, 203, 128, 60, 63, 175, 185, 189, 5, 235, 7, 62, 0, 149, 71, 60, 105, 203, 11, 62, 82, 202, 129, 189, 18, 4, 141, 189, 244, 222, 152, 61, 12, 119, 40, 61, 115, 19, 2, 190, 216, 150, 157, 61, 69, 64, 235, 189, 74, 179, 26, 190, 223, 229, 248, 61, 103, 219, 9, 61, 50, 1, 128, 60, 225, 76, 69, 61, 236, 205, 118, 61, 6, 74, 143, 61, 19, 0, 90, 188, 102, 218, 5, 189, 229, 1, 19, 190, 4, 218, 97, 189, 126, 230, 229, 61, 23, 2, 143, 189, 52, 235, 21, 61, 218, 251, 220, 189, 222, 229, 193, 61, 39, 150, 185, 189, 32, 149, 138, 188, 73, 14, 18, 62, 118, 222, 73, 189, 52, 177, 10, 190, 164, 14, 8, 189, 109, 30, 22, 62, 18, 97, 162, 61, 165, 85, 13, 190, 144, 49, 242, 188, 73, 253, 133, 189, 207, 118, 220, 189, 134, 30, 153, 60, 239, 234, 4, 62, 172, 1, 9, 62, 40, 1, 109, 61, 99, 193, 106, 61, 103, 118, 147, 61, 179, 182, 25, 190, 114, 43, 99, 61, 25, 40, 25, 189, 248, 136, 142, 189, 165, 177, 60, 61, 216, 25, 215, 61, 50, 218, 235, 61, 153, 208, 96, 61, 218, 45, 198, 61, 77, 103, 144, 61, 94, 52, 110, 189, 60, 13, 106, 189, 14, 140, 125, 189, 206, 188, 11, 190, 141, 228, 0, 62, 56, 204, 241, 188, 110, 167, 137, 61, 128, 153, 172, 58, 198, 20, 71, 189, 160, 118, 87, 189, 214, 164, 137, 61, 119, 238, 0, 62, 16, 219, 68, 61, 128, 222, 176, 59, 38, 250, 241, 189, 88, 135, 146, 188, 139, 255, 7, 62, 134, 143, 169, 189, 10, 171, 251, 189, 12, 54, 230, 60, 14, 90, 43, 189, 102, 184, 251, 61, 23, 233, 2, 190, 162, 80, 1, 62, 255, 102, 219, 189, 229, 235, 153, 61, 98, 119, 51, 189, 228, 112, 87, 61, 197, 218, 243, 189, 227, 192, 250, 61, 63, 198, 165, 189, 57, 16, 5, 190, 228, 181, 87, 60, 231, 10, 237, 189, 170, 107, 254, 189, 205, 158, 204, 61, 77, 78, 220, 61, 126, 74, 249, 61, 114, 8, 195, 61, 136, 226, 12, 189, 89, 211, 22, 190, 38, 80, 50, 189, 31, 212, 7, 62, 126, 51, 69, 189, 122, 138, 216, 61, 76, 198, 236, 188, 206, 65, 210, 61, 129, 75, 148, 189, 137, 201, 13, 190, 142, 33, 79, 189, 0, 206, 181, 185, 50, 228, 95, 189, 150, 52, 243, 61, 168, 127, 148, 188, 170, 52, 52, 189, 108, 158, 192, 61, 212, 151, 4, 62, 240, 80, 140, 61, 125, 129, 194, 188, 99, 75, 202, 60, 91, 172, 58, 188, 254, 225, 189, 189, 83, 115, 254, 188, 200, 82, 146, 59, 32, 17, 165, 189, 225, 26, 230, 188, 168, 157, 29, 61, 45, 142, 239, 61, 111, 84, 231, 61, 250, 45, 93, 188, 31, 114, 138, 188, 66, 181, 194, 188, 76, 200, 144, 61, 170, 33, 2, 190, 28, 245, 142, 188, 100, 128, 225, 188, 36, 137, 143, 60, 5, 242, 177, 61, 24, 144, 75, 60, 158, 1, 136, 61, 135, 236, 242, 189, 250, 79, 139, 61, 94, 82, 106, 61, 158, 197, 197, 189, 228, 166, 226, 61, 150, 250, 25, 190, 153, 204, 178, 189, 170, 220, 113, 61, 231, 52, 193, 59, 231, 251, 5, 62, 21, 121, 161, 61, 121, 9, 10, 190, 210, 158, 137, 61, 192, 231, 118, 188, 177, 161, 149, 189, 184, 65, 156, 60, 226, 102, 210, 189, 105, 185, 1, 190, 96, 136, 201, 61, 244, 116, 76, 61, 205, 39, 22, 190, 218, 212, 11, 190, 0, 113, 39, 187, 175, 22, 150, 189, 56, 249, 144, 60, 136, 138, 63, 189, 143, 38, 6, 62, 64, 251, 16, 59, 254, 243, 163, 189, 214, 86, 111, 61, 98, 100, 54, 61, 76, 198, 243, 61, 66, 181, 152, 189, 53, 12, 241, 61, 1, 67, 241, 60, 152, 226, 7, 62, 22, 100, 63, 189, 100, 6, 30, 61, 58, 48, 25, 190, 1, 126, 97, 189, 159, 73, 159, 61, 180, 199, 116, 189, 153, 98, 183, 61, 92, 180, 16, 62, 83, 182, 170, 61, 96, 94, 136, 188, 23, 152, 2, 62, 50, 64, 135, 189, 135, 96, 175, 189, 188, 238, 6, 190, 224, 43, 141, 59, 178, 116, 234, 61, 170, 177, 26, 189, 0, 200, 204, 184, 194, 89, 243, 61, 120, 72, 243, 60, 232, 195, 157, 60, 255, 131, 16, 189, 79, 243, 18, 62, 42, 131, 88, 189, 58, 175, 175, 187, 43, 169, 132, 189, 57, 98, 60, 189, 84, 127, 169, 61, 131, 121, 14, 187, 160, 203, 213, 60, 136, 213, 203, 60, 96, 144, 89, 189, 28, 94, 199, 189, 144, 178, 221, 188, 218, 231, 74, 189, 112, 152, 179, 61, 64, 71, 145, 59, 178, 35, 182, 189, 243, 18, 18, 190, 40, 181, 161, 61, 104, 60, 2, 190, 40, 205, 243, 60, 170, 212, 224, 189, 138, 171, 253, 61, 146, 80, 224, 61, 46, 255, 247, 61, 32, 210, 49, 61, 152, 148, 163, 188, 214, 62, 132, 189, 159, 12, 16, 190, 160, 163, 77, 61, 86, 93, 246, 189, 134, 197, 164, 61, 216, 19, 180, 61, 40, 197, 18, 61, 167, 125, 251, 189, 162, 107, 104, 60, 90, 54, 221, 61, 46, 159, 217, 189, 35, 102, 5, 62, 210, 136, 20, 62, 111, 220, 233, 189, 206, 170, 14, 62, 198, 230, 226, 61, 253, 86, 240, 60, 122, 114, 199, 61, 125, 47, 40, 61, 169, 121, 145, 61, 212, 235, 254, 60, 207, 115, 16, 62, 65, 191, 241, 188, 123, 246, 153, 60, 135, 246, 27, 190, 88, 44, 67, 189, 211, 47, 199, 189, 67, 45, 93, 188, 149, 6, 122, 61, 241, 185, 250, 61, 111, 180, 24, 62, 31, 24, 229, 189, 126, 38, 160, 188, 225, 177, 218, 189, 184, 155, 196, 189, 26, 206, 206, 61, 196, 39, 92, 61, 0, 141, 165, 186, 0, 93, 41, 60, 36, 51, 170, 189, 230, 229, 24, 190, 0, 32, 223, 187, 146, 71, 230, 61, 210, 12, 13, 189, 151, 96, 4, 62, 65, 67, 154, 189, 124, 9, 221, 189, 155, 50, 129, 61, 215, 10, 42, 61, 158, 94, 224, 187, 167, 157, 150, 61, 224, 94, 187, 61, 230, 76, 203, 61, 233, 24, 19, 190, 232, 13, 245, 60, 240, 170, 118, 60, 66, 104, 104, 189, 42, 6, 242, 189, 61, 32, 4, 62, 66, 24, 206, 61, 118, 248, 129, 61, 176, 225, 171, 60, 212, 145, 193, 61, 141, 32, 129, 189, 167, 203, 18, 190, 254, 221, 166, 61, 143, 254, 24, 62, 17, 81, 20, 62, 199, 39, 22, 62, 82, 195, 247, 61, 123, 200, 192, 189, 34, 95, 234, 61, 115, 114, 177, 189, 150, 124, 29, 189, 72, 163, 186, 188, 128, 158, 149, 186, 98, 220, 27, 189, 150, 9, 25, 190, 152, 78, 147, 188, 48, 129, 157, 60, 49, 135, 2, 62, 140, 220, 182, 189, 22, 112, 148, 189, 64, 213, 111, 188, 40, 235, 144, 60, 133, 145, 21, 62, 28, 65, 197, 61, 198, 142, 137, 61, 144, 199, 7, 190, 138, 173, 161, 61, 212, 249, 224, 189, 253, 71, 19, 62, 171, 198, 221, 189, 241, 151, 143, 189, 149, 194, 233, 189, 239, 186, 12, 62, 204, 104, 139, 61, 102, 150, 228, 189, 61, 180, 123, 189, 224, 73, 100, 60, 33, 112, 219, 189, 178, 102, 29, 189, 140, 13, 8, 62, 239, 73, 0, 190, 106, 224, 202, 188, 74, 220, 183, 187, 183, 171, 19, 62, 110, 18, 82, 189, 44, 176, 139, 61, 161, 177, 19, 190, 190, 216, 247, 61, 234, 205, 132, 61, 44, 172, 199, 61, 138, 154, 186, 61, 4, 18, 102, 61, 150, 222, 22, 190, 48, 77, 62, 61, 19, 125, 4, 190, 225, 246, 9, 62, 204, 166, 85, 61, 5, 167, 13, 190, 30, 13, 14, 190, 252, 165, 91, 61, 50, 199, 206, 61, 188, 151, 70, 189, 110, 108, 248, 61, 93, 41, 4, 62, 224, 184, 52, 60, 223, 140, 169, 189, 45, 223, 216, 189, 123, 0, 25, 62, 216, 190, 84, 61, 177, 127, 23, 62, 126, 88, 121, 189, 232, 46, 89, 189, 30, 18, 205, 61, 196, 70, 42, 61, 204, 52, 188, 61, 82, 191, 66, 189, 117, 88, 160, 189, 16, 186, 36, 60, 108, 164, 229, 189, 30, 28, 197, 189, 48, 106, 99, 189, 14, 100, 36, 189, 239, 200, 145, 189, 206, 29, 121, 189, 12, 235, 41, 61, 99, 204, 24, 62, 64, 72, 120, 189, 83, 52, 132, 189, 158, 21, 238, 189, 252, 156, 205, 61, 248, 199, 211, 61, 225, 171, 156, 61, 121, 173, 232, 188, 169, 20, 173, 60, 175, 228, 14, 62, 129, 44, 216, 189, 15, 49, 239, 60, 21, 181, 14, 62, 142, 43, 179, 60, 206, 107, 233, 61, 100, 30, 12, 190, 78, 133, 27, 62, 61, 36, 188, 61, 27, 228, 38, 60, 222, 2, 43, 60, 29, 255, 153, 189, 173, 32, 135, 189, 121, 135, 21, 190, 200, 115, 169, 189, 34, 151, 158, 61, 194, 34, 197, 189, 200, 193, 231, 60, 238, 3, 202, 61, 92, 135, 201, 61, 72, 19, 250, 189, 152, 61, 191, 60, 211, 78, 20, 190, 235, 158, 1, 190, 70, 167, 8, 190, 250, 142, 196, 189, 170, 251, 210, 189, 81, 234, 157, 189, 191, 246, 20, 62, 62, 53, 137, 61, 246, 6, 2, 189, 140, 42, 45, 189, 164, 204, 220, 188, 200, 93, 75, 61, 191, 13, 232, 189, 128, 90, 31, 60, 144, 253, 177, 61, 166, 124, 20, 189, 76, 231, 224, 188, 246, 11, 165, 189, 36, 34, 253, 188, 162, 52, 211, 61, 192, 253, 80, 61, 14, 227, 62, 61, 249, 150, 183, 189, 37, 5, 16, 189, 205, 148, 254, 60, 51, 7, 98, 61, 192, 207, 198, 61, 252, 164, 5, 190, 40, 14, 71, 189, 190, 229, 159, 61, 10, 221, 13, 190, 46, 63, 233, 61, 225, 71, 1, 62, 16, 51, 87, 189, 234, 151, 222, 61, 99, 249, 235, 189, 117, 222, 0, 62, 202, 19, 82, 189, 59, 180, 248, 189, 30, 147, 232, 189, 64, 100, 108, 188, 110, 254, 1, 190, 66, 46, 209, 61, 246, 50, 218, 61, 92, 222, 2, 61, 105, 240, 147, 189, 103, 179, 143, 189, 124, 190, 181, 189, 131, 88, 9, 190, 74, 88, 238, 61, 54, 74, 211, 189, 33, 19, 24, 62, 160, 162, 253, 59, 68, 176, 60, 61, 106, 171, 136, 61, 74, 216, 43, 189, 114, 65, 6, 189, 250, 32, 43, 189, 8, 146, 234, 188, 232, 16, 84, 189, 8, 20, 229, 188, 254, 35, 212, 61, 244, 86, 205, 189, 70, 80, 169, 189, 90, 118, 233, 61, 252, 207, 36, 61, 117, 173, 28, 62, 222, 154, 101, 61, 233, 100, 59, 189, 240, 43, 254, 61, 114, 67, 208, 61, 185, 240, 254, 185, 32, 153, 183, 189, 144, 136, 166, 188, 30, 76, 104, 189, 230, 75, 128, 189, 0, 84, 147, 61, 22, 36, 68, 189, 150, 66, 72, 189, 96, 232, 128, 60, 104, 217, 179, 60, 237, 163, 24, 190, 252, 45, 182, 61, 244, 169, 254, 188, 52, 77, 177, 61, 57, 168, 212, 189, 4, 126, 66, 61, 176, 64, 54, 188, 178, 85, 22, 190, 16, 16, 14, 60, 110, 156, 4, 189, 176, 47, 119, 188, 182, 40, 174, 61, 232, 158, 214, 189, 65, 67, 179, 189, 172, 108, 52, 61, 204, 105, 54, 189, 0, 245, 246, 59, 50, 186, 148, 61, 32, 200, 132, 61, 150, 132, 163, 61, 78, 44, 221, 189, 88, 127, 222, 188, 20, 38, 241, 189, 208, 26, 60, 61, 128, 75, 188, 189, 223, 95, 5, 190, 128, 22, 182, 186, 137, 154, 253, 189, 49, 86, 2, 190, 109, 50, 106, 189, 91, 232, 215, 188, 212, 64, 164, 61, 92, 246, 14, 190, 18, 216, 4, 190, 207, 177, 170, 61, 38, 125, 18, 62, 172, 77, 73, 189, 3, 135, 15, 62, 248, 205, 254, 189, 72, 194, 40, 61, 128, 51, 148, 59, 38, 32, 123, 189, 10, 211, 153, 189, 4, 133, 119, 61, 194, 122, 164, 189, 174, 7, 246, 61, 73, 186, 6, 62, 121, 84, 1, 62, 74, 164, 7, 190, 196, 210, 163, 188, 29, 146, 181, 189, 154, 204, 141, 61, 240, 245, 85, 60, 136, 195, 66, 60, 10, 192, 190, 189, 49, 187, 86, 61, 205, 43, 240, 188, 123, 200, 6, 62, 126, 49, 133, 61, 96, 59, 193, 61, 1, 73, 32, 189, 43, 76, 3, 189, 84, 148, 183, 61, 49, 248, 150, 61, 128, 12, 234, 61, 143, 68, 191, 189, 97, 78, 79, 61, 151, 222, 7, 62, 120, 224, 134, 188, 95, 20, 35, 61, 33, 98, 153, 189, 248, 166, 30, 62, 187, 73, 165, 188, 126, 176, 4, 189, 96, 14, 223, 188, 224, 143, 68, 189, 237, 167, 166, 60, 232, 202, 188, 60, 14, 86, 214, 61, 179, 43, 31, 190, 95, 133, 134, 61, 204, 239, 117, 189, 163, 25, 11, 190, 154, 157, 255, 189, 248, 44, 153, 188, 0, 250, 119, 186, 207, 177, 231, 189, 72, 179, 131, 188, 218, 35, 163, 61, 3, 149, 23, 190, 156, 71, 118, 61, 176, 3, 7, 189, 173, 170, 180, 61, 22, 63, 101, 61, 60, 66, 224, 61, 8, 180, 119, 188, 10, 79, 57, 61, 64, 80, 22, 189, 145, 98, 9, 62, 117, 78, 27, 190, 48, 156, 199, 188, 96, 144, 6, 62, 95, 199, 63, 61, 165, 96, 38, 189, 26, 97, 181, 189, 57, 114, 111, 187, 39, 63, 251, 60, 177, 87, 17, 61, 206, 84, 96, 189, 182, 168, 157, 61, 187, 155, 187, 188, 228, 250, 10, 62, 235, 75, 15, 62, 130, 30, 169, 189, 38, 75, 158, 61, 168, 231, 92, 189, 250, 69, 18, 62, 113, 92, 209, 60, 87, 37, 233, 189, 4, 195, 18, 62, 96, 174, 188, 61, 165, 116, 130, 189, 249, 130, 29, 62, 248, 223, 235, 61, 189, 126, 155, 61, 113, 116, 113, 61, 128, 34, 143, 189, 64, 67, 81, 187, 83, 108, 163, 189, 32, 155, 20, 61, 162, 18, 54, 189, 57, 179, 129, 189, 35, 55, 22, 62, 144, 71, 61, 188, 16, 108, 167, 188, 45, 225, 11, 62, 118, 223, 54, 189, 248, 145, 5, 190, 128, 86, 109, 60, 54, 85, 223, 61, 194, 40, 207, 189, 81, 39, 136, 189, 127, 236, 164, 189, 64, 150, 75, 189, 158, 90, 177, 189, 224, 203, 103, 60, 36, 46, 16, 190, 122, 167, 148, 61, 138, 111, 170, 61, 182, 23, 15, 190, 236, 227, 0, 190, 100, 59, 30, 61, 80, 105, 140, 189, 43, 86, 158, 189, 252, 170, 129, 189, 248, 82, 47, 189, 126, 121, 40, 189, 72, 52, 13, 61, 87, 35, 8, 62, 150, 23, 19, 189, 172, 161, 40, 61, 68, 60, 128, 189, 53, 95, 207, 189, 33, 113, 14, 62, 195, 164, 207, 189, 140, 22, 152, 189, 244, 157, 42, 61, 192, 213, 61, 188, 128, 54, 138, 60, 0, 42, 24, 61, 32, 9, 241, 59, 94, 234, 125, 61, 14, 176, 5, 60, 68, 86, 135, 188, 169, 151, 145, 61, 206, 244, 120, 189, 142, 204, 151, 60, 13, 124, 7, 62, 94, 91, 137, 61, 140, 123, 163, 61, 95, 131, 3, 62, 160, 111, 15, 190, 212, 149, 252, 189, 2, 159, 142, 61, 46, 113, 4, 190, 242, 208, 219, 61, 144, 109, 87, 61, 36, 187, 29, 61, 147, 183, 210, 189, 26, 96, 219, 189, 42, 49, 150, 61, 103, 28, 208, 60, 83, 52, 244, 61, 190, 25, 104, 61, 31, 80, 219, 61, 216, 12, 126, 61, 183, 78, 41, 189, 150, 171, 21, 62, 89, 42, 176, 189, 77, 6, 245, 189, 248, 86, 115, 61, 12, 1, 11, 190, 222, 247, 253, 61, 96, 223, 250, 187, 145, 231, 16, 62, 16, 237, 188, 60, 168, 47, 170, 188, 159, 54, 18, 62, 152, 20, 117, 189, 146, 245, 150, 61, 171, 96, 23, 190, 240, 6, 252, 189, 168, 227, 168, 60, 196, 80, 133, 61, 213, 144, 14, 62, 177, 213, 243, 189, 244, 113, 9, 190, 242, 39, 15, 188, 98, 164, 220, 58, 221, 157, 237, 61, 94, 52, 184, 61, 49, 118, 44, 61, 25, 210, 244, 61, 39, 161, 85, 189, 69, 137, 207, 61, 38, 169, 5, 60, 69, 225, 16, 62, 17, 30, 58, 61, 137, 191, 216, 60, 185, 78, 91, 189, 140, 19, 8, 190, 250, 2, 30, 189, 50, 117, 147, 189, 48, 77, 46, 189, 197, 207, 16, 62, 231, 175, 129, 189, 191, 203, 35, 61, 133, 175, 201, 61, 205, 71, 208, 189, 222, 99, 13, 188, 7, 233, 8, 62, 83, 178, 12, 190, 19, 124, 18, 62, 192, 253, 118, 59, 32, 211, 178, 188, 176, 115, 139, 60, 144, 169, 248, 188, 125, 183, 221, 189, 29, 160, 6, 190, 0, 69, 125, 186, 172, 27, 110, 189, 16, 188, 20, 188, 212, 115, 211, 189, 224, 167, 221, 61, 223, 31, 149, 189, 136, 127, 123, 187, 9, 3, 1, 62, 164, 242, 153, 61, 160, 201, 159, 189, 160, 151, 5, 190, 180, 102, 159, 61, 156, 192, 26, 62, 251, 151, 0, 62, 38, 103, 247, 61, 136, 206, 0, 62, 251, 16, 203, 188, 240, 87, 237, 61, 29, 88, 30, 62, 111, 220, 1, 62, 180, 208, 191, 61, 140, 217, 85, 61, 233, 98, 6, 62, 224, 166, 140, 188, 156, 241, 146, 189, 66, 178, 161, 189, 30, 94, 18, 190, 140, 67, 56, 61, 205, 194, 14, 190, 232, 243, 242, 60, 90, 252, 155, 189, 75, 137, 178, 189, 194, 63, 130, 61, 98, 92, 237, 61, 221, 243, 38, 189, 244, 1, 212, 189, 111, 28, 28, 190, 187, 231, 143, 61, 106, 170, 172, 61, 176, 61, 51, 188, 170, 236, 78, 189, 143, 46, 246, 189, 190, 167, 238, 189, 63, 28, 14, 62, 149, 113, 162, 189, 86, 1, 246, 61, 148, 78, 122, 61, 2, 208, 222, 61, 128, 96, 68, 60, 240, 78, 232, 60, 180, 185, 232, 188, 112, 70, 189, 188, 156, 185, 246, 188, 102, 144, 188, 189, 174, 22, 197, 189, 178, 207, 129, 61, 96, 40, 167, 187, 225, 84, 169, 189, 224, 133, 231, 187, 0, 69, 55, 188, 34, 91, 5, 190, 120, 252, 57, 61, 70, 45, 254, 61, 156, 176, 16, 189, 48, 79, 88, 61, 182, 75, 14, 190, 207, 148, 214, 189, 14, 150, 195, 189, 47, 24, 4, 62, 88, 169, 146, 189, 118, 115, 154, 189, 136, 40, 133, 60, 227, 245, 10, 62, 208, 253, 247, 60, 139, 162, 9, 190, 59, 143, 122, 61, 188, 167, 254, 189, 199, 234, 23, 62, 104, 5, 196, 61, 239, 88, 30, 62, 68, 159, 250, 61, 218, 61, 25, 62, 97, 67, 200, 189, 35, 110, 140, 189, 3, 218, 251, 61, 180, 104, 72, 189, 214, 235, 245, 60, 64, 5, 214, 189, 192, 45, 13, 62, 206, 199, 7, 62, 150, 61, 17, 190, 137, 222, 116, 61, 226, 98, 183, 61, 130, 79, 4, 190, 21, 214, 179, 59, 149, 77, 213, 60, 116, 245, 32, 189, 171, 133, 23, 61, 250, 205, 81, 61, 74, 99, 38, 61, 118, 8, 175, 189, 252, 206, 148, 61, 81, 212, 27, 61, 217, 105, 119, 189, 159, 187, 146, 61, 111, 246, 111, 61, 139, 199, 9, 62, 210, 138, 67, 189, 33, 132, 10, 190, 49, 74, 207, 61, 37, 217, 141, 189, 31, 94, 133, 61, 165, 3, 187, 61, 202, 245, 200, 60, 178, 15, 99, 189, 36, 247, 188, 61, 69, 97, 63, 189, 165, 166, 14, 190, 3, 207, 240, 189, 104, 49, 131, 189, 132, 175, 242, 61, 209, 19, 6, 61, 148, 109, 239, 189, 143, 45, 3, 188, 117, 3, 70, 188, 2, 240, 153, 61, 236, 110, 100, 188, 171, 186, 176, 61, 160, 251, 20, 62, 253, 71, 125, 61, 114, 197, 141, 61, 255, 135, 226, 189, 175, 214, 193, 59, 30, 31, 136, 61, 29, 229, 175, 189, 179, 73, 90, 189, 102, 27, 89, 61, 185, 207, 227, 61, 132, 196, 26, 61, 85, 113, 98, 189, 158, 23, 58, 61, 180, 189, 232, 188, 36, 168, 0, 62, 44, 137, 32, 189, 156, 204, 12, 189, 51, 98, 232, 61, 151, 79, 14, 62, 56, 6, 235, 61, 81, 234, 25, 62, 118, 76, 137, 61, 203, 132, 60, 189, 139, 253, 69, 61, 17, 119, 228, 61, 138, 172, 153, 189, 44, 129, 82, 189, 216, 143, 207, 61, 248, 244, 246, 60, 150, 1, 3, 190, 248, 88, 230, 189, 38, 2, 238, 189, 95, 22, 13, 190, 48, 73, 70, 189, 179, 212, 24, 62, 96, 65, 144, 61, 24, 124, 179, 189, 46, 10, 31, 190, 246, 234, 74, 189, 28, 200, 174, 61, 170, 36, 175, 61, 192, 236, 176, 189, 171, 19, 1, 60, 219, 80, 33, 61, 189, 120, 230, 61, 179, 51, 73, 61, 20, 38, 214, 189, 240, 235, 127, 60, 16, 250, 34, 189, 251, 204, 7, 62, 114, 158, 213, 61, 40, 50, 121, 189, 200, 242, 189, 60, 58, 51, 223, 61, 46, 210, 11, 190, 129, 83, 83, 189, 190, 27, 155, 61, 87, 87, 214, 60, 73, 71, 201, 189, 5, 47, 216, 189, 63, 200, 18, 189, 137, 153, 148, 189, 3, 50, 70, 61, 228, 180, 238, 61, 44, 22, 198, 189, 65, 200, 2, 190, 148, 37, 220, 60, 80, 82, 251, 61, 150, 87, 247, 61, 204, 95, 165, 188, 38, 70, 207, 61, 168, 4, 71, 188, 115, 44, 29, 187, 132, 183, 145, 61, 195, 57, 235, 189, 48, 177, 151, 189, 114, 87, 203, 189, 33, 135, 5, 62, 216, 38, 158, 61, 118, 109, 172, 61, 0, 242, 211, 187, 96, 40, 78, 189, 114, 197, 173, 57, 207, 16, 0, 190, 72, 236, 130, 61, 243, 9, 25, 62, 23, 20, 248, 60, 133, 185, 217, 188, 81, 217, 42, 61, 115, 245, 25, 189, 155, 218, 116, 60, 0, 0, 6, 0, 8, 0, 4, 0, 6, 0, 0, 0, 4, 0, 0, 0, 0, 4, 0, 0, 0, 0, 0, 0, 0, 0, 0, 0, 50, 197, 196, 187, 0, 0, 0, 0, 0, 0, 0, 0, 127, 200, 196, 59, 103, 200, 196, 59, 0, 0, 0, 0, 162, 196, 196, 187, 126, 198, 196, 59, 96, 195, 196, 59, 0, 0, 0, 0, 80, 200, 196, 187, 0, 0, 0, 0, 0, 0, 0, 0, 0, 0, 0, 0, 151, 199, 196, 59, 0, 0, 0, 0, 11, 200, 196, 187, 215, 199, 196, 59, 0, 0, 0, 0, 243, 199, 196, 187, 27, 200, 196, 187, 144, 197, 196, 59, 72, 200, 196, 187, 71, 200, 196, 59, 134, 198, 196, 59, 169, 195, 196, 187, 141, 200, 196, 59, 126, 198, 196, 187, 0, 0, 0, 0, 0, 0, 0, 0, 0, 0, 0, 0, 242, 199, 196, 187, 78, 199, 196, 187, 0, 0, 0, 0, 197, 200, 196, 187, 0, 0, 0, 0, 0, 0, 0, 0, 189, 188, 196, 59, 0, 0, 0, 0, 76, 199, 196, 59, 47, 200, 196, 59, 0, 0, 0, 0, 206, 194, 196, 59, 0, 0, 0, 0, 0, 0, 0, 0, 0, 0, 0, 0, 0, 0, 0, 0, 0, 0, 0, 0, 0, 0, 0, 0, 0, 0, 0, 0, 0, 0, 0, 0, 68, 200, 196, 59, 0, 0, 0, 0, 181, 200, 196, 59, 80, 199, 196, 59, 70, 199, 196, 59, 88, 200, 196, 59, 157, 199, 196, 59, 102, 193, 196, 187, 100, 199, 196, 187, 0, 0, 0, 0, 3, 201, 196, 187, 0, 0, 0, 0, 247, 197, 196, 59, 148, 200, 196, 187, 20, 198, 196, 187, 0, 0, 0, 0, 105, 197, 196, 187, 0, 0, 0, 0, 0, 0, 0, 0, 0, 0, 0, 0, 0, 0, 0, 0, 0, 0, 0, 0, 253, 198, 196, 59, 0, 0, 0, 0, 79, 187, 196, 59, 0, 0, 0, 0, 0, 0, 0, 0, 0, 0, 0, 0, 0, 0, 0, 0, 20, 201, 196, 59, 0, 0, 0, 0, 160, 194, 196, 59, 0, 0, 0, 0, 66, 200, 196, 59, 17, 195, 196, 187, 247, 200, 196, 59, 130, 200, 196, 59, 204, 199, 196, 187, 0, 0, 0, 0, 0, 0, 0, 0, 173, 199, 196, 59, 0, 0, 0, 0, 0, 0, 0, 0, 141, 199, 196, 59, 233, 200, 196, 59, 93, 200, 196, 59, 0, 0, 0, 0, 0, 0, 0, 0, 0, 0, 0, 0, 71, 168, 196, 59, 0, 0, 0, 0, 47, 196, 196, 187, 0, 0, 0, 0, 196, 200, 196, 187, 0, 0, 0, 0, 233, 196, 196, 59, 13, 197, 196, 187, 163, 197, 196, 59, 49, 199, 196, 187, 162, 200, 196, 59, 212, 185, 196, 187, 0, 0, 0, 0, 202, 199, 196, 187, 0, 0, 0, 0, 90, 200, 196, 187, 198, 200, 196, 59, 247, 197, 196, 187, 20, 193, 196, 59, 124, 200, 196, 187, 0, 0, 0, 0, 83, 199, 196, 59, 0, 0, 0, 0, 0, 0, 0, 0, 0, 0, 0, 0, 0, 0, 0, 0, 131, 200, 196, 59, 0, 0, 0, 0, 0, 0, 0, 0, 216, 197, 196, 187, 218, 197, 196, 59, 0, 0, 0, 0, 243, 41, 196, 187, 0, 0, 0, 0, 0, 0, 0, 0, 229, 200, 196, 187, 0, 0, 0, 0, 69, 200, 196, 59, 0, 0, 0, 0, 131, 177, 196, 187, 212, 200, 196, 59, 91, 200, 196, 59, 249, 198, 196, 59, 0, 0, 0, 0, 0, 0, 0, 0, 0, 0, 0, 0, 0, 0, 0, 0, 195, 177, 196, 59, 77, 200, 196, 187, 0, 0, 0, 0, 252, 194, 196, 187, 0, 0, 0, 0, 0, 0, 0, 0, 161, 199, 196, 187, 242, 200, 196, 187, 0, 0, 0, 0, 0, 0, 0, 0, 182, 199, 196, 187, 26, 200, 196, 187, 0, 0, 0, 0, 0, 0, 0, 0, 253, 200, 196, 187, 231, 194, 196, 59, 74, 200, 196, 187, 223, 199, 196, 187, 0, 0, 0, 0, 0, 0, 0, 0, 199, 185, 196, 59, 179, 197, 196, 187, 0, 0, 0, 0, 54, 200, 196, 59, 0, 0, 0, 0, 0, 0, 0, 0, 0, 0, 0, 0, 33, 199, 196, 59, 150, 200, 196, 187, 59, 198, 196, 59, 0, 0, 0, 0, 243, 199, 196, 187, 0, 0, 0, 0, 0, 0, 0, 0, 0, 0, 0, 0, 0, 0, 0, 0, 0, 0, 0, 0, 12, 198, 196, 59, 0, 0, 0, 0, 0, 0, 0, 0, 0, 0, 0, 0, 0, 0, 0, 0, 0, 0, 0, 0, 213, 192, 196, 187, 84, 200, 196, 59, 0, 0, 0, 0, 0, 0, 0, 0, 0, 0, 0, 0, 173, 200, 196, 187, 0, 0, 0, 0, 0, 0, 0, 0, 0, 0, 0, 0, 0, 0, 0, 0, 99, 200, 196, 59, 0, 0, 0, 0, 0, 0, 0, 0, 0, 0, 0, 0, 0, 0, 0, 0, 67, 199, 196, 187, 0, 0, 0, 0, 200, 200, 196, 187, 240, 199, 196, 187, 222, 187, 196, 59, 132, 200, 196, 187, 0, 0, 0, 0, 41, 200, 196, 59, 33, 201, 196, 187, 170, 200, 196, 187, 83, 199, 196, 59, 0, 0, 0, 0, 0, 0, 0, 0, 0, 0, 0, 0, 0, 0, 0, 0, 0, 0, 0, 0, 141, 199, 196, 59, 0, 0, 0, 0, 130, 200, 196, 59, 0, 0, 0, 0, 0, 0, 0, 0, 98, 197, 196, 59, 147, 200, 196, 187, 41, 200, 196, 59, 0, 0, 0, 0, 22, 201, 196, 187, 143, 199, 196, 59, 0, 0, 0, 0, 166, 200, 196, 187, 0, 0, 0, 0, 0, 0, 0, 0, 0, 0, 0, 0, 0, 0, 0, 0, 99, 194, 196, 59, 109, 195, 196, 187, 166, 200, 196, 187, 168, 196, 196, 59, 248, 200, 196, 59, 201, 199, 196, 59, 68, 188, 196, 59, 199, 200, 196, 187, 83, 200, 196, 59, 0, 0, 0, 0, 170, 200, 196, 187, 0, 0, 0, 0, 201, 200, 196, 187, 59, 200, 196, 59, 0, 0, 0, 0, 100, 197, 196, 59, 220, 253, 255, 255, 224, 253, 255, 255, 15, 0, 0, 0, 77, 76, 73, 82, 32, 67, 111, 110, 118, 101, 114, 116, 101, 100, 46, 0, 1, 0, 0, 0, 20, 0, 0, 0, 0, 0, 14, 0, 24, 0, 20, 0, 16, 0, 12, 0, 8, 0, 4, 0, 14, 0, 0, 0, 20, 0, 0, 0, 28, 0, 0, 0, 108, 0, 0, 0, 112, 0, 0, 0, 116, 0, 0, 0, 4, 0, 0, 0, 109, 97, 105, 110, 0, 0, 0, 0, 1, 0, 0, 0, 20, 0, 0, 0, 0, 0, 14, 0, 22, 0, 0, 0, 16, 0, 12, 0, 11, 0, 4, 0, 14, 0, 0, 0, 24, 0, 0, 0, 0, 0, 0, 8, 24, 0, 0, 0, 28, 0, 0, 0, 0, 0, 6, 0, 8, 0, 7, 0, 6, 0, 0, 0, 0, 0, 0, 1, 1, 0, 0, 0, 3, 0, 0, 0, 3, 0, 0, 0, 0, 0, 0, 0, 2, 0, 0, 0, 1, 0, 0, 0, 1, 0, 0, 0, 3, 0, 0, 0, 1, 0, 0, 0, 0, 0, 0, 0, 4, 0, 0, 0, 60, 1, 0, 0, 200, 0, 0, 0, 96, 0, 0, 0, 4, 0, 0, 0, 234, 254, 255, 255, 0, 0, 0, 1, 20, 0, 0, 0, 28, 0, 0, 0, 28, 0, 0, 0, 4, 0, 0, 0, 52, 0, 0, 0, 2, 0, 0, 0, 255, 255, 255, 255, 0, 1, 0, 0, 212, 254, 255, 255, 25, 0, 0, 0, 83, 116, 97, 116, 101, 102, 117, 108, 80, 97, 114, 116, 105, 116, 105, 111, 110, 101, 100, 67, 97, 108, 108, 58, 48, 0, 0, 0, 2, 0, 0, 0, 1, 0, 0, 0, 0, 1, 0, 0, 178, 255, 255, 255, 0, 0, 0, 1, 16, 0, 0, 0, 16, 0, 0, 0, 3, 0, 0, 0, 44, 0, 0, 0, 28, 255, 255, 255, 30, 0, 0, 0, 115, 101, 113, 117, 101, 110, 116, 105, 97, 108, 95, 53, 47, 110, 110, 95, 108, 97, 121, 101, 114, 95, 49, 47, 77, 97, 116, 77, 117, 108, 0, 0, 2, 0, 0, 0, 0, 1, 0, 0, 9, 0, 0, 0, 0, 0, 22, 0, 24, 0, 20, 0, 0, 0, 16, 0, 12, 0, 8, 0, 0, 0, 0, 0, 0, 0, 7, 0, 22, 0, 0, 0, 0, 0, 0, 1, 16, 0, 0, 0, 16, 0, 0, 0, 2, 0, 0, 0, 60, 0, 0, 0, 128, 255, 255, 255, 46, 0, 0, 0, 115, 101, 113, 117, 101, 110, 116, 105, 97, 108, 95, 53, 47, 110, 110, 95, 108, 97, 121, 101, 114, 95, 49, 47, 66, 105, 97, 115, 65, 100, 100, 47, 82, 101, 97, 100, 86, 97, 114, 105, 97, 98, 108, 101, 79, 112, 0, 0, 1, 0, 0, 0, 0, 1, 0, 0, 0, 0, 22, 0, 28, 0, 24, 0, 0, 0, 20, 0, 16, 0, 12, 0, 0, 0, 0, 0, 8, 0, 7, 0, 22, 0, 0, 0, 0, 0, 0, 1, 20, 0, 0, 0, 32, 0, 0, 0, 32, 0, 0, 0, 1, 0, 0, 0, 64, 0, 0, 0, 2, 0, 0, 0, 255, 255, 255, 255, 9, 0, 0, 0, 4, 0, 4, 0, 4, 0, 0, 0, 34, 0, 0, 0, 115, 101, 114, 118, 105, 110, 103, 95, 100, 101, 102, 97, 117, 108, 116, 95, 110, 110, 95, 108, 97, 121, 101, 114, 95, 49, 95, 105, 110, 112, 117, 116, 58, 48, 0, 0, 2, 0, 0, 0, 1, 0, 0, 0, 9, 0, 0, 0, 1, 0, 0, 0, 16, 0, 0, 0, 12, 0, 12, 0, 11, 0, 0, 0, 0, 0, 4, 0, 12, 0, 0, 0, 9, 0, 0, 0, 0, 0, 0, 9
};
