#pragma once

#include <cstdint>

const uint8_t mod_8[] = {
28, 0, 0, 0, 84, 70, 76, 51, 20, 0, 32, 0, 28, 0, 24, 0, 20, 0, 16, 0, 12, 0, 0, 0, 8, 0, 4, 0, 20, 0, 0, 0, 28, 0, 0, 0, 152, 0, 0, 0, 240, 0, 0, 0, 200, 1, 0, 0, 216, 1, 0, 0, 220, 4, 0, 0, 3, 0, 0, 0, 1, 0, 0, 0, 4, 0, 0, 0, 242, 253, 255, 255, 12, 0, 0, 0, 28, 0, 0, 0, 64, 0, 0, 0, 15, 0, 0, 0, 115, 101, 114, 118, 105, 110, 103, 95, 100, 101, 102, 97, 117, 108, 116, 0, 1, 0, 0, 0, 4, 0, 0, 0, 132, 255, 255, 255, 4, 0, 0, 0, 4, 0, 0, 0, 15, 0, 0, 0, 110, 110, 95, 111, 117, 116, 112, 117, 116, 95, 108, 97, 121, 101, 114, 0, 1, 0, 0, 0, 4, 0, 0, 0, 194, 254, 255, 255, 4, 0, 0, 0, 21, 0, 0, 0, 110, 110, 95, 111, 117, 116, 112, 117, 116, 95, 108, 97, 121, 101, 114, 95, 105, 110, 112, 117, 116, 0, 0, 0, 2, 0, 0, 0, 52, 0, 0, 0, 4, 0, 0, 0, 220, 255, 255, 255, 7, 0, 0, 0, 4, 0, 0, 0, 19, 0, 0, 0, 67, 79, 78, 86, 69, 82, 83, 73, 79, 78, 95, 77, 69, 84, 65, 68, 65, 84, 65, 0, 8, 0, 12, 0, 8, 0, 4, 0, 8, 0, 0, 0, 6, 0, 0, 0, 4, 0, 0, 0, 19, 0, 0, 0, 109, 105, 110, 95, 114, 117, 110, 116, 105, 109, 101, 95, 118, 101, 114, 115, 105, 111, 110, 0, 8, 0, 0, 0, 212, 0, 0, 0, 204, 0, 0, 0, 184, 0, 0, 0, 152, 0, 0, 0, 144, 0, 0, 0, 136, 0, 0, 0, 104, 0, 0, 0, 4, 0, 0, 0, 102, 255, 255, 255, 4, 0, 0, 0, 84, 0, 0, 0, 12, 0, 0, 0, 8, 0, 14, 0, 8, 0, 4, 0, 8, 0, 0, 0, 16, 0, 0, 0, 36, 0, 0, 0, 0, 0, 6, 0, 8, 0, 4, 0, 6, 0, 0, 0, 4, 0, 0, 0, 0, 0, 0, 0, 0, 0, 10, 0, 16, 0, 12, 0, 8, 0, 4, 0, 10, 0, 0, 0, 2, 0, 0, 0, 2, 0, 0, 0, 4, 0, 0, 0, 6, 0, 0, 0, 50, 46, 49, 51, 46, 48, 0, 0, 198, 255, 255, 255, 4, 0, 0, 0, 16, 0, 0, 0, 49, 46, 49, 52, 46, 48, 0, 0, 0, 0, 0, 0, 0, 0, 0, 0, 232, 252, 255, 255, 236, 252, 255, 255, 234, 255, 255, 255, 4, 0, 0, 0, 8, 0, 0, 0, 134, 26, 111, 63, 213, 204, 161, 190, 0, 0, 6, 0, 8, 0, 4, 0, 6, 0, 0, 0, 4, 0, 0, 0, 4, 0, 0, 0, 104, 255, 39, 64, 28, 253, 255, 255, 32, 253, 255, 255, 15, 0, 0, 0, 77, 76, 73, 82, 32, 67, 111, 110, 118, 101, 114, 116, 101, 100, 46, 0, 1, 0, 0, 0, 20, 0, 0, 0, 0, 0, 14, 0, 24, 0, 20, 0, 16, 0, 12, 0, 8, 0, 4, 0, 14, 0, 0, 0, 20, 0, 0, 0, 28, 0, 0, 0, 144, 0, 0, 0, 148, 0, 0, 0, 152, 0, 0, 0, 4, 0, 0, 0, 109, 97, 105, 110, 0, 0, 0, 0, 2, 0, 0, 0, 68, 0, 0, 0, 16, 0, 0, 0, 0, 0, 10, 0, 16, 0, 12, 0, 8, 0, 4, 0, 10, 0, 0, 0, 12, 0, 0, 0, 16, 0, 0, 0, 1, 0, 0, 0, 1, 0, 0, 0, 4, 0, 0, 0, 1, 0, 0, 0, 3, 0, 0, 0, 0, 0, 14, 0, 20, 0, 0, 0, 16, 0, 12, 0, 11, 0, 4, 0, 14, 0, 0, 0, 16, 0, 0, 0, 0, 0, 0, 8, 12, 0, 0, 0, 16, 0, 0, 0, 208, 253, 255, 255, 1, 0, 0, 0, 3, 0, 0, 0, 3, 0, 0, 0, 0, 0, 0, 0, 2, 0, 0, 0, 1, 0, 0, 0, 1, 0, 0, 0, 4, 0, 0, 0, 1, 0, 0, 0, 0, 0, 0, 0, 5, 0, 0, 0, 216, 1, 0, 0, 92, 1, 0, 0, 236, 0, 0, 0, 96, 0, 0, 0, 4, 0, 0, 0, 82, 254, 255, 255, 0, 0, 0, 1, 20, 0, 0, 0, 28, 0, 0, 0, 28, 0, 0, 0, 5, 0, 0, 0, 52, 0, 0, 0, 2, 0, 0, 0, 255, 255, 255, 255, 1, 0, 0, 0, 60, 254, 255, 255, 25, 0, 0, 0, 83, 116, 97, 116, 101, 102, 117, 108, 80, 97, 114, 116, 105, 116, 105, 111, 110, 101, 100, 67, 97, 108, 108, 58, 48, 0, 0, 0, 2, 0, 0, 0, 1, 0, 0, 0, 1, 0, 0, 0, 170, 254, 255, 255, 0, 0, 0, 1, 20, 0, 0, 0, 28, 0, 0, 0, 28, 0, 0, 0, 4, 0, 0, 0, 100, 0, 0, 0, 2, 0, 0, 0, 255, 255, 255, 255, 1, 0, 0, 0, 148, 254, 255, 255, 74, 0, 0, 0, 115, 101, 113, 117, 101, 110, 116, 105, 97, 108, 95, 49, 51, 47, 110, 110, 95, 111, 117, 116, 112, 117, 116, 95, 108, 97, 121, 101, 114, 47, 77, 97, 116, 77, 117, 108, 59, 115, 101, 113, 117, 101, 110, 116, 105, 97, 108, 95, 49, 51, 47, 110, 110, 95, 111, 117, 116, 112, 117, 116, 95, 108, 97, 121, 101, 114, 47, 66, 105, 97, 115, 65, 100, 100, 0, 0, 2, 0, 0, 0, 1, 0, 0, 0, 1, 0, 0, 0, 170, 255, 255, 255, 0, 0, 0, 1, 16, 0, 0, 0, 16, 0, 0, 0, 3, 0, 0, 0, 52, 0, 0, 0, 12, 255, 255, 255, 36, 0, 0, 0, 115, 101, 113, 117, 101, 110, 116, 105, 97, 108, 95, 49, 51, 47, 110, 110, 95, 111, 117, 116, 112, 117, 116, 95, 108, 97, 121, 101, 114, 47, 77, 97, 116, 77, 117, 108, 0, 0, 0, 0, 2, 0, 0, 0, 1, 0, 0, 0, 2, 0, 0, 0, 0, 0, 22, 0, 24, 0, 20, 0, 0, 0, 16, 0, 12, 0, 8, 0, 0, 0, 0, 0, 0, 0, 7, 0, 22, 0, 0, 0, 0, 0, 0, 1, 16, 0, 0, 0, 16, 0, 0, 0, 2, 0, 0, 0, 68, 0, 0, 0, 120, 255, 255, 255, 52, 0, 0, 0, 115, 101, 113, 117, 101, 110, 116, 105, 97, 108, 95, 49, 51, 47, 110, 110, 95, 111, 117, 116, 112, 117, 116, 95, 108, 97, 121, 101, 114, 47, 66, 105, 97, 115, 65, 100, 100, 47, 82, 101, 97, 100, 86, 97, 114, 105, 97, 98, 108, 101, 79, 112, 0, 0, 0, 0, 1, 0, 0, 0, 1, 0, 0, 0, 0, 0, 22, 0, 28, 0, 24, 0, 0, 0, 20, 0, 16, 0, 12, 0, 0, 0, 0, 0, 8, 0, 7, 0, 22, 0, 0, 0, 0, 0, 0, 1, 20, 0, 0, 0, 32, 0, 0, 0, 32, 0, 0, 0, 1, 0, 0, 0, 68, 0, 0, 0, 2, 0, 0, 0, 255, 255, 255, 255, 2, 0, 0, 0, 4, 0, 4, 0, 4, 0, 0, 0, 39, 0, 0, 0, 115, 101, 114, 118, 105, 110, 103, 95, 100, 101, 102, 97, 117, 108, 116, 95, 110, 110, 95, 111, 117, 116, 112, 117, 116, 95, 108, 97, 121, 101, 114, 95, 105, 110, 112, 117, 116, 58, 48, 0, 2, 0, 0, 0, 1, 0, 0, 0, 2, 0, 0, 0, 2, 0, 0, 0, 32, 0, 0, 0, 4, 0, 0, 0, 244, 255, 255, 255, 14, 0, 0, 0, 0, 0, 0, 14, 12, 0, 12, 0, 11, 0, 0, 0, 0, 0, 4, 0, 12, 0, 0, 0, 9, 0, 0, 0, 0, 0, 0, 9
};
