#pragma once

#include <cstdint>

const uint8_t your_model[] = {
28, 0, 0, 0, 84, 70, 76, 51, 20, 0, 32, 0, 28, 0, 24, 0, 20, 0, 16, 0, 12, 0, 0, 0, 8, 0, 4, 0, 20, 0, 0, 0, 28, 0, 0, 0, 136, 0, 0, 0, 224, 0, 0, 0, 16, 222, 2, 0, 32, 222, 2, 0, 132, 235, 2, 0, 3, 0, 0, 0, 1, 0, 0, 0, 4, 0, 0, 0, 138, 33, 253, 255, 12, 0, 0, 0, 28, 0, 0, 0, 64, 0, 0, 0, 15, 0, 0, 0, 115, 101, 114, 118, 105, 110, 103, 95, 100, 101, 102, 97, 117, 108, 116, 0, 1, 0, 0, 0, 4, 0, 0, 0, 148, 255, 255, 255, 24, 0, 0, 0, 4, 0, 0, 0, 15, 0, 0, 0, 110, 110, 95, 111, 117, 116, 112, 117, 116, 95, 108, 97, 121, 101, 114, 0, 1, 0, 0, 0, 4, 0, 0, 0, 122, 34, 253, 255, 4, 0, 0, 0, 7, 0, 0, 0, 105, 110, 112, 117, 116, 95, 49, 0, 2, 0, 0, 0, 52, 0, 0, 0, 4, 0, 0, 0, 220, 255, 255, 255, 27, 0, 0, 0, 4, 0, 0, 0, 19, 0, 0, 0, 67, 79, 78, 86, 69, 82, 83, 73, 79, 78, 95, 77, 69, 84, 65, 68, 65, 84, 65, 0, 8, 0, 12, 0, 8, 0, 4, 0, 8, 0, 0, 0, 26, 0, 0, 0, 4, 0, 0, 0, 19, 0, 0, 0, 109, 105, 110, 95, 114, 117, 110, 116, 105, 109, 101, 95, 118, 101, 114, 115, 105, 111, 110, 0, 28, 0, 0, 0, 44, 221, 2, 0, 36, 221, 2, 0, 16, 221, 2, 0, 120, 220, 2, 0, 104, 219, 2, 0, 88, 217, 2, 0, 72, 213, 2, 0, 56, 177, 2, 0, 40, 177, 0, 0, 24, 49, 0, 0, 8, 17, 0, 0, 248, 0, 0, 0, 240, 0, 0, 0, 232, 0, 0, 0, 224, 0, 0, 0, 216, 0, 0, 0, 208, 0, 0, 0, 200, 0, 0, 0, 192, 0, 0, 0, 184, 0, 0, 0, 176, 0, 0, 0, 168, 0, 0, 0, 160, 0, 0, 0, 152, 0, 0, 0, 144, 0, 0, 0, 136, 0, 0, 0, 104, 0, 0, 0, 4, 0, 0, 0, 94, 35, 253, 255, 4, 0, 0, 0, 84, 0, 0, 0, 12, 0, 0, 0, 8, 0, 14, 0, 8, 0, 4, 0, 8, 0, 0, 0, 16, 0, 0, 0, 36, 0, 0, 0, 0, 0, 6, 0, 8, 0, 4, 0, 6, 0, 0, 0, 4, 0, 0, 0, 0, 0, 0, 0, 0, 0, 10, 0, 16, 0, 12, 0, 8, 0, 4, 0, 10, 0, 0, 0, 2, 0, 0, 0, 2, 0, 0, 0, 4, 0, 0, 0, 6, 0, 0, 0, 50, 46, 49, 51, 46, 48, 0, 0, 190, 35, 253, 255, 4, 0, 0, 0, 16, 0, 0, 0, 49, 46, 49, 52, 46, 48, 0, 0, 0, 0, 0, 0, 0, 0, 0, 0, 116, 22, 253, 255, 120, 22, 253, 255, 124, 22, 253, 255, 128, 22, 253, 255, 132, 22, 253, 255, 136, 22, 253, 255, 140, 22, 253, 255, 144, 22, 253, 255, 148, 22, 253, 255, 152, 22, 253, 255, 156, 22, 253, 255, 160, 22, 253, 255, 164, 22, 253, 255, 168, 22, 253, 255, 18, 36, 253, 255, 4, 0, 0, 0, 0, 16, 0, 0, 0, 0, 192, 255, 0, 0, 192, 255, 0, 0, 192, 255, 0, 0, 192, 255, 0, 0, 192, 255, 0, 0, 192, 255, 0, 0, 192, 255, 0, 0, 192, 255, 0, 0, 192, 255, 0, 0, 192, 255, 0, 0, 192, 255, 0, 0, 192, 255, 0, 0, 192, 255, 0, 0, 192, 255, 0, 0, 192, 255, 0, 0, 192, 255, 0, 0, 192, 255, 0, 0, 192, 255, 0, 0, 192, 255, 0, 0, 192, 255, 0, 0, 192, 255, 0, 0, 192, 255, 0, 0, 192, 255, 0, 0, 192, 255, 0, 0, 192, 255, 0, 0, 192, 255, 0, 0, 192, 255, 0, 0, 192, 255, 0, 0, 192, 255, 0, 0, 192, 255, 0, 0, 192, 255, 0, 0, 192, 255, 0, 0, 192, 255, 0, 0, 192, 255, 0, 0, 192, 255, 0, 0, 192, 255, 0, 0, 192, 255, 0, 0, 192, 255, 0, 0, 192, 255, 0, 0, 192, 255, 0, 0, 192, 255, 0, 0, 192, 255, 0, 0, 192, 255, 0, 0, 192, 255, 0, 0, 192, 255, 0, 0, 192, 255, 0, 0, 192, 255, 0, 0, 192, 255, 0, 0, 192, 255, 0, 0, 192, 255, 0, 0, 192, 255, 0, 0, 192, 255, 0, 0, 192, 255, 0, 0, 192, 255, 0, 0, 192, 255, 0, 0, 192, 255, 0, 0, 192, 255, 0, 0, 192, 255, 0, 0, 192, 255, 0, 0, 192, 255, 0, 0, 192, 255, 0, 0, 192, 255, 0, 0, 192, 255, 0, 0, 192, 255, 0, 0, 192, 255, 0, 0, 192, 255, 0, 0, 192, 255, 0, 0, 192, 255, 0, 0, 192, 255, 0, 0, 192, 255, 0, 0, 192, 255, 0, 0, 192, 255, 0, 0, 192, 255, 0, 0, 192, 255, 0, 0, 192, 255, 0, 0, 192, 255, 0, 0, 192, 255, 0, 0, 192, 255, 0, 0, 192, 255, 0, 0, 192, 255, 0, 0, 192, 255, 0, 0, 192, 255, 0, 0, 192, 255, 0, 0, 192, 255, 0, 0, 192, 255, 0, 0, 192, 255, 0, 0, 192, 255, 0, 0, 192, 255, 0, 0, 192, 255, 0, 0, 192, 255, 0, 0, 192, 255, 0, 0, 192, 255, 0, 0, 192, 255, 0, 0, 192, 255, 0, 0, 192, 255, 0, 0, 192, 255, 0, 0, 192, 255, 0, 0, 192, 255, 0, 0, 192, 255, 0, 0, 192, 255, 0, 0, 192, 255, 0, 0, 192, 255, 0, 0, 192, 255, 0, 0, 192, 255, 0, 0, 192, 255, 0, 0, 192, 255, 0, 0, 192, 255, 0, 0, 192, 255, 0, 0, 192, 255, 0, 0, 192, 255, 0, 0, 192, 255, 0, 0, 192, 255, 0, 0, 192, 255, 0, 0, 192, 255, 0, 0, 192, 255, 0, 0, 192, 255, 0, 0, 192, 255, 0, 0, 192, 255, 0, 0, 192, 255, 0, 0, 192, 255, 0, 0, 192, 255, 0, 0, 192, 255, 0, 0, 192, 255, 0, 0, 192, 255, 0, 0, 192, 255, 0, 0, 192, 255, 0, 0, 192, 255, 0, 0, 192, 255, 0, 0, 192, 255, 0, 0, 192, 255, 0, 0, 192, 255, 0, 0, 192, 255, 0, 0, 192, 255, 0, 0, 192, 255, 0, 0, 192, 255, 0, 0, 192, 255, 0, 0, 192, 255, 0, 0, 192, 255, 0, 0, 192, 255, 0, 0, 192, 255, 0, 0, 192, 255, 0, 0, 192, 255, 0, 0, 192, 255, 0, 0, 192, 255, 0, 0, 192, 255, 0, 0, 192, 255, 0, 0, 192, 255, 0, 0, 192, 255, 0, 0, 192, 255, 0, 0, 192, 255, 0, 0, 192, 255, 0, 0, 192, 255, 0, 0, 192, 255, 0, 0, 192, 255, 0, 0, 192, 255, 0, 0, 192, 255, 0, 0, 192, 255, 0, 0, 192, 255, 0, 0, 192, 255, 0, 0, 192, 255, 0, 0, 192, 255, 0, 0, 192, 255, 0, 0, 192, 255, 0, 0, 192, 255, 0, 0, 192, 255, 0, 0, 192, 255, 0, 0, 192, 255, 0, 0, 192, 255, 0, 0, 192, 255, 0, 0, 192, 255, 0, 0, 192, 255, 0, 0, 192, 255, 0, 0, 192, 255, 0, 0, 192, 255, 0, 0, 192, 255, 0, 0, 192, 255, 0, 0, 192, 255, 0, 0, 192, 255, 0, 0, 192, 255, 0, 0, 192, 255, 0, 0, 192, 255, 0, 0, 192, 255, 0, 0, 192, 255, 0, 0, 192, 255, 0, 0, 192, 255, 0, 0, 192, 255, 0, 0, 192, 255, 0, 0, 192, 255, 0, 0, 192, 255, 0, 0, 192, 255, 0, 0, 192, 255, 0, 0, 192, 255, 0, 0, 192, 255, 0, 0, 192, 255, 0, 0, 192, 255, 0, 0, 192, 255, 0, 0, 192, 255, 0, 0, 192, 255, 0, 0, 192, 255, 0, 0, 192, 255, 0, 0, 192, 255, 0, 0, 192, 255, 0, 0, 192, 255, 0, 0, 192, 255, 0, 0, 192, 255, 0, 0, 192, 255, 0, 0, 192, 255, 0, 0, 192, 255, 0, 0, 192, 255, 0, 0, 192, 255, 0, 0, 192, 255, 0, 0, 192, 255, 0, 0, 192, 255, 0, 0, 192, 255, 0, 0, 192, 255, 0, 0, 192, 255, 0, 0, 192, 255, 0, 0, 192, 255, 0, 0, 192, 255, 0, 0, 192, 255, 0, 0, 192, 255, 0, 0, 192, 255, 0, 0, 192, 255, 0, 0, 192, 255, 0, 0, 192, 255, 0, 0, 192, 255, 0, 0, 192, 255, 0, 0, 192, 255, 0, 0, 192, 255, 0, 0, 192, 255, 0, 0, 192, 255, 0, 0, 192, 255, 0, 0, 192, 255, 0, 0, 192, 255, 0, 0, 192, 255, 0, 0, 192, 255, 0, 0, 192, 255, 0, 0, 192, 255, 0, 0, 192, 255, 0, 0, 192, 255, 0, 0, 192, 255, 0, 0, 192, 255, 0, 0, 192, 255, 0, 0, 192, 255, 0, 0, 192, 255, 0, 0, 192, 255, 0, 0, 192, 255, 0, 0, 192, 255, 0, 0, 192, 255, 0, 0, 192, 255, 0, 0, 192, 255, 0, 0, 192, 255, 0, 0, 192, 255, 0, 0, 192, 255, 0, 0, 192, 255, 0, 0, 192, 255, 0, 0, 192, 255, 0, 0, 192, 255, 0, 0, 192, 255, 0, 0, 192, 255, 0, 0, 192, 255, 0, 0, 192, 255, 0, 0, 192, 255, 0, 0, 192, 255, 0, 0, 192, 255, 0, 0, 192, 255, 0, 0, 192, 255, 0, 0, 192, 255, 0, 0, 192, 255, 0, 0, 192, 255, 0, 0, 192, 255, 0, 0, 192, 255, 0, 0, 192, 255, 0, 0, 192, 255, 0, 0, 192, 255, 0, 0, 192, 255, 0, 0, 192, 255, 0, 0, 192, 255, 0, 0, 192, 255, 0, 0, 192, 255, 0, 0, 192, 255, 0, 0, 192, 255, 0, 0, 192, 255, 0, 0, 192, 255, 0, 0, 192, 255, 0, 0, 192, 255, 0, 0, 192, 255, 0, 0, 192, 255, 0, 0, 192, 255, 0, 0, 192, 255, 0, 0, 192, 255, 0, 0, 192, 255, 0, 0, 192, 255, 0, 0, 192, 255, 0, 0, 192, 255, 0, 0, 192, 255, 0, 0, 192, 255, 0, 0, 192, 255, 0, 0, 192, 255, 0, 0, 192, 255, 0, 0, 192, 255, 0, 0, 192, 255, 0, 0, 192, 255, 0, 0, 192, 255, 0, 0, 192, 255, 0, 0, 192, 255, 0, 0, 192, 255, 0, 0, 192, 255, 0, 0, 192, 255, 0, 0, 192, 255, 0, 0, 192, 255, 0, 0, 192, 255, 0, 0, 192, 255, 0, 0, 192, 255, 0, 0, 192, 255, 0, 0, 192, 255, 0, 0, 192, 255, 0, 0, 192, 255, 0, 0, 192, 255, 0, 0, 192, 255, 0, 0, 192, 255, 0, 0, 192, 255, 0, 0, 192, 255, 0, 0, 192, 255, 0, 0, 192, 255, 0, 0, 192, 255, 0, 0, 192, 255, 0, 0, 192, 255, 0, 0, 192, 255, 0, 0, 192, 255, 0, 0, 192, 255, 0, 0, 192, 255, 0, 0, 192, 255, 0, 0, 192, 255, 0, 0, 192, 255, 0, 0, 192, 255, 0, 0, 192, 255, 0, 0, 192, 255, 0, 0, 192, 255, 0, 0, 192, 255, 0, 0, 192, 255, 0, 0, 192, 255, 0, 0, 192, 255, 0, 0, 192, 255, 0, 0, 192, 255, 0, 0, 192, 255, 0, 0, 192, 255, 0, 0, 192, 255, 0, 0, 192, 255, 0, 0, 192, 255, 0, 0, 192, 255, 0, 0, 192, 255, 0, 0, 192, 255, 0, 0, 192, 255, 0, 0, 192, 255, 0, 0, 192, 255, 0, 0, 192, 255, 0, 0, 192, 255, 0, 0, 192, 255, 0, 0, 192, 255, 0, 0, 192, 255, 0, 0, 192, 255, 0, 0, 192, 255, 0, 0, 192, 255, 0, 0, 192, 255, 0, 0, 192, 255, 0, 0, 192, 255, 0, 0, 192, 255, 0, 0, 192, 255, 0, 0, 192, 255, 0, 0, 192, 255, 0, 0, 192, 255, 0, 0, 192, 255, 0, 0, 192, 255, 0, 0, 192, 255, 0, 0, 192, 255, 0, 0, 192, 255, 0, 0, 192, 255, 0, 0, 192, 255, 0, 0, 192, 255, 0, 0, 192, 255, 0, 0, 192, 255, 0, 0, 192, 255, 0, 0, 192, 255, 0, 0, 192, 255, 0, 0, 192, 255, 0, 0, 192, 255, 0, 0, 192, 255, 0, 0, 192, 255, 0, 0, 192, 255, 0, 0, 192, 255, 0, 0, 192, 255, 0, 0, 192, 255, 0, 0, 192, 255, 0, 0, 192, 255, 0, 0, 192, 255, 0, 0, 192, 255, 0, 0, 192, 255, 0, 0, 192, 255, 0, 0, 192, 255, 0, 0, 192, 255, 0, 0, 192, 255, 0, 0, 192, 255, 0, 0, 192, 255, 0, 0, 192, 255, 0, 0, 192, 255, 0, 0, 192, 255, 0, 0, 192, 255, 0, 0, 192, 255, 0, 0, 192, 255, 0, 0, 192, 255, 0, 0, 192, 255, 0, 0, 192, 255, 0, 0, 192, 255, 0, 0, 192, 255, 0, 0, 192, 255, 0, 0, 192, 255, 0, 0, 192, 255, 0, 0, 192, 255, 0, 0, 192, 255, 0, 0, 192, 255, 0, 0, 192, 255, 0, 0, 192, 255, 0, 0, 192, 255, 0, 0, 192, 255, 0, 0, 192, 255, 0, 0, 192, 255, 0, 0, 192, 255, 0, 0, 192, 255, 0, 0, 192, 255, 0, 0, 192, 255, 0, 0, 192, 255, 0, 0, 192, 255, 0, 0, 192, 255, 0, 0, 192, 255, 0, 0, 192, 255, 0, 0, 192, 255, 0, 0, 192, 255, 0, 0, 192, 255, 0, 0, 192, 255, 0, 0, 192, 255, 0, 0, 192, 255, 0, 0, 192, 255, 0, 0, 192, 255, 0, 0, 192, 255, 0, 0, 192, 255, 0, 0, 192, 255, 0, 0, 192, 255, 0, 0, 192, 255, 0, 0, 192, 255, 0, 0, 192, 255, 0, 0, 192, 255, 0, 0, 192, 255, 0, 0, 192, 255, 0, 0, 192, 255, 0, 0, 192, 255, 0, 0, 192, 255, 0, 0, 192, 255, 0, 0, 192, 255, 0, 0, 192, 255, 0, 0, 192, 255, 0, 0, 192, 255, 0, 0, 192, 255, 0, 0, 192, 255, 0, 0, 192, 255, 0, 0, 192, 255, 0, 0, 192, 255, 0, 0, 192, 255, 0, 0, 192, 255, 0, 0, 192, 255, 0, 0, 192, 255, 0, 0, 192, 255, 0, 0, 192, 255, 0, 0, 192, 255, 0, 0, 192, 255, 0, 0, 192, 255, 0, 0, 192, 255, 0, 0, 192, 255, 0, 0, 192, 255, 0, 0, 192, 255, 0, 0, 192, 255, 0, 0, 192, 255, 0, 0, 192, 255, 0, 0, 192, 255, 0, 0, 192, 255, 0, 0, 192, 255, 0, 0, 192, 255, 0, 0, 192, 255, 0, 0, 192, 255, 0, 0, 192, 255, 0, 0, 192, 255, 0, 0, 192, 255, 0, 0, 192, 255, 0, 0, 192, 255, 0, 0, 192, 255, 0, 0, 192, 255, 0, 0, 192, 255, 0, 0, 192, 255, 0, 0, 192, 255, 0, 0, 192, 255, 0, 0, 192, 255, 0, 0, 192, 255, 0, 0, 192, 255, 0, 0, 192, 255, 0, 0, 192, 255, 0, 0, 192, 255, 0, 0, 192, 255, 0, 0, 192, 255, 0, 0, 192, 255, 0, 0, 192, 255, 0, 0, 192, 255, 0, 0, 192, 255, 0, 0, 192, 255, 0, 0, 192, 255, 0, 0, 192, 255, 0, 0, 192, 255, 0, 0, 192, 255, 0, 0, 192, 255, 0, 0, 192, 255, 0, 0, 192, 255, 0, 0, 192, 255, 0, 0, 192, 255, 0, 0, 192, 255, 0, 0, 192, 255, 0, 0, 192, 255, 0, 0, 192, 255, 0, 0, 192, 255, 0, 0, 192, 255, 0, 0, 192, 255, 0, 0, 192, 255, 0, 0, 192, 255, 0, 0, 192, 255, 0, 0, 192, 255, 0, 0, 192, 255, 0, 0, 192, 255, 0, 0, 192, 255, 0, 0, 192, 255, 0, 0, 192, 255, 0, 0, 192, 255, 0, 0, 192, 255, 0, 0, 192, 255, 0, 0, 192, 255, 0, 0, 192, 255, 0, 0, 192, 255, 0, 0, 192, 255, 0, 0, 192, 255, 0, 0, 192, 255, 0, 0, 192, 255, 0, 0, 192, 255, 0, 0, 192, 255, 0, 0, 192, 255, 0, 0, 192, 255, 0, 0, 192, 255, 0, 0, 192, 255, 0, 0, 192, 255, 0, 0, 192, 255, 0, 0, 192, 255, 0, 0, 192, 255, 0, 0, 192, 255, 0, 0, 192, 255, 0, 0, 192, 255, 0, 0, 192, 255, 0, 0, 192, 255, 0, 0, 192, 255, 0, 0, 192, 255, 0, 0, 192, 255, 0, 0, 192, 255, 0, 0, 192, 255, 0, 0, 192, 255, 0, 0, 192, 255, 0, 0, 192, 255, 0, 0, 192, 255, 0, 0, 192, 255, 0, 0, 192, 255, 0, 0, 192, 255, 0, 0, 192, 255, 0, 0, 192, 255, 0, 0, 192, 255, 0, 0, 192, 255, 0, 0, 192, 255, 0, 0, 192, 255, 0, 0, 192, 255, 0, 0, 192, 255, 0, 0, 192, 255, 0, 0, 192, 255, 0, 0, 192, 255, 0, 0, 192, 255, 0, 0, 192, 255, 0, 0, 192, 255, 0, 0, 192, 255, 0, 0, 192, 255, 0, 0, 192, 255, 0, 0, 192, 255, 0, 0, 192, 255, 0, 0, 192, 255, 0, 0, 192, 255, 0, 0, 192, 255, 0, 0, 192, 255, 0, 0, 192, 255, 0, 0, 192, 255, 0, 0, 192, 255, 0, 0, 192, 255, 0, 0, 192, 255, 0, 0, 192, 255, 0, 0, 192, 255, 0, 0, 192, 255, 0, 0, 192, 255, 0, 0, 192, 255, 0, 0, 192, 255, 0, 0, 192, 255, 0, 0, 192, 255, 0, 0, 192, 255, 0, 0, 192, 255, 0, 0, 192, 255, 0, 0, 192, 255, 0, 0, 192, 255, 0, 0, 192, 255, 0, 0, 192, 255, 0, 0, 192, 255, 0, 0, 192, 255, 0, 0, 192, 255, 0, 0, 192, 255, 0, 0, 192, 255, 0, 0, 192, 255, 0, 0, 192, 255, 0, 0, 192, 255, 0, 0, 192, 255, 0, 0, 192, 255, 0, 0, 192, 255, 0, 0, 192, 255, 0, 0, 192, 255, 0, 0, 192, 255, 0, 0, 192, 255, 0, 0, 192, 255, 0, 0, 192, 255, 0, 0, 192, 255, 0, 0, 192, 255, 0, 0, 192, 255, 0, 0, 192, 255, 0, 0, 192, 255, 0, 0, 192, 255, 0, 0, 192, 255, 0, 0, 192, 255, 0, 0, 192, 255, 0, 0, 192, 255, 0, 0, 192, 255, 0, 0, 192, 255, 0, 0, 192, 255, 0, 0, 192, 255, 0, 0, 192, 255, 0, 0, 192, 255, 0, 0, 192, 255, 0, 0, 192, 255, 0, 0, 192, 255, 0, 0, 192, 255, 0, 0, 192, 255, 0, 0, 192, 255, 0, 0, 192, 255, 0, 0, 192, 255, 0, 0, 192, 255, 0, 0, 192, 255, 0, 0, 192, 255, 0, 0, 192, 255, 0, 0, 192, 255, 0, 0, 192, 255, 0, 0, 192, 255, 0, 0, 192, 255, 0, 0, 192, 255, 0, 0, 192, 255, 0, 0, 192, 255, 0, 0, 192, 255, 0, 0, 192, 255, 0, 0, 192, 255, 0, 0, 192, 255, 0, 0, 192, 255, 0, 0, 192, 255, 0, 0, 192, 255, 0, 0, 192, 255, 0, 0, 192, 255, 0, 0, 192, 255, 0, 0, 192, 255, 0, 0, 192, 255, 0, 0, 192, 255, 0, 0, 192, 255, 0, 0, 192, 255, 0, 0, 192, 255, 0, 0, 192, 255, 0, 0, 192, 255, 0, 0, 192, 255, 0, 0, 192, 255, 0, 0, 192, 255, 0, 0, 192, 255, 0, 0, 192, 255, 0, 0, 192, 255, 0, 0, 192, 255, 0, 0, 192, 255, 0, 0, 192, 255, 0, 0, 192, 255, 0, 0, 192, 255, 0, 0, 192, 255, 0, 0, 192, 255, 0, 0, 192, 255, 0, 0, 192, 255, 0, 0, 192, 255, 0, 0, 192, 255, 0, 0, 192, 255, 0, 0, 192, 255, 0, 0, 192, 255, 0, 0, 192, 255, 0, 0, 192, 255, 0, 0, 192, 255, 0, 0, 192, 255, 0, 0, 192, 255, 0, 0, 192, 255, 0, 0, 192, 255, 0, 0, 192, 255, 0, 0, 192, 255, 0, 0, 192, 255, 0, 0, 192, 255, 0, 0, 192, 255, 0, 0, 192, 255, 0, 0, 192, 255, 0, 0, 192, 255, 0, 0, 192, 255, 0, 0, 192, 255, 0, 0, 192, 255, 0, 0, 192, 255, 0, 0, 192, 255, 0, 0, 192, 255, 0, 0, 192, 255, 0, 0, 192, 255, 0, 0, 192, 255, 0, 0, 192, 255, 0, 0, 192, 255, 0, 0, 192, 255, 0, 0, 192, 255, 0, 0, 192, 255, 0, 0, 192, 255, 0, 0, 192, 255, 0, 0, 192, 255, 0, 0, 192, 255, 0, 0, 192, 255, 0, 0, 192, 255, 0, 0, 192, 255, 0, 0, 192, 255, 0, 0, 192, 255, 0, 0, 192, 255, 0, 0, 192, 255, 0, 0, 192, 255, 0, 0, 192, 255, 0, 0, 192, 255, 0, 0, 192, 255, 0, 0, 192, 255, 0, 0, 192, 255, 0, 0, 192, 255, 0, 0, 192, 255, 0, 0, 192, 255, 0, 0, 192, 255, 0, 0, 192, 255, 0, 0, 192, 255, 0, 0, 192, 255, 0, 0, 192, 255, 0, 0, 192, 255, 0, 0, 192, 255, 0, 0, 192, 255, 0, 0, 192, 255, 0, 0, 192, 255, 0, 0, 192, 255, 0, 0, 192, 255, 0, 0, 192, 255, 0, 0, 192, 255, 0, 0, 192, 255, 0, 0, 192, 255, 0, 0, 192, 255, 0, 0, 192, 255, 0, 0, 192, 255, 0, 0, 192, 255, 0, 0, 192, 255, 0, 0, 192, 255, 0, 0, 192, 255, 0, 0, 192, 255, 0, 0, 192, 255, 0, 0, 192, 255, 0, 0, 192, 255, 0, 0, 192, 255, 0, 0, 192, 255, 0, 0, 192, 255, 0, 0, 192, 255, 0, 0, 192, 255, 0, 0, 192, 255, 0, 0, 192, 255, 0, 0, 192, 255, 0, 0, 192, 255, 0, 0, 192, 255, 0, 0, 192, 255, 0, 0, 192, 255, 0, 0, 192, 255, 0, 0, 192, 255, 0, 0, 192, 255, 0, 0, 192, 255, 0, 0, 192, 255, 0, 0, 192, 255, 0, 0, 192, 255, 0, 0, 192, 255, 0, 0, 192, 255, 0, 0, 192, 255, 0, 0, 192, 255, 0, 0, 192, 255, 0, 0, 192, 255, 0, 0, 192, 255, 0, 0, 192, 255, 0, 0, 192, 255, 0, 0, 192, 255, 0, 0, 192, 255, 0, 0, 192, 255, 0, 0, 192, 255, 0, 0, 192, 255, 0, 0, 192, 255, 0, 0, 192, 255, 0, 0, 192, 255, 0, 0, 192, 255, 0, 0, 192, 255, 0, 0, 192, 255, 0, 0, 192, 255, 0, 0, 192, 255, 0, 0, 192, 255, 0, 0, 192, 255, 0, 0, 192, 255, 0, 0, 192, 255, 0, 0, 192, 255, 0, 0, 192, 255, 0, 0, 192, 255, 0, 0, 192, 255, 0, 0, 192, 255, 0, 0, 192, 255, 0, 0, 192, 255, 0, 0, 192, 255, 0, 0, 192, 255, 0, 0, 192, 255, 0, 0, 192, 255, 0, 0, 192, 255, 0, 0, 192, 255, 0, 0, 192, 255, 0, 0, 192, 255, 0, 0, 192, 255, 0, 0, 192, 255, 0, 0, 192, 255, 0, 0, 192, 255, 0, 0, 192, 255, 0, 0, 192, 255, 0, 0, 192, 255, 0, 0, 192, 255, 0, 0, 192, 255, 0, 0, 192, 255, 0, 0, 192, 255, 0, 0, 192, 255, 0, 0, 192, 255, 0, 0, 192, 255, 0, 0, 192, 255, 0, 0, 192, 255, 0, 0, 192, 255, 0, 0, 192, 255, 0, 0, 192, 255, 0, 0, 192, 255, 0, 0, 192, 255, 0, 0, 192, 255, 0, 0, 192, 255, 0, 0, 192, 255, 0, 0, 192, 255, 0, 0, 192, 255, 0, 0, 192, 255, 0, 0, 192, 255, 0, 0, 192, 255, 0, 0, 192, 255, 0, 0, 192, 255, 0, 0, 192, 255, 0, 0, 192, 255, 0, 0, 192, 255, 0, 0, 192, 255, 0, 0, 192, 255, 0, 0, 192, 255, 0, 0, 192, 255, 0, 0, 192, 255, 0, 0, 192, 255, 0, 0, 192, 255, 0, 0, 192, 255, 0, 0, 192, 255, 0, 0, 192, 255, 0, 0, 192, 255, 0, 0, 192, 255, 0, 0, 192, 255, 0, 0, 192, 255, 0, 0, 192, 255, 0, 0, 192, 255, 0, 0, 192, 255, 0, 0, 192, 255, 0, 0, 192, 255, 0, 0, 192, 255, 0, 0, 192, 255, 0, 0, 192, 255, 0, 0, 192, 255, 0, 0, 192, 255, 0, 0, 192, 255, 0, 0, 192, 255, 0, 0, 192, 255, 0, 0, 192, 255, 0, 0, 192, 255, 0, 0, 192, 255, 0, 0, 192, 255, 0, 0, 192, 255, 0, 0, 192, 255, 0, 0, 192, 255, 0, 0, 192, 255, 0, 0, 192, 255, 0, 0, 192, 255, 0, 0, 192, 255, 0, 0, 192, 255, 0, 0, 192, 255, 0, 0, 192, 255, 0, 0, 192, 255, 0, 0, 192, 255, 0, 0, 192, 255, 0, 0, 192, 255, 0, 0, 192, 255, 0, 0, 192, 255, 0, 0, 192, 255, 0, 0, 192, 255, 0, 0, 192, 255, 0, 0, 192, 255, 0, 0, 192, 255, 0, 0, 192, 255, 0, 0, 192, 255, 0, 0, 192, 255, 0, 0, 192, 255, 0, 0, 192, 255, 0, 0, 192, 255, 0, 0, 192, 255, 0, 0, 192, 255, 0, 0, 192, 255, 0, 0, 192, 255, 0, 0, 192, 255, 0, 0, 192, 255, 0, 0, 192, 255, 0, 0, 192, 255, 0, 0, 192, 255, 0, 0, 192, 255, 0, 0, 192, 255, 0, 0, 192, 255, 0, 0, 192, 255, 0, 0, 192, 255, 0, 0, 192, 255, 0, 0, 192, 255, 0, 0, 192, 255, 0, 0, 192, 255, 0, 0, 192, 255, 0, 0, 192, 255, 0, 0, 192, 255, 0, 0, 192, 255, 0, 0, 192, 255, 0, 0, 192, 255, 0, 0, 192, 255, 0, 0, 192, 255, 0, 0, 192, 255, 0, 0, 192, 255, 0, 0, 192, 255, 0, 0, 192, 255, 0, 0, 192, 255, 0, 0, 192, 255, 0, 0, 192, 255, 0, 0, 192, 255, 0, 0, 192, 255, 0, 0, 192, 255, 0, 0, 192, 255, 0, 0, 192, 255, 0, 0, 192, 255, 0, 0, 192, 255, 0, 0, 192, 255, 0, 0, 192, 255, 0, 0, 192, 255, 0, 0, 192, 255, 0, 0, 192, 255, 0, 0, 192, 255, 0, 0, 192, 255, 0, 0, 192, 255, 0, 0, 192, 255, 0, 0, 192, 255, 0, 0, 192, 255, 0, 0, 192, 255, 0, 0, 192, 255, 0, 0, 192, 255, 0, 0, 192, 255, 0, 0, 192, 255, 0, 0, 192, 255, 0, 0, 192, 255, 0, 0, 192, 255, 0, 0, 192, 255, 0, 0, 192, 255, 0, 0, 192, 255, 0, 0, 192, 255, 0, 0, 192, 255, 0, 0, 192, 255, 0, 0, 192, 255, 0, 0, 192, 255, 0, 0, 192, 255, 0, 0, 192, 255, 0, 0, 192, 255, 0, 0, 192, 255, 0, 0, 192, 255, 0, 0, 192, 255, 0, 0, 192, 255, 0, 0, 192, 255, 0, 0, 192, 255, 0, 0, 192, 255, 0, 0, 192, 255, 0, 0, 192, 255, 0, 0, 192, 255, 0, 0, 192, 255, 0, 0, 192, 255, 0, 0, 192, 255, 0, 0, 192, 255, 0, 0, 192, 255, 0, 0, 192, 255, 0, 0, 192, 255, 0, 0, 192, 255, 30, 52, 253, 255, 4, 0, 0, 0, 0, 32, 0, 0, 0, 0, 192, 255, 0, 0, 192, 255, 0, 0, 192, 255, 0, 0, 192, 255, 0, 0, 192, 255, 0, 0, 192, 255, 0, 0, 192, 255, 0, 0, 192, 255, 0, 0, 192, 255, 0, 0, 192, 255, 0, 0, 192, 255, 0, 0, 192, 255, 0, 0, 192, 255, 0, 0, 192, 255, 0, 0, 192, 255, 0, 0, 192, 255, 0, 0, 192, 255, 0, 0, 192, 255, 0, 0, 192, 255, 0, 0, 192, 255, 0, 0, 192, 255, 0, 0, 192, 255, 0, 0, 192, 255, 0, 0, 192, 255, 0, 0, 192, 255, 0, 0, 192, 255, 0, 0, 192, 255, 0, 0, 192, 255, 0, 0, 192, 255, 0, 0, 192, 255, 0, 0, 192, 255, 0, 0, 192, 255, 0, 0, 192, 255, 0, 0, 192, 255, 0, 0, 192, 255, 0, 0, 192, 255, 0, 0, 192, 255, 0, 0, 192, 255, 0, 0, 192, 255, 0, 0, 192, 255, 0, 0, 192, 255, 0, 0, 192, 255, 0, 0, 192, 255, 0, 0, 192, 255, 0, 0, 192, 255, 0, 0, 192, 255, 0, 0, 192, 255, 0, 0, 192, 255, 0, 0, 192, 255, 0, 0, 192, 255, 0, 0, 192, 255, 0, 0, 192, 255, 0, 0, 192, 255, 0, 0, 192, 255, 0, 0, 192, 255, 0, 0, 192, 255, 0, 0, 192, 255, 0, 0, 192, 255, 0, 0, 192, 255, 0, 0, 192, 255, 0, 0, 192, 255, 0, 0, 192, 255, 0, 0, 192, 255, 0, 0, 192, 255, 0, 0, 192, 255, 0, 0, 192, 255, 0, 0, 192, 255, 0, 0, 192, 255, 0, 0, 192, 255, 0, 0, 192, 255, 0, 0, 192, 255, 0, 0, 192, 255, 0, 0, 192, 255, 0, 0, 192, 255, 0, 0, 192, 255, 0, 0, 192, 255, 0, 0, 192, 255, 0, 0, 192, 255, 0, 0, 192, 255, 0, 0, 192, 255, 0, 0, 192, 255, 0, 0, 192, 255, 0, 0, 192, 255, 0, 0, 192, 255, 0, 0, 192, 255, 0, 0, 192, 255, 0, 0, 192, 255, 0, 0, 192, 255, 0, 0, 192, 255, 0, 0, 192, 255, 0, 0, 192, 255, 0, 0, 192, 255, 0, 0, 192, 255, 0, 0, 192, 255, 0, 0, 192, 255, 0, 0, 192, 255, 0, 0, 192, 255, 0, 0, 192, 255, 0, 0, 192, 255, 0, 0, 192, 255, 0, 0, 192, 255, 0, 0, 192, 255, 0, 0, 192, 255, 0, 0, 192, 255, 0, 0, 192, 255, 0, 0, 192, 255, 0, 0, 192, 255, 0, 0, 192, 255, 0, 0, 192, 255, 0, 0, 192, 255, 0, 0, 192, 255, 0, 0, 192, 255, 0, 0, 192, 255, 0, 0, 192, 255, 0, 0, 192, 255, 0, 0, 192, 255, 0, 0, 192, 255, 0, 0, 192, 255, 0, 0, 192, 255, 0, 0, 192, 255, 0, 0, 192, 255, 0, 0, 192, 255, 0, 0, 192, 255, 0, 0, 192, 255, 0, 0, 192, 255, 0, 0, 192, 255, 0, 0, 192, 255, 0, 0, 192, 255, 0, 0, 192, 255, 0, 0, 192, 255, 0, 0, 192, 255, 0, 0, 192, 255, 0, 0, 192, 255, 0, 0, 192, 255, 0, 0, 192, 255, 0, 0, 192, 255, 0, 0, 192, 255, 0, 0, 192, 255, 0, 0, 192, 255, 0, 0, 192, 255, 0, 0, 192, 255, 0, 0, 192, 255, 0, 0, 192, 255, 0, 0, 192, 255, 0, 0, 192, 255, 0, 0, 192, 255, 0, 0, 192, 255, 0, 0, 192, 255, 0, 0, 192, 255, 0, 0, 192, 255, 0, 0, 192, 255, 0, 0, 192, 255, 0, 0, 192, 255, 0, 0, 192, 255, 0, 0, 192, 255, 0, 0, 192, 255, 0, 0, 192, 255, 0, 0, 192, 255, 0, 0, 192, 255, 0, 0, 192, 255, 0, 0, 192, 255, 0, 0, 192, 255, 0, 0, 192, 255, 0, 0, 192, 255, 0, 0, 192, 255, 0, 0, 192, 255, 0, 0, 192, 255, 0, 0, 192, 255, 0, 0, 192, 255, 0, 0, 192, 255, 0, 0, 192, 255, 0, 0, 192, 255, 0, 0, 192, 255, 0, 0, 192, 255, 0, 0, 192, 255, 0, 0, 192, 255, 0, 0, 192, 255, 0, 0, 192, 255, 0, 0, 192, 255, 0, 0, 192, 255, 0, 0, 192, 255, 0, 0, 192, 255, 0, 0, 192, 255, 0, 0, 192, 255, 0, 0, 192, 255, 0, 0, 192, 255, 0, 0, 192, 255, 0, 0, 192, 255, 0, 0, 192, 255, 0, 0, 192, 255, 0, 0, 192, 255, 0, 0, 192, 255, 0, 0, 192, 255, 0, 0, 192, 255, 0, 0, 192, 255, 0, 0, 192, 255, 0, 0, 192, 255, 0, 0, 192, 255, 0, 0, 192, 255, 0, 0, 192, 255, 0, 0, 192, 255, 0, 0, 192, 255, 0, 0, 192, 255, 0, 0, 192, 255, 0, 0, 192, 255, 0, 0, 192, 255, 0, 0, 192, 255, 0, 0, 192, 255, 0, 0, 192, 255, 0, 0, 192, 255, 0, 0, 192, 255, 0, 0, 192, 255, 0, 0, 192, 255, 0, 0, 192, 255, 0, 0, 192, 255, 0, 0, 192, 255, 0, 0, 192, 255, 0, 0, 192, 255, 0, 0, 192, 255, 0, 0, 192, 255, 0, 0, 192, 255, 0, 0, 192, 255, 0, 0, 192, 255, 0, 0, 192, 255, 0, 0, 192, 255, 0, 0, 192, 255, 0, 0, 192, 255, 0, 0, 192, 255, 0, 0, 192, 255, 0, 0, 192, 255, 0, 0, 192, 255, 0, 0, 192, 255, 0, 0, 192, 255, 0, 0, 192, 255, 0, 0, 192, 255, 0, 0, 192, 255, 0, 0, 192, 255, 0, 0, 192, 255, 0, 0, 192, 255, 0, 0, 192, 255, 0, 0, 192, 255, 0, 0, 192, 255, 0, 0, 192, 255, 0, 0, 192, 255, 0, 0, 192, 255, 0, 0, 192, 255, 0, 0, 192, 255, 0, 0, 192, 255, 0, 0, 192, 255, 0, 0, 192, 255, 0, 0, 192, 255, 0, 0, 192, 255, 0, 0, 192, 255, 0, 0, 192, 255, 0, 0, 192, 255, 0, 0, 192, 255, 0, 0, 192, 255, 0, 0, 192, 255, 0, 0, 192, 255, 0, 0, 192, 255, 0, 0, 192, 255, 0, 0, 192, 255, 0, 0, 192, 255, 0, 0, 192, 255, 0, 0, 192, 255, 0, 0, 192, 255, 0, 0, 192, 255, 0, 0, 192, 255, 0, 0, 192, 255, 0, 0, 192, 255, 0, 0, 192, 255, 0, 0, 192, 255, 0, 0, 192, 255, 0, 0, 192, 255, 0, 0, 192, 255, 0, 0, 192, 255, 0, 0, 192, 255, 0, 0, 192, 255, 0, 0, 192, 255, 0, 0, 192, 255, 0, 0, 192, 255, 0, 0, 192, 255, 0, 0, 192, 255, 0, 0, 192, 255, 0, 0, 192, 255, 0, 0, 192, 255, 0, 0, 192, 255, 0, 0, 192, 255, 0, 0, 192, 255, 0, 0, 192, 255, 0, 0, 192, 255, 0, 0, 192, 255, 0, 0, 192, 255, 0, 0, 192, 255, 0, 0, 192, 255, 0, 0, 192, 255, 0, 0, 192, 255, 0, 0, 192, 255, 0, 0, 192, 255, 0, 0, 192, 255, 0, 0, 192, 255, 0, 0, 192, 255, 0, 0, 192, 255, 0, 0, 192, 255, 0, 0, 192, 255, 0, 0, 192, 255, 0, 0, 192, 255, 0, 0, 192, 255, 0, 0, 192, 255, 0, 0, 192, 255, 0, 0, 192, 255, 0, 0, 192, 255, 0, 0, 192, 255, 0, 0, 192, 255, 0, 0, 192, 255, 0, 0, 192, 255, 0, 0, 192, 255, 0, 0, 192, 255, 0, 0, 192, 255, 0, 0, 192, 255, 0, 0, 192, 255, 0, 0, 192, 255, 0, 0, 192, 255, 0, 0, 192, 255, 0, 0, 192, 255, 0, 0, 192, 255, 0, 0, 192, 255, 0, 0, 192, 255, 0, 0, 192, 255, 0, 0, 192, 255, 0, 0, 192, 255, 0, 0, 192, 255, 0, 0, 192, 255, 0, 0, 192, 255, 0, 0, 192, 255, 0, 0, 192, 255, 0, 0, 192, 255, 0, 0, 192, 255, 0, 0, 192, 255, 0, 0, 192, 255, 0, 0, 192, 255, 0, 0, 192, 255, 0, 0, 192, 255, 0, 0, 192, 255, 0, 0, 192, 255, 0, 0, 192, 255, 0, 0, 192, 255, 0, 0, 192, 255, 0, 0, 192, 255, 0, 0, 192, 255, 0, 0, 192, 255, 0, 0, 192, 255, 0, 0, 192, 255, 0, 0, 192, 255, 0, 0, 192, 255, 0, 0, 192, 255, 0, 0, 192, 255, 0, 0, 192, 255, 0, 0, 192, 255, 0, 0, 192, 255, 0, 0, 192, 255, 0, 0, 192, 255, 0, 0, 192, 255, 0, 0, 192, 255, 0, 0, 192, 255, 0, 0, 192, 255, 0, 0, 192, 255, 0, 0, 192, 255, 0, 0, 192, 255, 0, 0, 192, 255, 0, 0, 192, 255, 0, 0, 192, 255, 0, 0, 192, 255, 0, 0, 192, 255, 0, 0, 192, 255, 0, 0, 192, 255, 0, 0, 192, 255, 0, 0, 192, 255, 0, 0, 192, 255, 0, 0, 192, 255, 0, 0, 192, 255, 0, 0, 192, 255, 0, 0, 192, 255, 0, 0, 192, 255, 0, 0, 192, 255, 0, 0, 192, 255, 0, 0, 192, 255, 0, 0, 192, 255, 0, 0, 192, 255, 0, 0, 192, 255, 0, 0, 192, 255, 0, 0, 192, 255, 0, 0, 192, 255, 0, 0, 192, 255, 0, 0, 192, 255, 0, 0, 192, 255, 0, 0, 192, 255, 0, 0, 192, 255, 0, 0, 192, 255, 0, 0, 192, 255, 0, 0, 192, 255, 0, 0, 192, 255, 0, 0, 192, 255, 0, 0, 192, 255, 0, 0, 192, 255, 0, 0, 192, 255, 0, 0, 192, 255, 0, 0, 192, 255, 0, 0, 192, 255, 0, 0, 192, 255, 0, 0, 192, 255, 0, 0, 192, 255, 0, 0, 192, 255, 0, 0, 192, 255, 0, 0, 192, 255, 0, 0, 192, 255, 0, 0, 192, 255, 0, 0, 192, 255, 0, 0, 192, 255, 0, 0, 192, 255, 0, 0, 192, 255, 0, 0, 192, 255, 0, 0, 192, 255, 0, 0, 192, 255, 0, 0, 192, 255, 0, 0, 192, 255, 0, 0, 192, 255, 0, 0, 192, 255, 0, 0, 192, 255, 0, 0, 192, 255, 0, 0, 192, 255, 0, 0, 192, 255, 0, 0, 192, 255, 0, 0, 192, 255, 0, 0, 192, 255, 0, 0, 192, 255, 0, 0, 192, 255, 0, 0, 192, 255, 0, 0, 192, 255, 0, 0, 192, 255, 0, 0, 192, 255, 0, 0, 192, 255, 0, 0, 192, 255, 0, 0, 192, 255, 0, 0, 192, 255, 0, 0, 192, 255, 0, 0, 192, 255, 0, 0, 192, 255, 0, 0, 192, 255, 0, 0, 192, 255, 0, 0, 192, 255, 0, 0, 192, 255, 0, 0, 192, 255, 0, 0, 192, 255, 0, 0, 192, 255, 0, 0, 192, 255, 0, 0, 192, 255, 0, 0, 192, 255, 0, 0, 192, 255, 0, 0, 192, 255, 0, 0, 192, 255, 0, 0, 192, 255, 0, 0, 192, 255, 0, 0, 192, 255, 0, 0, 192, 255, 0, 0, 192, 255, 0, 0, 192, 255, 0, 0, 192, 255, 0, 0, 192, 255, 0, 0, 192, 255, 0, 0, 192, 255, 0, 0, 192, 255, 0, 0, 192, 255, 0, 0, 192, 255, 0, 0, 192, 255, 0, 0, 192, 255, 0, 0, 192, 255, 0, 0, 192, 255, 0, 0, 192, 255, 0, 0, 192, 255, 0, 0, 192, 255, 0, 0, 192, 255, 0, 0, 192, 255, 0, 0, 192, 255, 0, 0, 192, 255, 0, 0, 192, 255, 0, 0, 192, 255, 0, 0, 192, 255, 0, 0, 192, 255, 0, 0, 192, 255, 0, 0, 192, 255, 0, 0, 192, 255, 0, 0, 192, 255, 0, 0, 192, 255, 0, 0, 192, 255, 0, 0, 192, 255, 0, 0, 192, 255, 0, 0, 192, 255, 0, 0, 192, 255, 0, 0, 192, 255, 0, 0, 192, 255, 0, 0, 192, 255, 0, 0, 192, 255, 0, 0, 192, 255, 0, 0, 192, 255, 0, 0, 192, 255, 0, 0, 192, 255, 0, 0, 192, 255, 0, 0, 192, 255, 0, 0, 192, 255, 0, 0, 192, 255, 0, 0, 192, 255, 0, 0, 192, 255, 0, 0, 192, 255, 0, 0, 192, 255, 0, 0, 192, 255, 0, 0, 192, 255, 0, 0, 192, 255, 0, 0, 192, 255, 0, 0, 192, 255, 0, 0, 192, 255, 0, 0, 192, 255, 0, 0, 192, 255, 0, 0, 192, 255, 0, 0, 192, 255, 0, 0, 192, 255, 0, 0, 192, 255, 0, 0, 192, 255, 0, 0, 192, 255, 0, 0, 192, 255, 0, 0, 192, 255, 0, 0, 192, 255, 0, 0, 192, 255, 0, 0, 192, 255, 0, 0, 192, 255, 0, 0, 192, 255, 0, 0, 192, 255, 0, 0, 192, 255, 0, 0, 192, 255, 0, 0, 192, 255, 0, 0, 192, 255, 0, 0, 192, 255, 0, 0, 192, 255, 0, 0, 192, 255, 0, 0, 192, 255, 0, 0, 192, 255, 0, 0, 192, 255, 0, 0, 192, 255, 0, 0, 192, 255, 0, 0, 192, 255, 0, 0, 192, 255, 0, 0, 192, 255, 0, 0, 192, 255, 0, 0, 192, 255, 0, 0, 192, 255, 0, 0, 192, 255, 0, 0, 192, 255, 0, 0, 192, 255, 0, 0, 192, 255, 0, 0, 192, 255, 0, 0, 192, 255, 0, 0, 192, 255, 0, 0, 192, 255, 0, 0, 192, 255, 0, 0, 192, 255, 0, 0, 192, 255, 0, 0, 192, 255, 0, 0, 192, 255, 0, 0, 192, 255, 0, 0, 192, 255, 0, 0, 192, 255, 0, 0, 192, 255, 0, 0, 192, 255, 0, 0, 192, 255, 0, 0, 192, 255, 0, 0, 192, 255, 0, 0, 192, 255, 0, 0, 192, 255, 0, 0, 192, 255, 0, 0, 192, 255, 0, 0, 192, 255, 0, 0, 192, 255, 0, 0, 192, 255, 0, 0, 192, 255, 0, 0, 192, 255, 0, 0, 192, 255, 0, 0, 192, 255, 0, 0, 192, 255, 0, 0, 192, 255, 0, 0, 192, 255, 0, 0, 192, 255, 0, 0, 192, 255, 0, 0, 192, 255, 0, 0, 192, 255, 0, 0, 192, 255, 0, 0, 192, 255, 0, 0, 192, 255, 0, 0, 192, 255, 0, 0, 192, 255, 0, 0, 192, 255, 0, 0, 192, 255, 0, 0, 192, 255, 0, 0, 192, 255, 0, 0, 192, 255, 0, 0, 192, 255, 0, 0, 192, 255, 0, 0, 192, 255, 0, 0, 192, 255, 0, 0, 192, 255, 0, 0, 192, 255, 0, 0, 192, 255, 0, 0, 192, 255, 0, 0, 192, 255, 0, 0, 192, 255, 0, 0, 192, 255, 0, 0, 192, 255, 0, 0, 192, 255, 0, 0, 192, 255, 0, 0, 192, 255, 0, 0, 192, 255, 0, 0, 192, 255, 0, 0, 192, 255, 0, 0, 192, 255, 0, 0, 192, 255, 0, 0, 192, 255, 0, 0, 192, 255, 0, 0, 192, 255, 0, 0, 192, 255, 0, 0, 192, 255, 0, 0, 192, 255, 0, 0, 192, 255, 0, 0, 192, 255, 0, 0, 192, 255, 0, 0, 192, 255, 0, 0, 192, 255, 0, 0, 192, 255, 0, 0, 192, 255, 0, 0, 192, 255, 0, 0, 192, 255, 0, 0, 192, 255, 0, 0, 192, 255, 0, 0, 192, 255, 0, 0, 192, 255, 0, 0, 192, 255, 0, 0, 192, 255, 0, 0, 192, 255, 0, 0, 192, 255, 0, 0, 192, 255, 0, 0, 192, 255, 0, 0, 192, 255, 0, 0, 192, 255, 0, 0, 192, 255, 0, 0, 192, 255, 0, 0, 192, 255, 0, 0, 192, 255, 0, 0, 192, 255, 0, 0, 192, 255, 0, 0, 192, 255, 0, 0, 192, 255, 0, 0, 192, 255, 0, 0, 192, 255, 0, 0, 192, 255, 0, 0, 192, 255, 0, 0, 192, 255, 0, 0, 192, 255, 0, 0, 192, 255, 0, 0, 192, 255, 0, 0, 192, 255, 0, 0, 192, 255, 0, 0, 192, 255, 0, 0, 192, 255, 0, 0, 192, 255, 0, 0, 192, 255, 0, 0, 192, 255, 0, 0, 192, 255, 0, 0, 192, 255, 0, 0, 192, 255, 0, 0, 192, 255, 0, 0, 192, 255, 0, 0, 192, 255, 0, 0, 192, 255, 0, 0, 192, 255, 0, 0, 192, 255, 0, 0, 192, 255, 0, 0, 192, 255, 0, 0, 192, 255, 0, 0, 192, 255, 0, 0, 192, 255, 0, 0, 192, 255, 0, 0, 192, 255, 0, 0, 192, 255, 0, 0, 192, 255, 0, 0, 192, 255, 0, 0, 192, 255, 0, 0, 192, 255, 0, 0, 192, 255, 0, 0, 192, 255, 0, 0, 192, 255, 0, 0, 192, 255, 0, 0, 192, 255, 0, 0, 192, 255, 0, 0, 192, 255, 0, 0, 192, 255, 0, 0, 192, 255, 0, 0, 192, 255, 0, 0, 192, 255, 0, 0, 192, 255, 0, 0, 192, 255, 0, 0, 192, 255, 0, 0, 192, 255, 0, 0, 192, 255, 0, 0, 192, 255, 0, 0, 192, 255, 0, 0, 192, 255, 0, 0, 192, 255, 0, 0, 192, 255, 0, 0, 192, 255, 0, 0, 192, 255, 0, 0, 192, 255, 0, 0, 192, 255, 0, 0, 192, 255, 0, 0, 192, 255, 0, 0, 192, 255, 0, 0, 192, 255, 0, 0, 192, 255, 0, 0, 192, 255, 0, 0, 192, 255, 0, 0, 192, 255, 0, 0, 192, 255, 0, 0, 192, 255, 0, 0, 192, 255, 0, 0, 192, 255, 0, 0, 192, 255, 0, 0, 192, 255, 0, 0, 192, 255, 0, 0, 192, 255, 0, 0, 192, 255, 0, 0, 192, 255, 0, 0, 192, 255, 0, 0, 192, 255, 0, 0, 192, 255, 0, 0, 192, 255, 0, 0, 192, 255, 0, 0, 192, 255, 0, 0, 192, 255, 0, 0, 192, 255, 0, 0, 192, 255, 0, 0, 192, 255, 0, 0, 192, 255, 0, 0, 192, 255, 0, 0, 192, 255, 0, 0, 192, 255, 0, 0, 192, 255, 0, 0, 192, 255, 0, 0, 192, 255, 0, 0, 192, 255, 0, 0, 192, 255, 0, 0, 192, 255, 0, 0, 192, 255, 0, 0, 192, 255, 0, 0, 192, 255, 0, 0, 192, 255, 0, 0, 192, 255, 0, 0, 192, 255, 0, 0, 192, 255, 0, 0, 192, 255, 0, 0, 192, 255, 0, 0, 192, 255, 0, 0, 192, 255, 0, 0, 192, 255, 0, 0, 192, 255, 0, 0, 192, 255, 0, 0, 192, 255, 0, 0, 192, 255, 0, 0, 192, 255, 0, 0, 192, 255, 0, 0, 192, 255, 0, 0, 192, 255, 0, 0, 192, 255, 0, 0, 192, 255, 0, 0, 192, 255, 0, 0, 192, 255, 0, 0, 192, 255, 0, 0, 192, 255, 0, 0, 192, 255, 0, 0, 192, 255, 0, 0, 192, 255, 0, 0, 192, 255, 0, 0, 192, 255, 0, 0, 192, 255, 0, 0, 192, 255, 0, 0, 192, 255, 0, 0, 192, 255, 0, 0, 192, 255, 0, 0, 192, 255, 0, 0, 192, 255, 0, 0, 192, 255, 0, 0, 192, 255, 0, 0, 192, 255, 0, 0, 192, 255, 0, 0, 192, 255, 0, 0, 192, 255, 0, 0, 192, 255, 0, 0, 192, 255, 0, 0, 192, 255, 0, 0, 192, 255, 0, 0, 192, 255, 0, 0, 192, 255, 0, 0, 192, 255, 0, 0, 192, 255, 0, 0, 192, 255, 0, 0, 192, 255, 0, 0, 192, 255, 0, 0, 192, 255, 0, 0, 192, 255, 0, 0, 192, 255, 0, 0, 192, 255, 0, 0, 192, 255, 0, 0, 192, 255, 0, 0, 192, 255, 0, 0, 192, 255, 0, 0, 192, 255, 0, 0, 192, 255, 0, 0, 192, 255, 0, 0, 192, 255, 0, 0, 192, 255, 0, 0, 192, 255, 0, 0, 192, 255, 0, 0, 192, 255, 0, 0, 192, 255, 0, 0, 192, 255, 0, 0, 192, 255, 0, 0, 192, 255, 0, 0, 192, 255, 0, 0, 192, 255, 0, 0, 192, 255, 0, 0, 192, 255, 0, 0, 192, 255, 0, 0, 192, 255, 0, 0, 192, 255, 0, 0, 192, 255, 0, 0, 192, 255, 0, 0, 192, 255, 0, 0, 192, 255, 0, 0, 192, 255, 0, 0, 192, 255, 0, 0, 192, 255, 0, 0, 192, 255, 0, 0, 192, 255, 0, 0, 192, 255, 0, 0, 192, 255, 0, 0, 192, 255, 0, 0, 192, 255, 0, 0, 192, 255, 0, 0, 192, 255, 0, 0, 192, 255, 0, 0, 192, 255, 0, 0, 192, 255, 0, 0, 192, 255, 0, 0, 192, 255, 0, 0, 192, 255, 0, 0, 192, 255, 0, 0, 192, 255, 0, 0, 192, 255, 0, 0, 192, 255, 0, 0, 192, 255, 0, 0, 192, 255, 0, 0, 192, 255, 0, 0, 192, 255, 0, 0, 192, 255, 0, 0, 192, 255, 0, 0, 192, 255, 0, 0, 192, 255, 0, 0, 192, 255, 0, 0, 192, 255, 0, 0, 192, 255, 0, 0, 192, 255, 0, 0, 192, 255, 0, 0, 192, 255, 0, 0, 192, 255, 0, 0, 192, 255, 0, 0, 192, 255, 0, 0, 192, 255, 0, 0, 192, 255, 0, 0, 192, 255, 0, 0, 192, 255, 0, 0, 192, 255, 0, 0, 192, 255, 0, 0, 192, 255, 0, 0, 192, 255, 0, 0, 192, 255, 0, 0, 192, 255, 0, 0, 192, 255, 0, 0, 192, 255, 0, 0, 192, 255, 0, 0, 192, 255, 0, 0, 192, 255, 0, 0, 192, 255, 0, 0, 192, 255, 0, 0, 192, 255, 0, 0, 192, 255, 0, 0, 192, 255, 0, 0, 192, 255, 0, 0, 192, 255, 0, 0, 192, 255, 0, 0, 192, 255, 0, 0, 192, 255, 0, 0, 192, 255, 0, 0, 192, 255, 0, 0, 192, 255, 0, 0, 192, 255, 0, 0, 192, 255, 0, 0, 192, 255, 0, 0, 192, 255, 0, 0, 192, 255, 0, 0, 192, 255, 0, 0, 192, 255, 0, 0, 192, 255, 0, 0, 192, 255, 0, 0, 192, 255, 0, 0, 192, 255, 0, 0, 192, 255, 0, 0, 192, 255, 0, 0, 192, 255, 0, 0, 192, 255, 0, 0, 192, 255, 0, 0, 192, 255, 0, 0, 192, 255, 0, 0, 192, 255, 0, 0, 192, 255, 0, 0, 192, 255, 0, 0, 192, 255, 0, 0, 192, 255, 0, 0, 192, 255, 0, 0, 192, 255, 0, 0, 192, 255, 0, 0, 192, 255, 0, 0, 192, 255, 0, 0, 192, 255, 0, 0, 192, 255, 0, 0, 192, 255, 0, 0, 192, 255, 0, 0, 192, 255, 0, 0, 192, 255, 0, 0, 192, 255, 0, 0, 192, 255, 0, 0, 192, 255, 0, 0, 192, 255, 0, 0, 192, 255, 0, 0, 192, 255, 0, 0, 192, 255, 0, 0, 192, 255, 0, 0, 192, 255, 0, 0, 192, 255, 0, 0, 192, 255, 0, 0, 192, 255, 0, 0, 192, 255, 0, 0, 192, 255, 0, 0, 192, 255, 0, 0, 192, 255, 0, 0, 192, 255, 0, 0, 192, 255, 0, 0, 192, 255, 0, 0, 192, 255, 0, 0, 192, 255, 0, 0, 192, 255, 0, 0, 192, 255, 0, 0, 192, 255, 0, 0, 192, 255, 0, 0, 192, 255, 0, 0, 192, 255, 0, 0, 192, 255, 0, 0, 192, 255, 0, 0, 192, 255, 0, 0, 192, 255, 0, 0, 192, 255, 0, 0, 192, 255, 0, 0, 192, 255, 0, 0, 192, 255, 0, 0, 192, 255, 0, 0, 192, 255, 0, 0, 192, 255, 0, 0, 192, 255, 0, 0, 192, 255, 0, 0, 192, 255, 0, 0, 192, 255, 0, 0, 192, 255, 0, 0, 192, 255, 0, 0, 192, 255, 0, 0, 192, 255, 0, 0, 192, 255, 0, 0, 192, 255, 0, 0, 192, 255, 0, 0, 192, 255, 0, 0, 192, 255, 0, 0, 192, 255, 0, 0, 192, 255, 0, 0, 192, 255, 0, 0, 192, 255, 0, 0, 192, 255, 0, 0, 192, 255, 0, 0, 192, 255, 0, 0, 192, 255, 0, 0, 192, 255, 0, 0, 192, 255, 0, 0, 192, 255, 0, 0, 192, 255, 0, 0, 192, 255, 0, 0, 192, 255, 0, 0, 192, 255, 0, 0, 192, 255, 0, 0, 192, 255, 0, 0, 192, 255, 0, 0, 192, 255, 0, 0, 192, 255, 0, 0, 192, 255, 0, 0, 192, 255, 0, 0, 192, 255, 0, 0, 192, 255, 0, 0, 192, 255, 0, 0, 192, 255, 0, 0, 192, 255, 0, 0, 192, 255, 0, 0, 192, 255, 0, 0, 192, 255, 0, 0, 192, 255, 0, 0, 192, 255, 0, 0, 192, 255, 0, 0, 192, 255, 0, 0, 192, 255, 0, 0, 192, 255, 0, 0, 192, 255, 0, 0, 192, 255, 0, 0, 192, 255, 0, 0, 192, 255, 0, 0, 192, 255, 0, 0, 192, 255, 0, 0, 192, 255, 0, 0, 192, 255, 0, 0, 192, 255, 0, 0, 192, 255, 0, 0, 192, 255, 0, 0, 192, 255, 0, 0, 192, 255, 0, 0, 192, 255, 0, 0, 192, 255, 0, 0, 192, 255, 0, 0, 192, 255, 0, 0, 192, 255, 0, 0, 192, 255, 0, 0, 192, 255, 0, 0, 192, 255, 0, 0, 192, 255, 0, 0, 192, 255, 0, 0, 192, 255, 0, 0, 192, 255, 0, 0, 192, 255, 0, 0, 192, 255, 0, 0, 192, 255, 0, 0, 192, 255, 0, 0, 192, 255, 0, 0, 192, 255, 0, 0, 192, 255, 0, 0, 192, 255, 0, 0, 192, 255, 0, 0, 192, 255, 0, 0, 192, 255, 0, 0, 192, 255, 0, 0, 192, 255, 0, 0, 192, 255, 0, 0, 192, 255, 0, 0, 192, 255, 0, 0, 192, 255, 0, 0, 192, 255, 0, 0, 192, 255, 0, 0, 192, 255, 0, 0, 192, 255, 0, 0, 192, 255, 0, 0, 192, 255, 0, 0, 192, 255, 0, 0, 192, 255, 0, 0, 192, 255, 0, 0, 192, 255, 0, 0, 192, 255, 0, 0, 192, 255, 0, 0, 192, 255, 0, 0, 192, 255, 0, 0, 192, 255, 0, 0, 192, 255, 0, 0, 192, 255, 0, 0, 192, 255, 0, 0, 192, 255, 0, 0, 192, 255, 0, 0, 192, 255, 0, 0, 192, 255, 0, 0, 192, 255, 0, 0, 192, 255, 0, 0, 192, 255, 0, 0, 192, 255, 0, 0, 192, 255, 0, 0, 192, 255, 0, 0, 192, 255, 0, 0, 192, 255, 0, 0, 192, 255, 0, 0, 192, 255, 0, 0, 192, 255, 0, 0, 192, 255, 0, 0, 192, 255, 0, 0, 192, 255, 0, 0, 192, 255, 0, 0, 192, 255, 0, 0, 192, 255, 0, 0, 192, 255, 0, 0, 192, 255, 0, 0, 192, 255, 0, 0, 192, 255, 0, 0, 192, 255, 0, 0, 192, 255, 0, 0, 192, 255, 0, 0, 192, 255, 0, 0, 192, 255, 0, 0, 192, 255, 0, 0, 192, 255, 0, 0, 192, 255, 0, 0, 192, 255, 0, 0, 192, 255, 0, 0, 192, 255, 0, 0, 192, 255, 0, 0, 192, 255, 0, 0, 192, 255, 0, 0, 192, 255, 0, 0, 192, 255, 0, 0, 192, 255, 0, 0, 192, 255, 0, 0, 192, 255, 0, 0, 192, 255, 0, 0, 192, 255, 0, 0, 192, 255, 0, 0, 192, 255, 0, 0, 192, 255, 0, 0, 192, 255, 0, 0, 192, 255, 0, 0, 192, 255, 0, 0, 192, 255, 0, 0, 192, 255, 0, 0, 192, 255, 0, 0, 192, 255, 0, 0, 192, 255, 0, 0, 192, 255, 0, 0, 192, 255, 0, 0, 192, 255, 0, 0, 192, 255, 0, 0, 192, 255, 0, 0, 192, 255, 0, 0, 192, 255, 0, 0, 192, 255, 0, 0, 192, 255, 0, 0, 192, 255, 0, 0, 192, 255, 0, 0, 192, 255, 0, 0, 192, 255, 0, 0, 192, 255, 0, 0, 192, 255, 0, 0, 192, 255, 0, 0, 192, 255, 0, 0, 192, 255, 0, 0, 192, 255, 0, 0, 192, 255, 0, 0, 192, 255, 0, 0, 192, 255, 0, 0, 192, 255, 0, 0, 192, 255, 0, 0, 192, 255, 0, 0, 192, 255, 0, 0, 192, 255, 0, 0, 192, 255, 0, 0, 192, 255, 0, 0, 192, 255, 0, 0, 192, 255, 0, 0, 192, 255, 0, 0, 192, 255, 0, 0, 192, 255, 0, 0, 192, 255, 0, 0, 192, 255, 0, 0, 192, 255, 0, 0, 192, 255, 0, 0, 192, 255, 0, 0, 192, 255, 0, 0, 192, 255, 0, 0, 192, 255, 0, 0, 192, 255, 0, 0, 192, 255, 0, 0, 192, 255, 0, 0, 192, 255, 0, 0, 192, 255, 0, 0, 192, 255, 0, 0, 192, 255, 0, 0, 192, 255, 0, 0, 192, 255, 0, 0, 192, 255, 0, 0, 192, 255, 0, 0, 192, 255, 0, 0, 192, 255, 0, 0, 192, 255, 0, 0, 192, 255, 0, 0, 192, 255, 0, 0, 192, 255, 0, 0, 192, 255, 0, 0, 192, 255, 0, 0, 192, 255, 0, 0, 192, 255, 0, 0, 192, 255, 0, 0, 192, 255, 0, 0, 192, 255, 0, 0, 192, 255, 0, 0, 192, 255, 0, 0, 192, 255, 0, 0, 192, 255, 0, 0, 192, 255, 0, 0, 192, 255, 0, 0, 192, 255, 0, 0, 192, 255, 0, 0, 192, 255, 0, 0, 192, 255, 0, 0, 192, 255, 0, 0, 192, 255, 0, 0, 192, 255, 0, 0, 192, 255, 0, 0, 192, 255, 0, 0, 192, 255, 0, 0, 192, 255, 0, 0, 192, 255, 0, 0, 192, 255, 0, 0, 192, 255, 0, 0, 192, 255, 0, 0, 192, 255, 0, 0, 192, 255, 0, 0, 192, 255, 0, 0, 192, 255, 0, 0, 192, 255, 0, 0, 192, 255, 0, 0, 192, 255, 0, 0, 192, 255, 0, 0, 192, 255, 0, 0, 192, 255, 0, 0, 192, 255, 0, 0, 192, 255, 0, 0, 192, 255, 0, 0, 192, 255, 0, 0, 192, 255, 0, 0, 192, 255, 0, 0, 192, 255, 0, 0, 192, 255, 0, 0, 192, 255, 0, 0, 192, 255, 0, 0, 192, 255, 0, 0, 192, 255, 0, 0, 192, 255, 0, 0, 192, 255, 0, 0, 192, 255, 0, 0, 192, 255, 0, 0, 192, 255, 0, 0, 192, 255, 0, 0, 192, 255, 0, 0, 192, 255, 0, 0, 192, 255, 0, 0, 192, 255, 0, 0, 192, 255, 0, 0, 192, 255, 0, 0, 192, 255, 0, 0, 192, 255, 0, 0, 192, 255, 0, 0, 192, 255, 0, 0, 192, 255, 0, 0, 192, 255, 0, 0, 192, 255, 0, 0, 192, 255, 0, 0, 192, 255, 0, 0, 192, 255, 0, 0, 192, 255, 0, 0, 192, 255, 0, 0, 192, 255, 0, 0, 192, 255, 0, 0, 192, 255, 0, 0, 192, 255, 0, 0, 192, 255, 0, 0, 192, 255, 0, 0, 192, 255, 0, 0, 192, 255, 0, 0, 192, 255, 0, 0, 192, 255, 0, 0, 192, 255, 0, 0, 192, 255, 0, 0, 192, 255, 0, 0, 192, 255, 0, 0, 192, 255, 0, 0, 192, 255, 0, 0, 192, 255, 0, 0, 192, 255, 0, 0, 192, 255, 0, 0, 192, 255, 0, 0, 192, 255, 0, 0, 192, 255, 0, 0, 192, 255, 0, 0, 192, 255, 0, 0, 192, 255, 0, 0, 192, 255, 0, 0, 192, 255, 0, 0, 192, 255, 0, 0, 192, 255, 0, 0, 192, 255, 0, 0, 192, 255, 0, 0, 192, 255, 0, 0, 192, 255, 0, 0, 192, 255, 0, 0, 192, 255, 0, 0, 192, 255, 0, 0, 192, 255, 0, 0, 192, 255, 0, 0, 192, 255, 0, 0, 192, 255, 0, 0, 192, 255, 0, 0, 192, 255, 0, 0, 192, 255, 0, 0, 192, 255, 0, 0, 192, 255, 0, 0, 192, 255, 0, 0, 192, 255, 0, 0, 192, 255, 0, 0, 192, 255, 0, 0, 192, 255, 0, 0, 192, 255, 0, 0, 192, 255, 0, 0, 192, 255, 0, 0, 192, 255, 0, 0, 192, 255, 0, 0, 192, 255, 0, 0, 192, 255, 0, 0, 192, 255, 0, 0, 192, 255, 0, 0, 192, 255, 0, 0, 192, 255, 0, 0, 192, 255, 0, 0, 192, 255, 0, 0, 192, 255, 0, 0, 192, 255, 0, 0, 192, 255, 0, 0, 192, 255, 0, 0, 192, 255, 0, 0, 192, 255, 0, 0, 192, 255, 0, 0, 192, 255, 0, 0, 192, 255, 0, 0, 192, 255, 0, 0, 192, 255, 0, 0, 192, 255, 0, 0, 192, 255, 0, 0, 192, 255, 0, 0, 192, 255, 0, 0, 192, 255, 0, 0, 192, 255, 0, 0, 192, 255, 0, 0, 192, 255, 0, 0, 192, 255, 0, 0, 192, 255, 0, 0, 192, 255, 0, 0, 192, 255, 0, 0, 192, 255, 0, 0, 192, 255, 0, 0, 192, 255, 0, 0, 192, 255, 0, 0, 192, 255, 0, 0, 192, 255, 0, 0, 192, 255, 0, 0, 192, 255, 0, 0, 192, 255, 0, 0, 192, 255, 0, 0, 192, 255, 0, 0, 192, 255, 0, 0, 192, 255, 0, 0, 192, 255, 0, 0, 192, 255, 0, 0, 192, 255, 0, 0, 192, 255, 0, 0, 192, 255, 0, 0, 192, 255, 0, 0, 192, 255, 0, 0, 192, 255, 0, 0, 192, 255, 0, 0, 192, 255, 0, 0, 192, 255, 0, 0, 192, 255, 0, 0, 192, 255, 0, 0, 192, 255, 0, 0, 192, 255, 0, 0, 192, 255, 0, 0, 192, 255, 0, 0, 192, 255, 0, 0, 192, 255, 0, 0, 192, 255, 0, 0, 192, 255, 0, 0, 192, 255, 0, 0, 192, 255, 0, 0, 192, 255, 0, 0, 192, 255, 0, 0, 192, 255, 0, 0, 192, 255, 0, 0, 192, 255, 0, 0, 192, 255, 0, 0, 192, 255, 0, 0, 192, 255, 0, 0, 192, 255, 0, 0, 192, 255, 0, 0, 192, 255, 0, 0, 192, 255, 0, 0, 192, 255, 0, 0, 192, 255, 0, 0, 192, 255, 0, 0, 192, 255, 0, 0, 192, 255, 0, 0, 192, 255, 0, 0, 192, 255, 0, 0, 192, 255, 0, 0, 192, 255, 0, 0, 192, 255, 0, 0, 192, 255, 0, 0, 192, 255, 0, 0, 192, 255, 0, 0, 192, 255, 0, 0, 192, 255, 0, 0, 192, 255, 0, 0, 192, 255, 0, 0, 192, 255, 0, 0, 192, 255, 0, 0, 192, 255, 0, 0, 192, 255, 0, 0, 192, 255, 0, 0, 192, 255, 0, 0, 192, 255, 0, 0, 192, 255, 0, 0, 192, 255, 0, 0, 192, 255, 0, 0, 192, 255, 0, 0, 192, 255, 0, 0, 192, 255, 0, 0, 192, 255, 0, 0, 192, 255, 0, 0, 192, 255, 0, 0, 192, 255, 0, 0, 192, 255, 0, 0, 192, 255, 0, 0, 192, 255, 0, 0, 192, 255, 0, 0, 192, 255, 0, 0, 192, 255, 0, 0, 192, 255, 0, 0, 192, 255, 0, 0, 192, 255, 0, 0, 192, 255, 0, 0, 192, 255, 0, 0, 192, 255, 0, 0, 192, 255, 0, 0, 192, 255, 0, 0, 192, 255, 0, 0, 192, 255, 0, 0, 192, 255, 0, 0, 192, 255, 0, 0, 192, 255, 0, 0, 192, 255, 0, 0, 192, 255, 0, 0, 192, 255, 0, 0, 192, 255, 0, 0, 192, 255, 0, 0, 192, 255, 0, 0, 192, 255, 0, 0, 192, 255, 0, 0, 192, 255, 0, 0, 192, 255, 0, 0, 192, 255, 0, 0, 192, 255, 0, 0, 192, 255, 0, 0, 192, 255, 0, 0, 192, 255, 0, 0, 192, 255, 0, 0, 192, 255, 0, 0, 192, 255, 0, 0, 192, 255, 0, 0, 192, 255, 0, 0, 192, 255, 0, 0, 192, 255, 0, 0, 192, 255, 0, 0, 192, 255, 0, 0, 192, 255, 0, 0, 192, 255, 0, 0, 192, 255, 0, 0, 192, 255, 0, 0, 192, 255, 0, 0, 192, 255, 0, 0, 192, 255, 0, 0, 192, 255, 0, 0, 192, 255, 0, 0, 192, 255, 0, 0, 192, 255, 0, 0, 192, 255, 0, 0, 192, 255, 0, 0, 192, 255, 0, 0, 192, 255, 0, 0, 192, 255, 0, 0, 192, 255, 0, 0, 192, 255, 0, 0, 192, 255, 0, 0, 192, 255, 0, 0, 192, 255, 0, 0, 192, 255, 0, 0, 192, 255, 0, 0, 192, 255, 0, 0, 192, 255, 0, 0, 192, 255, 0, 0, 192, 255, 0, 0, 192, 255, 0, 0, 192, 255, 0, 0, 192, 255, 0, 0, 192, 255, 0, 0, 192, 255, 0, 0, 192, 255, 0, 0, 192, 255, 0, 0, 192, 255, 0, 0, 192, 255, 0, 0, 192, 255, 0, 0, 192, 255, 0, 0, 192, 255, 0, 0, 192, 255, 0, 0, 192, 255, 0, 0, 192, 255, 0, 0, 192, 255, 0, 0, 192, 255, 0, 0, 192, 255, 0, 0, 192, 255, 0, 0, 192, 255, 0, 0, 192, 255, 0, 0, 192, 255, 0, 0, 192, 255, 0, 0, 192, 255, 0, 0, 192, 255, 0, 0, 192, 255, 0, 0, 192, 255, 0, 0, 192, 255, 0, 0, 192, 255, 0, 0, 192, 255, 0, 0, 192, 255, 0, 0, 192, 255, 0, 0, 192, 255, 0, 0, 192, 255, 0, 0, 192, 255, 0, 0, 192, 255, 0, 0, 192, 255, 0, 0, 192, 255, 0, 0, 192, 255, 0, 0, 192, 255, 0, 0, 192, 255, 0, 0, 192, 255, 0, 0, 192, 255, 0, 0, 192, 255, 0, 0, 192, 255, 0, 0, 192, 255, 0, 0, 192, 255, 0, 0, 192, 255, 0, 0, 192, 255, 0, 0, 192, 255, 0, 0, 192, 255, 0, 0, 192, 255, 0, 0, 192, 255, 0, 0, 192, 255, 0, 0, 192, 255, 0, 0, 192, 255, 0, 0, 192, 255, 0, 0, 192, 255, 0, 0, 192, 255, 0, 0, 192, 255, 0, 0, 192, 255, 0, 0, 192, 255, 0, 0, 192, 255, 0, 0, 192, 255, 0, 0, 192, 255, 0, 0, 192, 255, 0, 0, 192, 255, 0, 0, 192, 255, 0, 0, 192, 255, 0, 0, 192, 255, 0, 0, 192, 255, 0, 0, 192, 255, 0, 0, 192, 255, 0, 0, 192, 255, 0, 0, 192, 255, 0, 0, 192, 255, 0, 0, 192, 255, 0, 0, 192, 255, 0, 0, 192, 255, 0, 0, 192, 255, 0, 0, 192, 255, 0, 0, 192, 255, 0, 0, 192, 255, 0, 0, 192, 255, 0, 0, 192, 255, 0, 0, 192, 255, 0, 0, 192, 255, 0, 0, 192, 255, 0, 0, 192, 255, 0, 0, 192, 255, 0, 0, 192, 255, 0, 0, 192, 255, 0, 0, 192, 255, 0, 0, 192, 255, 0, 0, 192, 255, 0, 0, 192, 255, 0, 0, 192, 255, 0, 0, 192, 255, 0, 0, 192, 255, 0, 0, 192, 255, 0, 0, 192, 255, 0, 0, 192, 255, 0, 0, 192, 255, 0, 0, 192, 255, 0, 0, 192, 255, 0, 0, 192, 255, 0, 0, 192, 255, 0, 0, 192, 255, 0, 0, 192, 255, 0, 0, 192, 255, 0, 0, 192, 255, 0, 0, 192, 255, 0, 0, 192, 255, 0, 0, 192, 255, 0, 0, 192, 255, 0, 0, 192, 255, 0, 0, 192, 255, 0, 0, 192, 255, 0, 0, 192, 255, 0, 0, 192, 255, 0, 0, 192, 255, 0, 0, 192, 255, 0, 0, 192, 255, 0, 0, 192, 255, 0, 0, 192, 255, 0, 0, 192, 255, 0, 0, 192, 255, 0, 0, 192, 255, 0, 0, 192, 255, 0, 0, 192, 255, 0, 0, 192, 255, 0, 0, 192, 255, 0, 0, 192, 255, 0, 0, 192, 255, 0, 0, 192, 255, 0, 0, 192, 255, 0, 0, 192, 255, 0, 0, 192, 255, 0, 0, 192, 255, 0, 0, 192, 255, 0, 0, 192, 255, 0, 0, 192, 255, 0, 0, 192, 255, 0, 0, 192, 255, 0, 0, 192, 255, 0, 0, 192, 255, 0, 0, 192, 255, 0, 0, 192, 255, 0, 0, 192, 255, 0, 0, 192, 255, 0, 0, 192, 255, 0, 0, 192, 255, 0, 0, 192, 255, 0, 0, 192, 255, 0, 0, 192, 255, 0, 0, 192, 255, 0, 0, 192, 255, 0, 0, 192, 255, 0, 0, 192, 255, 0, 0, 192, 255, 0, 0, 192, 255, 0, 0, 192, 255, 0, 0, 192, 255, 0, 0, 192, 255, 0, 0, 192, 255, 0, 0, 192, 255, 0, 0, 192, 255, 0, 0, 192, 255, 0, 0, 192, 255, 0, 0, 192, 255, 0, 0, 192, 255, 0, 0, 192, 255, 0, 0, 192, 255, 0, 0, 192, 255, 0, 0, 192, 255, 0, 0, 192, 255, 0, 0, 192, 255, 0, 0, 192, 255, 0, 0, 192, 255, 0, 0, 192, 255, 0, 0, 192, 255, 0, 0, 192, 255, 0, 0, 192, 255, 0, 0, 192, 255, 0, 0, 192, 255, 0, 0, 192, 255, 0, 0, 192, 255, 0, 0, 192, 255, 0, 0, 192, 255, 0, 0, 192, 255, 0, 0, 192, 255, 0, 0, 192, 255, 0, 0, 192, 255, 0, 0, 192, 255, 0, 0, 192, 255, 0, 0, 192, 255, 0, 0, 192, 255, 0, 0, 192, 255, 0, 0, 192, 255, 0, 0, 192, 255, 0, 0, 192, 255, 0, 0, 192, 255, 0, 0, 192, 255, 0, 0, 192, 255, 0, 0, 192, 255, 0, 0, 192, 255, 0, 0, 192, 255, 0, 0, 192, 255, 0, 0, 192, 255, 0, 0, 192, 255, 0, 0, 192, 255, 0, 0, 192, 255, 0, 0, 192, 255, 0, 0, 192, 255, 0, 0, 192, 255, 0, 0, 192, 255, 0, 0, 192, 255, 0, 0, 192, 255, 0, 0, 192, 255, 0, 0, 192, 255, 0, 0, 192, 255, 0, 0, 192, 255, 0, 0, 192, 255, 0, 0, 192, 255, 0, 0, 192, 255, 0, 0, 192, 255, 0, 0, 192, 255, 0, 0, 192, 255, 0, 0, 192, 255, 0, 0, 192, 255, 0, 0, 192, 255, 0, 0, 192, 255, 0, 0, 192, 255, 0, 0, 192, 255, 0, 0, 192, 255, 0, 0, 192, 255, 0, 0, 192, 255, 0, 0, 192, 255, 0, 0, 192, 255, 0, 0, 192, 255, 0, 0, 192, 255, 0, 0, 192, 255, 0, 0, 192, 255, 0, 0, 192, 255, 0, 0, 192, 255, 0, 0, 192, 255, 0, 0, 192, 255, 0, 0, 192, 255, 0, 0, 192, 255, 0, 0, 192, 255, 0, 0, 192, 255, 0, 0, 192, 255, 0, 0, 192, 255, 0, 0, 192, 255, 0, 0, 192, 255, 0, 0, 192, 255, 0, 0, 192, 255, 0, 0, 192, 255, 0, 0, 192, 255, 0, 0, 192, 255, 0, 0, 192, 255, 0, 0, 192, 255, 0, 0, 192, 255, 0, 0, 192, 255, 0, 0, 192, 255, 0, 0, 192, 255, 0, 0, 192, 255, 0, 0, 192, 255, 0, 0, 192, 255, 0, 0, 192, 255, 0, 0, 192, 255, 0, 0, 192, 255, 0, 0, 192, 255, 0, 0, 192, 255, 0, 0, 192, 255, 0, 0, 192, 255, 0, 0, 192, 255, 0, 0, 192, 255, 0, 0, 192, 255, 0, 0, 192, 255, 0, 0, 192, 255, 0, 0, 192, 255, 0, 0, 192, 255, 0, 0, 192, 255, 0, 0, 192, 255, 0, 0, 192, 255, 0, 0, 192, 255, 0, 0, 192, 255, 0, 0, 192, 255, 0, 0, 192, 255, 0, 0, 192, 255, 0, 0, 192, 255, 0, 0, 192, 255, 0, 0, 192, 255, 0, 0, 192, 255, 0, 0, 192, 255, 0, 0, 192, 255, 0, 0, 192, 255, 0, 0, 192, 255, 0, 0, 192, 255, 0, 0, 192, 255, 0, 0, 192, 255, 0, 0, 192, 255, 0, 0, 192, 255, 0, 0, 192, 255, 0, 0, 192, 255, 0, 0, 192, 255, 0, 0, 192, 255, 0, 0, 192, 255, 0, 0, 192, 255, 0, 0, 192, 255, 0, 0, 192, 255, 0, 0, 192, 255, 0, 0, 192, 255, 0, 0, 192, 255, 0, 0, 192, 255, 0, 0, 192, 255, 0, 0, 192, 255, 0, 0, 192, 255, 0, 0, 192, 255, 0, 0, 192, 255, 0, 0, 192, 255, 0, 0, 192, 255, 0, 0, 192, 255, 0, 0, 192, 255, 0, 0, 192, 255, 0, 0, 192, 255, 0, 0, 192, 255, 0, 0, 192, 255, 0, 0, 192, 255, 0, 0, 192, 255, 0, 0, 192, 255, 0, 0, 192, 255, 0, 0, 192, 255, 0, 0, 192, 255, 0, 0, 192, 255, 0, 0, 192, 255, 0, 0, 192, 255, 0, 0, 192, 255, 0, 0, 192, 255, 0, 0, 192, 255, 0, 0, 192, 255, 0, 0, 192, 255, 0, 0, 192, 255, 0, 0, 192, 255, 0, 0, 192, 255, 0, 0, 192, 255, 0, 0, 192, 255, 0, 0, 192, 255, 0, 0, 192, 255, 0, 0, 192, 255, 0, 0, 192, 255, 0, 0, 192, 255, 0, 0, 192, 255, 0, 0, 192, 255, 0, 0, 192, 255, 0, 0, 192, 255, 0, 0, 192, 255, 0, 0, 192, 255, 0, 0, 192, 255, 0, 0, 192, 255, 0, 0, 192, 255, 0, 0, 192, 255, 0, 0, 192, 255, 0, 0, 192, 255, 0, 0, 192, 255, 0, 0, 192, 255, 0, 0, 192, 255, 0, 0, 192, 255, 0, 0, 192, 255, 0, 0, 192, 255, 0, 0, 192, 255, 0, 0, 192, 255, 0, 0, 192, 255, 0, 0, 192, 255, 0, 0, 192, 255, 0, 0, 192, 255, 0, 0, 192, 255, 0, 0, 192, 255, 0, 0, 192, 255, 0, 0, 192, 255, 0, 0, 192, 255, 0, 0, 192, 255, 0, 0, 192, 255, 0, 0, 192, 255, 0, 0, 192, 255, 0, 0, 192, 255, 0, 0, 192, 255, 0, 0, 192, 255, 0, 0, 192, 255, 0, 0, 192, 255, 0, 0, 192, 255, 0, 0, 192, 255, 0, 0, 192, 255, 0, 0, 192, 255, 0, 0, 192, 255, 0, 0, 192, 255, 0, 0, 192, 255, 0, 0, 192, 255, 0, 0, 192, 255, 0, 0, 192, 255, 0, 0, 192, 255, 0, 0, 192, 255, 0, 0, 192, 255, 0, 0, 192, 255, 0, 0, 192, 255, 0, 0, 192, 255, 0, 0, 192, 255, 0, 0, 192, 255, 0, 0, 192, 255, 0, 0, 192, 255, 0, 0, 192, 255, 0, 0, 192, 255, 0, 0, 192, 255, 0, 0, 192, 255, 0, 0, 192, 255, 0, 0, 192, 255, 0, 0, 192, 255, 0, 0, 192, 255, 0, 0, 192, 255, 0, 0, 192, 255, 0, 0, 192, 255, 0, 0, 192, 255, 0, 0, 192, 255, 0, 0, 192, 255, 0, 0, 192, 255, 0, 0, 192, 255, 0, 0, 192, 255, 0, 0, 192, 255, 0, 0, 192, 255, 0, 0, 192, 255, 0, 0, 192, 255, 0, 0, 192, 255, 0, 0, 192, 255, 0, 0, 192, 255, 0, 0, 192, 255, 0, 0, 192, 255, 0, 0, 192, 255, 0, 0, 192, 255, 0, 0, 192, 255, 0, 0, 192, 255, 0, 0, 192, 255, 0, 0, 192, 255, 0, 0, 192, 255, 0, 0, 192, 255, 0, 0, 192, 255, 0, 0, 192, 255, 0, 0, 192, 255, 0, 0, 192, 255, 0, 0, 192, 255, 0, 0, 192, 255, 0, 0, 192, 255, 0, 0, 192, 255, 0, 0, 192, 255, 0, 0, 192, 255, 0, 0, 192, 255, 0, 0, 192, 255, 0, 0, 192, 255, 0, 0, 192, 255, 0, 0, 192, 255, 0, 0, 192, 255, 0, 0, 192, 255, 0, 0, 192, 255, 0, 0, 192, 255, 0, 0, 192, 255, 0, 0, 192, 255, 0, 0, 192, 255, 0, 0, 192, 255, 0, 0, 192, 255, 0, 0, 192, 255, 0, 0, 192, 255, 0, 0, 192, 255, 0, 0, 192, 255, 0, 0, 192, 255, 0, 0, 192, 255, 0, 0, 192, 255, 0, 0, 192, 255, 0, 0, 192, 255, 0, 0, 192, 255, 0, 0, 192, 255, 0, 0, 192, 255, 0, 0, 192, 255, 0, 0, 192, 255, 0, 0, 192, 255, 0, 0, 192, 255, 0, 0, 192, 255, 0, 0, 192, 255, 0, 0, 192, 255, 0, 0, 192, 255, 0, 0, 192, 255, 0, 0, 192, 255, 0, 0, 192, 255, 0, 0, 192, 255, 0, 0, 192, 255, 0, 0, 192, 255, 0, 0, 192, 255, 0, 0, 192, 255, 0, 0, 192, 255, 0, 0, 192, 255, 0, 0, 192, 255, 0, 0, 192, 255, 0, 0, 192, 255, 0, 0, 192, 255, 0, 0, 192, 255, 0, 0, 192, 255, 0, 0, 192, 255, 0, 0, 192, 255, 0, 0, 192, 255, 0, 0, 192, 255, 0, 0, 192, 255, 0, 0, 192, 255, 0, 0, 192, 255, 0, 0, 192, 255, 0, 0, 192, 255, 0, 0, 192, 255, 0, 0, 192, 255, 0, 0, 192, 255, 0, 0, 192, 255, 0, 0, 192, 255, 0, 0, 192, 255, 0, 0, 192, 255, 0, 0, 192, 255, 0, 0, 192, 255, 0, 0, 192, 255, 0, 0, 192, 255, 0, 0, 192, 255, 0, 0, 192, 255, 0, 0, 192, 255, 0, 0, 192, 255, 42, 84, 253, 255, 4, 0, 0, 0, 0, 128, 0, 0, 0, 0, 192, 255, 0, 0, 192, 255, 0, 0, 192, 255, 0, 0, 192, 255, 0, 0, 192, 255, 0, 0, 192, 255, 0, 0, 192, 255, 0, 0, 192, 255, 0, 0, 192, 255, 0, 0, 192, 255, 0, 0, 192, 255, 0, 0, 192, 255, 0, 0, 192, 255, 0, 0, 192, 255, 0, 0, 192, 255, 0, 0, 192, 255, 0, 0, 192, 255, 0, 0, 192, 255, 0, 0, 192, 255, 0, 0, 192, 255, 0, 0, 192, 255, 0, 0, 192, 255, 0, 0, 192, 255, 0, 0, 192, 255, 0, 0, 192, 255, 0, 0, 192, 255, 0, 0, 192, 255, 0, 0, 192, 255, 0, 0, 192, 255, 0, 0, 192, 255, 0, 0, 192, 255, 0, 0, 192, 255, 0, 0, 192, 255, 0, 0, 192, 255, 0, 0, 192, 255, 0, 0, 192, 255, 0, 0, 192, 255, 0, 0, 192, 255, 0, 0, 192, 255, 0, 0, 192, 255, 0, 0, 192, 255, 0, 0, 192, 255, 0, 0, 192, 255, 0, 0, 192, 255, 0, 0, 192, 255, 0, 0, 192, 255, 0, 0, 192, 255, 0, 0, 192, 255, 0, 0, 192, 255, 0, 0, 192, 255, 0, 0, 192, 255, 0, 0, 192, 255, 0, 0, 192, 255, 0, 0, 192, 255, 0, 0, 192, 255, 0, 0, 192, 255, 0, 0, 192, 255, 0, 0, 192, 255, 0, 0, 192, 255, 0, 0, 192, 255, 0, 0, 192, 255, 0, 0, 192, 255, 0, 0, 192, 255, 0, 0, 192, 255, 0, 0, 192, 255, 0, 0, 192, 255, 0, 0, 192, 255, 0, 0, 192, 255, 0, 0, 192, 255, 0, 0, 192, 255, 0, 0, 192, 255, 0, 0, 192, 255, 0, 0, 192, 255, 0, 0, 192, 255, 0, 0, 192, 255, 0, 0, 192, 255, 0, 0, 192, 255, 0, 0, 192, 255, 0, 0, 192, 255, 0, 0, 192, 255, 0, 0, 192, 255, 0, 0, 192, 255, 0, 0, 192, 255, 0, 0, 192, 255, 0, 0, 192, 255, 0, 0, 192, 255, 0, 0, 192, 255, 0, 0, 192, 255, 0, 0, 192, 255, 0, 0, 192, 255, 0, 0, 192, 255, 0, 0, 192, 255, 0, 0, 192, 255, 0, 0, 192, 255, 0, 0, 192, 255, 0, 0, 192, 255, 0, 0, 192, 255, 0, 0, 192, 255, 0, 0, 192, 255, 0, 0, 192, 255, 0, 0, 192, 255, 0, 0, 192, 255, 0, 0, 192, 255, 0, 0, 192, 255, 0, 0, 192, 255, 0, 0, 192, 255, 0, 0, 192, 255, 0, 0, 192, 255, 0, 0, 192, 255, 0, 0, 192, 255, 0, 0, 192, 255, 0, 0, 192, 255, 0, 0, 192, 255, 0, 0, 192, 255, 0, 0, 192, 255, 0, 0, 192, 255, 0, 0, 192, 255, 0, 0, 192, 255, 0, 0, 192, 255, 0, 0, 192, 255, 0, 0, 192, 255, 0, 0, 192, 255, 0, 0, 192, 255, 0, 0, 192, 255, 0, 0, 192, 255, 0, 0, 192, 255, 0, 0, 192, 255, 0, 0, 192, 255, 0, 0, 192, 255, 0, 0, 192, 255, 0, 0, 192, 255, 0, 0, 192, 255, 0, 0, 192, 255, 0, 0, 192, 255, 0, 0, 192, 255, 0, 0, 192, 255, 0, 0, 192, 255, 0, 0, 192, 255, 0, 0, 192, 255, 0, 0, 192, 255, 0, 0, 192, 255, 0, 0, 192, 255, 0, 0, 192, 255, 0, 0, 192, 255, 0, 0, 192, 255, 0, 0, 192, 255, 0, 0, 192, 255, 0, 0, 192, 255, 0, 0, 192, 255, 0, 0, 192, 255, 0, 0, 192, 255, 0, 0, 192, 255, 0, 0, 192, 255, 0, 0, 192, 255, 0, 0, 192, 255, 0, 0, 192, 255, 0, 0, 192, 255, 0, 0, 192, 255, 0, 0, 192, 255, 0, 0, 192, 255, 0, 0, 192, 255, 0, 0, 192, 255, 0, 0, 192, 255, 0, 0, 192, 255, 0, 0, 192, 255, 0, 0, 192, 255, 0, 0, 192, 255, 0, 0, 192, 255, 0, 0, 192, 255, 0, 0, 192, 255, 0, 0, 192, 255, 0, 0, 192, 255, 0, 0, 192, 255, 0, 0, 192, 255, 0, 0, 192, 255, 0, 0, 192, 255, 0, 0, 192, 255, 0, 0, 192, 255, 0, 0, 192, 255, 0, 0, 192, 255, 0, 0, 192, 255, 0, 0, 192, 255, 0, 0, 192, 255, 0, 0, 192, 255, 0, 0, 192, 255, 0, 0, 192, 255, 0, 0, 192, 255, 0, 0, 192, 255, 0, 0, 192, 255, 0, 0, 192, 255, 0, 0, 192, 255, 0, 0, 192, 255, 0, 0, 192, 255, 0, 0, 192, 255, 0, 0, 192, 255, 0, 0, 192, 255, 0, 0, 192, 255, 0, 0, 192, 255, 0, 0, 192, 255, 0, 0, 192, 255, 0, 0, 192, 255, 0, 0, 192, 255, 0, 0, 192, 255, 0, 0, 192, 255, 0, 0, 192, 255, 0, 0, 192, 255, 0, 0, 192, 255, 0, 0, 192, 255, 0, 0, 192, 255, 0, 0, 192, 255, 0, 0, 192, 255, 0, 0, 192, 255, 0, 0, 192, 255, 0, 0, 192, 255, 0, 0, 192, 255, 0, 0, 192, 255, 0, 0, 192, 255, 0, 0, 192, 255, 0, 0, 192, 255, 0, 0, 192, 255, 0, 0, 192, 255, 0, 0, 192, 255, 0, 0, 192, 255, 0, 0, 192, 255, 0, 0, 192, 255, 0, 0, 192, 255, 0, 0, 192, 255, 0, 0, 192, 255, 0, 0, 192, 255, 0, 0, 192, 255, 0, 0, 192, 255, 0, 0, 192, 255, 0, 0, 192, 255, 0, 0, 192, 255, 0, 0, 192, 255, 0, 0, 192, 255, 0, 0, 192, 255, 0, 0, 192, 255, 0, 0, 192, 255, 0, 0, 192, 255, 0, 0, 192, 255, 0, 0, 192, 255, 0, 0, 192, 255, 0, 0, 192, 255, 0, 0, 192, 255, 0, 0, 192, 255, 0, 0, 192, 255, 0, 0, 192, 255, 0, 0, 192, 255, 0, 0, 192, 255, 0, 0, 192, 255, 0, 0, 192, 255, 0, 0, 192, 255, 0, 0, 192, 255, 0, 0, 192, 255, 0, 0, 192, 255, 0, 0, 192, 255, 0, 0, 192, 255, 0, 0, 192, 255, 0, 0, 192, 255, 0, 0, 192, 255, 0, 0, 192, 255, 0, 0, 192, 255, 0, 0, 192, 255, 0, 0, 192, 255, 0, 0, 192, 255, 0, 0, 192, 255, 0, 0, 192, 255, 0, 0, 192, 255, 0, 0, 192, 255, 0, 0, 192, 255, 0, 0, 192, 255, 0, 0, 192, 255, 0, 0, 192, 255, 0, 0, 192, 255, 0, 0, 192, 255, 0, 0, 192, 255, 0, 0, 192, 255, 0, 0, 192, 255, 0, 0, 192, 255, 0, 0, 192, 255, 0, 0, 192, 255, 0, 0, 192, 255, 0, 0, 192, 255, 0, 0, 192, 255, 0, 0, 192, 255, 0, 0, 192, 255, 0, 0, 192, 255, 0, 0, 192, 255, 0, 0, 192, 255, 0, 0, 192, 255, 0, 0, 192, 255, 0, 0, 192, 255, 0, 0, 192, 255, 0, 0, 192, 255, 0, 0, 192, 255, 0, 0, 192, 255, 0, 0, 192, 255, 0, 0, 192, 255, 0, 0, 192, 255, 0, 0, 192, 255, 0, 0, 192, 255, 0, 0, 192, 255, 0, 0, 192, 255, 0, 0, 192, 255, 0, 0, 192, 255, 0, 0, 192, 255, 0, 0, 192, 255, 0, 0, 192, 255, 0, 0, 192, 255, 0, 0, 192, 255, 0, 0, 192, 255, 0, 0, 192, 255, 0, 0, 192, 255, 0, 0, 192, 255, 0, 0, 192, 255, 0, 0, 192, 255, 0, 0, 192, 255, 0, 0, 192, 255, 0, 0, 192, 255, 0, 0, 192, 255, 0, 0, 192, 255, 0, 0, 192, 255, 0, 0, 192, 255, 0, 0, 192, 255, 0, 0, 192, 255, 0, 0, 192, 255, 0, 0, 192, 255, 0, 0, 192, 255, 0, 0, 192, 255, 0, 0, 192, 255, 0, 0, 192, 255, 0, 0, 192, 255, 0, 0, 192, 255, 0, 0, 192, 255, 0, 0, 192, 255, 0, 0, 192, 255, 0, 0, 192, 255, 0, 0, 192, 255, 0, 0, 192, 255, 0, 0, 192, 255, 0, 0, 192, 255, 0, 0, 192, 255, 0, 0, 192, 255, 0, 0, 192, 255, 0, 0, 192, 255, 0, 0, 192, 255, 0, 0, 192, 255, 0, 0, 192, 255, 0, 0, 192, 255, 0, 0, 192, 255, 0, 0, 192, 255, 0, 0, 192, 255, 0, 0, 192, 255, 0, 0, 192, 255, 0, 0, 192, 255, 0, 0, 192, 255, 0, 0, 192, 255, 0, 0, 192, 255, 0, 0, 192, 255, 0, 0, 192, 255, 0, 0, 192, 255, 0, 0, 192, 255, 0, 0, 192, 255, 0, 0, 192, 255, 0, 0, 192, 255, 0, 0, 192, 255, 0, 0, 192, 255, 0, 0, 192, 255, 0, 0, 192, 255, 0, 0, 192, 255, 0, 0, 192, 255, 0, 0, 192, 255, 0, 0, 192, 255, 0, 0, 192, 255, 0, 0, 192, 255, 0, 0, 192, 255, 0, 0, 192, 255, 0, 0, 192, 255, 0, 0, 192, 255, 0, 0, 192, 255, 0, 0, 192, 255, 0, 0, 192, 255, 0, 0, 192, 255, 0, 0, 192, 255, 0, 0, 192, 255, 0, 0, 192, 255, 0, 0, 192, 255, 0, 0, 192, 255, 0, 0, 192, 255, 0, 0, 192, 255, 0, 0, 192, 255, 0, 0, 192, 255, 0, 0, 192, 255, 0, 0, 192, 255, 0, 0, 192, 255, 0, 0, 192, 255, 0, 0, 192, 255, 0, 0, 192, 255, 0, 0, 192, 255, 0, 0, 192, 255, 0, 0, 192, 255, 0, 0, 192, 255, 0, 0, 192, 255, 0, 0, 192, 255, 0, 0, 192, 255, 0, 0, 192, 255, 0, 0, 192, 255, 0, 0, 192, 255, 0, 0, 192, 255, 0, 0, 192, 255, 0, 0, 192, 255, 0, 0, 192, 255, 0, 0, 192, 255, 0, 0, 192, 255, 0, 0, 192, 255, 0, 0, 192, 255, 0, 0, 192, 255, 0, 0, 192, 255, 0, 0, 192, 255, 0, 0, 192, 255, 0, 0, 192, 255, 0, 0, 192, 255, 0, 0, 192, 255, 0, 0, 192, 255, 0, 0, 192, 255, 0, 0, 192, 255, 0, 0, 192, 255, 0, 0, 192, 255, 0, 0, 192, 255, 0, 0, 192, 255, 0, 0, 192, 255, 0, 0, 192, 255, 0, 0, 192, 255, 0, 0, 192, 255, 0, 0, 192, 255, 0, 0, 192, 255, 0, 0, 192, 255, 0, 0, 192, 255, 0, 0, 192, 255, 0, 0, 192, 255, 0, 0, 192, 255, 0, 0, 192, 255, 0, 0, 192, 255, 0, 0, 192, 255, 0, 0, 192, 255, 0, 0, 192, 255, 0, 0, 192, 255, 0, 0, 192, 255, 0, 0, 192, 255, 0, 0, 192, 255, 0, 0, 192, 255, 0, 0, 192, 255, 0, 0, 192, 255, 0, 0, 192, 255, 0, 0, 192, 255, 0, 0, 192, 255, 0, 0, 192, 255, 0, 0, 192, 255, 0, 0, 192, 255, 0, 0, 192, 255, 0, 0, 192, 255, 0, 0, 192, 255, 0, 0, 192, 255, 0, 0, 192, 255, 0, 0, 192, 255, 0, 0, 192, 255, 0, 0, 192, 255, 0, 0, 192, 255, 0, 0, 192, 255, 0, 0, 192, 255, 0, 0, 192, 255, 0, 0, 192, 255, 0, 0, 192, 255, 0, 0, 192, 255, 0, 0, 192, 255, 0, 0, 192, 255, 0, 0, 192, 255, 0, 0, 192, 255, 0, 0, 192, 255, 0, 0, 192, 255, 0, 0, 192, 255, 0, 0, 192, 255, 0, 0, 192, 255, 0, 0, 192, 255, 0, 0, 192, 255, 0, 0, 192, 255, 0, 0, 192, 255, 0, 0, 192, 255, 0, 0, 192, 255, 0, 0, 192, 255, 0, 0, 192, 255, 0, 0, 192, 255, 0, 0, 192, 255, 0, 0, 192, 255, 0, 0, 192, 255, 0, 0, 192, 255, 0, 0, 192, 255, 0, 0, 192, 255, 0, 0, 192, 255, 0, 0, 192, 255, 0, 0, 192, 255, 0, 0, 192, 255, 0, 0, 192, 255, 0, 0, 192, 255, 0, 0, 192, 255, 0, 0, 192, 255, 0, 0, 192, 255, 0, 0, 192, 255, 0, 0, 192, 255, 0, 0, 192, 255, 0, 0, 192, 255, 0, 0, 192, 255, 0, 0, 192, 255, 0, 0, 192, 255, 0, 0, 192, 255, 0, 0, 192, 255, 0, 0, 192, 255, 0, 0, 192, 255, 0, 0, 192, 255, 0, 0, 192, 255, 0, 0, 192, 255, 0, 0, 192, 255, 0, 0, 192, 255, 0, 0, 192, 255, 0, 0, 192, 255, 0, 0, 192, 255, 0, 0, 192, 255, 0, 0, 192, 255, 0, 0, 192, 255, 0, 0, 192, 255, 0, 0, 192, 255, 0, 0, 192, 255, 0, 0, 192, 255, 0, 0, 192, 255, 0, 0, 192, 255, 0, 0, 192, 255, 0, 0, 192, 255, 0, 0, 192, 255, 0, 0, 192, 255, 0, 0, 192, 255, 0, 0, 192, 255, 0, 0, 192, 255, 0, 0, 192, 255, 0, 0, 192, 255, 0, 0, 192, 255, 0, 0, 192, 255, 0, 0, 192, 255, 0, 0, 192, 255, 0, 0, 192, 255, 0, 0, 192, 255, 0, 0, 192, 255, 0, 0, 192, 255, 0, 0, 192, 255, 0, 0, 192, 255, 0, 0, 192, 255, 0, 0, 192, 255, 0, 0, 192, 255, 0, 0, 192, 255, 0, 0, 192, 255, 0, 0, 192, 255, 0, 0, 192, 255, 0, 0, 192, 255, 0, 0, 192, 255, 0, 0, 192, 255, 0, 0, 192, 255, 0, 0, 192, 255, 0, 0, 192, 255, 0, 0, 192, 255, 0, 0, 192, 255, 0, 0, 192, 255, 0, 0, 192, 255, 0, 0, 192, 255, 0, 0, 192, 255, 0, 0, 192, 255, 0, 0, 192, 255, 0, 0, 192, 255, 0, 0, 192, 255, 0, 0, 192, 255, 0, 0, 192, 255, 0, 0, 192, 255, 0, 0, 192, 255, 0, 0, 192, 255, 0, 0, 192, 255, 0, 0, 192, 255, 0, 0, 192, 255, 0, 0, 192, 255, 0, 0, 192, 255, 0, 0, 192, 255, 0, 0, 192, 255, 0, 0, 192, 255, 0, 0, 192, 255, 0, 0, 192, 255, 0, 0, 192, 255, 0, 0, 192, 255, 0, 0, 192, 255, 0, 0, 192, 255, 0, 0, 192, 255, 0, 0, 192, 255, 0, 0, 192, 255, 0, 0, 192, 255, 0, 0, 192, 255, 0, 0, 192, 255, 0, 0, 192, 255, 0, 0, 192, 255, 0, 0, 192, 255, 0, 0, 192, 255, 0, 0, 192, 255, 0, 0, 192, 255, 0, 0, 192, 255, 0, 0, 192, 255, 0, 0, 192, 255, 0, 0, 192, 255, 0, 0, 192, 255, 0, 0, 192, 255, 0, 0, 192, 255, 0, 0, 192, 255, 0, 0, 192, 255, 0, 0, 192, 255, 0, 0, 192, 255, 0, 0, 192, 255, 0, 0, 192, 255, 0, 0, 192, 255, 0, 0, 192, 255, 0, 0, 192, 255, 0, 0, 192, 255, 0, 0, 192, 255, 0, 0, 192, 255, 0, 0, 192, 255, 0, 0, 192, 255, 0, 0, 192, 255, 0, 0, 192, 255, 0, 0, 192, 255, 0, 0, 192, 255, 0, 0, 192, 255, 0, 0, 192, 255, 0, 0, 192, 255, 0, 0, 192, 255, 0, 0, 192, 255, 0, 0, 192, 255, 0, 0, 192, 255, 0, 0, 192, 255, 0, 0, 192, 255, 0, 0, 192, 255, 0, 0, 192, 255, 0, 0, 192, 255, 0, 0, 192, 255, 0, 0, 192, 255, 0, 0, 192, 255, 0, 0, 192, 255, 0, 0, 192, 255, 0, 0, 192, 255, 0, 0, 192, 255, 0, 0, 192, 255, 0, 0, 192, 255, 0, 0, 192, 255, 0, 0, 192, 255, 0, 0, 192, 255, 0, 0, 192, 255, 0, 0, 192, 255, 0, 0, 192, 255, 0, 0, 192, 255, 0, 0, 192, 255, 0, 0, 192, 255, 0, 0, 192, 255, 0, 0, 192, 255, 0, 0, 192, 255, 0, 0, 192, 255, 0, 0, 192, 255, 0, 0, 192, 255, 0, 0, 192, 255, 0, 0, 192, 255, 0, 0, 192, 255, 0, 0, 192, 255, 0, 0, 192, 255, 0, 0, 192, 255, 0, 0, 192, 255, 0, 0, 192, 255, 0, 0, 192, 255, 0, 0, 192, 255, 0, 0, 192, 255, 0, 0, 192, 255, 0, 0, 192, 255, 0, 0, 192, 255, 0, 0, 192, 255, 0, 0, 192, 255, 0, 0, 192, 255, 0, 0, 192, 255, 0, 0, 192, 255, 0, 0, 192, 255, 0, 0, 192, 255, 0, 0, 192, 255, 0, 0, 192, 255, 0, 0, 192, 255, 0, 0, 192, 255, 0, 0, 192, 255, 0, 0, 192, 255, 0, 0, 192, 255, 0, 0, 192, 255, 0, 0, 192, 255, 0, 0, 192, 255, 0, 0, 192, 255, 0, 0, 192, 255, 0, 0, 192, 255, 0, 0, 192, 255, 0, 0, 192, 255, 0, 0, 192, 255, 0, 0, 192, 255, 0, 0, 192, 255, 0, 0, 192, 255, 0, 0, 192, 255, 0, 0, 192, 255, 0, 0, 192, 255, 0, 0, 192, 255, 0, 0, 192, 255, 0, 0, 192, 255, 0, 0, 192, 255, 0, 0, 192, 255, 0, 0, 192, 255, 0, 0, 192, 255, 0, 0, 192, 255, 0, 0, 192, 255, 0, 0, 192, 255, 0, 0, 192, 255, 0, 0, 192, 255, 0, 0, 192, 255, 0, 0, 192, 255, 0, 0, 192, 255, 0, 0, 192, 255, 0, 0, 192, 255, 0, 0, 192, 255, 0, 0, 192, 255, 0, 0, 192, 255, 0, 0, 192, 255, 0, 0, 192, 255, 0, 0, 192, 255, 0, 0, 192, 255, 0, 0, 192, 255, 0, 0, 192, 255, 0, 0, 192, 255, 0, 0, 192, 255, 0, 0, 192, 255, 0, 0, 192, 255, 0, 0, 192, 255, 0, 0, 192, 255, 0, 0, 192, 255, 0, 0, 192, 255, 0, 0, 192, 255, 0, 0, 192, 255, 0, 0, 192, 255, 0, 0, 192, 255, 0, 0, 192, 255, 0, 0, 192, 255, 0, 0, 192, 255, 0, 0, 192, 255, 0, 0, 192, 255, 0, 0, 192, 255, 0, 0, 192, 255, 0, 0, 192, 255, 0, 0, 192, 255, 0, 0, 192, 255, 0, 0, 192, 255, 0, 0, 192, 255, 0, 0, 192, 255, 0, 0, 192, 255, 0, 0, 192, 255, 0, 0, 192, 255, 0, 0, 192, 255, 0, 0, 192, 255, 0, 0, 192, 255, 0, 0, 192, 255, 0, 0, 192, 255, 0, 0, 192, 255, 0, 0, 192, 255, 0, 0, 192, 255, 0, 0, 192, 255, 0, 0, 192, 255, 0, 0, 192, 255, 0, 0, 192, 255, 0, 0, 192, 255, 0, 0, 192, 255, 0, 0, 192, 255, 0, 0, 192, 255, 0, 0, 192, 255, 0, 0, 192, 255, 0, 0, 192, 255, 0, 0, 192, 255, 0, 0, 192, 255, 0, 0, 192, 255, 0, 0, 192, 255, 0, 0, 192, 255, 0, 0, 192, 255, 0, 0, 192, 255, 0, 0, 192, 255, 0, 0, 192, 255, 0, 0, 192, 255, 0, 0, 192, 255, 0, 0, 192, 255, 0, 0, 192, 255, 0, 0, 192, 255, 0, 0, 192, 255, 0, 0, 192, 255, 0, 0, 192, 255, 0, 0, 192, 255, 0, 0, 192, 255, 0, 0, 192, 255, 0, 0, 192, 255, 0, 0, 192, 255, 0, 0, 192, 255, 0, 0, 192, 255, 0, 0, 192, 255, 0, 0, 192, 255, 0, 0, 192, 255, 0, 0, 192, 255, 0, 0, 192, 255, 0, 0, 192, 255, 0, 0, 192, 255, 0, 0, 192, 255, 0, 0, 192, 255, 0, 0, 192, 255, 0, 0, 192, 255, 0, 0, 192, 255, 0, 0, 192, 255, 0, 0, 192, 255, 0, 0, 192, 255, 0, 0, 192, 255, 0, 0, 192, 255, 0, 0, 192, 255, 0, 0, 192, 255, 0, 0, 192, 255, 0, 0, 192, 255, 0, 0, 192, 255, 0, 0, 192, 255, 0, 0, 192, 255, 0, 0, 192, 255, 0, 0, 192, 255, 0, 0, 192, 255, 0, 0, 192, 255, 0, 0, 192, 255, 0, 0, 192, 255, 0, 0, 192, 255, 0, 0, 192, 255, 0, 0, 192, 255, 0, 0, 192, 255, 0, 0, 192, 255, 0, 0, 192, 255, 0, 0, 192, 255, 0, 0, 192, 255, 0, 0, 192, 255, 0, 0, 192, 255, 0, 0, 192, 255, 0, 0, 192, 255, 0, 0, 192, 255, 0, 0, 192, 255, 0, 0, 192, 255, 0, 0, 192, 255, 0, 0, 192, 255, 0, 0, 192, 255, 0, 0, 192, 255, 0, 0, 192, 255, 0, 0, 192, 255, 0, 0, 192, 255, 0, 0, 192, 255, 0, 0, 192, 255, 0, 0, 192, 255, 0, 0, 192, 255, 0, 0, 192, 255, 0, 0, 192, 255, 0, 0, 192, 255, 0, 0, 192, 255, 0, 0, 192, 255, 0, 0, 192, 255, 0, 0, 192, 255, 0, 0, 192, 255, 0, 0, 192, 255, 0, 0, 192, 255, 0, 0, 192, 255, 0, 0, 192, 255, 0, 0, 192, 255, 0, 0, 192, 255, 0, 0, 192, 255, 0, 0, 192, 255, 0, 0, 192, 255, 0, 0, 192, 255, 0, 0, 192, 255, 0, 0, 192, 255, 0, 0, 192, 255, 0, 0, 192, 255, 0, 0, 192, 255, 0, 0, 192, 255, 0, 0, 192, 255, 0, 0, 192, 255, 0, 0, 192, 255, 0, 0, 192, 255, 0, 0, 192, 255, 0, 0, 192, 255, 0, 0, 192, 255, 0, 0, 192, 255, 0, 0, 192, 255, 0, 0, 192, 255, 0, 0, 192, 255, 0, 0, 192, 255, 0, 0, 192, 255, 0, 0, 192, 255, 0, 0, 192, 255, 0, 0, 192, 255, 0, 0, 192, 255, 0, 0, 192, 255, 0, 0, 192, 255, 0, 0, 192, 255, 0, 0, 192, 255, 0, 0, 192, 255, 0, 0, 192, 255, 0, 0, 192, 255, 0, 0, 192, 255, 0, 0, 192, 255, 0, 0, 192, 255, 0, 0, 192, 255, 0, 0, 192, 255, 0, 0, 192, 255, 0, 0, 192, 255, 0, 0, 192, 255, 0, 0, 192, 255, 0, 0, 192, 255, 0, 0, 192, 255, 0, 0, 192, 255, 0, 0, 192, 255, 0, 0, 192, 255, 0, 0, 192, 255, 0, 0, 192, 255, 0, 0, 192, 255, 0, 0, 192, 255, 0, 0, 192, 255, 0, 0, 192, 255, 0, 0, 192, 255, 0, 0, 192, 255, 0, 0, 192, 255, 0, 0, 192, 255, 0, 0, 192, 255, 0, 0, 192, 255, 0, 0, 192, 255, 0, 0, 192, 255, 0, 0, 192, 255, 0, 0, 192, 255, 0, 0, 192, 255, 0, 0, 192, 255, 0, 0, 192, 255, 0, 0, 192, 255, 0, 0, 192, 255, 0, 0, 192, 255, 0, 0, 192, 255, 0, 0, 192, 255, 0, 0, 192, 255, 0, 0, 192, 255, 0, 0, 192, 255, 0, 0, 192, 255, 0, 0, 192, 255, 0, 0, 192, 255, 0, 0, 192, 255, 0, 0, 192, 255, 0, 0, 192, 255, 0, 0, 192, 255, 0, 0, 192, 255, 0, 0, 192, 255, 0, 0, 192, 255, 0, 0, 192, 255, 0, 0, 192, 255, 0, 0, 192, 255, 0, 0, 192, 255, 0, 0, 192, 255, 0, 0, 192, 255, 0, 0, 192, 255, 0, 0, 192, 255, 0, 0, 192, 255, 0, 0, 192, 255, 0, 0, 192, 255, 0, 0, 192, 255, 0, 0, 192, 255, 0, 0, 192, 255, 0, 0, 192, 255, 0, 0, 192, 255, 0, 0, 192, 255, 0, 0, 192, 255, 0, 0, 192, 255, 0, 0, 192, 255, 0, 0, 192, 255, 0, 0, 192, 255, 0, 0, 192, 255, 0, 0, 192, 255, 0, 0, 192, 255, 0, 0, 192, 255, 0, 0, 192, 255, 0, 0, 192, 255, 0, 0, 192, 255, 0, 0, 192, 255, 0, 0, 192, 255, 0, 0, 192, 255, 0, 0, 192, 255, 0, 0, 192, 255, 0, 0, 192, 255, 0, 0, 192, 255, 0, 0, 192, 255, 0, 0, 192, 255, 0, 0, 192, 255, 0, 0, 192, 255, 0, 0, 192, 255, 0, 0, 192, 255, 0, 0, 192, 255, 0, 0, 192, 255, 0, 0, 192, 255, 0, 0, 192, 255, 0, 0, 192, 255, 0, 0, 192, 255, 0, 0, 192, 255, 0, 0, 192, 255, 0, 0, 192, 255, 0, 0, 192, 255, 0, 0, 192, 255, 0, 0, 192, 255, 0, 0, 192, 255, 0, 0, 192, 255, 0, 0, 192, 255, 0, 0, 192, 255, 0, 0, 192, 255, 0, 0, 192, 255, 0, 0, 192, 255, 0, 0, 192, 255, 0, 0, 192, 255, 0, 0, 192, 255, 0, 0, 192, 255, 0, 0, 192, 255, 0, 0, 192, 255, 0, 0, 192, 255, 0, 0, 192, 255, 0, 0, 192, 255, 0, 0, 192, 255, 0, 0, 192, 255, 0, 0, 192, 255, 0, 0, 192, 255, 0, 0, 192, 255, 0, 0, 192, 255, 0, 0, 192, 255, 0, 0, 192, 255, 0, 0, 192, 255, 0, 0, 192, 255, 0, 0, 192, 255, 0, 0, 192, 255, 0, 0, 192, 255, 0, 0, 192, 255, 0, 0, 192, 255, 0, 0, 192, 255, 0, 0, 192, 255, 0, 0, 192, 255, 0, 0, 192, 255, 0, 0, 192, 255, 0, 0, 192, 255, 0, 0, 192, 255, 0, 0, 192, 255, 0, 0, 192, 255, 0, 0, 192, 255, 0, 0, 192, 255, 0, 0, 192, 255, 0, 0, 192, 255, 0, 0, 192, 255, 0, 0, 192, 255, 0, 0, 192, 255, 0, 0, 192, 255, 0, 0, 192, 255, 0, 0, 192, 255, 0, 0, 192, 255, 0, 0, 192, 255, 0, 0, 192, 255, 0, 0, 192, 255, 0, 0, 192, 255, 0, 0, 192, 255, 0, 0, 192, 255, 0, 0, 192, 255, 0, 0, 192, 255, 0, 0, 192, 255, 0, 0, 192, 255, 0, 0, 192, 255, 0, 0, 192, 255, 0, 0, 192, 255, 0, 0, 192, 255, 0, 0, 192, 255, 0, 0, 192, 255, 0, 0, 192, 255, 0, 0, 192, 255, 0, 0, 192, 255, 0, 0, 192, 255, 0, 0, 192, 255, 0, 0, 192, 255, 0, 0, 192, 255, 0, 0, 192, 255, 0, 0, 192, 255, 0, 0, 192, 255, 0, 0, 192, 255, 0, 0, 192, 255, 0, 0, 192, 255, 0, 0, 192, 255, 0, 0, 192, 255, 0, 0, 192, 255, 0, 0, 192, 255, 0, 0, 192, 255, 0, 0, 192, 255, 0, 0, 192, 255, 0, 0, 192, 255, 0, 0, 192, 255, 0, 0, 192, 255, 0, 0, 192, 255, 0, 0, 192, 255, 0, 0, 192, 255, 0, 0, 192, 255, 0, 0, 192, 255, 0, 0, 192, 255, 0, 0, 192, 255, 0, 0, 192, 255, 0, 0, 192, 255, 0, 0, 192, 255, 0, 0, 192, 255, 0, 0, 192, 255, 0, 0, 192, 255, 0, 0, 192, 255, 0, 0, 192, 255, 0, 0, 192, 255, 0, 0, 192, 255, 0, 0, 192, 255, 0, 0, 192, 255, 0, 0, 192, 255, 0, 0, 192, 255, 0, 0, 192, 255, 0, 0, 192, 255, 0, 0, 192, 255, 0, 0, 192, 255, 0, 0, 192, 255, 0, 0, 192, 255, 0, 0, 192, 255, 0, 0, 192, 255, 0, 0, 192, 255, 0, 0, 192, 255, 0, 0, 192, 255, 0, 0, 192, 255, 0, 0, 192, 255, 0, 0, 192, 255, 0, 0, 192, 255, 0, 0, 192, 255, 0, 0, 192, 255, 0, 0, 192, 255, 0, 0, 192, 255, 0, 0, 192, 255, 0, 0, 192, 255, 0, 0, 192, 255, 0, 0, 192, 255, 0, 0, 192, 255, 0, 0, 192, 255, 0, 0, 192, 255, 0, 0, 192, 255, 0, 0, 192, 255, 0, 0, 192, 255, 0, 0, 192, 255, 0, 0, 192, 255, 0, 0, 192, 255, 0, 0, 192, 255, 0, 0, 192, 255, 0, 0, 192, 255, 0, 0, 192, 255, 0, 0, 192, 255, 0, 0, 192, 255, 0, 0, 192, 255, 0, 0, 192, 255, 0, 0, 192, 255, 0, 0, 192, 255, 0, 0, 192, 255, 0, 0, 192, 255, 0, 0, 192, 255, 0, 0, 192, 255, 0, 0, 192, 255, 0, 0, 192, 255, 0, 0, 192, 255, 0, 0, 192, 255, 0, 0, 192, 255, 0, 0, 192, 255, 0, 0, 192, 255, 0, 0, 192, 255, 0, 0, 192, 255, 0, 0, 192, 255, 0, 0, 192, 255, 0, 0, 192, 255, 0, 0, 192, 255, 0, 0, 192, 255, 0, 0, 192, 255, 0, 0, 192, 255, 0, 0, 192, 255, 0, 0, 192, 255, 0, 0, 192, 255, 0, 0, 192, 255, 0, 0, 192, 255, 0, 0, 192, 255, 0, 0, 192, 255, 0, 0, 192, 255, 0, 0, 192, 255, 0, 0, 192, 255, 0, 0, 192, 255, 0, 0, 192, 255, 0, 0, 192, 255, 0, 0, 192, 255, 0, 0, 192, 255, 0, 0, 192, 255, 0, 0, 192, 255, 0, 0, 192, 255, 0, 0, 192, 255, 0, 0, 192, 255, 0, 0, 192, 255, 0, 0, 192, 255, 0, 0, 192, 255, 0, 0, 192, 255, 0, 0, 192, 255, 0, 0, 192, 255, 0, 0, 192, 255, 0, 0, 192, 255, 0, 0, 192, 255, 0, 0, 192, 255, 0, 0, 192, 255, 0, 0, 192, 255, 0, 0, 192, 255, 0, 0, 192, 255, 0, 0, 192, 255, 0, 0, 192, 255, 0, 0, 192, 255, 0, 0, 192, 255, 0, 0, 192, 255, 0, 0, 192, 255, 0, 0, 192, 255, 0, 0, 192, 255, 0, 0, 192, 255, 0, 0, 192, 255, 0, 0, 192, 255, 0, 0, 192, 255, 0, 0, 192, 255, 0, 0, 192, 255, 0, 0, 192, 255, 0, 0, 192, 255, 0, 0, 192, 255, 0, 0, 192, 255, 0, 0, 192, 255, 0, 0, 192, 255, 0, 0, 192, 255, 0, 0, 192, 255, 0, 0, 192, 255, 0, 0, 192, 255, 0, 0, 192, 255, 0, 0, 192, 255, 0, 0, 192, 255, 0, 0, 192, 255, 0, 0, 192, 255, 0, 0, 192, 255, 0, 0, 192, 255, 0, 0, 192, 255, 0, 0, 192, 255, 0, 0, 192, 255, 0, 0, 192, 255, 0, 0, 192, 255, 0, 0, 192, 255, 0, 0, 192, 255, 0, 0, 192, 255, 0, 0, 192, 255, 0, 0, 192, 255, 0, 0, 192, 255, 0, 0, 192, 255, 0, 0, 192, 255, 0, 0, 192, 255, 0, 0, 192, 255, 0, 0, 192, 255, 0, 0, 192, 255, 0, 0, 192, 255, 0, 0, 192, 255, 0, 0, 192, 255, 0, 0, 192, 255, 0, 0, 192, 255, 0, 0, 192, 255, 0, 0, 192, 255, 0, 0, 192, 255, 0, 0, 192, 255, 0, 0, 192, 255, 0, 0, 192, 255, 0, 0, 192, 255, 0, 0, 192, 255, 0, 0, 192, 255, 0, 0, 192, 255, 0, 0, 192, 255, 0, 0, 192, 255, 0, 0, 192, 255, 0, 0, 192, 255, 0, 0, 192, 255, 0, 0, 192, 255, 0, 0, 192, 255, 0, 0, 192, 255, 0, 0, 192, 255, 0, 0, 192, 255, 0, 0, 192, 255, 0, 0, 192, 255, 0, 0, 192, 255, 0, 0, 192, 255, 0, 0, 192, 255, 0, 0, 192, 255, 0, 0, 192, 255, 0, 0, 192, 255, 0, 0, 192, 255, 0, 0, 192, 255, 0, 0, 192, 255, 0, 0, 192, 255, 0, 0, 192, 255, 0, 0, 192, 255, 0, 0, 192, 255, 0, 0, 192, 255, 0, 0, 192, 255, 0, 0, 192, 255, 0, 0, 192, 255, 0, 0, 192, 255, 0, 0, 192, 255, 0, 0, 192, 255, 0, 0, 192, 255, 0, 0, 192, 255, 0, 0, 192, 255, 0, 0, 192, 255, 0, 0, 192, 255, 0, 0, 192, 255, 0, 0, 192, 255, 0, 0, 192, 255, 0, 0, 192, 255, 0, 0, 192, 255, 0, 0, 192, 255, 0, 0, 192, 255, 0, 0, 192, 255, 0, 0, 192, 255, 0, 0, 192, 255, 0, 0, 192, 255, 0, 0, 192, 255, 0, 0, 192, 255, 0, 0, 192, 255, 0, 0, 192, 255, 0, 0, 192, 255, 0, 0, 192, 255, 0, 0, 192, 255, 0, 0, 192, 255, 0, 0, 192, 255, 0, 0, 192, 255, 0, 0, 192, 255, 0, 0, 192, 255, 0, 0, 192, 255, 0, 0, 192, 255, 0, 0, 192, 255, 0, 0, 192, 255, 0, 0, 192, 255, 0, 0, 192, 255, 0, 0, 192, 255, 0, 0, 192, 255, 0, 0, 192, 255, 0, 0, 192, 255, 0, 0, 192, 255, 0, 0, 192, 255, 0, 0, 192, 255, 0, 0, 192, 255, 0, 0, 192, 255, 0, 0, 192, 255, 0, 0, 192, 255, 0, 0, 192, 255, 0, 0, 192, 255, 0, 0, 192, 255, 0, 0, 192, 255, 0, 0, 192, 255, 0, 0, 192, 255, 0, 0, 192, 255, 0, 0, 192, 255, 0, 0, 192, 255, 0, 0, 192, 255, 0, 0, 192, 255, 0, 0, 192, 255, 0, 0, 192, 255, 0, 0, 192, 255, 0, 0, 192, 255, 0, 0, 192, 255, 0, 0, 192, 255, 0, 0, 192, 255, 0, 0, 192, 255, 0, 0, 192, 255, 0, 0, 192, 255, 0, 0, 192, 255, 0, 0, 192, 255, 0, 0, 192, 255, 0, 0, 192, 255, 0, 0, 192, 255, 0, 0, 192, 255, 0, 0, 192, 255, 0, 0, 192, 255, 0, 0, 192, 255, 0, 0, 192, 255, 0, 0, 192, 255, 0, 0, 192, 255, 0, 0, 192, 255, 0, 0, 192, 255, 0, 0, 192, 255, 0, 0, 192, 255, 0, 0, 192, 255, 0, 0, 192, 255, 0, 0, 192, 255, 0, 0, 192, 255, 0, 0, 192, 255, 0, 0, 192, 255, 0, 0, 192, 255, 0, 0, 192, 255, 0, 0, 192, 255, 0, 0, 192, 255, 0, 0, 192, 255, 0, 0, 192, 255, 0, 0, 192, 255, 0, 0, 192, 255, 0, 0, 192, 255, 0, 0, 192, 255, 0, 0, 192, 255, 0, 0, 192, 255, 0, 0, 192, 255, 0, 0, 192, 255, 0, 0, 192, 255, 0, 0, 192, 255, 0, 0, 192, 255, 0, 0, 192, 255, 0, 0, 192, 255, 0, 0, 192, 255, 0, 0, 192, 255, 0, 0, 192, 255, 0, 0, 192, 255, 0, 0, 192, 255, 0, 0, 192, 255, 0, 0, 192, 255, 0, 0, 192, 255, 0, 0, 192, 255, 0, 0, 192, 255, 0, 0, 192, 255, 0, 0, 192, 255, 0, 0, 192, 255, 0, 0, 192, 255, 0, 0, 192, 255, 0, 0, 192, 255, 0, 0, 192, 255, 0, 0, 192, 255, 0, 0, 192, 255, 0, 0, 192, 255, 0, 0, 192, 255, 0, 0, 192, 255, 0, 0, 192, 255, 0, 0, 192, 255, 0, 0, 192, 255, 0, 0, 192, 255, 0, 0, 192, 255, 0, 0, 192, 255, 0, 0, 192, 255, 0, 0, 192, 255, 0, 0, 192, 255, 0, 0, 192, 255, 0, 0, 192, 255, 0, 0, 192, 255, 0, 0, 192, 255, 0, 0, 192, 255, 0, 0, 192, 255, 0, 0, 192, 255, 0, 0, 192, 255, 0, 0, 192, 255, 0, 0, 192, 255, 0, 0, 192, 255, 0, 0, 192, 255, 0, 0, 192, 255, 0, 0, 192, 255, 0, 0, 192, 255, 0, 0, 192, 255, 0, 0, 192, 255, 0, 0, 192, 255, 0, 0, 192, 255, 0, 0, 192, 255, 0, 0, 192, 255, 0, 0, 192, 255, 0, 0, 192, 255, 0, 0, 192, 255, 0, 0, 192, 255, 0, 0, 192, 255, 0, 0, 192, 255, 0, 0, 192, 255, 0, 0, 192, 255, 0, 0, 192, 255, 0, 0, 192, 255, 0, 0, 192, 255, 0, 0, 192, 255, 0, 0, 192, 255, 0, 0, 192, 255, 0, 0, 192, 255, 0, 0, 192, 255, 0, 0, 192, 255, 0, 0, 192, 255, 0, 0, 192, 255, 0, 0, 192, 255, 0, 0, 192, 255, 0, 0, 192, 255, 0, 0, 192, 255, 0, 0, 192, 255, 0, 0, 192, 255, 0, 0, 192, 255, 0, 0, 192, 255, 0, 0, 192, 255, 0, 0, 192, 255, 0, 0, 192, 255, 0, 0, 192, 255, 0, 0, 192, 255, 0, 0, 192, 255, 0, 0, 192, 255, 0, 0, 192, 255, 0, 0, 192, 255, 0, 0, 192, 255, 0, 0, 192, 255, 0, 0, 192, 255, 0, 0, 192, 255, 0, 0, 192, 255, 0, 0, 192, 255, 0, 0, 192, 255, 0, 0, 192, 255, 0, 0, 192, 255, 0, 0, 192, 255, 0, 0, 192, 255, 0, 0, 192, 255, 0, 0, 192, 255, 0, 0, 192, 255, 0, 0, 192, 255, 0, 0, 192, 255, 0, 0, 192, 255, 0, 0, 192, 255, 0, 0, 192, 255, 0, 0, 192, 255, 0, 0, 192, 255, 0, 0, 192, 255, 0, 0, 192, 255, 0, 0, 192, 255, 0, 0, 192, 255, 0, 0, 192, 255, 0, 0, 192, 255, 0, 0, 192, 255, 0, 0, 192, 255, 0, 0, 192, 255, 0, 0, 192, 255, 0, 0, 192, 255, 0, 0, 192, 255, 0, 0, 192, 255, 0, 0, 192, 255, 0, 0, 192, 255, 0, 0, 192, 255, 0, 0, 192, 255, 0, 0, 192, 255, 0, 0, 192, 255, 0, 0, 192, 255, 0, 0, 192, 255, 0, 0, 192, 255, 0, 0, 192, 255, 0, 0, 192, 255, 0, 0, 192, 255, 0, 0, 192, 255, 0, 0, 192, 255, 0, 0, 192, 255, 0, 0, 192, 255, 0, 0, 192, 255, 0, 0, 192, 255, 0, 0, 192, 255, 0, 0, 192, 255, 0, 0, 192, 255, 0, 0, 192, 255, 0, 0, 192, 255, 0, 0, 192, 255, 0, 0, 192, 255, 0, 0, 192, 255, 0, 0, 192, 255, 0, 0, 192, 255, 0, 0, 192, 255, 0, 0, 192, 255, 0, 0, 192, 255, 0, 0, 192, 255, 0, 0, 192, 255, 0, 0, 192, 255, 0, 0, 192, 255, 0, 0, 192, 255, 0, 0, 192, 255, 0, 0, 192, 255, 0, 0, 192, 255, 0, 0, 192, 255, 0, 0, 192, 255, 0, 0, 192, 255, 0, 0, 192, 255, 0, 0, 192, 255, 0, 0, 192, 255, 0, 0, 192, 255, 0, 0, 192, 255, 0, 0, 192, 255, 0, 0, 192, 255, 0, 0, 192, 255, 0, 0, 192, 255, 0, 0, 192, 255, 0, 0, 192, 255, 0, 0, 192, 255, 0, 0, 192, 255, 0, 0, 192, 255, 0, 0, 192, 255, 0, 0, 192, 255, 0, 0, 192, 255, 0, 0, 192, 255, 0, 0, 192, 255, 0, 0, 192, 255, 0, 0, 192, 255, 0, 0, 192, 255, 0, 0, 192, 255, 0, 0, 192, 255, 0, 0, 192, 255, 0, 0, 192, 255, 0, 0, 192, 255, 0, 0, 192, 255, 0, 0, 192, 255, 0, 0, 192, 255, 0, 0, 192, 255, 0, 0, 192, 255, 0, 0, 192, 255, 0, 0, 192, 255, 0, 0, 192, 255, 0, 0, 192, 255, 0, 0, 192, 255, 0, 0, 192, 255, 0, 0, 192, 255, 0, 0, 192, 255, 0, 0, 192, 255, 0, 0, 192, 255, 0, 0, 192, 255, 0, 0, 192, 255, 0, 0, 192, 255, 0, 0, 192, 255, 0, 0, 192, 255, 0, 0, 192, 255, 0, 0, 192, 255, 0, 0, 192, 255, 0, 0, 192, 255, 0, 0, 192, 255, 0, 0, 192, 255, 0, 0, 192, 255, 0, 0, 192, 255, 0, 0, 192, 255, 0, 0, 192, 255, 0, 0, 192, 255, 0, 0, 192, 255, 0, 0, 192, 255, 0, 0, 192, 255, 0, 0, 192, 255, 0, 0, 192, 255, 0, 0, 192, 255, 0, 0, 192, 255, 0, 0, 192, 255, 0, 0, 192, 255, 0, 0, 192, 255, 0, 0, 192, 255, 0, 0, 192, 255, 0, 0, 192, 255, 0, 0, 192, 255, 0, 0, 192, 255, 0, 0, 192, 255, 0, 0, 192, 255, 0, 0, 192, 255, 0, 0, 192, 255, 0, 0, 192, 255, 0, 0, 192, 255, 0, 0, 192, 255, 0, 0, 192, 255, 0, 0, 192, 255, 0, 0, 192, 255, 0, 0, 192, 255, 0, 0, 192, 255, 0, 0, 192, 255, 0, 0, 192, 255, 0, 0, 192, 255, 0, 0, 192, 255, 0, 0, 192, 255, 0, 0, 192, 255, 0, 0, 192, 255, 0, 0, 192, 255, 0, 0, 192, 255, 0, 0, 192, 255, 0, 0, 192, 255, 0, 0, 192, 255, 0, 0, 192, 255, 0, 0, 192, 255, 0, 0, 192, 255, 0, 0, 192, 255, 0, 0, 192, 255, 0, 0, 192, 255, 0, 0, 192, 255, 0, 0, 192, 255, 0, 0, 192, 255, 0, 0, 192, 255, 0, 0, 192, 255, 0, 0, 192, 255, 0, 0, 192, 255, 0, 0, 192, 255, 0, 0, 192, 255, 0, 0, 192, 255, 0, 0, 192, 255, 0, 0, 192, 255, 0, 0, 192, 255, 0, 0, 192, 255, 0, 0, 192, 255, 0, 0, 192, 255, 0, 0, 192, 255, 0, 0, 192, 255, 0, 0, 192, 255, 0, 0, 192, 255, 0, 0, 192, 255, 0, 0, 192, 255, 0, 0, 192, 255, 0, 0, 192, 255, 0, 0, 192, 255, 0, 0, 192, 255, 0, 0, 192, 255, 0, 0, 192, 255, 0, 0, 192, 255, 0, 0, 192, 255, 0, 0, 192, 255, 0, 0, 192, 255, 0, 0, 192, 255, 0, 0, 192, 255, 0, 0, 192, 255, 0, 0, 192, 255, 0, 0, 192, 255, 0, 0, 192, 255, 0, 0, 192, 255, 0, 0, 192, 255, 0, 0, 192, 255, 0, 0, 192, 255, 0, 0, 192, 255, 0, 0, 192, 255, 0, 0, 192, 255, 0, 0, 192, 255, 0, 0, 192, 255, 0, 0, 192, 255, 0, 0, 192, 255, 0, 0, 192, 255, 0, 0, 192, 255, 0, 0, 192, 255, 0, 0, 192, 255, 0, 0, 192, 255, 0, 0, 192, 255, 0, 0, 192, 255, 0, 0, 192, 255, 0, 0, 192, 255, 0, 0, 192, 255, 0, 0, 192, 255, 0, 0, 192, 255, 0, 0, 192, 255, 0, 0, 192, 255, 0, 0, 192, 255, 0, 0, 192, 255, 0, 0, 192, 255, 0, 0, 192, 255, 0, 0, 192, 255, 0, 0, 192, 255, 0, 0, 192, 255, 0, 0, 192, 255, 0, 0, 192, 255, 0, 0, 192, 255, 0, 0, 192, 255, 0, 0, 192, 255, 0, 0, 192, 255, 0, 0, 192, 255, 0, 0, 192, 255, 0, 0, 192, 255, 0, 0, 192, 255, 0, 0, 192, 255, 0, 0, 192, 255, 0, 0, 192, 255, 0, 0, 192, 255, 0, 0, 192, 255, 0, 0, 192, 255, 0, 0, 192, 255, 0, 0, 192, 255, 0, 0, 192, 255, 0, 0, 192, 255, 0, 0, 192, 255, 0, 0, 192, 255, 0, 0, 192, 255, 0, 0, 192, 255, 0, 0, 192, 255, 0, 0, 192, 255, 0, 0, 192, 255, 0, 0, 192, 255, 0, 0, 192, 255, 0, 0, 192, 255, 0, 0, 192, 255, 0, 0, 192, 255, 0, 0, 192, 255, 0, 0, 192, 255, 0, 0, 192, 255, 0, 0, 192, 255, 0, 0, 192, 255, 0, 0, 192, 255, 0, 0, 192, 255, 0, 0, 192, 255, 0, 0, 192, 255, 0, 0, 192, 255, 0, 0, 192, 255, 0, 0, 192, 255, 0, 0, 192, 255, 0, 0, 192, 255, 0, 0, 192, 255, 0, 0, 192, 255, 0, 0, 192, 255, 0, 0, 192, 255, 0, 0, 192, 255, 0, 0, 192, 255, 0, 0, 192, 255, 0, 0, 192, 255, 0, 0, 192, 255, 0, 0, 192, 255, 0, 0, 192, 255, 0, 0, 192, 255, 0, 0, 192, 255, 0, 0, 192, 255, 0, 0, 192, 255, 0, 0, 192, 255, 0, 0, 192, 255, 0, 0, 192, 255, 0, 0, 192, 255, 0, 0, 192, 255, 0, 0, 192, 255, 0, 0, 192, 255, 0, 0, 192, 255, 0, 0, 192, 255, 0, 0, 192, 255, 0, 0, 192, 255, 0, 0, 192, 255, 0, 0, 192, 255, 0, 0, 192, 255, 0, 0, 192, 255, 0, 0, 192, 255, 0, 0, 192, 255, 0, 0, 192, 255, 0, 0, 192, 255, 0, 0, 192, 255, 0, 0, 192, 255, 0, 0, 192, 255, 0, 0, 192, 255, 0, 0, 192, 255, 0, 0, 192, 255, 0, 0, 192, 255, 0, 0, 192, 255, 0, 0, 192, 255, 0, 0, 192, 255, 0, 0, 192, 255, 0, 0, 192, 255, 0, 0, 192, 255, 0, 0, 192, 255, 0, 0, 192, 255, 0, 0, 192, 255, 0, 0, 192, 255, 0, 0, 192, 255, 0, 0, 192, 255, 0, 0, 192, 255, 0, 0, 192, 255, 0, 0, 192, 255, 0, 0, 192, 255, 0, 0, 192, 255, 0, 0, 192, 255, 0, 0, 192, 255, 0, 0, 192, 255, 0, 0, 192, 255, 0, 0, 192, 255, 0, 0, 192, 255, 0, 0, 192, 255, 0, 0, 192, 255, 0, 0, 192, 255, 0, 0, 192, 255, 0, 0, 192, 255, 0, 0, 192, 255, 0, 0, 192, 255, 0, 0, 192, 255, 0, 0, 192, 255, 0, 0, 192, 255, 0, 0, 192, 255, 0, 0, 192, 255, 0, 0, 192, 255, 0, 0, 192, 255, 0, 0, 192, 255, 0, 0, 192, 255, 0, 0, 192, 255, 0, 0, 192, 255, 0, 0, 192, 255, 0, 0, 192, 255, 0, 0, 192, 255, 0, 0, 192, 255, 0, 0, 192, 255, 0, 0, 192, 255, 0, 0, 192, 255, 0, 0, 192, 255, 0, 0, 192, 255, 0, 0, 192, 255, 0, 0, 192, 255, 0, 0, 192, 255, 0, 0, 192, 255, 0, 0, 192, 255, 0, 0, 192, 255, 0, 0, 192, 255, 0, 0, 192, 255, 0, 0, 192, 255, 0, 0, 192, 255, 0, 0, 192, 255, 0, 0, 192, 255, 0, 0, 192, 255, 0, 0, 192, 255, 0, 0, 192, 255, 0, 0, 192, 255, 0, 0, 192, 255, 0, 0, 192, 255, 0, 0, 192, 255, 0, 0, 192, 255, 0, 0, 192, 255, 0, 0, 192, 255, 0, 0, 192, 255, 0, 0, 192, 255, 0, 0, 192, 255, 0, 0, 192, 255, 0, 0, 192, 255, 0, 0, 192, 255, 0, 0, 192, 255, 0, 0, 192, 255, 0, 0, 192, 255, 0, 0, 192, 255, 0, 0, 192, 255, 0, 0, 192, 255, 0, 0, 192, 255, 0, 0, 192, 255, 0, 0, 192, 255, 0, 0, 192, 255, 0, 0, 192, 255, 0, 0, 192, 255, 0, 0, 192, 255, 0, 0, 192, 255, 0, 0, 192, 255, 0, 0, 192, 255, 0, 0, 192, 255, 0, 0, 192, 255, 0, 0, 192, 255, 0, 0, 192, 255, 0, 0, 192, 255, 0, 0, 192, 255, 0, 0, 192, 255, 0, 0, 192, 255, 0, 0, 192, 255, 0, 0, 192, 255, 0, 0, 192, 255, 0, 0, 192, 255, 0, 0, 192, 255, 0, 0, 192, 255, 0, 0, 192, 255, 0, 0, 192, 255, 0, 0, 192, 255, 0, 0, 192, 255, 0, 0, 192, 255, 0, 0, 192, 255, 0, 0, 192, 255, 0, 0, 192, 255, 0, 0, 192, 255, 0, 0, 192, 255, 0, 0, 192, 255, 0, 0, 192, 255, 0, 0, 192, 255, 0, 0, 192, 255, 0, 0, 192, 255, 0, 0, 192, 255, 0, 0, 192, 255, 0, 0, 192, 255, 0, 0, 192, 255, 0, 0, 192, 255, 0, 0, 192, 255, 0, 0, 192, 255, 0, 0, 192, 255, 0, 0, 192, 255, 0, 0, 192, 255, 0, 0, 192, 255, 0, 0, 192, 255, 0, 0, 192, 255, 0, 0, 192, 255, 0, 0, 192, 255, 0, 0, 192, 255, 0, 0, 192, 255, 0, 0, 192, 255, 0, 0, 192, 255, 0, 0, 192, 255, 0, 0, 192, 255, 0, 0, 192, 255, 0, 0, 192, 255, 0, 0, 192, 255, 0, 0, 192, 255, 0, 0, 192, 255, 0, 0, 192, 255, 0, 0, 192, 255, 0, 0, 192, 255, 0, 0, 192, 255, 0, 0, 192, 255, 0, 0, 192, 255, 0, 0, 192, 255, 0, 0, 192, 255, 0, 0, 192, 255, 0, 0, 192, 255, 0, 0, 192, 255, 0, 0, 192, 255, 0, 0, 192, 255, 0, 0, 192, 255, 0, 0, 192, 255, 0, 0, 192, 255, 0, 0, 192, 255, 0, 0, 192, 255, 0, 0, 192, 255, 0, 0, 192, 255, 0, 0, 192, 255, 0, 0, 192, 255, 0, 0, 192, 255, 0, 0, 192, 255, 0, 0, 192, 255, 0, 0, 192, 255, 0, 0, 192, 255, 0, 0, 192, 255, 0, 0, 192, 255, 0, 0, 192, 255, 0, 0, 192, 255, 0, 0, 192, 255, 0, 0, 192, 255, 0, 0, 192, 255, 0, 0, 192, 255, 0, 0, 192, 255, 0, 0, 192, 255, 0, 0, 192, 255, 0, 0, 192, 255, 0, 0, 192, 255, 0, 0, 192, 255, 0, 0, 192, 255, 0, 0, 192, 255, 0, 0, 192, 255, 0, 0, 192, 255, 0, 0, 192, 255, 0, 0, 192, 255, 0, 0, 192, 255, 0, 0, 192, 255, 0, 0, 192, 255, 0, 0, 192, 255, 0, 0, 192, 255, 0, 0, 192, 255, 0, 0, 192, 255, 0, 0, 192, 255, 0, 0, 192, 255, 0, 0, 192, 255, 0, 0, 192, 255, 0, 0, 192, 255, 0, 0, 192, 255, 0, 0, 192, 255, 0, 0, 192, 255, 0, 0, 192, 255, 0, 0, 192, 255, 0, 0, 192, 255, 0, 0, 192, 255, 0, 0, 192, 255, 0, 0, 192, 255, 0, 0, 192, 255, 0, 0, 192, 255, 0, 0, 192, 255, 0, 0, 192, 255, 0, 0, 192, 255, 0, 0, 192, 255, 0, 0, 192, 255, 0, 0, 192, 255, 0, 0, 192, 255, 0, 0, 192, 255, 0, 0, 192, 255, 0, 0, 192, 255, 0, 0, 192, 255, 0, 0, 192, 255, 0, 0, 192, 255, 0, 0, 192, 255, 0, 0, 192, 255, 0, 0, 192, 255, 0, 0, 192, 255, 0, 0, 192, 255, 0, 0, 192, 255, 0, 0, 192, 255, 0, 0, 192, 255, 0, 0, 192, 255, 0, 0, 192, 255, 0, 0, 192, 255, 0, 0, 192, 255, 0, 0, 192, 255, 0, 0, 192, 255, 0, 0, 192, 255, 0, 0, 192, 255, 0, 0, 192, 255, 0, 0, 192, 255, 0, 0, 192, 255, 0, 0, 192, 255, 0, 0, 192, 255, 0, 0, 192, 255, 0, 0, 192, 255, 0, 0, 192, 255, 0, 0, 192, 255, 0, 0, 192, 255, 0, 0, 192, 255, 0, 0, 192, 255, 0, 0, 192, 255, 0, 0, 192, 255, 0, 0, 192, 255, 0, 0, 192, 255, 0, 0, 192, 255, 0, 0, 192, 255, 0, 0, 192, 255, 0, 0, 192, 255, 0, 0, 192, 255, 0, 0, 192, 255, 0, 0, 192, 255, 0, 0, 192, 255, 0, 0, 192, 255, 0, 0, 192, 255, 0, 0, 192, 255, 0, 0, 192, 255, 0, 0, 192, 255, 0, 0, 192, 255, 0, 0, 192, 255, 0, 0, 192, 255, 0, 0, 192, 255, 0, 0, 192, 255, 0, 0, 192, 255, 0, 0, 192, 255, 0, 0, 192, 255, 0, 0, 192, 255, 0, 0, 192, 255, 0, 0, 192, 255, 0, 0, 192, 255, 0, 0, 192, 255, 0, 0, 192, 255, 0, 0, 192, 255, 0, 0, 192, 255, 0, 0, 192, 255, 0, 0, 192, 255, 0, 0, 192, 255, 0, 0, 192, 255, 0, 0, 192, 255, 0, 0, 192, 255, 0, 0, 192, 255, 0, 0, 192, 255, 0, 0, 192, 255, 0, 0, 192, 255, 0, 0, 192, 255, 0, 0, 192, 255, 0, 0, 192, 255, 0, 0, 192, 255, 0, 0, 192, 255, 0, 0, 192, 255, 0, 0, 192, 255, 0, 0, 192, 255, 0, 0, 192, 255, 0, 0, 192, 255, 0, 0, 192, 255, 0, 0, 192, 255, 0, 0, 192, 255, 0, 0, 192, 255, 0, 0, 192, 255, 0, 0, 192, 255, 0, 0, 192, 255, 0, 0, 192, 255, 0, 0, 192, 255, 0, 0, 192, 255, 0, 0, 192, 255, 0, 0, 192, 255, 0, 0, 192, 255, 0, 0, 192, 255, 0, 0, 192, 255, 0, 0, 192, 255, 0, 0, 192, 255, 0, 0, 192, 255, 0, 0, 192, 255, 0, 0, 192, 255, 0, 0, 192, 255, 0, 0, 192, 255, 0, 0, 192, 255, 0, 0, 192, 255, 0, 0, 192, 255, 0, 0, 192, 255, 0, 0, 192, 255, 0, 0, 192, 255, 0, 0, 192, 255, 0, 0, 192, 255, 0, 0, 192, 255, 0, 0, 192, 255, 0, 0, 192, 255, 0, 0, 192, 255, 0, 0, 192, 255, 0, 0, 192, 255, 0, 0, 192, 255, 0, 0, 192, 255, 0, 0, 192, 255, 0, 0, 192, 255, 0, 0, 192, 255, 0, 0, 192, 255, 0, 0, 192, 255, 0, 0, 192, 255, 0, 0, 192, 255, 0, 0, 192, 255, 0, 0, 192, 255, 0, 0, 192, 255, 0, 0, 192, 255, 0, 0, 192, 255, 0, 0, 192, 255, 0, 0, 192, 255, 0, 0, 192, 255, 0, 0, 192, 255, 0, 0, 192, 255, 0, 0, 192, 255, 0, 0, 192, 255, 0, 0, 192, 255, 0, 0, 192, 255, 0, 0, 192, 255, 0, 0, 192, 255, 0, 0, 192, 255, 0, 0, 192, 255, 0, 0, 192, 255, 0, 0, 192, 255, 0, 0, 192, 255, 0, 0, 192, 255, 0, 0, 192, 255, 0, 0, 192, 255, 0, 0, 192, 255, 0, 0, 192, 255, 0, 0, 192, 255, 0, 0, 192, 255, 0, 0, 192, 255, 0, 0, 192, 255, 0, 0, 192, 255, 0, 0, 192, 255, 0, 0, 192, 255, 0, 0, 192, 255, 0, 0, 192, 255, 0, 0, 192, 255, 0, 0, 192, 255, 0, 0, 192, 255, 0, 0, 192, 255, 0, 0, 192, 255, 0, 0, 192, 255, 0, 0, 192, 255, 0, 0, 192, 255, 0, 0, 192, 255, 0, 0, 192, 255, 0, 0, 192, 255, 0, 0, 192, 255, 0, 0, 192, 255, 0, 0, 192, 255, 0, 0, 192, 255, 0, 0, 192, 255, 0, 0, 192, 255, 0, 0, 192, 255, 0, 0, 192, 255, 0, 0, 192, 255, 0, 0, 192, 255, 0, 0, 192, 255, 0, 0, 192, 255, 0, 0, 192, 255, 0, 0, 192, 255, 0, 0, 192, 255, 0, 0, 192, 255, 0, 0, 192, 255, 0, 0, 192, 255, 0, 0, 192, 255, 0, 0, 192, 255, 0, 0, 192, 255, 0, 0, 192, 255, 0, 0, 192, 255, 0, 0, 192, 255, 0, 0, 192, 255, 0, 0, 192, 255, 0, 0, 192, 255, 0, 0, 192, 255, 0, 0, 192, 255, 0, 0, 192, 255, 0, 0, 192, 255, 0, 0, 192, 255, 0, 0, 192, 255, 0, 0, 192, 255, 0, 0, 192, 255, 0, 0, 192, 255, 0, 0, 192, 255, 0, 0, 192, 255, 0, 0, 192, 255, 0, 0, 192, 255, 0, 0, 192, 255, 0, 0, 192, 255, 0, 0, 192, 255, 0, 0, 192, 255, 0, 0, 192, 255, 0, 0, 192, 255, 0, 0, 192, 255, 0, 0, 192, 255, 0, 0, 192, 255, 0, 0, 192, 255, 0, 0, 192, 255, 0, 0, 192, 255, 0, 0, 192, 255, 0, 0, 192, 255, 0, 0, 192, 255, 0, 0, 192, 255, 0, 0, 192, 255, 0, 0, 192, 255, 0, 0, 192, 255, 0, 0, 192, 255, 0, 0, 192, 255, 0, 0, 192, 255, 0, 0, 192, 255, 0, 0, 192, 255, 0, 0, 192, 255, 0, 0, 192, 255, 0, 0, 192, 255, 0, 0, 192, 255, 0, 0, 192, 255, 0, 0, 192, 255, 0, 0, 192, 255, 0, 0, 192, 255, 0, 0, 192, 255, 0, 0, 192, 255, 0, 0, 192, 255, 0, 0, 192, 255, 0, 0, 192, 255, 0, 0, 192, 255, 0, 0, 192, 255, 0, 0, 192, 255, 0, 0, 192, 255, 0, 0, 192, 255, 0, 0, 192, 255, 0, 0, 192, 255, 0, 0, 192, 255, 0, 0, 192, 255, 0, 0, 192, 255, 0, 0, 192, 255, 0, 0, 192, 255, 0, 0, 192, 255, 0, 0, 192, 255, 0, 0, 192, 255, 0, 0, 192, 255, 0, 0, 192, 255, 0, 0, 192, 255, 0, 0, 192, 255, 0, 0, 192, 255, 0, 0, 192, 255, 0, 0, 192, 255, 0, 0, 192, 255, 0, 0, 192, 255, 0, 0, 192, 255, 0, 0, 192, 255, 0, 0, 192, 255, 0, 0, 192, 255, 0, 0, 192, 255, 0, 0, 192, 255, 0, 0, 192, 255, 0, 0, 192, 255, 0, 0, 192, 255, 0, 0, 192, 255, 0, 0, 192, 255, 0, 0, 192, 255, 0, 0, 192, 255, 0, 0, 192, 255, 0, 0, 192, 255, 0, 0, 192, 255, 0, 0, 192, 255, 0, 0, 192, 255, 0, 0, 192, 255, 0, 0, 192, 255, 0, 0, 192, 255, 0, 0, 192, 255, 0, 0, 192, 255, 0, 0, 192, 255, 0, 0, 192, 255, 0, 0, 192, 255, 0, 0, 192, 255, 0, 0, 192, 255, 0, 0, 192, 255, 0, 0, 192, 255, 0, 0, 192, 255, 0, 0, 192, 255, 0, 0, 192, 255, 0, 0, 192, 255, 0, 0, 192, 255, 0, 0, 192, 255, 0, 0, 192, 255, 0, 0, 192, 255, 0, 0, 192, 255, 0, 0, 192, 255, 0, 0, 192, 255, 0, 0, 192, 255, 0, 0, 192, 255, 0, 0, 192, 255, 0, 0, 192, 255, 0, 0, 192, 255, 0, 0, 192, 255, 0, 0, 192, 255, 0, 0, 192, 255, 0, 0, 192, 255, 0, 0, 192, 255, 0, 0, 192, 255, 0, 0, 192, 255, 0, 0, 192, 255, 0, 0, 192, 255, 0, 0, 192, 255, 0, 0, 192, 255, 0, 0, 192, 255, 0, 0, 192, 255, 0, 0, 192, 255, 0, 0, 192, 255, 0, 0, 192, 255, 0, 0, 192, 255, 0, 0, 192, 255, 0, 0, 192, 255, 0, 0, 192, 255, 0, 0, 192, 255, 0, 0, 192, 255, 0, 0, 192, 255, 0, 0, 192, 255, 0, 0, 192, 255, 0, 0, 192, 255, 0, 0, 192, 255, 0, 0, 192, 255, 0, 0, 192, 255, 0, 0, 192, 255, 0, 0, 192, 255, 0, 0, 192, 255, 0, 0, 192, 255, 0, 0, 192, 255, 0, 0, 192, 255, 0, 0, 192, 255, 0, 0, 192, 255, 0, 0, 192, 255, 0, 0, 192, 255, 0, 0, 192, 255, 0, 0, 192, 255, 0, 0, 192, 255, 0, 0, 192, 255, 0, 0, 192, 255, 0, 0, 192, 255, 0, 0, 192, 255, 0, 0, 192, 255, 0, 0, 192, 255, 0, 0, 192, 255, 0, 0, 192, 255, 0, 0, 192, 255, 0, 0, 192, 255, 0, 0, 192, 255, 0, 0, 192, 255, 0, 0, 192, 255, 0, 0, 192, 255, 0, 0, 192, 255, 0, 0, 192, 255, 0, 0, 192, 255, 0, 0, 192, 255, 0, 0, 192, 255, 0, 0, 192, 255, 0, 0, 192, 255, 0, 0, 192, 255, 0, 0, 192, 255, 0, 0, 192, 255, 0, 0, 192, 255, 0, 0, 192, 255, 0, 0, 192, 255, 0, 0, 192, 255, 0, 0, 192, 255, 0, 0, 192, 255, 0, 0, 192, 255, 0, 0, 192, 255, 0, 0, 192, 255, 0, 0, 192, 255, 0, 0, 192, 255, 0, 0, 192, 255, 0, 0, 192, 255, 0, 0, 192, 255, 0, 0, 192, 255, 0, 0, 192, 255, 0, 0, 192, 255, 0, 0, 192, 255, 0, 0, 192, 255, 0, 0, 192, 255, 0, 0, 192, 255, 0, 0, 192, 255, 0, 0, 192, 255, 0, 0, 192, 255, 0, 0, 192, 255, 0, 0, 192, 255, 0, 0, 192, 255, 0, 0, 192, 255, 0, 0, 192, 255, 0, 0, 192, 255, 0, 0, 192, 255, 0, 0, 192, 255, 0, 0, 192, 255, 0, 0, 192, 255, 0, 0, 192, 255, 0, 0, 192, 255, 0, 0, 192, 255, 0, 0, 192, 255, 0, 0, 192, 255, 0, 0, 192, 255, 0, 0, 192, 255, 0, 0, 192, 255, 0, 0, 192, 255, 0, 0, 192, 255, 0, 0, 192, 255, 0, 0, 192, 255, 0, 0, 192, 255, 0, 0, 192, 255, 0, 0, 192, 255, 0, 0, 192, 255, 0, 0, 192, 255, 0, 0, 192, 255, 0, 0, 192, 255, 0, 0, 192, 255, 0, 0, 192, 255, 0, 0, 192, 255, 0, 0, 192, 255, 0, 0, 192, 255, 0, 0, 192, 255, 0, 0, 192, 255, 0, 0, 192, 255, 0, 0, 192, 255, 0, 0, 192, 255, 0, 0, 192, 255, 0, 0, 192, 255, 0, 0, 192, 255, 0, 0, 192, 255, 0, 0, 192, 255, 0, 0, 192, 255, 0, 0, 192, 255, 0, 0, 192, 255, 0, 0, 192, 255, 0, 0, 192, 255, 0, 0, 192, 255, 0, 0, 192, 255, 0, 0, 192, 255, 0, 0, 192, 255, 0, 0, 192, 255, 0, 0, 192, 255, 0, 0, 192, 255, 0, 0, 192, 255, 0, 0, 192, 255, 0, 0, 192, 255, 0, 0, 192, 255, 0, 0, 192, 255, 0, 0, 192, 255, 0, 0, 192, 255, 0, 0, 192, 255, 0, 0, 192, 255, 0, 0, 192, 255, 0, 0, 192, 255, 0, 0, 192, 255, 0, 0, 192, 255, 0, 0, 192, 255, 0, 0, 192, 255, 0, 0, 192, 255, 0, 0, 192, 255, 0, 0, 192, 255, 0, 0, 192, 255, 0, 0, 192, 255, 0, 0, 192, 255, 0, 0, 192, 255, 0, 0, 192, 255, 0, 0, 192, 255, 0, 0, 192, 255, 0, 0, 192, 255, 0, 0, 192, 255, 0, 0, 192, 255, 0, 0, 192, 255, 0, 0, 192, 255, 0, 0, 192, 255, 0, 0, 192, 255, 0, 0, 192, 255, 0, 0, 192, 255, 0, 0, 192, 255, 0, 0, 192, 255, 0, 0, 192, 255, 0, 0, 192, 255, 0, 0, 192, 255, 0, 0, 192, 255, 0, 0, 192, 255, 0, 0, 192, 255, 0, 0, 192, 255, 0, 0, 192, 255, 0, 0, 192, 255, 0, 0, 192, 255, 0, 0, 192, 255, 0, 0, 192, 255, 0, 0, 192, 255, 0, 0, 192, 255, 0, 0, 192, 255, 0, 0, 192, 255, 0, 0, 192, 255, 0, 0, 192, 255, 0, 0, 192, 255, 0, 0, 192, 255, 0, 0, 192, 255, 0, 0, 192, 255, 0, 0, 192, 255, 0, 0, 192, 255, 0, 0, 192, 255, 0, 0, 192, 255, 0, 0, 192, 255, 0, 0, 192, 255, 0, 0, 192, 255, 0, 0, 192, 255, 0, 0, 192, 255, 0, 0, 192, 255, 0, 0, 192, 255, 0, 0, 192, 255, 0, 0, 192, 255, 0, 0, 192, 255, 0, 0, 192, 255, 0, 0, 192, 255, 0, 0, 192, 255, 0, 0, 192, 255, 0, 0, 192, 255, 0, 0, 192, 255, 0, 0, 192, 255, 0, 0, 192, 255, 0, 0, 192, 255, 0, 0, 192, 255, 0, 0, 192, 255, 0, 0, 192, 255, 0, 0, 192, 255, 0, 0, 192, 255, 0, 0, 192, 255, 0, 0, 192, 255, 0, 0, 192, 255, 0, 0, 192, 255, 0, 0, 192, 255, 0, 0, 192, 255, 0, 0, 192, 255, 0, 0, 192, 255, 0, 0, 192, 255, 0, 0, 192, 255, 0, 0, 192, 255, 0, 0, 192, 255, 0, 0, 192, 255, 0, 0, 192, 255, 0, 0, 192, 255, 0, 0, 192, 255, 0, 0, 192, 255, 0, 0, 192, 255, 0, 0, 192, 255, 0, 0, 192, 255, 0, 0, 192, 255, 0, 0, 192, 255, 0, 0, 192, 255, 0, 0, 192, 255, 0, 0, 192, 255, 0, 0, 192, 255, 0, 0, 192, 255, 0, 0, 192, 255, 0, 0, 192, 255, 0, 0, 192, 255, 0, 0, 192, 255, 0, 0, 192, 255, 0, 0, 192, 255, 0, 0, 192, 255, 0, 0, 192, 255, 0, 0, 192, 255, 0, 0, 192, 255, 0, 0, 192, 255, 0, 0, 192, 255, 0, 0, 192, 255, 0, 0, 192, 255, 0, 0, 192, 255, 0, 0, 192, 255, 0, 0, 192, 255, 0, 0, 192, 255, 0, 0, 192, 255, 0, 0, 192, 255, 0, 0, 192, 255, 0, 0, 192, 255, 0, 0, 192, 255, 0, 0, 192, 255, 0, 0, 192, 255, 0, 0, 192, 255, 0, 0, 192, 255, 0, 0, 192, 255, 0, 0, 192, 255, 0, 0, 192, 255, 0, 0, 192, 255, 0, 0, 192, 255, 0, 0, 192, 255, 0, 0, 192, 255, 0, 0, 192, 255, 0, 0, 192, 255, 0, 0, 192, 255, 0, 0, 192, 255, 0, 0, 192, 255, 0, 0, 192, 255, 0, 0, 192, 255, 0, 0, 192, 255, 0, 0, 192, 255, 0, 0, 192, 255, 0, 0, 192, 255, 0, 0, 192, 255, 0, 0, 192, 255, 0, 0, 192, 255, 0, 0, 192, 255, 0, 0, 192, 255, 0, 0, 192, 255, 0, 0, 192, 255, 0, 0, 192, 255, 0, 0, 192, 255, 0, 0, 192, 255, 0, 0, 192, 255, 0, 0, 192, 255, 0, 0, 192, 255, 0, 0, 192, 255, 0, 0, 192, 255, 0, 0, 192, 255, 0, 0, 192, 255, 0, 0, 192, 255, 0, 0, 192, 255, 0, 0, 192, 255, 0, 0, 192, 255, 0, 0, 192, 255, 0, 0, 192, 255, 0, 0, 192, 255, 0, 0, 192, 255, 0, 0, 192, 255, 0, 0, 192, 255, 0, 0, 192, 255, 0, 0, 192, 255, 0, 0, 192, 255, 0, 0, 192, 255, 0, 0, 192, 255, 0, 0, 192, 255, 0, 0, 192, 255, 0, 0, 192, 255, 0, 0, 192, 255, 0, 0, 192, 255, 0, 0, 192, 255, 0, 0, 192, 255, 0, 0, 192, 255, 0, 0, 192, 255, 0, 0, 192, 255, 0, 0, 192, 255, 0, 0, 192, 255, 0, 0, 192, 255, 0, 0, 192, 255, 0, 0, 192, 255, 0, 0, 192, 255, 0, 0, 192, 255, 0, 0, 192, 255, 0, 0, 192, 255, 0, 0, 192, 255, 0, 0, 192, 255, 0, 0, 192, 255, 0, 0, 192, 255, 0, 0, 192, 255, 0, 0, 192, 255, 0, 0, 192, 255, 0, 0, 192, 255, 0, 0, 192, 255, 0, 0, 192, 255, 0, 0, 192, 255, 0, 0, 192, 255, 0, 0, 192, 255, 0, 0, 192, 255, 0, 0, 192, 255, 0, 0, 192, 255, 0, 0, 192, 255, 0, 0, 192, 255, 0, 0, 192, 255, 0, 0, 192, 255, 0, 0, 192, 255, 0, 0, 192, 255, 0, 0, 192, 255, 0, 0, 192, 255, 0, 0, 192, 255, 0, 0, 192, 255, 0, 0, 192, 255, 0, 0, 192, 255, 0, 0, 192, 255, 0, 0, 192, 255, 0, 0, 192, 255, 0, 0, 192, 255, 0, 0, 192, 255, 0, 0, 192, 255, 0, 0, 192, 255, 0, 0, 192, 255, 0, 0, 192, 255, 0, 0, 192, 255, 0, 0, 192, 255, 0, 0, 192, 255, 0, 0, 192, 255, 0, 0, 192, 255, 0, 0, 192, 255, 0, 0, 192, 255, 0, 0, 192, 255, 0, 0, 192, 255, 0, 0, 192, 255, 0, 0, 192, 255, 0, 0, 192, 255, 0, 0, 192, 255, 0, 0, 192, 255, 0, 0, 192, 255, 0, 0, 192, 255, 0, 0, 192, 255, 0, 0, 192, 255, 0, 0, 192, 255, 0, 0, 192, 255, 0, 0, 192, 255, 0, 0, 192, 255, 0, 0, 192, 255, 0, 0, 192, 255, 0, 0, 192, 255, 0, 0, 192, 255, 0, 0, 192, 255, 0, 0, 192, 255, 0, 0, 192, 255, 0, 0, 192, 255, 0, 0, 192, 255, 0, 0, 192, 255, 0, 0, 192, 255, 0, 0, 192, 255, 0, 0, 192, 255, 0, 0, 192, 255, 0, 0, 192, 255, 0, 0, 192, 255, 0, 0, 192, 255, 0, 0, 192, 255, 0, 0, 192, 255, 0, 0, 192, 255, 0, 0, 192, 255, 0, 0, 192, 255, 0, 0, 192, 255, 0, 0, 192, 255, 0, 0, 192, 255, 0, 0, 192, 255, 0, 0, 192, 255, 0, 0, 192, 255, 0, 0, 192, 255, 0, 0, 192, 255, 0, 0, 192, 255, 0, 0, 192, 255, 0, 0, 192, 255, 0, 0, 192, 255, 0, 0, 192, 255, 0, 0, 192, 255, 0, 0, 192, 255, 0, 0, 192, 255, 0, 0, 192, 255, 0, 0, 192, 255, 0, 0, 192, 255, 0, 0, 192, 255, 0, 0, 192, 255, 0, 0, 192, 255, 0, 0, 192, 255, 0, 0, 192, 255, 0, 0, 192, 255, 0, 0, 192, 255, 0, 0, 192, 255, 0, 0, 192, 255, 0, 0, 192, 255, 0, 0, 192, 255, 0, 0, 192, 255, 0, 0, 192, 255, 0, 0, 192, 255, 0, 0, 192, 255, 0, 0, 192, 255, 0, 0, 192, 255, 0, 0, 192, 255, 0, 0, 192, 255, 0, 0, 192, 255, 0, 0, 192, 255, 0, 0, 192, 255, 0, 0, 192, 255, 0, 0, 192, 255, 0, 0, 192, 255, 0, 0, 192, 255, 0, 0, 192, 255, 0, 0, 192, 255, 0, 0, 192, 255, 0, 0, 192, 255, 0, 0, 192, 255, 0, 0, 192, 255, 0, 0, 192, 255, 0, 0, 192, 255, 0, 0, 192, 255, 0, 0, 192, 255, 0, 0, 192, 255, 0, 0, 192, 255, 0, 0, 192, 255, 0, 0, 192, 255, 0, 0, 192, 255, 0, 0, 192, 255, 0, 0, 192, 255, 0, 0, 192, 255, 0, 0, 192, 255, 0, 0, 192, 255, 0, 0, 192, 255, 0, 0, 192, 255, 0, 0, 192, 255, 0, 0, 192, 255, 0, 0, 192, 255, 0, 0, 192, 255, 0, 0, 192, 255, 0, 0, 192, 255, 0, 0, 192, 255, 0, 0, 192, 255, 0, 0, 192, 255, 0, 0, 192, 255, 0, 0, 192, 255, 0, 0, 192, 255, 0, 0, 192, 255, 0, 0, 192, 255, 0, 0, 192, 255, 0, 0, 192, 255, 0, 0, 192, 255, 0, 0, 192, 255, 0, 0, 192, 255, 0, 0, 192, 255, 0, 0, 192, 255, 0, 0, 192, 255, 0, 0, 192, 255, 0, 0, 192, 255, 0, 0, 192, 255, 0, 0, 192, 255, 0, 0, 192, 255, 0, 0, 192, 255, 0, 0, 192, 255, 0, 0, 192, 255, 0, 0, 192, 255, 0, 0, 192, 255, 0, 0, 192, 255, 0, 0, 192, 255, 0, 0, 192, 255, 0, 0, 192, 255, 0, 0, 192, 255, 0, 0, 192, 255, 0, 0, 192, 255, 0, 0, 192, 255, 0, 0, 192, 255, 0, 0, 192, 255, 0, 0, 192, 255, 0, 0, 192, 255, 0, 0, 192, 255, 0, 0, 192, 255, 0, 0, 192, 255, 0, 0, 192, 255, 0, 0, 192, 255, 0, 0, 192, 255, 0, 0, 192, 255, 0, 0, 192, 255, 0, 0, 192, 255, 0, 0, 192, 255, 0, 0, 192, 255, 0, 0, 192, 255, 0, 0, 192, 255, 0, 0, 192, 255, 0, 0, 192, 255, 0, 0, 192, 255, 0, 0, 192, 255, 0, 0, 192, 255, 0, 0, 192, 255, 0, 0, 192, 255, 0, 0, 192, 255, 0, 0, 192, 255, 0, 0, 192, 255, 0, 0, 192, 255, 0, 0, 192, 255, 0, 0, 192, 255, 0, 0, 192, 255, 0, 0, 192, 255, 0, 0, 192, 255, 0, 0, 192, 255, 0, 0, 192, 255, 0, 0, 192, 255, 0, 0, 192, 255, 0, 0, 192, 255, 0, 0, 192, 255, 0, 0, 192, 255, 0, 0, 192, 255, 0, 0, 192, 255, 0, 0, 192, 255, 0, 0, 192, 255, 0, 0, 192, 255, 0, 0, 192, 255, 0, 0, 192, 255, 0, 0, 192, 255, 0, 0, 192, 255, 0, 0, 192, 255, 0, 0, 192, 255, 0, 0, 192, 255, 0, 0, 192, 255, 0, 0, 192, 255, 0, 0, 192, 255, 0, 0, 192, 255, 0, 0, 192, 255, 0, 0, 192, 255, 0, 0, 192, 255, 0, 0, 192, 255, 0, 0, 192, 255, 0, 0, 192, 255, 0, 0, 192, 255, 0, 0, 192, 255, 0, 0, 192, 255, 0, 0, 192, 255, 0, 0, 192, 255, 0, 0, 192, 255, 0, 0, 192, 255, 0, 0, 192, 255, 0, 0, 192, 255, 0, 0, 192, 255, 0, 0, 192, 255, 0, 0, 192, 255, 0, 0, 192, 255, 0, 0, 192, 255, 0, 0, 192, 255, 0, 0, 192, 255, 0, 0, 192, 255, 0, 0, 192, 255, 0, 0, 192, 255, 0, 0, 192, 255, 0, 0, 192, 255, 0, 0, 192, 255, 0, 0, 192, 255, 0, 0, 192, 255, 0, 0, 192, 255, 0, 0, 192, 255, 0, 0, 192, 255, 0, 0, 192, 255, 0, 0, 