#pragma once

#include <cstdint>

const uint8_t mod_4[] = {
28, 0, 0, 0, 84, 70, 76, 51, 20, 0, 32, 0, 28, 0, 24, 0, 20, 0, 16, 0, 12, 0, 0, 0, 8, 0, 4, 0, 20, 0, 0, 0, 28, 0, 0, 0, 156, 0, 0, 0, 244, 0, 0, 0, 248, 9, 0, 0, 8, 10, 0, 0, 72, 12, 0, 0, 3, 0, 0, 0, 1, 0, 0, 0, 16, 0, 0, 0, 0, 0, 10, 0, 16, 0, 12, 0, 8, 0, 4, 0, 10, 0, 0, 0, 12, 0, 0, 0, 28, 0, 0, 0, 60, 0, 0, 0, 15, 0, 0, 0, 115, 101, 114, 118, 105, 110, 103, 95, 100, 101, 102, 97, 117, 108, 116, 0, 1, 0, 0, 0, 4, 0, 0, 0, 140, 255, 255, 255, 3, 0, 0, 0, 4, 0, 0, 0, 10, 0, 0, 0, 110, 110, 95, 108, 97, 121, 101, 114, 95, 53, 0, 0, 1, 0, 0, 0, 4, 0, 0, 0, 214, 246, 255, 255, 4, 0, 0, 0, 16, 0, 0, 0, 110, 110, 95, 108, 97, 121, 101, 114, 95, 53, 95, 105, 110, 112, 117, 116, 0, 0, 0, 0, 2, 0, 0, 0, 52, 0, 0, 0, 4, 0, 0, 0, 220, 255, 255, 255, 6, 0, 0, 0, 4, 0, 0, 0, 19, 0, 0, 0, 67, 79, 78, 86, 69, 82, 83, 73, 79, 78, 95, 77, 69, 84, 65, 68, 65, 84, 65, 0, 8, 0, 12, 0, 8, 0, 4, 0, 8, 0, 0, 0, 5, 0, 0, 0, 4, 0, 0, 0, 19, 0, 0, 0, 109, 105, 110, 95, 114, 117, 110, 116, 105, 109, 101, 95, 118, 101, 114, 115, 105, 111, 110, 0, 7, 0, 0, 0, 0, 9, 0, 0, 248, 8, 0, 0, 168, 8, 0, 0, 144, 0, 0, 0, 136, 0, 0, 0, 104, 0, 0, 0, 4, 0, 0, 0, 114, 247, 255, 255, 4, 0, 0, 0, 84, 0, 0, 0, 12, 0, 0, 0, 8, 0, 14, 0, 8, 0, 4, 0, 8, 0, 0, 0, 16, 0, 0, 0, 36, 0, 0, 0, 0, 0, 6, 0, 8, 0, 4, 0, 6, 0, 0, 0, 4, 0, 0, 0, 0, 0, 0, 0, 0, 0, 10, 0, 16, 0, 12, 0, 8, 0, 4, 0, 10, 0, 0, 0, 2, 0, 0, 0, 2, 0, 0, 0, 4, 0, 0, 0, 6, 0, 0, 0, 50, 46, 49, 51, 46, 48, 0, 0, 210, 247, 255, 255, 4, 0, 0, 0, 16, 0, 0, 0, 49, 46, 53, 46, 48, 0, 0, 0, 0, 0, 0, 0, 0, 0, 0, 0, 120, 245, 255, 255, 242, 247, 255, 255, 4, 0, 0, 0, 0, 8, 0, 0, 250, 150, 101, 61, 0, 173, 26, 189, 12, 220, 84, 61, 153, 195, 159, 190, 112, 112, 206, 188, 234, 214, 52, 62, 3, 115, 165, 190, 249, 23, 4, 61, 156, 157, 211, 189, 212, 62, 193, 61, 167, 91, 59, 190, 178, 220, 168, 190, 248, 58, 27, 189, 59, 61, 83, 189, 198, 93, 51, 62, 196, 162, 15, 190, 251, 100, 160, 62, 46, 2, 83, 62, 207, 123, 96, 187, 24, 206, 2, 189, 52, 195, 218, 61, 214, 82, 101, 62, 80, 99, 110, 190, 104, 188, 153, 190, 3, 232, 40, 187, 219, 37, 34, 190, 65, 226, 215, 61, 180, 151, 133, 190, 13, 237, 110, 61, 138, 207, 95, 62, 83, 181, 140, 62, 19, 146, 139, 60, 123, 234, 75, 62, 228, 66, 145, 190, 21, 247, 52, 62, 222, 1, 29, 62, 170, 182, 118, 62, 106, 195, 139, 190, 30, 144, 15, 62, 201, 169, 105, 189, 236, 141, 171, 189, 9, 104, 164, 190, 16, 199, 191, 189, 117, 118, 75, 190, 145, 213, 171, 190, 236, 53, 154, 189, 130, 226, 183, 62, 236, 183, 225, 61, 232, 57, 38, 190, 77, 34, 137, 62, 153, 157, 140, 62, 20, 168, 200, 189, 16, 235, 241, 189, 73, 137, 41, 190, 178, 213, 96, 62, 188, 23, 109, 190, 86, 161, 94, 62, 163, 149, 47, 62, 226, 112, 154, 62, 224, 38, 14, 62, 85, 29, 134, 62, 36, 104, 193, 61, 128, 17, 123, 188, 146, 233, 146, 190, 33, 247, 158, 62, 151, 215, 155, 62, 28, 160, 83, 189, 190, 109, 9, 62, 254, 57, 229, 189, 248, 126, 126, 61, 26, 220, 102, 62, 169, 182, 123, 62, 212, 50, 150, 189, 4, 117, 149, 190, 144, 197, 160, 190, 112, 228, 198, 188, 53, 18, 7, 190, 5, 155, 12, 62, 38, 171, 35, 62, 176, 104, 155, 190, 208, 142, 167, 61, 208, 3, 17, 189, 149, 136, 166, 62, 49, 200, 165, 62, 147, 137, 152, 190, 136, 13, 132, 61, 245, 101, 136, 62, 76, 19, 136, 190, 12, 203, 120, 62, 127, 237, 116, 189, 131, 210, 135, 190, 96, 8, 122, 61, 201, 52, 153, 62, 86, 52, 9, 190, 16, 32, 232, 189, 72, 225, 142, 189, 129, 211, 60, 61, 105, 213, 171, 62, 138, 71, 93, 189, 224, 181, 83, 189, 200, 19, 163, 190, 116, 168, 201, 189, 105, 157, 168, 62, 217, 20, 28, 62, 204, 204, 210, 61, 99, 87, 155, 62, 211, 114, 177, 190, 14, 251, 76, 62, 79, 73, 164, 190, 141, 213, 124, 62, 130, 3, 29, 190, 238, 27, 179, 190, 19, 237, 176, 62, 218, 150, 96, 62, 209, 104, 38, 190, 168, 204, 178, 61, 34, 65, 88, 62, 152, 182, 25, 189, 90, 8, 15, 190, 109, 27, 104, 190, 33, 189, 66, 62, 42, 106, 120, 62, 3, 46, 141, 62, 136, 130, 176, 190, 184, 172, 35, 190, 174, 24, 90, 62, 243, 41, 150, 190, 141, 51, 161, 190, 27, 227, 17, 61, 186, 63, 120, 62, 196, 149, 167, 190, 194, 117, 10, 190, 240, 195, 5, 61, 56, 43, 60, 189, 108, 233, 9, 62, 172, 203, 50, 190, 138, 82, 10, 62, 132, 139, 144, 190, 98, 73, 142, 190, 242, 3, 9, 62, 192, 210, 103, 60, 36, 201, 140, 62, 15, 102, 85, 62, 174, 78, 45, 62, 240, 177, 164, 188, 227, 172, 162, 62, 228, 153, 128, 188, 8, 37, 241, 189, 59, 119, 144, 62, 176, 94, 81, 61, 2, 204, 171, 190, 72, 204, 248, 61, 72, 55, 27, 62, 40, 34, 64, 62, 218, 42, 223, 61, 80, 249, 156, 189, 180, 118, 46, 61, 48, 29, 3, 62, 90, 157, 154, 190, 70, 31, 178, 61, 68, 61, 136, 190, 101, 227, 58, 190, 252, 103, 92, 188, 200, 245, 41, 189, 0, 159, 168, 190, 121, 217, 164, 62, 226, 221, 76, 62, 70, 206, 131, 189, 63, 103, 173, 62, 246, 235, 68, 62, 250, 86, 7, 190, 224, 246, 145, 60, 64, 30, 239, 187, 27, 87, 109, 190, 177, 76, 172, 62, 185, 231, 170, 62, 12, 96, 140, 189, 89, 102, 75, 190, 233, 144, 86, 190, 22, 9, 81, 62, 125, 69, 178, 190, 109, 249, 173, 62, 110, 28, 117, 62, 39, 155, 101, 62, 187, 196, 145, 190, 111, 103, 4, 62, 230, 188, 138, 62, 122, 198, 78, 190, 59, 114, 155, 190, 128, 34, 120, 189, 105, 74, 169, 62, 214, 31, 27, 62, 55, 255, 168, 61, 0, 20, 75, 59, 233, 88, 26, 188, 246, 212, 77, 62, 145, 116, 148, 62, 207, 1, 169, 190, 101, 239, 54, 190, 142, 222, 174, 190, 178, 165, 76, 62, 100, 210, 222, 61, 36, 156, 151, 62, 68, 227, 104, 190, 20, 235, 218, 61, 173, 126, 156, 62, 114, 231, 137, 62, 148, 99, 13, 62, 135, 166, 170, 190, 176, 145, 116, 190, 148, 145, 48, 190, 64, 181, 192, 60, 181, 36, 130, 62, 133, 189, 150, 62, 0, 96, 145, 189, 206, 117, 203, 60, 105, 87, 162, 190, 110, 134, 16, 190, 50, 193, 141, 189, 176, 149, 132, 190, 139, 211, 146, 62, 103, 52, 179, 190, 88, 165, 99, 61, 221, 253, 144, 190, 20, 6, 112, 62, 94, 105, 34, 62, 117, 104, 175, 190, 216, 225, 203, 61, 22, 120, 89, 190, 51, 36, 131, 62, 166, 99, 77, 62, 208, 237, 152, 61, 223, 127, 135, 62, 125, 85, 151, 62, 65, 120, 128, 190, 8, 16, 68, 190, 22, 41, 103, 62, 208, 196, 175, 62, 200, 198, 125, 62, 241, 69, 132, 190, 40, 57, 122, 189, 218, 21, 177, 190, 77, 103, 75, 190, 59, 51, 179, 190, 218, 37, 120, 190, 20, 224, 250, 189, 70, 88, 12, 190, 21, 139, 156, 62, 239, 144, 123, 190, 248, 190, 177, 62, 29, 229, 206, 189, 61, 127, 61, 190, 225, 212, 104, 60, 148, 103, 26, 190, 68, 192, 49, 190, 183, 41, 158, 190, 0, 45, 62, 60, 90, 161, 86, 62, 144, 87, 224, 188, 208, 103, 207, 189, 169, 178, 6, 190, 56, 85, 42, 190, 24, 206, 179, 189, 105, 49, 128, 62, 144, 149, 20, 189, 16, 186, 95, 189, 138, 56, 118, 62, 115, 136, 168, 190, 240, 61, 73, 189, 192, 60, 97, 189, 52, 178, 171, 189, 82, 16, 101, 62, 204, 62, 165, 190, 56, 24, 127, 189, 13, 183, 158, 190, 89, 120, 39, 190, 5, 12, 158, 190, 119, 213, 129, 62, 145, 65, 10, 190, 55, 27, 168, 190, 42, 226, 19, 62, 96, 120, 48, 188, 76, 10, 220, 61, 180, 109, 177, 189, 139, 183, 94, 190, 98, 222, 121, 62, 174, 28, 133, 190, 233, 214, 128, 62, 68, 10, 209, 61, 112, 168, 188, 60, 109, 145, 177, 62, 248, 84, 185, 189, 31, 100, 147, 62, 56, 55, 237, 61, 42, 124, 145, 190, 52, 97, 96, 190, 0, 173, 48, 188, 172, 219, 163, 190, 235, 1, 24, 190, 72, 82, 118, 190, 0, 148, 197, 187, 55, 58, 113, 62, 141, 116, 169, 189, 48, 225, 5, 61, 204, 91, 184, 61, 72, 159, 56, 190, 163, 72, 248, 188, 55, 250, 149, 62, 224, 223, 2, 61, 66, 23, 158, 190, 120, 63, 226, 61, 223, 136, 180, 62, 245, 203, 15, 190, 62, 112, 169, 190, 250, 10, 131, 62, 160, 101, 149, 60, 197, 214, 181, 62, 134, 82, 123, 62, 161, 163, 11, 190, 22, 56, 142, 62, 42, 150, 12, 62, 214, 31, 54, 190, 0, 28, 81, 59, 164, 250, 216, 189, 191, 207, 136, 62, 93, 183, 132, 190, 148, 49, 157, 190, 144, 191, 157, 190, 6, 132, 49, 62, 149, 197, 173, 62, 224, 251, 182, 189, 193, 75, 154, 62, 245, 157, 175, 190, 66, 16, 8, 190, 0, 212, 214, 59, 86, 103, 64, 62, 205, 220, 167, 62, 9, 39, 105, 190, 182, 166, 156, 190, 81, 55, 5, 190, 151, 116, 81, 190, 46, 134, 76, 62, 76, 12, 153, 61, 128, 172, 30, 187, 179, 11, 143, 190, 48, 169, 200, 189, 248, 124, 133, 190, 176, 25, 93, 189, 253, 96, 35, 190, 18, 55, 56, 190, 64, 128, 181, 61, 2, 179, 99, 190, 88, 173, 145, 189, 14, 98, 34, 62, 44, 148, 141, 61, 203, 226, 34, 190, 250, 58, 52, 62, 178, 71, 25, 190, 13, 155, 152, 62, 27, 129, 170, 62, 90, 45, 247, 189, 69, 189, 156, 62, 74, 187, 215, 189, 197, 101, 157, 62, 192, 73, 149, 59, 115, 89, 168, 62, 47, 112, 41, 190, 80, 193, 49, 61, 0, 199, 128, 61, 175, 150, 142, 62, 50, 146, 116, 62, 104, 203, 30, 61, 70, 98, 120, 62, 131, 225, 59, 190, 190, 70, 63, 62, 233, 201, 162, 62, 112, 67, 166, 188, 242, 235, 81, 62, 92, 99, 148, 189, 24, 49, 12, 190, 181, 87, 90, 190, 106, 118, 121, 190, 192, 13, 184, 189, 87, 117, 152, 62, 88, 14, 209, 189, 234, 232, 94, 62, 172, 54, 163, 190, 44, 220, 45, 190, 34, 94, 33, 62, 160, 9, 89, 189, 185, 247, 170, 62, 152, 196, 208, 189, 160, 224, 55, 189, 32, 175, 177, 60, 104, 79, 162, 189, 183, 25, 75, 190, 208, 18, 185, 188, 204, 239, 135, 190, 232, 87, 61, 61, 126, 200, 94, 62, 25, 85, 130, 62, 5, 74, 152, 62, 88, 121, 141, 190, 108, 172, 190, 61, 130, 112, 4, 62, 128, 229, 146, 60, 250, 200, 124, 190, 236, 4, 100, 190, 64, 148, 213, 59, 171, 221, 156, 62, 144, 131, 249, 189, 36, 29, 195, 189, 171, 75, 154, 190, 10, 157, 28, 62, 28, 155, 207, 189, 32, 239, 130, 190, 89, 167, 1, 190, 218, 142, 174, 190, 40, 45, 151, 190, 128, 66, 181, 59, 153, 184, 95, 190, 128, 189, 131, 187, 153, 141, 19, 190, 102, 48, 94, 190, 128, 210, 61, 189, 98, 8, 246, 189, 70, 53, 53, 62, 158, 231, 7, 62, 11, 130, 95, 190, 168, 52, 80, 61, 47, 211, 44, 190, 210, 172, 135, 190, 226, 196, 11, 190, 160, 56, 218, 188, 100, 139, 168, 190, 112, 114, 182, 61, 218, 102, 75, 62, 122, 165, 50, 62, 236, 50, 184, 189, 164, 164, 148, 189, 48, 11, 67, 189, 13, 147, 148, 190, 112, 167, 160, 60, 55, 54, 179, 190, 96, 36, 158, 189, 104, 184, 0, 61, 248, 92, 118, 189, 161, 194, 131, 62, 214, 194, 77, 190, 8, 186, 245, 189, 175, 184, 150, 190, 125, 186, 170, 62, 30, 85, 112, 62, 4, 227, 63, 190, 39, 175, 143, 190, 206, 116, 90, 62, 0, 165, 170, 187, 181, 224, 140, 62, 64, 223, 253, 188, 248, 153, 112, 190, 33, 246, 21, 190, 178, 159, 145, 190, 1, 195, 129, 62, 236, 108, 159, 189, 156, 198, 19, 190, 120, 146, 123, 190, 41, 21, 151, 190, 34, 201, 116, 62, 176, 232, 157, 190, 134, 167, 161, 190, 216, 145, 176, 61, 124, 100, 43, 190, 244, 82, 226, 61, 43, 226, 149, 62, 28, 153, 164, 190, 106, 200, 99, 62, 176, 82, 186, 61, 160, 237, 135, 60, 171, 219, 36, 190, 172, 122, 168, 190, 224, 27, 87, 189, 180, 192, 177, 189, 195, 16, 84, 190, 248, 211, 104, 189, 207, 27, 175, 62, 97, 122, 159, 190, 35, 203, 112, 190, 2, 192, 40, 62, 138, 206, 79, 62, 250, 60, 13, 62, 222, 235, 58, 62, 190, 237, 214, 189, 74, 211, 150, 190, 134, 90, 109, 190, 246, 109, 52, 62, 184, 140, 46, 61, 10, 37, 22, 62, 228, 215, 176, 190, 78, 49, 51, 62, 56, 127, 159, 61, 124, 31, 112, 190, 224, 180, 48, 61, 121, 134, 154, 62, 80, 254, 253, 189, 101, 255, 45, 190, 232, 133, 181, 189, 84, 170, 176, 189, 92, 97, 226, 61, 254, 236, 128, 190, 49, 234, 102, 190, 206, 88, 83, 62, 64, 27, 25, 188, 0, 0, 6, 0, 8, 0, 4, 0, 6, 0, 0, 0, 4, 0, 0, 0, 64, 0, 0, 0, 76, 201, 196, 187, 109, 201, 196, 59, 75, 201, 196, 187, 109, 200, 196, 187, 114, 201, 196, 187, 91, 201, 196, 187, 108, 201, 196, 187, 104, 201, 196, 59, 0, 0, 0, 0, 111, 201, 196, 59, 0, 0, 0, 0, 0, 0, 0, 0, 0, 0, 0, 0, 0, 0, 0, 0, 0, 0, 0, 0, 0, 0, 0, 0, 220, 253, 255, 255, 224, 253, 255, 255, 15, 0, 0, 0, 77, 76, 73, 82, 32, 67, 111, 110, 118, 101, 114, 116, 101, 100, 46, 0, 1, 0, 0, 0, 20, 0, 0, 0, 0, 0, 14, 0, 24, 0, 20, 0, 16, 0, 12, 0, 8, 0, 4, 0, 14, 0, 0, 0, 20, 0, 0, 0, 28, 0, 0, 0, 108, 0, 0, 0, 112, 0, 0, 0, 116, 0, 0, 0, 4, 0, 0, 0, 109, 97, 105, 110, 0, 0, 0, 0, 1, 0, 0, 0, 20, 0, 0, 0, 0, 0, 14, 0, 22, 0, 0, 0, 16, 0, 12, 0, 11, 0, 4, 0, 14, 0, 0, 0, 24, 0, 0, 0, 0, 0, 0, 8, 24, 0, 0, 0, 28, 0, 0, 0, 0, 0, 6, 0, 8, 0, 7, 0, 6, 0, 0, 0, 0, 0, 0, 1, 1, 0, 0, 0, 3, 0, 0, 0, 3, 0, 0, 0, 0, 0, 0, 0, 2, 0, 0, 0, 1, 0, 0, 0, 1, 0, 0, 0, 3, 0, 0, 0, 1, 0, 0, 0, 0, 0, 0, 0, 4, 0, 0, 0, 60, 1, 0, 0, 200, 0, 0, 0, 96, 0, 0, 0, 4, 0, 0, 0, 234, 254, 255, 255, 0, 0, 0, 1, 20, 0, 0, 0, 28, 0, 0, 0, 28, 0, 0, 0, 4, 0, 0, 0, 52, 0, 0, 0, 2, 0, 0, 0, 255, 255, 255, 255, 16, 0, 0, 0, 212, 254, 255, 255, 25, 0, 0, 0, 83, 116, 97, 116, 101, 102, 117, 108, 80, 97, 114, 116, 105, 116, 105, 111, 110, 101, 100, 67, 97, 108, 108, 58, 48, 0, 0, 0, 2, 0, 0, 0, 1, 0, 0, 0, 16, 0, 0, 0, 178, 255, 255, 255, 0, 0, 0, 1, 16, 0, 0, 0, 16, 0, 0, 0, 3, 0, 0, 0, 44, 0, 0, 0, 28, 255, 255, 255, 30, 0, 0, 0, 115, 101, 113, 117, 101, 110, 116, 105, 97, 108, 95, 57, 47, 110, 110, 95, 108, 97, 121, 101, 114, 95, 53, 47, 77, 97, 116, 77, 117, 108, 0, 0, 2, 0, 0, 0, 16, 0, 0, 0, 32, 0, 0, 0, 0, 0, 22, 0, 24, 0, 20, 0, 0, 0, 16, 0, 12, 0, 8, 0, 0, 0, 0, 0, 0, 0, 7, 0, 22, 0, 0, 0, 0, 0, 0, 1, 16, 0, 0, 0, 16, 0, 0, 0, 2, 0, 0, 0, 60, 0, 0, 0, 128, 255, 255, 255, 46, 0, 0, 0, 115, 101, 113, 117, 101, 110, 116, 105, 97, 108, 95, 57, 47, 110, 110, 95, 108, 97, 121, 101, 114, 95, 53, 47, 66, 105, 97, 115, 65, 100, 100, 47, 82, 101, 97, 100, 86, 97, 114, 105, 97, 98, 108, 101, 79, 112, 0, 0, 1, 0, 0, 0, 16, 0, 0, 0, 0, 0, 22, 0, 28, 0, 24, 0, 0, 0, 20, 0, 16, 0, 12, 0, 0, 0, 0, 0, 8, 0, 7, 0, 22, 0, 0, 0, 0, 0, 0, 1, 20, 0, 0, 0, 32, 0, 0, 0, 32, 0, 0, 0, 1, 0, 0, 0, 64, 0, 0, 0, 2, 0, 0, 0, 255, 255, 255, 255, 32, 0, 0, 0, 4, 0, 4, 0, 4, 0, 0, 0, 34, 0, 0, 0, 115, 101, 114, 118, 105, 110, 103, 95, 100, 101, 102, 97, 117, 108, 116, 95, 110, 110, 95, 108, 97, 121, 101, 114, 95, 53, 95, 105, 110, 112, 117, 116, 58, 48, 0, 0, 2, 0, 0, 0, 1, 0, 0, 0, 32, 0, 0, 0, 1, 0, 0, 0, 16, 0, 0, 0, 12, 0, 12, 0, 11, 0, 0, 0, 0, 0, 4, 0, 12, 0, 0, 0, 9, 0, 0, 0, 0, 0, 0, 9
};
