#pragma once

#include <cstdint>

const uint8_t mod_3[] = {
28, 0, 0, 0, 84, 70, 76, 51, 20, 0, 32, 0, 28, 0, 24, 0, 20, 0, 16, 0, 12, 0, 0, 0, 8, 0, 4, 0, 20, 0, 0, 0, 28, 0, 0, 0, 156, 0, 0, 0, 244, 0, 0, 0, 56, 34, 0, 0, 72, 34, 0, 0, 136, 36, 0, 0, 3, 0, 0, 0, 1, 0, 0, 0, 16, 0, 0, 0, 0, 0, 10, 0, 16, 0, 12, 0, 8, 0, 4, 0, 10, 0, 0, 0, 12, 0, 0, 0, 28, 0, 0, 0, 60, 0, 0, 0, 15, 0, 0, 0, 115, 101, 114, 118, 105, 110, 103, 95, 100, 101, 102, 97, 117, 108, 116, 0, 1, 0, 0, 0, 4, 0, 0, 0, 140, 255, 255, 255, 3, 0, 0, 0, 4, 0, 0, 0, 10, 0, 0, 0, 110, 110, 95, 108, 97, 121, 101, 114, 95, 52, 0, 0, 1, 0, 0, 0, 4, 0, 0, 0, 214, 222, 255, 255, 4, 0, 0, 0, 16, 0, 0, 0, 110, 110, 95, 108, 97, 121, 101, 114, 95, 52, 95, 105, 110, 112, 117, 116, 0, 0, 0, 0, 2, 0, 0, 0, 52, 0, 0, 0, 4, 0, 0, 0, 220, 255, 255, 255, 6, 0, 0, 0, 4, 0, 0, 0, 19, 0, 0, 0, 67, 79, 78, 86, 69, 82, 83, 73, 79, 78, 95, 77, 69, 84, 65, 68, 65, 84, 65, 0, 8, 0, 12, 0, 8, 0, 4, 0, 8, 0, 0, 0, 5, 0, 0, 0, 4, 0, 0, 0, 19, 0, 0, 0, 109, 105, 110, 95, 114, 117, 110, 116, 105, 109, 101, 95, 118, 101, 114, 115, 105, 111, 110, 0, 7, 0, 0, 0, 64, 33, 0, 0, 56, 33, 0, 0, 168, 32, 0, 0, 144, 0, 0, 0, 136, 0, 0, 0, 104, 0, 0, 0, 4, 0, 0, 0, 114, 223, 255, 255, 4, 0, 0, 0, 84, 0, 0, 0, 12, 0, 0, 0, 8, 0, 14, 0, 8, 0, 4, 0, 8, 0, 0, 0, 16, 0, 0, 0, 36, 0, 0, 0, 0, 0, 6, 0, 8, 0, 4, 0, 6, 0, 0, 0, 4, 0, 0, 0, 0, 0, 0, 0, 0, 0, 10, 0, 16, 0, 12, 0, 8, 0, 4, 0, 10, 0, 0, 0, 2, 0, 0, 0, 2, 0, 0, 0, 4, 0, 0, 0, 6, 0, 0, 0, 50, 46, 49, 51, 46, 48, 0, 0, 210, 223, 255, 255, 4, 0, 0, 0, 16, 0, 0, 0, 49, 46, 53, 46, 48, 0, 0, 0, 0, 0, 0, 0, 0, 0, 0, 0, 56, 221, 255, 255, 242, 223, 255, 255, 4, 0, 0, 0, 0, 32, 0, 0, 244, 83, 210, 61, 145, 161, 198, 61, 90, 243, 182, 189, 24, 147, 252, 189, 226, 181, 30, 62, 84, 108, 70, 190, 148, 7, 103, 62, 212, 40, 7, 190, 32, 116, 99, 62, 232, 110, 208, 61, 224, 204, 147, 189, 79, 126, 83, 62, 90, 32, 176, 58, 76, 237, 43, 190, 160, 68, 8, 190, 194, 200, 27, 62, 208, 96, 228, 61, 224, 199, 218, 189, 37, 77, 232, 189, 0, 240, 190, 187, 160, 177, 254, 188, 76, 61, 16, 62, 16, 69, 82, 190, 67, 72, 15, 62, 128, 243, 144, 187, 105, 172, 32, 190, 108, 62, 148, 61, 122, 65, 125, 59, 112, 96, 28, 190, 107, 150, 49, 62, 208, 79, 178, 189, 82, 127, 38, 190, 248, 150, 2, 190, 36, 143, 111, 62, 209, 84, 179, 189, 96, 8, 174, 188, 164, 145, 10, 190, 198, 246, 64, 62, 16, 94, 54, 61, 178, 206, 130, 188, 165, 94, 105, 190, 192, 79, 112, 190, 208, 139, 139, 61, 97, 199, 211, 60, 0, 40, 159, 57, 224, 43, 124, 62, 203, 237, 48, 61, 56, 166, 129, 61, 192, 68, 205, 61, 4, 187, 2, 190, 220, 226, 55, 62, 210, 122, 50, 189, 128, 156, 10, 189, 4, 153, 32, 62, 192, 97, 111, 60, 248, 236, 62, 190, 16, 20, 125, 61, 146, 73, 37, 62, 128, 76, 218, 189, 56, 157, 128, 61, 239, 144, 140, 61, 16, 187, 156, 189, 76, 4, 90, 62, 120, 87, 80, 62, 136, 81, 185, 61, 152, 7, 75, 62, 96, 150, 158, 60, 220, 88, 1, 190, 176, 91, 94, 62, 144, 222, 237, 189, 32, 124, 60, 190, 236, 208, 97, 190, 16, 42, 220, 61, 228, 176, 82, 190, 0, 222, 177, 58, 140, 112, 36, 62, 120, 223, 154, 61, 128, 145, 78, 61, 0, 145, 175, 61, 192, 224, 16, 62, 80, 0, 215, 189, 24, 243, 56, 190, 128, 183, 0, 60, 60, 140, 32, 62, 208, 46, 33, 189, 192, 106, 250, 188, 168, 130, 246, 61, 24, 246, 245, 61, 160, 126, 80, 189, 188, 155, 0, 190, 228, 185, 96, 190, 216, 160, 32, 62, 88, 25, 166, 61, 36, 20, 49, 62, 228, 18, 44, 62, 120, 120, 115, 190, 128, 137, 77, 61, 220, 145, 71, 62, 252, 224, 122, 62, 28, 89, 53, 62, 184, 15, 243, 189, 128, 179, 4, 61, 240, 135, 164, 189, 180, 54, 115, 62, 12, 207, 98, 190, 48, 136, 168, 61, 64, 178, 157, 189, 96, 192, 62, 61, 92, 9, 33, 62, 116, 56, 54, 190, 240, 78, 47, 61, 156, 3, 37, 190, 112, 127, 110, 190, 112, 166, 102, 190, 8, 26, 126, 190, 96, 62, 132, 61, 0, 13, 106, 62, 164, 198, 127, 62, 0, 36, 95, 58, 216, 17, 105, 190, 0, 233, 201, 60, 224, 177, 83, 62, 64, 203, 103, 61, 128, 122, 102, 189, 16, 245, 43, 190, 80, 165, 77, 61, 64, 239, 27, 60, 144, 192, 22, 189, 223, 183, 97, 62, 40, 127, 63, 62, 241, 33, 38, 190, 104, 248, 210, 61, 120, 85, 85, 190, 161, 169, 113, 62, 24, 240, 213, 59, 246, 246, 104, 62, 208, 102, 66, 62, 136, 38, 188, 189, 144, 234, 35, 62, 76, 52, 119, 190, 203, 242, 31, 188, 60, 26, 127, 61, 128, 122, 135, 187, 172, 140, 254, 61, 5, 186, 23, 189, 140, 81, 23, 190, 22, 228, 169, 60, 236, 55, 77, 190, 8, 144, 62, 62, 144, 25, 157, 189, 148, 108, 38, 62, 98, 97, 190, 189, 128, 132, 133, 189, 148, 128, 30, 61, 175, 56, 1, 62, 142, 24, 174, 59, 0, 10, 146, 59, 57, 62, 169, 61, 16, 134, 203, 189, 231, 42, 70, 189, 104, 74, 237, 61, 88, 139, 171, 189, 120, 133, 172, 61, 212, 41, 73, 62, 85, 50, 69, 60, 116, 81, 79, 190, 140, 188, 53, 62, 45, 32, 89, 62, 226, 106, 33, 189, 64, 124, 193, 188, 160, 197, 21, 61, 235, 94, 119, 190, 124, 186, 105, 62, 252, 25, 80, 190, 12, 215, 135, 189, 48, 144, 96, 61, 35, 188, 32, 190, 77, 181, 188, 61, 164, 82, 34, 62, 115, 60, 117, 62, 72, 87, 172, 61, 176, 16, 251, 189, 128, 78, 225, 60, 64, 208, 115, 62, 68, 86, 110, 190, 82, 133, 239, 60, 116, 73, 84, 190, 244, 40, 24, 62, 135, 189, 170, 60, 12, 18, 119, 62, 128, 22, 132, 61, 0, 118, 183, 189, 48, 178, 175, 189, 52, 102, 97, 190, 224, 0, 112, 62, 40, 80, 1, 62, 244, 196, 43, 62, 96, 146, 106, 62, 140, 230, 58, 190, 0, 200, 166, 57, 168, 198, 107, 190, 60, 5, 111, 190, 212, 192, 36, 62, 128, 218, 182, 189, 48, 97, 114, 189, 216, 147, 186, 189, 252, 41, 1, 190, 224, 124, 2, 61, 24, 3, 31, 62, 192, 200, 95, 61, 156, 177, 102, 190, 28, 190, 125, 190, 208, 138, 154, 61, 244, 47, 40, 190, 224, 213, 190, 188, 160, 151, 0, 190, 96, 199, 104, 61, 96, 254, 216, 60, 0, 136, 44, 62, 52, 216, 115, 190, 184, 204, 186, 189, 128, 223, 219, 187, 116, 13, 70, 62, 104, 236, 202, 189, 208, 156, 157, 61, 0, 235, 83, 60, 96, 168, 197, 189, 68, 94, 85, 190, 64, 233, 78, 61, 48, 67, 89, 62, 120, 169, 87, 62, 240, 173, 2, 190, 128, 104, 26, 188, 136, 27, 108, 62, 240, 9, 193, 61, 0, 33, 114, 189, 200, 90, 140, 189, 32, 105, 64, 189, 16, 13, 21, 190, 152, 82, 120, 190, 112, 26, 239, 189, 192, 66, 146, 188, 180, 42, 116, 62, 248, 143, 99, 62, 48, 189, 121, 189, 156, 231, 100, 62, 8, 154, 157, 61, 176, 76, 53, 190, 248, 245, 10, 190, 164, 243, 30, 62, 32, 128, 212, 189, 48, 205, 25, 61, 0, 211, 104, 190, 192, 197, 53, 189, 184, 137, 71, 62, 240, 45, 217, 61, 112, 139, 75, 190, 36, 193, 93, 62, 248, 244, 160, 61, 204, 93, 108, 62, 16, 179, 151, 189, 176, 64, 237, 61, 0, 201, 197, 187, 212, 164, 89, 190, 240, 166, 109, 62, 76, 241, 110, 190, 192, 188, 72, 60, 32, 107, 207, 188, 164, 150, 42, 62, 232, 246, 9, 190, 120, 229, 198, 61, 116, 224, 63, 190, 152, 224, 210, 189, 32, 81, 243, 189, 240, 60, 6, 190, 88, 184, 111, 190, 224, 54, 73, 62, 236, 75, 95, 190, 60, 161, 127, 190, 224, 199, 4, 62, 132, 0, 87, 62, 136, 246, 158, 189, 12, 47, 82, 190, 192, 166, 180, 188, 64, 146, 233, 189, 192, 37, 44, 60, 128, 205, 161, 188, 104, 236, 164, 189, 76, 160, 3, 190, 0, 185, 159, 59, 128, 245, 128, 189, 140, 16, 121, 190, 216, 199, 232, 189, 216, 44, 173, 189, 16, 158, 183, 189, 136, 208, 186, 61, 188, 236, 58, 62, 228, 247, 115, 190, 236, 5, 63, 62, 48, 196, 181, 61, 156, 241, 66, 62, 184, 218, 207, 61, 204, 82, 35, 62, 152, 245, 4, 190, 192, 156, 91, 61, 200, 20, 225, 189, 20, 78, 122, 190, 176, 14, 189, 189, 204, 226, 93, 190, 152, 153, 105, 62, 32, 84, 125, 62, 128, 25, 205, 189, 180, 111, 115, 62, 88, 153, 85, 190, 120, 135, 186, 61, 48, 66, 80, 62, 0, 64, 96, 189, 180, 124, 57, 190, 92, 116, 32, 190, 72, 201, 139, 61, 168, 32, 113, 190, 80, 142, 108, 190, 72, 95, 250, 61, 168, 2, 148, 189, 176, 22, 15, 62, 76, 160, 66, 62, 184, 217, 207, 189, 20, 110, 127, 190, 152, 197, 167, 189, 12, 236, 92, 190, 184, 56, 55, 190, 248, 50, 64, 62, 232, 210, 185, 61, 200, 119, 100, 190, 32, 93, 180, 61, 252, 143, 15, 190, 192, 84, 117, 61, 72, 182, 153, 61, 188, 8, 94, 62, 48, 200, 22, 189, 32, 9, 75, 190, 104, 16, 116, 190, 224, 64, 214, 188, 192, 168, 177, 61, 248, 177, 132, 61, 96, 176, 31, 61, 84, 93, 127, 190, 124, 201, 6, 62, 252, 223, 36, 62, 112, 99, 7, 62, 136, 238, 115, 190, 44, 146, 40, 62, 24, 59, 146, 189, 192, 211, 45, 188, 172, 185, 37, 190, 44, 153, 89, 190, 108, 24, 21, 62, 208, 134, 232, 189, 208, 98, 254, 189, 216, 77, 48, 190, 48, 20, 68, 189, 0, 24, 213, 58, 0, 204, 39, 58, 136, 7, 231, 61, 192, 214, 127, 189, 176, 6, 95, 189, 16, 71, 58, 62, 80, 174, 235, 61, 104, 91, 17, 190, 64, 185, 220, 61, 88, 246, 67, 62, 0, 246, 208, 186, 184, 111, 101, 62, 36, 191, 21, 190, 0, 232, 132, 59, 0, 40, 201, 58, 164, 4, 38, 190, 240, 253, 140, 189, 80, 216, 98, 189, 168, 127, 151, 61, 144, 76, 157, 61, 8, 160, 155, 61, 176, 81, 93, 62, 76, 160, 89, 190, 140, 126, 58, 190, 20, 29, 11, 62, 80, 115, 210, 189, 144, 83, 90, 190, 144, 99, 91, 190, 160, 78, 105, 190, 192, 104, 112, 190, 24, 19, 108, 190, 124, 121, 112, 62, 56, 23, 150, 61, 28, 3, 102, 62, 8, 125, 186, 189, 28, 215, 38, 190, 236, 102, 120, 190, 244, 157, 79, 190, 184, 68, 154, 189, 88, 59, 199, 61, 68, 16, 66, 62, 92, 47, 93, 62, 44, 217, 93, 62, 192, 230, 210, 188, 168, 159, 209, 61, 192, 30, 128, 188, 112, 200, 98, 61, 248, 84, 175, 61, 112, 111, 127, 62, 32, 179, 150, 189, 56, 207, 97, 62, 16, 34, 90, 61, 128, 45, 141, 61, 64, 107, 15, 60, 84, 149, 9, 62, 184, 164, 97, 190, 216, 71, 97, 190, 208, 188, 151, 189, 128, 212, 90, 190, 232, 112, 111, 190, 184, 163, 114, 62, 192, 134, 61, 189, 64, 44, 211, 189, 96, 14, 143, 189, 0, 46, 49, 59, 196, 120, 50, 190, 0, 227, 2, 190, 128, 252, 63, 60, 68, 195, 3, 190, 196, 177, 105, 190, 120, 49, 34, 62, 48, 188, 19, 61, 56, 20, 86, 190, 112, 143, 218, 61, 128, 8, 150, 60, 24, 185, 96, 62, 0, 29, 62, 189, 8, 183, 58, 190, 120, 138, 116, 190, 72, 229, 20, 190, 200, 9, 143, 189, 108, 26, 112, 62, 180, 17, 77, 190, 52, 77, 34, 62, 112, 58, 103, 61, 80, 184, 195, 61, 40, 24, 213, 61, 48, 49, 32, 61, 235, 168, 216, 61, 200, 128, 199, 61, 248, 82, 184, 61, 122, 80, 174, 189, 200, 94, 201, 189, 61, 39, 175, 60, 174, 3, 207, 61, 224, 125, 103, 62, 96, 145, 196, 189, 192, 134, 51, 188, 50, 183, 14, 190, 37, 250, 84, 61, 147, 125, 77, 190, 220, 242, 114, 190, 210, 2, 76, 190, 243, 237, 86, 190, 104, 30, 213, 61, 150, 49, 14, 62, 196, 213, 117, 62, 32, 203, 113, 190, 144, 108, 39, 190, 120, 21, 58, 190, 180, 40, 57, 62, 152, 108, 218, 61, 171, 178, 133, 61, 220, 13, 9, 62, 193, 162, 58, 62, 44, 185, 74, 62, 169, 141, 52, 189, 64, 227, 100, 188, 181, 1, 204, 189, 56, 254, 102, 62, 64, 100, 23, 60, 93, 17, 102, 190, 128, 129, 219, 188, 77, 37, 208, 188, 199, 61, 214, 189, 100, 41, 93, 190, 201, 115, 64, 190, 101, 60, 110, 62, 240, 155, 122, 62, 192, 201, 5, 62, 108, 208, 59, 61, 116, 33, 4, 62, 160, 208, 206, 61, 216, 3, 212, 187, 200, 42, 32, 190, 76, 40, 9, 190, 151, 201, 197, 61, 168, 166, 194, 189, 117, 69, 209, 189, 168, 89, 213, 61, 56, 132, 9, 62, 0, 185, 34, 189, 68, 90, 121, 62, 160, 22, 107, 190, 133, 81, 12, 190, 208, 254, 21, 189, 112, 133, 39, 190, 50, 208, 172, 187, 0, 24, 102, 62, 180, 174, 122, 190, 66, 178, 136, 189, 72, 198, 107, 190, 232, 171, 55, 190, 44, 85, 15, 190, 240, 35, 225, 189, 136, 59, 19, 62, 64, 35, 46, 61, 100, 2, 120, 62, 176, 108, 13, 62, 216, 144, 84, 62, 204, 31, 63, 190, 44, 185, 28, 62, 160, 247, 41, 190, 192, 32, 129, 61, 8, 250, 52, 190, 32, 76, 145, 189, 252, 209, 55, 190, 112, 119, 19, 62, 64, 83, 91, 62, 0, 130, 54, 60, 4, 115, 47, 190, 0, 1, 164, 61, 208, 225, 65, 189, 96, 241, 8, 62, 80, 158, 47, 190, 84, 179, 80, 62, 216, 138, 58, 190, 184, 153, 54, 62, 144, 66, 156, 61, 128, 131, 20, 61, 12, 105, 115, 190, 112, 56, 106, 190, 120, 126, 72, 62, 80, 97, 115, 189, 36, 110, 89, 62, 36, 43, 120, 62, 164, 99, 23, 62, 80, 146, 22, 189, 0, 238, 150, 188, 80, 139, 172, 189, 80, 70, 61, 189, 216, 47, 78, 190, 72, 229, 4, 190, 0, 60, 85, 62, 192, 96, 59, 62, 208, 223, 39, 190, 0, 135, 161, 60, 44, 106, 78, 62, 168, 215, 226, 189, 8, 174, 243, 61, 56, 66, 99, 190, 40, 217, 44, 190, 192, 164, 151, 189, 128, 70, 227, 187, 252, 40, 56, 62, 44, 67, 89, 190, 144, 57, 181, 61, 124, 69, 56, 62, 92, 200, 123, 62, 8, 85, 19, 62, 100, 119, 110, 62, 0, 12, 186, 189, 104, 244, 30, 62, 208, 193, 116, 190, 112, 18, 50, 62, 160, 171, 110, 189, 0, 254, 195, 58, 16, 124, 189, 61, 64, 179, 202, 60, 212, 221, 30, 190, 96, 102, 81, 62, 224, 56, 14, 190, 132, 155, 22, 190, 128, 255, 25, 61, 128, 39, 130, 61, 72, 224, 74, 62, 32, 81, 164, 188, 112, 23, 121, 189, 236, 102, 87, 190, 144, 113, 36, 190, 144, 117, 57, 189, 112, 47, 94, 61, 56, 10, 110, 62, 208, 135, 181, 61, 192, 242, 102, 189, 112, 246, 226, 61, 80, 142, 88, 62, 184, 241, 10, 190, 0, 53, 123, 62, 92, 36, 115, 190, 236, 194, 112, 190, 32, 202, 157, 60, 136, 33, 86, 190, 192, 181, 62, 189, 40, 138, 154, 189, 168, 220, 212, 61, 20, 65, 68, 190, 200, 210, 98, 62, 128, 225, 179, 187, 160, 107, 17, 189, 208, 93, 78, 190, 208, 56, 120, 190, 136, 56, 124, 62, 160, 121, 188, 61, 64, 37, 104, 61, 16, 190, 80, 61, 192, 159, 89, 189, 160, 181, 241, 188, 64, 208, 232, 188, 220, 167, 32, 62, 112, 244, 80, 61, 0, 141, 57, 59, 92, 126, 16, 62, 20, 125, 72, 190, 144, 125, 254, 61, 72, 163, 244, 189, 20, 181, 61, 190, 52, 239, 90, 190, 80, 221, 47, 61, 248, 146, 102, 62, 76, 6, 9, 190, 252, 216, 120, 190, 8, 15, 203, 189, 108, 248, 94, 62, 216, 106, 139, 189, 8, 60, 161, 61, 176, 102, 24, 190, 184, 116, 124, 190, 80, 72, 60, 61, 146, 136, 114, 62, 10, 203, 8, 189, 83, 128, 43, 190, 147, 98, 28, 62, 74, 120, 190, 189, 217, 78, 112, 62, 66, 193, 188, 188, 27, 222, 227, 61, 144, 62, 9, 190, 32, 93, 61, 189, 116, 124, 52, 190, 52, 112, 228, 61, 11, 255, 53, 189, 216, 46, 76, 189, 60, 176, 103, 190, 46, 191, 9, 62, 50, 77, 80, 62, 24, 179, 187, 61, 220, 21, 178, 61, 224, 63, 27, 190, 16, 167, 84, 189, 128, 138, 8, 189, 96, 147, 194, 189, 33, 123, 254, 61, 80, 14, 76, 189, 180, 27, 99, 62, 250, 126, 128, 61, 240, 90, 118, 190, 56, 70, 76, 62, 183, 86, 140, 61, 224, 57, 122, 189, 86, 176, 50, 62, 232, 20, 38, 190, 240, 222, 87, 189, 169, 184, 132, 189, 0, 161, 138, 187, 39, 167, 1, 189, 105, 200, 128, 189, 212, 151, 0, 190, 19, 72, 89, 190, 224, 122, 241, 189, 72, 17, 38, 190, 84, 129, 24, 190, 233, 98, 42, 190, 0, 94, 145, 189, 232, 90, 166, 189, 34, 143, 31, 62, 168, 115, 200, 189, 13, 22, 106, 190, 18, 237, 32, 190, 224, 227, 81, 190, 60, 26, 5, 62, 144, 22, 17, 61, 212, 43, 76, 62, 200, 9, 165, 189, 128, 41, 122, 190, 184, 133, 24, 62, 228, 92, 203, 61, 128, 15, 39, 60, 0, 220, 21, 188, 208, 93, 147, 189, 28, 207, 101, 190, 144, 251, 52, 62, 29, 182, 224, 60, 128, 189, 123, 190, 236, 11, 56, 62, 28, 65, 125, 190, 176, 230, 60, 189, 96, 48, 9, 190, 192, 41, 136, 61, 200, 88, 32, 62, 0, 84, 187, 60, 52, 211, 77, 62, 0, 230, 118, 59, 60, 174, 96, 190, 196, 219, 23, 62, 176, 62, 12, 61, 104, 200, 52, 190, 240, 132, 129, 189, 188, 225, 79, 62, 240, 47, 196, 61, 20, 88, 6, 62, 168, 169, 253, 189, 192, 33, 207, 60, 192, 82, 95, 61, 168, 51, 162, 61, 48, 13, 68, 61, 200, 105, 56, 190, 32, 14, 24, 189, 124, 120, 125, 62, 28, 92, 109, 62, 104, 79, 172, 189, 96, 185, 137, 60, 168, 254, 174, 189, 8, 36, 59, 62, 160, 75, 72, 62, 200, 216, 181, 61, 192, 96, 38, 60, 240, 142, 104, 62, 16, 143, 7, 190, 120, 79, 212, 189, 60, 73, 70, 190, 48, 110, 50, 190, 36, 85, 99, 190, 152, 8, 111, 62, 240, 64, 39, 189, 112, 56, 39, 62, 120, 149, 7, 190, 244, 199, 100, 190, 128, 6, 2, 61, 108, 203, 99, 190, 176, 255, 112, 61, 248, 185, 178, 189, 32, 151, 252, 189, 112, 197, 172, 61, 176, 39, 55, 189, 32, 204, 175, 188, 240, 53, 122, 189, 152, 127, 239, 61, 56, 160, 165, 189, 176, 33, 97, 62, 64, 4, 106, 60, 116, 238, 69, 190, 168, 158, 76, 190, 48, 71, 40, 190, 80, 26, 62, 189, 232, 244, 179, 61, 4, 167, 70, 62, 0, 200, 3, 187, 0, 172, 98, 60, 96, 87, 146, 188, 80, 136, 27, 190, 44, 91, 99, 190, 164, 124, 98, 190, 192, 51, 249, 189, 236, 23, 58, 62, 104, 162, 75, 62, 136, 135, 227, 61, 28, 36, 124, 190, 76, 211, 68, 190, 64, 241, 101, 61, 0, 178, 104, 61, 196, 47, 13, 190, 80, 7, 109, 189, 52, 181, 111, 190, 192, 129, 76, 62, 92, 189, 8, 62, 224, 52, 229, 61, 28, 250, 105, 190, 96, 131, 112, 189, 32, 223, 227, 60, 196, 173, 43, 190, 80, 169, 24, 190, 48, 135, 94, 62, 0, 152, 211, 186, 200, 218, 25, 190, 160, 216, 170, 60, 20, 167, 9, 62, 128, 231, 198, 189, 88, 199, 152, 189, 160, 66, 161, 61, 228, 227, 42, 62, 0, 106, 226, 58, 96, 177, 242, 60, 52, 226, 54, 190, 140, 171, 7, 190, 184, 100, 137, 189, 192, 75, 54, 60, 16, 249, 46, 190, 244, 251, 37, 190, 8, 185, 27, 190, 244, 154, 26, 190, 152, 64, 196, 189, 244, 74, 84, 62, 232, 189, 163, 61, 216, 90, 17, 190, 28, 121, 5, 190, 140, 241, 1, 62, 16, 144, 154, 189, 228, 170, 14, 190, 104, 253, 241, 189, 124, 185, 59, 190, 112, 145, 191, 61, 64, 209, 239, 189, 192, 56, 45, 188, 240, 71, 247, 61, 0, 58, 194, 61, 76, 68, 101, 62, 224, 112, 60, 61, 92, 125, 33, 62, 192, 131, 177, 189, 244, 232, 28, 62, 217, 216, 154, 189, 97, 144, 204, 60, 157, 50, 161, 189, 219, 189, 29, 62, 188, 115, 149, 61, 43, 33, 43, 61, 8, 21, 120, 62, 216, 108, 161, 188, 32, 74, 36, 190, 160, 60, 30, 61, 224, 155, 114, 190, 26, 168, 53, 190, 34, 179, 88, 62, 233, 183, 177, 61, 224, 16, 187, 60, 128, 113, 128, 190, 180, 236, 59, 190, 20, 241, 91, 190, 38, 253, 9, 190, 128, 197, 175, 189, 128, 154, 209, 60, 240, 81, 33, 190, 228, 70, 36, 190, 192, 245, 212, 61, 72, 234, 165, 61, 130, 38, 148, 61, 111, 170, 155, 61, 134, 192, 217, 189, 68, 46, 37, 190, 126, 181, 20, 190, 172, 232, 101, 62, 233, 144, 164, 189, 128, 203, 227, 61, 236, 102, 116, 62, 254, 126, 160, 189, 96, 12, 77, 190, 232, 226, 119, 62, 117, 216, 57, 189, 196, 37, 60, 190, 42, 148, 127, 189, 175, 35, 27, 61, 160, 167, 129, 60, 96, 225, 13, 189, 160, 27, 14, 190, 200, 198, 24, 62, 64, 252, 191, 188, 236, 129, 52, 62, 116, 0, 25, 190, 255, 186, 183, 189, 218, 118, 119, 62, 156, 190, 19, 62, 67, 184, 60, 190, 244, 111, 51, 62, 112, 164, 182, 189, 112, 81, 76, 61, 84, 116, 2, 190, 112, 217, 107, 62, 43, 204, 201, 61, 192, 65, 56, 190, 224, 233, 159, 60, 0, 27, 49, 62, 80, 218, 123, 62, 128, 77, 193, 61, 103, 192, 45, 190, 71, 131, 126, 190, 172, 161, 112, 190, 214, 139, 254, 60, 108, 74, 11, 62, 49, 121, 23, 190, 59, 246, 71, 190, 50, 80, 108, 62, 193, 203, 152, 188, 132, 254, 119, 190, 0, 126, 43, 60, 192, 62, 71, 61, 80, 51, 55, 190, 156, 109, 192, 189, 75, 144, 37, 62, 24, 111, 244, 189, 143, 248, 58, 189, 124, 92, 221, 61, 96, 110, 64, 189, 43, 163, 185, 61, 80, 255, 139, 61, 172, 225, 74, 62, 104, 55, 242, 61, 176, 5, 210, 61, 204, 238, 211, 60, 24, 29, 123, 62, 74, 120, 149, 187, 92, 228, 77, 62, 135, 206, 102, 62, 152, 115, 240, 61, 202, 242, 36, 62, 224, 13, 114, 190, 191, 63, 121, 190, 128, 39, 255, 59, 192, 183, 132, 188, 216, 164, 109, 62, 176, 140, 46, 61, 216, 110, 175, 61, 51, 138, 251, 61, 156, 57, 67, 190, 48, 113, 48, 190, 178, 178, 116, 62, 120, 61, 144, 189, 248, 23, 178, 61, 175, 187, 46, 190, 216, 2, 84, 62, 68, 42, 89, 190, 24, 67, 194, 61, 32, 21, 126, 61, 169, 252, 97, 62, 25, 97, 111, 62, 176, 49, 113, 190, 78, 88, 231, 61, 200, 142, 76, 62, 20, 67, 118, 190, 208, 97, 147, 189, 116, 78, 2, 190, 184, 28, 3, 190, 160, 235, 33, 61, 40, 91, 81, 62, 0, 149, 132, 187, 208, 166, 218, 189, 208, 180, 56, 189, 192, 37, 105, 189, 93, 220, 49, 189, 8, 89, 184, 61, 96, 49, 206, 188, 152, 98, 178, 61, 216, 156, 102, 190, 144, 71, 115, 189, 16, 44, 235, 189, 224, 178, 209, 189, 140, 79, 88, 190, 32, 31, 89, 61, 0, 76, 28, 190, 44, 210, 5, 62, 240, 6, 61, 190, 112, 115, 145, 61, 152, 223, 162, 61, 116, 102, 120, 62, 144, 27, 199, 61, 176, 182, 68, 61, 176, 82, 208, 61, 176, 75, 114, 62, 28, 246, 69, 190, 240, 49, 11, 62, 0, 113, 72, 187, 208, 119, 49, 61, 208, 148, 114, 61, 104, 160, 82, 190, 116, 240, 77, 190, 56, 232, 147, 61, 180, 197, 57, 190, 68, 3, 34, 190, 80, 156, 210, 61, 128, 174, 76, 189, 188, 206, 58, 190, 40, 51, 6, 190, 176, 236, 31, 190, 236, 53, 50, 62, 96, 50, 34, 61, 216, 69, 32, 62, 160, 41, 231, 61, 176, 85, 124, 189, 96, 139, 202, 60, 224, 163, 38, 190, 224, 18, 161, 61, 176, 209, 115, 61, 48, 51, 211, 61, 220, 37, 9, 62, 132, 112, 103, 62, 248, 24, 144, 61, 192, 242, 83, 62, 32, 117, 102, 190, 48, 187, 13, 189, 56, 103, 81, 62, 248, 28, 14, 190, 96, 78, 173, 189, 0, 166, 29, 59, 64, 202, 78, 62, 164, 233, 114, 62, 108, 234, 109, 62, 204, 224, 113, 62, 232, 60, 90, 62, 76, 55, 14, 190, 156, 252, 79, 190, 160, 169, 103, 62, 12, 93, 19, 62, 244, 123, 63, 190, 204, 132, 52, 62, 236, 35, 1, 190, 164, 176, 2, 62, 64, 236, 65, 188, 96, 150, 193, 188, 128, 3, 214, 187, 248, 188, 193, 189, 136, 68, 54, 190, 200, 102, 166, 189, 240, 157, 178, 61, 44, 250, 110, 190, 128, 62, 166, 187, 144, 28, 195, 189, 232, 209, 149, 189, 92, 75, 84, 62, 220, 165, 127, 62, 188, 186, 66, 62, 56, 59, 197, 61, 84, 105, 66, 190, 64, 11, 231, 60, 216, 181, 90, 190, 220, 219, 45, 62, 168, 191, 203, 189, 20, 230, 17, 190, 220, 153, 112, 190, 36, 206, 17, 190, 152, 122, 89, 190, 96, 178, 89, 189, 192, 12, 82, 61, 184, 120, 37, 190, 48, 100, 112, 61, 136, 215, 70, 62, 120, 176, 244, 61, 240, 228, 219, 61, 160, 229, 89, 62, 56, 98, 37, 190, 160, 131, 28, 190, 216, 157, 225, 61, 32, 233, 250, 188, 216, 215, 213, 189, 128, 2, 44, 190, 208, 131, 117, 190, 24, 73, 87, 190, 16, 181, 167, 61, 0, 211, 180, 61, 224, 181, 110, 189, 124, 210, 13, 190, 8, 134, 112, 190, 224, 37, 47, 189, 64, 81, 245, 188, 144, 48, 68, 189, 240, 2, 214, 189, 104, 13, 202, 61, 20, 116, 72, 62, 20, 88, 34, 190, 80, 248, 16, 62, 208, 196, 220, 61, 224, 223, 153, 61, 208, 163, 33, 189, 192, 117, 80, 188, 224, 166, 135, 189, 8, 158, 157, 189, 252, 67, 103, 190, 120, 81, 36, 190, 8, 139, 32, 190, 52, 59, 56, 190, 144, 19, 39, 190, 8, 223, 7, 62, 200, 221, 102, 62, 156, 81, 39, 62, 228, 2, 105, 190, 176, 56, 14, 189, 4, 159, 3, 62, 24, 239, 191, 189, 136, 18, 174, 61, 232, 212, 234, 189, 208, 135, 121, 189, 40, 129, 223, 189, 148, 97, 76, 190, 144, 156, 86, 190, 88, 213, 50, 190, 60, 205, 39, 190, 140, 99, 36, 62, 108, 90, 114, 190, 24, 117, 172, 61, 172, 89, 115, 190, 48, 3, 55, 62, 124, 12, 120, 62, 96, 241, 64, 190, 188, 234, 86, 190, 192, 71, 168, 61, 232, 167, 251, 61, 136, 130, 247, 61, 136, 52, 14, 190, 128, 131, 218, 61, 128, 140, 189, 187, 16, 32, 26, 190, 160, 150, 144, 60, 0, 248, 246, 57, 224, 175, 204, 189, 148, 29, 10, 62, 24, 183, 73, 62, 92, 71, 106, 190, 220, 195, 104, 62, 104, 231, 123, 190, 224, 222, 3, 189, 8, 183, 251, 61, 24, 118, 180, 189, 0, 163, 230, 189, 160, 137, 65, 189, 148, 194, 90, 190, 160, 120, 183, 60, 0, 8, 247, 187, 180, 191, 99, 190, 72, 120, 134, 61, 136, 125, 157, 61, 192, 175, 131, 189, 212, 32, 55, 62, 236, 44, 41, 62, 104, 125, 67, 62, 232, 29, 1, 190, 128, 29, 199, 59, 24, 145, 99, 62, 200, 56, 161, 189, 128, 8, 73, 61, 160, 211, 198, 189, 128, 164, 197, 187, 36, 5, 118, 62, 68, 157, 218, 60, 150, 212, 142, 61, 170, 128, 177, 189, 231, 77, 128, 61, 167, 243, 71, 62, 17, 220, 4, 189, 202, 160, 125, 189, 193, 110, 164, 61, 96, 185, 21, 61, 192, 211, 122, 190, 52, 205, 36, 190, 168, 189, 85, 190, 212, 146, 58, 190, 168, 163, 42, 62, 180, 238, 25, 62, 93, 62, 87, 190, 75, 124, 102, 62, 8, 247, 179, 61, 126, 162, 47, 62, 156, 232, 122, 190, 224, 226, 173, 189, 160, 242, 192, 189, 232, 238, 8, 62, 169, 102, 151, 61, 220, 134, 59, 190, 137, 215, 68, 189, 199, 222, 50, 190, 205, 126, 58, 61, 8, 70, 70, 190, 89, 111, 151, 61, 200, 100, 203, 61, 43, 221, 10, 62, 64, 218, 254, 60, 172, 212, 58, 62, 19, 205, 17, 190, 240, 111, 205, 189, 132, 90, 103, 189, 86, 102, 68, 61, 144, 84, 236, 189, 38, 109, 18, 189, 7, 215, 150, 189, 176, 131, 109, 189, 80, 109, 5, 61, 195, 189, 251, 189, 112, 225, 131, 189, 248, 63, 205, 189, 126, 167, 233, 189, 180, 164, 61, 62, 173, 69, 19, 61, 92, 237, 83, 62, 224, 205, 60, 190, 83, 162, 252, 189, 160, 20, 18, 61, 224, 57, 141, 61, 32, 155, 83, 62, 12, 167, 72, 62, 136, 209, 246, 61, 151, 4, 127, 62, 144, 66, 114, 62, 48, 228, 82, 189, 69, 128, 27, 190, 80, 109, 88, 190, 64, 57, 47, 61, 210, 61, 51, 188, 44, 38, 99, 62, 112, 14, 39, 190, 192, 217, 114, 62, 0, 48, 78, 60, 96, 80, 34, 190, 128, 139, 7, 190, 180, 253, 118, 62, 200, 234, 45, 190, 60, 55, 47, 62, 200, 25, 161, 189, 0, 134, 107, 189, 144, 224, 4, 61, 0, 232, 47, 60, 24, 71, 191, 61, 152, 146, 203, 189, 0, 213, 155, 187, 84, 96, 27, 62, 232, 119, 147, 189, 184, 230, 40, 62, 80, 159, 116, 61, 0, 31, 105, 189, 120, 236, 203, 61, 80, 99, 111, 189, 20, 6, 97, 190, 84, 232, 91, 62, 104, 29, 5, 62, 200, 0, 74, 62, 192, 0, 36, 60, 0, 4, 200, 187, 224, 59, 65, 190, 92, 221, 88, 62, 80, 203, 192, 189, 112, 116, 171, 189, 28, 205, 46, 190, 240, 150, 82, 190, 184, 202, 122, 62, 72, 67, 60, 190, 80, 131, 59, 189, 208, 71, 239, 189, 164, 21, 62, 62, 132, 74, 108, 62, 72, 243, 99, 62, 24, 86, 62, 62, 224, 14, 185, 189, 192, 195, 64, 189, 172, 122, 113, 190, 40, 162, 132, 61, 72, 38, 227, 61, 192, 4, 10, 188, 208, 155, 187, 61, 128, 211, 159, 189, 160, 244, 141, 61, 212, 135, 107, 190, 40, 62, 152, 61, 96, 220, 28, 62, 200, 8, 216, 61, 16, 162, 197, 189, 96, 75, 175, 189, 192, 102, 108, 189, 160, 33, 112, 190, 240, 42, 162, 61, 228, 247, 31, 62, 208, 218, 122, 190, 192, 206, 129, 189, 192, 13, 28, 61, 184, 213, 244, 189, 228, 42, 16, 62, 112, 164, 183, 189, 196, 76, 116, 190, 140, 7, 127, 190, 232, 160, 76, 62, 96, 199, 63, 190, 64, 75, 82, 190, 224, 134, 253, 60, 196, 97, 50, 190, 168, 162, 53, 62, 88, 91, 101, 190, 0, 162, 204, 58, 168, 124, 198, 61, 16, 192, 249, 189, 72, 81, 231, 61, 188, 111, 124, 62, 72, 149, 220, 189, 112, 159, 76, 189, 224, 233, 234, 60, 192, 136, 214, 60, 120, 48, 197, 61, 176, 129, 207, 189, 212, 121, 113, 190, 168, 62, 71, 62, 128, 213, 30, 190, 64, 200, 240, 61, 56, 27, 252, 61, 248, 52, 53, 190, 64, 117, 74, 188, 32, 115, 225, 189, 92, 239, 82, 190, 220, 130, 78, 190, 84, 79, 33, 62, 164, 231, 75, 190, 68, 116, 108, 62, 236, 179, 50, 190, 184, 241, 115, 190, 72, 255, 110, 190, 96, 13, 19, 61, 152, 150, 150, 189, 96, 218, 18, 190, 152, 109, 249, 61, 116, 91, 4, 190, 244, 208, 97, 190, 0, 17, 78, 190, 152, 19, 163, 189, 128, 235, 144, 61, 252, 5, 126, 190, 72, 243, 231, 61, 56, 2, 10, 190, 136, 69, 89, 190, 248, 159, 39, 62, 64, 58, 148, 189, 96, 194, 133, 189, 144, 53, 21, 61, 136, 137, 115, 190, 64, 59, 117, 62, 224, 39, 190, 188, 200, 122, 38, 62, 244, 213, 117, 190, 64, 15, 164, 188, 52, 155, 108, 190, 100, 73, 124, 62, 208, 48, 76, 61, 76, 164, 20, 190, 0, 83, 87, 190, 80, 7, 200, 189, 192, 123, 3, 190, 240, 0, 228, 61, 172, 110, 40, 62, 32, 114, 176, 188, 104, 194, 212, 61, 12, 62, 121, 190, 120, 101, 139, 61, 200, 180, 92, 62, 192, 200, 103, 188, 24, 175, 176, 189, 16, 229, 114, 190, 64, 206, 2, 190, 0, 224, 24, 186, 216, 171, 242, 189, 120, 108, 134, 189, 136, 2, 70, 62, 224, 74, 22, 189, 92, 126, 5, 190, 64, 110, 138, 61, 252, 118, 32, 190, 176, 209, 113, 189, 128, 114, 131, 59, 0, 137, 44, 189, 120, 106, 207, 189, 0, 153, 25, 187, 44, 183, 21, 62, 136, 28, 129, 61, 232, 155, 37, 190, 24, 203, 82, 190, 144, 126, 31, 189, 44, 143, 15, 62, 104, 62, 99, 190, 136, 23, 101, 190, 40, 33, 127, 190, 32, 191, 195, 188, 64, 253, 175, 188, 96, 235, 61, 61, 200, 62, 222, 189, 240, 162, 242, 189, 120, 155, 13, 62, 112, 225, 136, 189, 100, 45, 94, 62, 232, 27, 154, 61, 172, 50, 61, 190, 100, 199, 11, 62, 208, 253, 146, 61, 88, 109, 244, 61, 64, 6, 79, 60, 0, 72, 213, 57, 96, 130, 6, 62, 84, 18, 33, 190, 64, 238, 8, 188, 112, 68, 30, 190, 92, 179, 45, 62, 64, 102, 57, 190, 224, 165, 45, 190, 4, 7, 3, 62, 232, 23, 43, 62, 108, 124, 8, 62, 56, 85, 248, 189, 192, 48, 29, 189, 168, 144, 175, 61, 8, 52, 95, 190, 0, 36, 134, 189, 36, 41, 56, 190, 184, 59, 29, 190, 208, 228, 227, 61, 236, 21, 103, 190, 176, 65, 175, 189, 128, 67, 217, 188, 144, 87, 196, 61, 8, 110, 193, 61, 228, 182, 41, 62, 216, 50, 234, 189, 96, 4, 207, 61, 208, 105, 19, 61, 124, 4, 106, 190, 0, 124, 22, 62, 120, 209, 120, 190, 144, 239, 52, 190, 176, 15, 33, 61, 128, 38, 125, 62, 64, 49, 49, 61, 120, 6, 210, 189, 168, 27, 239, 61, 248, 99, 215, 189, 96, 26, 97, 189, 148, 82, 80, 62, 168, 32, 125, 190, 192, 161, 86, 60, 240, 243, 138, 189, 108, 177, 96, 190, 80, 137, 180, 189, 0, 35, 103, 61, 112, 103, 209, 189, 208, 217, 22, 190, 112, 167, 153, 61, 80, 154, 150, 189, 248, 5, 43, 190, 172, 47, 118, 62, 24, 32, 230, 189, 96, 102, 219, 188, 140, 83, 88, 62, 88, 76, 172, 189, 44, 211, 123, 190, 84, 168, 58, 62, 184, 85, 144, 61, 188, 155, 15, 190, 240, 184, 232, 61, 40, 187, 48, 190, 156, 122, 116, 190, 48, 73, 64, 62, 48, 238, 195, 189, 64, 218, 22, 190, 48, 187, 251, 61, 64, 88, 185, 188, 232, 33, 113, 62, 128, 246, 189, 189, 0, 114, 200, 186, 168, 241, 222, 61, 168, 50, 204, 189, 112, 142, 19, 189, 112, 108, 10, 189, 38, 47, 40, 188, 103, 229, 95, 188, 157, 162, 106, 61, 255, 241, 59, 62, 118, 78, 172, 59, 103, 6, 111, 190, 201, 135, 5, 62, 147, 156, 59, 61, 192, 68, 6, 188, 128, 143, 111, 62, 224, 24, 107, 190, 50, 219, 80, 59, 142, 192, 68, 190, 255, 150, 107, 190, 16, 35, 58, 61, 102, 138, 86, 190, 178, 25, 120, 190, 96, 119, 3, 190, 182, 15, 209, 189, 96, 201, 178, 61, 224, 196, 184, 189, 96, 132, 34, 189, 192, 39, 39, 62, 191, 87, 36, 62, 136, 251, 142, 61, 21, 227, 117, 62, 122, 130, 186, 61, 69, 2, 118, 189, 96, 137, 213, 189, 22, 40, 151, 61, 68, 88, 117, 190, 103, 73, 56, 190, 96, 52, 161, 61, 116, 102, 106, 190, 129, 229, 43, 62, 76, 144, 51, 190, 92, 156, 111, 190, 80, 51, 124, 62, 232, 159, 209, 61, 236, 159, 58, 190, 24, 249, 29, 62, 20, 90, 72, 62, 216, 63, 8, 62, 213, 24, 152, 60, 176, 225, 106, 61, 128, 149, 121, 190, 205, 28, 89, 189, 228, 149, 53, 62, 115, 83, 33, 190, 241, 138, 198, 61, 224, 78, 150, 60, 75, 91, 133, 189, 12, 157, 25, 62, 24, 105, 155, 61, 240, 108, 200, 189, 64, 101, 38, 61, 64, 174, 18, 189, 202, 61, 74, 62, 168, 72, 62, 62, 200, 46, 72, 62, 139, 219, 18, 190, 68, 92, 104, 62, 136, 85, 181, 61, 13, 11, 244, 188, 73, 235, 77, 62, 50, 99, 25, 189, 177, 11, 47, 189, 29, 21, 251, 61, 107, 64, 108, 62, 212, 136, 129, 189, 60, 233, 201, 189, 202, 83, 189, 61, 72, 200, 214, 189, 160, 246, 19, 189, 160, 35, 154, 60, 97, 165, 53, 189, 158, 252, 136, 189, 229, 39, 215, 189, 224, 85, 25, 189, 19, 242, 196, 189, 213, 77, 239, 189, 40, 8, 94, 190, 50, 21, 9, 190, 80, 98, 169, 189, 64, 254, 24, 62, 60, 137, 120, 62, 56, 60, 76, 62, 145, 164, 196, 61, 240, 16, 107, 61, 252, 9, 8, 190, 26, 164, 79, 62, 232, 66, 22, 189, 120, 137, 83, 62, 99, 57, 186, 61, 124, 21, 103, 62, 207, 229, 11, 62, 160, 154, 59, 190, 4, 10, 106, 62, 91, 155, 68, 190, 200, 219, 217, 61, 127, 47, 80, 62, 46, 149, 66, 62, 56, 21, 57, 190, 152, 156, 37, 190, 170, 29, 100, 62, 0, 46, 89, 190, 0, 140, 61, 187, 65, 14, 118, 190, 152, 230, 111, 190, 216, 38, 44, 190, 148, 87, 148, 186, 96, 227, 45, 61, 178, 203, 19, 190, 174, 11, 2, 190, 164, 188, 97, 190, 35, 234, 32, 189, 144, 45, 36, 61, 96, 107, 151, 188, 128, 34, 182, 188, 12, 91, 36, 62, 72, 22, 251, 189, 226, 159, 121, 61, 204, 253, 116, 190, 140, 238, 99, 62, 52, 193, 70, 190, 8, 77, 82, 62, 48, 112, 182, 61, 171, 178, 33, 188, 212, 165, 73, 62, 108, 238, 47, 188, 165, 18, 20, 190, 58, 251, 148, 189, 252, 118, 81, 190, 138, 172, 87, 190, 142, 83, 166, 189, 67, 153, 102, 190, 88, 91, 73, 62, 32, 54, 107, 190, 164, 76, 93, 62, 68, 225, 66, 190, 106, 195, 100, 62, 112, 26, 251, 61, 12, 153, 2, 190, 6, 219, 63, 190, 134, 203, 107, 190, 188, 183, 99, 62, 29, 17, 28, 62, 0, 107, 243, 189, 72, 223, 187, 189, 96, 70, 54, 190, 80, 91, 55, 189, 129, 173, 98, 61, 8, 3, 206, 61, 126, 57, 1, 62, 251, 61, 136, 60, 199, 129, 107, 62, 132, 50, 55, 62, 8, 151, 121, 61, 36, 89, 60, 190, 93, 108, 181, 189, 32, 96, 24, 62, 16, 254, 113, 189, 114, 221, 60, 62, 80, 140, 86, 61, 128, 147, 17, 190, 200, 207, 3, 62, 72, 22, 149, 189, 27, 246, 237, 61, 192, 9, 51, 189, 212, 252, 50, 190, 184, 41, 187, 61, 39, 226, 68, 190, 0, 108, 31, 190, 184, 57, 22, 190, 54, 46, 253, 61, 224, 161, 41, 61, 54, 158, 112, 62, 73, 244, 48, 190, 220, 33, 13, 62, 244, 158, 84, 62, 68, 22, 29, 190, 224, 177, 181, 189, 128, 136, 193, 187, 92, 151, 80, 62, 136, 35, 63, 190, 237, 1, 126, 60, 0, 215, 39, 187, 216, 77, 141, 189, 12, 2, 252, 188, 0, 181, 159, 189, 80, 238, 195, 189, 106, 17, 71, 189, 99, 133, 34, 62, 109, 107, 19, 62, 77, 141, 116, 62, 195, 120, 19, 62, 218, 22, 58, 190, 61, 119, 129, 62, 247, 86, 198, 189, 123, 80, 22, 61, 40, 249, 41, 62, 20, 100, 49, 190, 240, 68, 70, 61, 148, 104, 6, 190, 72, 128, 213, 189, 118, 108, 112, 61, 124, 33, 56, 62, 186, 30, 96, 62, 82, 123, 51, 190, 128, 2, 117, 61, 115, 95, 113, 189, 16, 194, 1, 190, 120, 209, 131, 61, 0, 64, 71, 57, 152, 13, 164, 61, 132, 150, 88, 61, 24, 183, 193, 61, 164, 174, 233, 60, 168, 15, 18, 61, 111, 213, 120, 62, 168, 189, 127, 62, 11, 144, 216, 58, 96, 21, 216, 188, 255, 165, 81, 190, 252, 122, 9, 190, 80, 88, 65, 189, 34, 83, 215, 189, 0, 148, 222, 59, 25, 152, 54, 62, 240, 125, 38, 190, 28, 54, 25, 190, 2, 186, 240, 61, 26, 79, 31, 62, 80, 139, 59, 62, 44, 87, 44, 190, 93, 167, 65, 190, 128, 108, 121, 189, 16, 121, 27, 61, 189, 22, 231, 61, 132, 81, 21, 62, 182, 53, 73, 190, 212, 252, 154, 61, 84, 10, 7, 190, 30, 158, 127, 59, 128, 153, 56, 190, 128, 170, 209, 60, 248, 9, 185, 189, 0, 244, 27, 59, 96, 13, 13, 61, 71, 186, 88, 62, 136, 161, 251, 61, 0, 171, 47, 188, 244, 168, 110, 190, 0, 35, 214, 188, 32, 223, 103, 190, 53, 226, 116, 61, 176, 20, 68, 189, 40, 28, 26, 190, 96, 69, 235, 61, 112, 172, 17, 190, 88, 104, 144, 61, 236, 45, 94, 62, 16, 49, 167, 61, 56, 253, 22, 190, 32, 125, 104, 61, 208, 95, 72, 61, 240, 101, 232, 61, 176, 43, 126, 61, 64, 89, 181, 60, 4, 182, 107, 190, 48, 127, 106, 189, 212, 96, 16, 62, 140, 88, 72, 190, 152, 151, 199, 61, 192, 159, 61, 188, 0, 63, 132, 188, 72, 40, 168, 189, 88, 46, 198, 189, 204, 47, 83, 62, 96, 157, 179, 61, 8, 185, 218, 189, 212, 128, 88, 190, 176, 110, 14, 62, 32, 95, 221, 60, 152, 236, 229, 189, 16, 182, 171, 189, 128, 164, 250, 59, 80, 191, 37, 61, 112, 62, 191, 61, 228, 81, 21, 62, 164, 222, 24, 62, 48, 164, 134, 189, 192, 99, 48, 61, 24, 190, 207, 61, 160, 87, 109, 190, 224, 201, 83, 62, 160, 155, 148, 60, 112, 145, 16, 189, 20, 139, 33, 190, 0, 133, 134, 187, 184, 78, 188, 61, 212, 114, 21, 62, 184, 57, 61, 190, 88, 54, 97, 190, 112, 118, 14, 62, 116, 26, 66, 62, 140, 246, 22, 190, 0, 217, 55, 62, 208, 246, 108, 190, 80, 177, 61, 62, 68, 72, 122, 190, 96, 190, 113, 189, 160, 255, 59, 61, 204, 94, 82, 190, 136, 53, 6, 190, 104, 213, 143, 61, 112, 250, 223, 61, 224, 232, 123, 189, 188, 106, 5, 62, 192, 26, 100, 190, 186, 221, 17, 190, 7, 212, 54, 62, 168, 136, 8, 189, 11, 75, 97, 62, 14, 75, 59, 59, 56, 142, 43, 190, 244, 153, 26, 190, 44, 206, 88, 190, 96, 214, 51, 61, 56, 122, 233, 61, 128, 209, 81, 190, 64, 250, 48, 62, 12, 86, 58, 188, 160, 42, 198, 61, 36, 195, 99, 62, 211, 223, 43, 190, 50, 121, 12, 188, 44, 240, 125, 62, 22, 172, 243, 61, 248, 37, 64, 190, 84, 179, 43, 190, 96, 182, 177, 60, 148, 56, 39, 62, 117, 230, 130, 62, 60, 32, 114, 62, 204, 70, 59, 62, 240, 204, 67, 188, 160, 131, 119, 62, 176, 106, 163, 189, 140, 135, 20, 62, 116, 85, 9, 62, 146, 149, 228, 189, 224, 26, 229, 61, 192, 28, 165, 188, 58, 63, 26, 62, 168, 234, 180, 189, 251, 9, 6, 190, 54, 136, 241, 61, 152, 155, 28, 62, 216, 106, 109, 190, 240, 127, 18, 190, 16, 246, 177, 189, 240, 162, 1, 190, 99, 103, 14, 190, 200, 76, 35, 190, 176, 235, 148, 61, 61, 16, 225, 61, 24, 96, 151, 189, 220, 202, 4, 62, 111, 18, 177, 61, 0, 210, 139, 59, 110, 68, 61, 188, 80, 130, 120, 61, 60, 250, 65, 62, 72, 5, 129, 189, 252, 182, 12, 190, 224, 15, 159, 189, 179, 198, 11, 190, 12, 231, 20, 62, 32, 71, 181, 61, 44, 33, 10, 62, 32, 203, 163, 189, 152, 222, 109, 190, 110, 200, 128, 61, 152, 68, 108, 190, 32, 141, 30, 61, 104, 19, 107, 190, 96, 3, 158, 188, 192, 95, 153, 188, 128, 86, 64, 61, 180, 56, 74, 62, 0, 99, 222, 59, 36, 117, 101, 62, 28, 253, 127, 62, 112, 180, 172, 61, 44, 3, 73, 62, 96, 73, 7, 190, 180, 29, 62, 62, 32, 243, 60, 189, 112, 213, 165, 189, 88, 70, 56, 190, 128, 168, 24, 62, 176, 233, 78, 62, 100, 159, 103, 62, 0, 93, 113, 190, 216, 91, 103, 190, 232, 167, 68, 62, 236, 88, 35, 62, 60, 235, 59, 190, 148, 60, 103, 190, 76, 51, 15, 190, 212, 110, 67, 62, 48, 179, 64, 62, 56, 117, 5, 190, 252, 115, 3, 62, 8, 204, 64, 62, 240, 146, 30, 61, 164, 238, 50, 62, 0, 230, 101, 188, 180, 195, 78, 190, 108, 28, 30, 190, 32, 67, 40, 62, 128, 40, 74, 61, 120, 195, 246, 61, 36, 132, 105, 62, 64, 22, 72, 190, 232, 153, 150, 61, 92, 192, 102, 190, 100, 60, 48, 62, 172, 62, 30, 190, 240, 216, 73, 190, 32, 170, 158, 188, 0, 210, 33, 62, 28, 246, 109, 62, 32, 61, 216, 60, 120, 169, 156, 189, 80, 198, 201, 189, 48, 5, 49, 189, 88, 16, 177, 189, 0, 56, 82, 187, 252, 216, 92, 62, 236, 222, 80, 62, 80, 153, 58, 190, 80, 218, 0, 189, 100, 112, 12, 62, 252, 123, 103, 62, 112, 183, 243, 189, 236, 30, 77, 190, 236, 132, 8, 62, 96, 70, 242, 61, 48, 47, 89, 189, 80, 173, 99, 61, 160, 198, 215, 189, 108, 226, 33, 190, 24, 249, 208, 189, 140, 220, 33, 190, 108, 150, 118, 62, 112, 13, 149, 61, 220, 63, 5, 190, 88, 57, 195, 61, 36, 145, 66, 62, 216, 197, 106, 190, 64, 60, 153, 189, 164, 255, 35, 62, 64, 251, 34, 189, 160, 245, 123, 189, 144, 24, 189, 61, 216, 166, 32, 62, 184, 19, 182, 189, 96, 61, 20, 62, 0, 120, 38, 188, 212, 9, 90, 62, 204, 108, 100, 190, 136, 94, 145, 61, 48, 135, 56, 189, 168, 18, 238, 189, 216, 150, 93, 62, 112, 166, 193, 189, 164, 35, 29, 62, 164, 125, 72, 190, 232, 46, 207, 189, 168, 224, 202, 61, 180, 186, 85, 190, 224, 131, 216, 60, 84, 255, 117, 190, 40, 71, 235, 61, 176, 45, 32, 190, 116, 214, 85, 190, 64, 217, 193, 188, 208, 214, 32, 189, 0, 8, 11, 189, 16, 181, 106, 190, 200, 101, 65, 190, 128, 159, 51, 60, 232, 85, 245, 189, 120, 160, 20, 62, 28, 110, 84, 190, 144, 30, 121, 61, 64, 183, 124, 190, 32, 114, 167, 61, 176, 203, 6, 61, 212, 124, 36, 190, 96, 23, 224, 61, 20, 177, 29, 190, 96, 140, 212, 189, 224, 39, 18, 189, 40, 210, 101, 62, 228, 111, 119, 190, 48, 215, 153, 189, 200, 178, 14, 62, 216, 248, 242, 61, 176, 89, 70, 189, 215, 90, 253, 189, 130, 171, 63, 61, 45, 215, 150, 58, 159, 11, 10, 190, 246, 68, 191, 61, 67, 41, 67, 189, 104, 67, 104, 62, 154, 68, 88, 190, 16, 11, 194, 189, 224, 175, 95, 189, 224, 240, 135, 61, 219, 182, 11, 61, 25, 125, 20, 61, 38, 252, 34, 62, 168, 246, 127, 62, 119, 200, 124, 190, 224, 17, 23, 62, 192, 236, 127, 60, 1, 127, 28, 190, 232, 33, 103, 190, 192, 135, 99, 190, 68, 221, 106, 190, 184, 213, 148, 61, 36, 102, 28, 189, 208, 86, 95, 190, 15, 101, 3, 62, 51, 97, 90, 190, 214, 38, 117, 62, 176, 241, 156, 61, 19, 13, 65, 190, 160, 148, 216, 61, 9, 5, 211, 61, 96, 77, 126, 189, 212, 247, 4, 62, 40, 82, 65, 62, 104, 67, 78, 62, 138, 236, 41, 190, 196, 143, 75, 190, 68, 122, 81, 62, 52, 152, 81, 190, 220, 203, 138, 61, 216, 88, 219, 189, 16, 163, 136, 61, 249, 71, 11, 62, 248, 93, 129, 61, 176, 10, 74, 189, 164, 56, 98, 189, 180, 172, 114, 62, 90, 56, 59, 62, 172, 80, 203, 189, 212, 88, 69, 62, 177, 206, 31, 62, 128, 173, 74, 60, 176, 147, 180, 61, 200, 216, 218, 61, 136, 39, 91, 190, 144, 21, 82, 189, 22, 29, 96, 62, 136, 41, 215, 61, 240, 107, 50, 190, 143, 98, 33, 61, 160, 44, 191, 188, 40, 28, 63, 190, 230, 191, 85, 62, 0, 0, 6, 0, 8, 0, 4, 0, 6, 0, 0, 0, 4, 0, 0, 0, 128, 0, 0, 0, 68, 201, 196, 59, 0, 0, 0, 0, 109, 201, 196, 59, 0, 0, 0, 0, 0, 0, 0, 0, 0, 0, 0, 0, 0, 0, 0, 0, 60, 201, 196, 59, 0, 0, 0, 0, 0, 0, 0, 0, 238, 196, 196, 59, 0, 0, 0, 0, 0, 0, 0, 0, 68, 201, 196, 187, 98, 201, 196, 187, 0, 0, 0, 0, 0, 0, 0, 0, 0, 0, 0, 0, 56, 201, 196, 59, 0, 0, 0, 0, 0, 0, 0, 0, 0, 0, 0, 0, 0, 0, 0, 0, 41, 201, 196, 59, 170, 200, 196, 187, 41, 201, 196, 187, 47, 201, 196, 59, 0, 0, 0, 0, 72, 201, 196, 59, 0, 0, 0, 0, 0, 0, 0, 0, 16, 201, 196, 187, 220, 253, 255, 255, 224, 253, 255, 255, 15, 0, 0, 0, 77, 76, 73, 82, 32, 67, 111, 110, 118, 101, 114, 116, 101, 100, 46, 0, 1, 0, 0, 0, 20, 0, 0, 0, 0, 0, 14, 0, 24, 0, 20, 0, 16, 0, 12, 0, 8, 0, 4, 0, 14, 0, 0, 0, 20, 0, 0, 0, 28, 0, 0, 0, 108, 0, 0, 0, 112, 0, 0, 0, 116, 0, 0, 0, 4, 0, 0, 0, 109, 97, 105, 110, 0, 0, 0, 0, 1, 0, 0, 0, 20, 0, 0, 0, 0, 0, 14, 0, 22, 0, 0, 0, 16, 0, 12, 0, 11, 0, 4, 0, 14, 0, 0, 0, 24, 0, 0, 0, 0, 0, 0, 8, 24, 0, 0, 0, 28, 0, 0, 0, 0, 0, 6, 0, 8, 0, 7, 0, 6, 0, 0, 0, 0, 0, 0, 1, 1, 0, 0, 0, 3, 0, 0, 0, 3, 0, 0, 0, 0, 0, 0, 0, 2, 0, 0, 0, 1, 0, 0, 0, 1, 0, 0, 0, 3, 0, 0, 0, 1, 0, 0, 0, 0, 0, 0, 0, 4, 0, 0, 0, 60, 1, 0, 0, 200, 0, 0, 0, 96, 0, 0, 0, 4, 0, 0, 0, 234, 254, 255, 255, 0, 0, 0, 1, 20, 0, 0, 0, 28, 0, 0, 0, 28, 0, 0, 0, 4, 0, 0, 0, 52, 0, 0, 0, 2, 0, 0, 0, 255, 255, 255, 255, 32, 0, 0, 0, 212, 254, 255, 255, 25, 0, 0, 0, 83, 116, 97, 116, 101, 102, 117, 108, 80, 97, 114, 116, 105, 116, 105, 111, 110, 101, 100, 67, 97, 108, 108, 58, 48, 0, 0, 0, 2, 0, 0, 0, 1, 0, 0, 0, 32, 0, 0, 0, 178, 255, 255, 255, 0, 0, 0, 1, 16, 0, 0, 0, 16, 0, 0, 0, 3, 0, 0, 0, 44, 0, 0, 0, 28, 255, 255, 255, 30, 0, 0, 0, 115, 101, 113, 117, 101, 110, 116, 105, 97, 108, 95, 56, 47, 110, 110, 95, 108, 97, 121, 101, 114, 95, 52, 47, 77, 97, 116, 77, 117, 108, 0, 0, 2, 0, 0, 0, 32, 0, 0, 0, 64, 0, 0, 0, 0, 0, 22, 0, 24, 0, 20, 0, 0, 0, 16, 0, 12, 0, 8, 0, 0, 0, 0, 0, 0, 0, 7, 0, 22, 0, 0, 0, 0, 0, 0, 1, 16, 0, 0, 0, 16, 0, 0, 0, 2, 0, 0, 0, 60, 0, 0, 0, 128, 255, 255, 255, 46, 0, 0, 0, 115, 101, 113, 117, 101, 110, 116, 105, 97, 108, 95, 56, 47, 110, 110, 95, 108, 97, 121, 101, 114, 95, 52, 47, 66, 105, 97, 115, 65, 100, 100, 47, 82, 101, 97, 100, 86, 97, 114, 105, 97, 98, 108, 101, 79, 112, 0, 0, 1, 0, 0, 0, 32, 0, 0, 0, 0, 0, 22, 0, 28, 0, 24, 0, 0, 0, 20, 0, 16, 0, 12, 0, 0, 0, 0, 0, 8, 0, 7, 0, 22, 0, 0, 0, 0, 0, 0, 1, 20, 0, 0, 0, 32, 0, 0, 0, 32, 0, 0, 0, 1, 0, 0, 0, 64, 0, 0, 0, 2, 0, 0, 0, 255, 255, 255, 255, 64, 0, 0, 0, 4, 0, 4, 0, 4, 0, 0, 0, 34, 0, 0, 0, 115, 101, 114, 118, 105, 110, 103, 95, 100, 101, 102, 97, 117, 108, 116, 95, 110, 110, 95, 108, 97, 121, 101, 114, 95, 52, 95, 105, 110, 112, 117, 116, 58, 48, 0, 0, 2, 0, 0, 0, 1, 0, 0, 0, 64, 0, 0, 0, 1, 0, 0, 0, 16, 0, 0, 0, 12, 0, 12, 0, 11, 0, 0, 0, 0, 0, 4, 0, 12, 0, 0, 0, 9, 0, 0, 0, 0, 0, 0, 9
};
