#pragma once

#include <cstdint>

const uint8_t your_model[] = {
28, 0, 0, 0, 84, 70, 76, 51, 20, 0, 32, 0, 28, 0, 24, 0, 20, 0, 16, 0, 12, 0, 0, 0, 8, 0, 4, 0, 20, 0, 0, 0, 28, 0, 0, 0, 156, 0, 0, 0, 244, 0, 0, 0, 56, 34, 0, 0, 72, 34, 0, 0, 136, 36, 0, 0, 3, 0, 0, 0, 1, 0, 0, 0, 16, 0, 0, 0, 0, 0, 10, 0, 16, 0, 12, 0, 8, 0, 4, 0, 10, 0, 0, 0, 12, 0, 0, 0, 28, 0, 0, 0, 60, 0, 0, 0, 15, 0, 0, 0, 115, 101, 114, 118, 105, 110, 103, 95, 100, 101, 102, 97, 117, 108, 116, 0, 1, 0, 0, 0, 4, 0, 0, 0, 140, 255, 255, 255, 3, 0, 0, 0, 4, 0, 0, 0, 10, 0, 0, 0, 110, 110, 95, 108, 97, 121, 101, 114, 95, 51, 0, 0, 1, 0, 0, 0, 4, 0, 0, 0, 214, 222, 255, 255, 4, 0, 0, 0, 16, 0, 0, 0, 110, 110, 95, 108, 97, 121, 101, 114, 95, 51, 95, 105, 110, 112, 117, 116, 0, 0, 0, 0, 2, 0, 0, 0, 52, 0, 0, 0, 4, 0, 0, 0, 220, 255, 255, 255, 6, 0, 0, 0, 4, 0, 0, 0, 19, 0, 0, 0, 67, 79, 78, 86, 69, 82, 83, 73, 79, 78, 95, 77, 69, 84, 65, 68, 65, 84, 65, 0, 8, 0, 12, 0, 8, 0, 4, 0, 8, 0, 0, 0, 5, 0, 0, 0, 4, 0, 0, 0, 19, 0, 0, 0, 109, 105, 110, 95, 114, 117, 110, 116, 105, 109, 101, 95, 118, 101, 114, 115, 105, 111, 110, 0, 7, 0, 0, 0, 64, 33, 0, 0, 56, 33, 0, 0, 168, 32, 0, 0, 144, 0, 0, 0, 136, 0, 0, 0, 104, 0, 0, 0, 4, 0, 0, 0, 114, 223, 255, 255, 4, 0, 0, 0, 84, 0, 0, 0, 12, 0, 0, 0, 8, 0, 14, 0, 8, 0, 4, 0, 8, 0, 0, 0, 16, 0, 0, 0, 36, 0, 0, 0, 0, 0, 6, 0, 8, 0, 4, 0, 6, 0, 0, 0, 4, 0, 0, 0, 0, 0, 0, 0, 0, 0, 10, 0, 16, 0, 12, 0, 8, 0, 4, 0, 10, 0, 0, 0, 2, 0, 0, 0, 2, 0, 0, 0, 4, 0, 0, 0, 6, 0, 0, 0, 50, 46, 49, 51, 46, 48, 0, 0, 210, 223, 255, 255, 4, 0, 0, 0, 16, 0, 0, 0, 49, 46, 53, 46, 48, 0, 0, 0, 0, 0, 0, 0, 0, 0, 0, 0, 56, 221, 255, 255, 242, 223, 255, 255, 4, 0, 0, 0, 0, 32, 0, 0, 0, 0, 192, 255, 0, 0, 192, 255, 0, 0, 192, 255, 0, 0, 192, 255, 0, 0, 192, 255, 0, 0, 192, 255, 0, 0, 192, 255, 0, 0, 192, 255, 0, 0, 192, 255, 0, 0, 192, 255, 0, 0, 192, 255, 0, 0, 192, 255, 0, 0, 192, 255, 0, 0, 192, 255, 0, 0, 192, 255, 0, 0, 192, 255, 0, 0, 192, 255, 0, 0, 192, 255, 0, 0, 192, 255, 0, 0, 192, 255, 0, 0, 192, 255, 0, 0, 192, 255, 0, 0, 192, 255, 0, 0, 192, 255, 0, 0, 192, 255, 0, 0, 192, 255, 0, 0, 192, 255, 0, 0, 192, 255, 0, 0, 192, 255, 0, 0, 192, 255, 0, 0, 192, 255, 0, 0, 192, 255, 0, 0, 192, 255, 0, 0, 192, 255, 0, 0, 192, 255, 0, 0, 192, 255, 0, 0, 192, 255, 0, 0, 192, 255, 0, 0, 192, 255, 0, 0, 192, 255, 0, 0, 192, 255, 0, 0, 192, 255, 0, 0, 192, 255, 0, 0, 192, 255, 0, 0, 192, 255, 0, 0, 192, 255, 0, 0, 192, 255, 0, 0, 192, 255, 0, 0, 192, 255, 0, 0, 192, 255, 0, 0, 192, 255, 0, 0, 192, 255, 0, 0, 192, 255, 0, 0, 192, 255, 0, 0, 192, 255, 0, 0, 192, 255, 0, 0, 192, 255, 0, 0, 192, 255, 0, 0, 192, 255, 0, 0, 192, 255, 0, 0, 192, 255, 0, 0, 192, 255, 0, 0, 192, 255, 0, 0, 192, 255, 0, 0, 192, 255, 0, 0, 192, 255, 0, 0, 192, 255, 0, 0, 192, 255, 0, 0, 192, 255, 0, 0, 192, 255, 0, 0, 192, 255, 0, 0, 192, 255, 0, 0, 192, 255, 0, 0, 192, 255, 0, 0, 192, 255, 0, 0, 192, 255, 0, 0, 192, 255, 0, 0, 192, 255, 0, 0, 192, 255, 0, 0, 192, 255, 0, 0, 192, 255, 0, 0, 192, 255, 0, 0, 192, 255, 0, 0, 192, 255, 0, 0, 192, 255, 0, 0, 192, 255, 0, 0, 192, 255, 0, 0, 192, 255, 0, 0, 192, 255, 0, 0, 192, 255, 0, 0, 192, 255, 0, 0, 192, 255, 0, 0, 192, 255, 0, 0, 192, 255, 0, 0, 192, 255, 0, 0, 192, 255, 0, 0, 192, 255, 0, 0, 192, 255, 0, 0, 192, 255, 0, 0, 192, 255, 0, 0, 192, 255, 0, 0, 192, 255, 0, 0, 192, 255, 0, 0, 192, 255, 0, 0, 192, 255, 0, 0, 192, 255, 0, 0, 192, 255, 0, 0, 192, 255, 0, 0, 192, 255, 0, 0, 192, 255, 0, 0, 192, 255, 0, 0, 192, 255, 0, 0, 192, 255, 0, 0, 192, 255, 0, 0, 192, 255, 0, 0, 192, 255, 0, 0, 192, 255, 0, 0, 192, 255, 0, 0, 192, 255, 0, 0, 192, 255, 0, 0, 192, 255, 0, 0, 192, 255, 0, 0, 192, 255, 0, 0, 192, 255, 0, 0, 192, 255, 0, 0, 192, 255, 0, 0, 192, 255, 0, 0, 192, 255, 0, 0, 192, 255, 0, 0, 192, 255, 0, 0, 192, 255, 0, 0, 192, 255, 0, 0, 192, 255, 0, 0, 192, 255, 0, 0, 192, 255, 0, 0, 192, 255, 0, 0, 192, 255, 0, 0, 192, 255, 0, 0, 192, 255, 0, 0, 192, 255, 0, 0, 192, 255, 0, 0, 192, 255, 0, 0, 192, 255, 0, 0, 192, 255, 0, 0, 192, 255, 0, 0, 192, 255, 0, 0, 192, 255, 0, 0, 192, 255, 0, 0, 192, 255, 0, 0, 192, 255, 0, 0, 192, 255, 0, 0, 192, 255, 0, 0, 192, 255, 0, 0, 192, 255, 0, 0, 192, 255, 0, 0, 192, 255, 0, 0, 192, 255, 0, 0, 192, 255, 0, 0, 192, 255, 0, 0, 192, 255, 0, 0, 192, 255, 0, 0, 192, 255, 0, 0, 192, 255, 0, 0, 192, 255, 0, 0, 192, 255, 0, 0, 192, 255, 0, 0, 192, 255, 0, 0, 192, 255, 0, 0, 192, 255, 0, 0, 192, 255, 0, 0, 192, 255, 0, 0, 192, 255, 0, 0, 192, 255, 0, 0, 192, 255, 0, 0, 192, 255, 0, 0, 192, 255, 0, 0, 192, 255, 0, 0, 192, 255, 0, 0, 192, 255, 0, 0, 192, 255, 0, 0, 192, 255, 0, 0, 192, 255, 0, 0, 192, 255, 0, 0, 192, 255, 0, 0, 192, 255, 0, 0, 192, 255, 0, 0, 192, 255, 0, 0, 192, 255, 0, 0, 192, 255, 0, 0, 192, 255, 0, 0, 192, 255, 0, 0, 192, 255, 0, 0, 192, 255, 0, 0, 192, 255, 0, 0, 192, 255, 0, 0, 192, 255, 0, 0, 192, 255, 0, 0, 192, 255, 0, 0, 192, 255, 0, 0, 192, 255, 0, 0, 192, 255, 0, 0, 192, 255, 0, 0, 192, 255, 0, 0, 192, 255, 0, 0, 192, 255, 0, 0, 192, 255, 0, 0, 192, 255, 0, 0, 192, 255, 0, 0, 192, 255, 0, 0, 192, 255, 0, 0, 192, 255, 0, 0, 192, 255, 0, 0, 192, 255, 0, 0, 192, 255, 0, 0, 192, 255, 0, 0, 192, 255, 0, 0, 192, 255, 0, 0, 192, 255, 0, 0, 192, 255, 0, 0, 192, 255, 0, 0, 192, 255, 0, 0, 192, 255, 0, 0, 192, 255, 0, 0, 192, 255, 0, 0, 192, 255, 0, 0, 192, 255, 0, 0, 192, 255, 0, 0, 192, 255, 0, 0, 192, 255, 0, 0, 192, 255, 0, 0, 192, 255, 0, 0, 192, 255, 0, 0, 192, 255, 0, 0, 192, 255, 0, 0, 192, 255, 0, 0, 192, 255, 0, 0, 192, 255, 0, 0, 192, 255, 0, 0, 192, 255, 0, 0, 192, 255, 0, 0, 192, 255, 0, 0, 192, 255, 0, 0, 192, 255, 0, 0, 192, 255, 0, 0, 192, 255, 0, 0, 192, 255, 0, 0, 192, 255, 0, 0, 192, 255, 0, 0, 192, 255, 0, 0, 192, 255, 0, 0, 192, 255, 0, 0, 192, 255, 0, 0, 192, 255, 0, 0, 192, 255, 0, 0, 192, 255, 0, 0, 192, 255, 0, 0, 192, 255, 0, 0, 192, 255, 0, 0, 192, 255, 0, 0, 192, 255, 0, 0, 192, 255, 0, 0, 192, 255, 0, 0, 192, 255, 0, 0, 192, 255, 0, 0, 192, 255, 0, 0, 192, 255, 0, 0, 192, 255, 0, 0, 192, 255, 0, 0, 192, 255, 0, 0, 192, 255, 0, 0, 192, 255, 0, 0, 192, 255, 0, 0, 192, 255, 0, 0, 192, 255, 0, 0, 192, 255, 0, 0, 192, 255, 0, 0, 192, 255, 0, 0, 192, 255, 0, 0, 192, 255, 0, 0, 192, 255, 0, 0, 192, 255, 0, 0, 192, 255, 0, 0, 192, 255, 0, 0, 192, 255, 0, 0, 192, 255, 0, 0, 192, 255, 0, 0, 192, 255, 0, 0, 192, 255, 0, 0, 192, 255, 0, 0, 192, 255, 0, 0, 192, 255, 0, 0, 192, 255, 0, 0, 192, 255, 0, 0, 192, 255, 0, 0, 192, 255, 0, 0, 192, 255, 0, 0, 192, 255, 0, 0, 192, 255, 0, 0, 192, 255, 0, 0, 192, 255, 0, 0, 192, 255, 0, 0, 192, 255, 0, 0, 192, 255, 0, 0, 192, 255, 0, 0, 192, 255, 0, 0, 192, 255, 0, 0, 192, 255, 0, 0, 192, 255, 0, 0, 192, 255, 0, 0, 192, 255, 0, 0, 192, 255, 0, 0, 192, 255, 0, 0, 192, 255, 0, 0, 192, 255, 0, 0, 192, 255, 0, 0, 192, 255, 0, 0, 192, 255, 0, 0, 192, 255, 0, 0, 192, 255, 0, 0, 192, 255, 0, 0, 192, 255, 0, 0, 192, 255, 0, 0, 192, 255, 0, 0, 192, 255, 0, 0, 192, 255, 0, 0, 192, 255, 0, 0, 192, 255, 0, 0, 192, 255, 0, 0, 192, 255, 0, 0, 192, 255, 0, 0, 192, 255, 0, 0, 192, 255, 0, 0, 192, 255, 0, 0, 192, 255, 0, 0, 192, 255, 0, 0, 192, 255, 0, 0, 192, 255, 0, 0, 192, 255, 0, 0, 192, 255, 0, 0, 192, 255, 0, 0, 192, 255, 0, 0, 192, 255, 0, 0, 192, 255, 0, 0, 192, 255, 0, 0, 192, 255, 0, 0, 192, 255, 0, 0, 192, 255, 0, 0, 192, 255, 0, 0, 192, 255, 0, 0, 192, 255, 0, 0, 192, 255, 0, 0, 192, 255, 0, 0, 192, 255, 0, 0, 192, 255, 0, 0, 192, 255, 0, 0, 192, 255, 0, 0, 192, 255, 0, 0, 192, 255, 0, 0, 192, 255, 0, 0, 192, 255, 0, 0, 192, 255, 0, 0, 192, 255, 0, 0, 192, 255, 0, 0, 192, 255, 0, 0, 192, 255, 0, 0, 192, 255, 0, 0, 192, 255, 0, 0, 192, 255, 0, 0, 192, 255, 0, 0, 192, 255, 0, 0, 192, 255, 0, 0, 192, 255, 0, 0, 192, 255, 0, 0, 192, 255, 0, 0, 192, 255, 0, 0, 192, 255, 0, 0, 192, 255, 0, 0, 192, 255, 0, 0, 192, 255, 0, 0, 192, 255, 0, 0, 192, 255, 0, 0, 192, 255, 0, 0, 192, 255, 0, 0, 192, 255, 0, 0, 192, 255, 0, 0, 192, 255, 0, 0, 192, 255, 0, 0, 192, 255, 0, 0, 192, 255, 0, 0, 192, 255, 0, 0, 192, 255, 0, 0, 192, 255, 0, 0, 192, 255, 0, 0, 192, 255, 0, 0, 192, 255, 0, 0, 192, 255, 0, 0, 192, 255, 0, 0, 192, 255, 0, 0, 192, 255, 0, 0, 192, 255, 0, 0, 192, 255, 0, 0, 192, 255, 0, 0, 192, 255, 0, 0, 192, 255, 0, 0, 192, 255, 0, 0, 192, 255, 0, 0, 192, 255, 0, 0, 192, 255, 0, 0, 192, 255, 0, 0, 192, 255, 0, 0, 192, 255, 0, 0, 192, 255, 0, 0, 192, 255, 0, 0, 192, 255, 0, 0, 192, 255, 0, 0, 192, 255, 0, 0, 192, 255, 0, 0, 192, 255, 0, 0, 192, 255, 0, 0, 192, 255, 0, 0, 192, 255, 0, 0, 192, 255, 0, 0, 192, 255, 0, 0, 192, 255, 0, 0, 192, 255, 0, 0, 192, 255, 0, 0, 192, 255, 0, 0, 192, 255, 0, 0, 192, 255, 0, 0, 192, 255, 0, 0, 192, 255, 0, 0, 192, 255, 0, 0, 192, 255, 0, 0, 192, 255, 0, 0, 192, 255, 0, 0, 192, 255, 0, 0, 192, 255, 0, 0, 192, 255, 0, 0, 192, 255, 0, 0, 192, 255, 0, 0, 192, 255, 0, 0, 192, 255, 0, 0, 192, 255, 0, 0, 192, 255, 0, 0, 192, 255, 0, 0, 192, 255, 0, 0, 192, 255, 0, 0, 192, 255, 0, 0, 192, 255, 0, 0, 192, 255, 0, 0, 192, 255, 0, 0, 192, 255, 0, 0, 192, 255, 0, 0, 192, 255, 0, 0, 192, 255, 0, 0, 192, 255, 0, 0, 192, 255, 0, 0, 192, 255, 0, 0, 192, 255, 0, 0, 192, 255, 0, 0, 192, 255, 0, 0, 192, 255, 0, 0, 192, 255, 0, 0, 192, 255, 0, 0, 192, 255, 0, 0, 192, 255, 0, 0, 192, 255, 0, 0, 192, 255, 0, 0, 192, 255, 0, 0, 192, 255, 0, 0, 192, 255, 0, 0, 192, 255, 0, 0, 192, 255, 0, 0, 192, 255, 0, 0, 192, 255, 0, 0, 192, 255, 0, 0, 192, 255, 0, 0, 192, 255, 0, 0, 192, 255, 0, 0, 192, 255, 0, 0, 192, 255, 0, 0, 192, 255, 0, 0, 192, 255, 0, 0, 192, 255, 0, 0, 192, 255, 0, 0, 192, 255, 0, 0, 192, 255, 0, 0, 192, 255, 0, 0, 192, 255, 0, 0, 192, 255, 0, 0, 192, 255, 0, 0, 192, 255, 0, 0, 192, 255, 0, 0, 192, 255, 0, 0, 192, 255, 0, 0, 192, 255, 0, 0, 192, 255, 0, 0, 192, 255, 0, 0, 192, 255, 0, 0, 192, 255, 0, 0, 192, 255, 0, 0, 192, 255, 0, 0, 192, 255, 0, 0, 192, 255, 0, 0, 192, 255, 0, 0, 192, 255, 0, 0, 192, 255, 0, 0, 192, 255, 0, 0, 192, 255, 0, 0, 192, 255, 0, 0, 192, 255, 0, 0, 192, 255, 0, 0, 192, 255, 0, 0, 192, 255, 0, 0, 192, 255, 0, 0, 192, 255, 0, 0, 192, 255, 0, 0, 192, 255, 0, 0, 192, 255, 0, 0, 192, 255, 0, 0, 192, 255, 0, 0, 192, 255, 0, 0, 192, 255, 0, 0, 192, 255, 0, 0, 192, 255, 0, 0, 192, 255, 0, 0, 192, 255, 0, 0, 192, 255, 0, 0, 192, 255, 0, 0, 192, 255, 0, 0, 192, 255, 0, 0, 192, 255, 0, 0, 192, 255, 0, 0, 192, 255, 0, 0, 192, 255, 0, 0, 192, 255, 0, 0, 192, 255, 0, 0, 192, 255, 0, 0, 192, 255, 0, 0, 192, 255, 0, 0, 192, 255, 0, 0, 192, 255, 0, 0, 192, 255, 0, 0, 192, 255, 0, 0, 192, 255, 0, 0, 192, 255, 0, 0, 192, 255, 0, 0, 192, 255, 0, 0, 192, 255, 0, 0, 192, 255, 0, 0, 192, 255, 0, 0, 192, 255, 0, 0, 192, 255, 0, 0, 192, 255, 0, 0, 192, 255, 0, 0, 192, 255, 0, 0, 192, 255, 0, 0, 192, 255, 0, 0, 192, 255, 0, 0, 192, 255, 0, 0, 192, 255, 0, 0, 192, 255, 0, 0, 192, 255, 0, 0, 192, 255, 0, 0, 192, 255, 0, 0, 192, 255, 0, 0, 192, 255, 0, 0, 192, 255, 0, 0, 192, 255, 0, 0, 192, 255, 0, 0, 192, 255, 0, 0, 192, 255, 0, 0, 192, 255, 0, 0, 192, 255, 0, 0, 192, 255, 0, 0, 192, 255, 0, 0, 192, 255, 0, 0, 192, 255, 0, 0, 192, 255, 0, 0, 192, 255, 0, 0, 192, 255, 0, 0, 192, 255, 0, 0, 192, 255, 0, 0, 192, 255, 0, 0, 192, 255, 0, 0, 192, 255, 0, 0, 192, 255, 0, 0, 192, 255, 0, 0, 192, 255, 0, 0, 192, 255, 0, 0, 192, 255, 0, 0, 192, 255, 0, 0, 192, 255, 0, 0, 192, 255, 0, 0, 192, 255, 0, 0, 192, 255, 0, 0, 192, 255, 0, 0, 192, 255, 0, 0, 192, 255, 0, 0, 192, 255, 0, 0, 192, 255, 0, 0, 192, 255, 0, 0, 192, 255, 0, 0, 192, 255, 0, 0, 192, 255, 0, 0, 192, 255, 0, 0, 192, 255, 0, 0, 192, 255, 0, 0, 192, 255, 0, 0, 192, 255, 0, 0, 192, 255, 0, 0, 192, 255, 0, 0, 192, 255, 0, 0, 192, 255, 0, 0, 192, 255, 0, 0, 192, 255, 0, 0, 192, 255, 0, 0, 192, 255, 0, 0, 192, 255, 0, 0, 192, 255, 0, 0, 192, 255, 0, 0, 192, 255, 0, 0, 192, 255, 0, 0, 192, 255, 0, 0, 192, 255, 0, 0, 192, 255, 0, 0, 192, 255, 0, 0, 192, 255, 0, 0, 192, 255, 0, 0, 192, 255, 0, 0, 192, 255, 0, 0, 192, 255, 0, 0, 192, 255, 0, 0, 192, 255, 0, 0, 192, 255, 0, 0, 192, 255, 0, 0, 192, 255, 0, 0, 192, 255, 0, 0, 192, 255, 0, 0, 192, 255, 0, 0, 192, 255, 0, 0, 192, 255, 0, 0, 192, 255, 0, 0, 192, 255, 0, 0, 192, 255, 0, 0, 192, 255, 0, 0, 192, 255, 0, 0, 192, 255, 0, 0, 192, 255, 0, 0, 192, 255, 0, 0, 192, 255, 0, 0, 192, 255, 0, 0, 192, 255, 0, 0, 192, 255, 0, 0, 192, 255, 0, 0, 192, 255, 0, 0, 192, 255, 0, 0, 192, 255, 0, 0, 192, 255, 0, 0, 192, 255, 0, 0, 192, 255, 0, 0, 192, 255, 0, 0, 192, 255, 0, 0, 192, 255, 0, 0, 192, 255, 0, 0, 192, 255, 0, 0, 192, 255, 0, 0, 192, 255, 0, 0, 192, 255, 0, 0, 192, 255, 0, 0, 192, 255, 0, 0, 192, 255, 0, 0, 192, 255, 0, 0, 192, 255, 0, 0, 192, 255, 0, 0, 192, 255, 0, 0, 192, 255, 0, 0, 192, 255, 0, 0, 192, 255, 0, 0, 192, 255, 0, 0, 192, 255, 0, 0, 192, 255, 0, 0, 192, 255, 0, 0, 192, 255, 0, 0, 192, 255, 0, 0, 192, 255, 0, 0, 192, 255, 0, 0, 192, 255, 0, 0, 192, 255, 0, 0, 192, 255, 0, 0, 192, 255, 0, 0, 192, 255, 0, 0, 192, 255, 0, 0, 192, 255, 0, 0, 192, 255, 0, 0, 192, 255, 0, 0, 192, 255, 0, 0, 192, 255, 0, 0, 192, 255, 0, 0, 192, 255, 0, 0, 192, 255, 0, 0, 192, 255, 0, 0, 192, 255, 0, 0, 192, 255, 0, 0, 192, 255, 0, 0, 192, 255, 0, 0, 192, 255, 0, 0, 192, 255, 0, 0, 192, 255, 0, 0, 192, 255, 0, 0, 192, 255, 0, 0, 192, 255, 0, 0, 192, 255, 0, 0, 192, 255, 0, 0, 192, 255, 0, 0, 192, 255, 0, 0, 192, 255, 0, 0, 192, 255, 0, 0, 192, 255, 0, 0, 192, 255, 0, 0, 192, 255, 0, 0, 192, 255, 0, 0, 192, 255, 0, 0, 192, 255, 0, 0, 192, 255, 0, 0, 192, 255, 0, 0, 192, 255, 0, 0, 192, 255, 0, 0, 192, 255, 0, 0, 192, 255, 0, 0, 192, 255, 0, 0, 192, 255, 0, 0, 192, 255, 0, 0, 192, 255, 0, 0, 192, 255, 0, 0, 192, 255, 0, 0, 192, 255, 0, 0, 192, 255, 0, 0, 192, 255, 0, 0, 192, 255, 0, 0, 192, 255, 0, 0, 192, 255, 0, 0, 192, 255, 0, 0, 192, 255, 0, 0, 192, 255, 0, 0, 192, 255, 0, 0, 192, 255, 0, 0, 192, 255, 0, 0, 192, 255, 0, 0, 192, 255, 0, 0, 192, 255, 0, 0, 192, 255, 0, 0, 192, 255, 0, 0, 192, 255, 0, 0, 192, 255, 0, 0, 192, 255, 0, 0, 192, 255, 0, 0, 192, 255, 0, 0, 192, 255, 0, 0, 192, 255, 0, 0, 192, 255, 0, 0, 192, 255, 0, 0, 192, 255, 0, 0, 192, 255, 0, 0, 192, 255, 0, 0, 192, 255, 0, 0, 192, 255, 0, 0, 192, 255, 0, 0, 192, 255, 0, 0, 192, 255, 0, 0, 192, 255, 0, 0, 192, 255, 0, 0, 192, 255, 0, 0, 192, 255, 0, 0, 192, 255, 0, 0, 192, 255, 0, 0, 192, 255, 0, 0, 192, 255, 0, 0, 192, 255, 0, 0, 192, 255, 0, 0, 192, 255, 0, 0, 192, 255, 0, 0, 192, 255, 0, 0, 192, 255, 0, 0, 192, 255, 0, 0, 192, 255, 0, 0, 192, 255, 0, 0, 192, 255, 0, 0, 192, 255, 0, 0, 192, 255, 0, 0, 192, 255, 0, 0, 192, 255, 0, 0, 192, 255, 0, 0, 192, 255, 0, 0, 192, 255, 0, 0, 192, 255, 0, 0, 192, 255, 0, 0, 192, 255, 0, 0, 192, 255, 0, 0, 192, 255, 0, 0, 192, 255, 0, 0, 192, 255, 0, 0, 192, 255, 0, 0, 192, 255, 0, 0, 192, 255, 0, 0, 192, 255, 0, 0, 192, 255, 0, 0, 192, 255, 0, 0, 192, 255, 0, 0, 192, 255, 0, 0, 192, 255, 0, 0, 192, 255, 0, 0, 192, 255, 0, 0, 192, 255, 0, 0, 192, 255, 0, 0, 192, 255, 0, 0, 192, 255, 0, 0, 192, 255, 0, 0, 192, 255, 0, 0, 192, 255, 0, 0, 192, 255, 0, 0, 192, 255, 0, 0, 192, 255, 0, 0, 192, 255, 0, 0, 192, 255, 0, 0, 192, 255, 0, 0, 192, 255, 0, 0, 192, 255, 0, 0, 192, 255, 0, 0, 192, 255, 0, 0, 192, 255, 0, 0, 192, 255, 0, 0, 192, 255, 0, 0, 192, 255, 0, 0, 192, 255, 0, 0, 192, 255, 0, 0, 192, 255, 0, 0, 192, 255, 0, 0, 192, 255, 0, 0, 192, 255, 0, 0, 192, 255, 0, 0, 192, 255, 0, 0, 192, 255, 0, 0, 192, 255, 0, 0, 192, 255, 0, 0, 192, 255, 0, 0, 192, 255, 0, 0, 192, 255, 0, 0, 192, 255, 0, 0, 192, 255, 0, 0, 192, 255, 0, 0, 192, 255, 0, 0, 192, 255, 0, 0, 192, 255, 0, 0, 192, 255, 0, 0, 192, 255, 0, 0, 192, 255, 0, 0, 192, 255, 0, 0, 192, 255, 0, 0, 192, 255, 0, 0, 192, 255, 0, 0, 192, 255, 0, 0, 192, 255, 0, 0, 192, 255, 0, 0, 192, 255, 0, 0, 192, 255, 0, 0, 192, 255, 0, 0, 192, 255, 0, 0, 192, 255, 0, 0, 192, 255, 0, 0, 192, 255, 0, 0, 192, 255, 0, 0, 192, 255, 0, 0, 192, 255, 0, 0, 192, 255, 0, 0, 192, 255, 0, 0, 192, 255, 0, 0, 192, 255, 0, 0, 192, 255, 0, 0, 192, 255, 0, 0, 192, 255, 0, 0, 192, 255, 0, 0, 192, 255, 0, 0, 192, 255, 0, 0, 192, 255, 0, 0, 192, 255, 0, 0, 192, 255, 0, 0, 192, 255, 0, 0, 192, 255, 0, 0, 192, 255, 0, 0, 192, 255, 0, 0, 192, 255, 0, 0, 192, 255, 0, 0, 192, 255, 0, 0, 192, 255, 0, 0, 192, 255, 0, 0, 192, 255, 0, 0, 192, 255, 0, 0, 192, 255, 0, 0, 192, 255, 0, 0, 192, 255, 0, 0, 192, 255, 0, 0, 192, 255, 0, 0, 192, 255, 0, 0, 192, 255, 0, 0, 192, 255, 0, 0, 192, 255, 0, 0, 192, 255, 0, 0, 192, 255, 0, 0, 192, 255, 0, 0, 192, 255, 0, 0, 192, 255, 0, 0, 192, 255, 0, 0, 192, 255, 0, 0, 192, 255, 0, 0, 192, 255, 0, 0, 192, 255, 0, 0, 192, 255, 0, 0, 192, 255, 0, 0, 192, 255, 0, 0, 192, 255, 0, 0, 192, 255, 0, 0, 192, 255, 0, 0, 192, 255, 0, 0, 192, 255, 0, 0, 192, 255, 0, 0, 192, 255, 0, 0, 192, 255, 0, 0, 192, 255, 0, 0, 192, 255, 0, 0, 192, 255, 0, 0, 192, 255, 0, 0, 192, 255, 0, 0, 192, 255, 0, 0, 192, 255, 0, 0, 192, 255, 0, 0, 192, 255, 0, 0, 192, 255, 0, 0, 192, 255, 0, 0, 192, 255, 0, 0, 192, 255, 0, 0, 192, 255, 0, 0, 192, 255, 0, 0, 192, 255, 0, 0, 192, 255, 0, 0, 192, 255, 0, 0, 192, 255, 0, 0, 192, 255, 0, 0, 192, 255, 0, 0, 192, 255, 0, 0, 192, 255, 0, 0, 192, 255, 0, 0, 192, 255, 0, 0, 192, 255, 0, 0, 192, 255, 0, 0, 192, 255, 0, 0, 192, 255, 0, 0, 192, 255, 0, 0, 192, 255, 0, 0, 192, 255, 0, 0, 192, 255, 0, 0, 192, 255, 0, 0, 192, 255, 0, 0, 192, 255, 0, 0, 192, 255, 0, 0, 192, 255, 0, 0, 192, 255, 0, 0, 192, 255, 0, 0, 192, 255, 0, 0, 192, 255, 0, 0, 192, 255, 0, 0, 192, 255, 0, 0, 192, 255, 0, 0, 192, 255, 0, 0, 192, 255, 0, 0, 192, 255, 0, 0, 192, 255, 0, 0, 192, 255, 0, 0, 192, 255, 0, 0, 192, 255, 0, 0, 192, 255, 0, 0, 192, 255, 0, 0, 192, 255, 0, 0, 192, 255, 0, 0, 192, 255, 0, 0, 192, 255, 0, 0, 192, 255, 0, 0, 192, 255, 0, 0, 192, 255, 0, 0, 192, 255, 0, 0, 192, 255, 0, 0, 192, 255, 0, 0, 192, 255, 0, 0, 192, 255, 0, 0, 192, 255, 0, 0, 192, 255, 0, 0, 192, 255, 0, 0, 192, 255, 0, 0, 192, 255, 0, 0, 192, 255, 0, 0, 192, 255, 0, 0, 192, 255, 0, 0, 192, 255, 0, 0, 192, 255, 0, 0, 192, 255, 0, 0, 192, 255, 0, 0, 192, 255, 0, 0, 192, 255, 0, 0, 192, 255, 0, 0, 192, 255, 0, 0, 192, 255, 0, 0, 192, 255, 0, 0, 192, 255, 0, 0, 192, 255, 0, 0, 192, 255, 0, 0, 192, 255, 0, 0, 192, 255, 0, 0, 192, 255, 0, 0, 192, 255, 0, 0, 192, 255, 0, 0, 192, 255, 0, 0, 192, 255, 0, 0, 192, 255, 0, 0, 192, 255, 0, 0, 192, 255, 0, 0, 192, 255, 0, 0, 192, 255, 0, 0, 192, 255, 0, 0, 192, 255, 0, 0, 192, 255, 0, 0, 192, 255, 0, 0, 192, 255, 0, 0, 192, 255, 0, 0, 192, 255, 0, 0, 192, 255, 0, 0, 192, 255, 0, 0, 192, 255, 0, 0, 192, 255, 0, 0, 192, 255, 0, 0, 192, 255, 0, 0, 192, 255, 0, 0, 192, 255, 0, 0, 192, 255, 0, 0, 192, 255, 0, 0, 192, 255, 0, 0, 192, 255, 0, 0, 192, 255, 0, 0, 192, 255, 0, 0, 192, 255, 0, 0, 192, 255, 0, 0, 192, 255, 0, 0, 192, 255, 0, 0, 192, 255, 0, 0, 192, 255, 0, 0, 192, 255, 0, 0, 192, 255, 0, 0, 192, 255, 0, 0, 192, 255, 0, 0, 192, 255, 0, 0, 192, 255, 0, 0, 192, 255, 0, 0, 192, 255, 0, 0, 192, 255, 0, 0, 192, 255, 0, 0, 192, 255, 0, 0, 192, 255, 0, 0, 192, 255, 0, 0, 192, 255, 0, 0, 192, 255, 0, 0, 192, 255, 0, 0, 192, 255, 0, 0, 192, 255, 0, 0, 192, 255, 0, 0, 192, 255, 0, 0, 192, 255, 0, 0, 192, 255, 0, 0, 192, 255, 0, 0, 192, 255, 0, 0, 192, 255, 0, 0, 192, 255, 0, 0, 192, 255, 0, 0, 192, 255, 0, 0, 192, 255, 0, 0, 192, 255, 0, 0, 192, 255, 0, 0, 192, 255, 0, 0, 192, 255, 0, 0, 192, 255, 0, 0, 192, 255, 0, 0, 192, 255, 0, 0, 192, 255, 0, 0, 192, 255, 0, 0, 192, 255, 0, 0, 192, 255, 0, 0, 192, 255, 0, 0, 192, 255, 0, 0, 192, 255, 0, 0, 192, 255, 0, 0, 192, 255, 0, 0, 192, 255, 0, 0, 192, 255, 0, 0, 192, 255, 0, 0, 192, 255, 0, 0, 192, 255, 0, 0, 192, 255, 0, 0, 192, 255, 0, 0, 192, 255, 0, 0, 192, 255, 0, 0, 192, 255, 0, 0, 192, 255, 0, 0, 192, 255, 0, 0, 192, 255, 0, 0, 192, 255, 0, 0, 192, 255, 0, 0, 192, 255, 0, 0, 192, 255, 0, 0, 192, 255, 0, 0, 192, 255, 0, 0, 192, 255, 0, 0, 192, 255, 0, 0, 192, 255, 0, 0, 192, 255, 0, 0, 192, 255, 0, 0, 192, 255, 0, 0, 192, 255, 0, 0, 192, 255, 0, 0, 192, 255, 0, 0, 192, 255, 0, 0, 192, 255, 0, 0, 192, 255, 0, 0, 192, 255, 0, 0, 192, 255, 0, 0, 192, 255, 0, 0, 192, 255, 0, 0, 192, 255, 0, 0, 192, 255, 0, 0, 192, 255, 0, 0, 192, 255, 0, 0, 192, 255, 0, 0, 192, 255, 0, 0, 192, 255, 0, 0, 192, 255, 0, 0, 192, 255, 0, 0, 192, 255, 0, 0, 192, 255, 0, 0, 192, 255, 0, 0, 192, 255, 0, 0, 192, 255, 0, 0, 192, 255, 0, 0, 192, 255, 0, 0, 192, 255, 0, 0, 192, 255, 0, 0, 192, 255, 0, 0, 192, 255, 0, 0, 192, 255, 0, 0, 192, 255, 0, 0, 192, 255, 0, 0, 192, 255, 0, 0, 192, 255, 0, 0, 192, 255, 0, 0, 192, 255, 0, 0, 192, 255, 0, 0, 192, 255, 0, 0, 192, 255, 0, 0, 192, 255, 0, 0, 192, 255, 0, 0, 192, 255, 0, 0, 192, 255, 0, 0, 192, 255, 0, 0, 192, 255, 0, 0, 192, 255, 0, 0, 192, 255, 0, 0, 192, 255, 0, 0, 192, 255, 0, 0, 192, 255, 0, 0, 192, 255, 0, 0, 192, 255, 0, 0, 192, 255, 0, 0, 192, 255, 0, 0, 192, 255, 0, 0, 192, 255, 0, 0, 192, 255, 0, 0, 192, 255, 0, 0, 192, 255, 0, 0, 192, 255, 0, 0, 192, 255, 0, 0, 192, 255, 0, 0, 192, 255, 0, 0, 192, 255, 0, 0, 192, 255, 0, 0, 192, 255, 0, 0, 192, 255, 0, 0, 192, 255, 0, 0, 192, 255, 0, 0, 192, 255, 0, 0, 192, 255, 0, 0, 192, 255, 0, 0, 192, 255, 0, 0, 192, 255, 0, 0, 192, 255, 0, 0, 192, 255, 0, 0, 192, 255, 0, 0, 192, 255, 0, 0, 192, 255, 0, 0, 192, 255, 0, 0, 192, 255, 0, 0, 192, 255, 0, 0, 192, 255, 0, 0, 192, 255, 0, 0, 192, 255, 0, 0, 192, 255, 0, 0, 192, 255, 0, 0, 192, 255, 0, 0, 192, 255, 0, 0, 192, 255, 0, 0, 192, 255, 0, 0, 192, 255, 0, 0, 192, 255, 0, 0, 192, 255, 0, 0, 192, 255, 0, 0, 192, 255, 0, 0, 192, 255, 0, 0, 192, 255, 0, 0, 192, 255, 0, 0, 192, 255, 0, 0, 192, 255, 0, 0, 192, 255, 0, 0, 192, 255, 0, 0, 192, 255, 0, 0, 192, 255, 0, 0, 192, 255, 0, 0, 192, 255, 0, 0, 192, 255, 0, 0, 192, 255, 0, 0, 192, 255, 0, 0, 192, 255, 0, 0, 192, 255, 0, 0, 192, 255, 0, 0, 192, 255, 0, 0, 192, 255, 0, 0, 192, 255, 0, 0, 192, 255, 0, 0, 192, 255, 0, 0, 192, 255, 0, 0, 192, 255, 0, 0, 192, 255, 0, 0, 192, 255, 0, 0, 192, 255, 0, 0, 192, 255, 0, 0, 192, 255, 0, 0, 192, 255, 0, 0, 192, 255, 0, 0, 192, 255, 0, 0, 192, 255, 0, 0, 192, 255, 0, 0, 192, 255, 0, 0, 192, 255, 0, 0, 192, 255, 0, 0, 192, 255, 0, 0, 192, 255, 0, 0, 192, 255, 0, 0, 192, 255, 0, 0, 192, 255, 0, 0, 192, 255, 0, 0, 192, 255, 0, 0, 192, 255, 0, 0, 192, 255, 0, 0, 192, 255, 0, 0, 192, 255, 0, 0, 192, 255, 0, 0, 192, 255, 0, 0, 192, 255, 0, 0, 192, 255, 0, 0, 192, 255, 0, 0, 192, 255, 0, 0, 192, 255, 0, 0, 192, 255, 0, 0, 192, 255, 0, 0, 192, 255, 0, 0, 192, 255, 0, 0, 192, 255, 0, 0, 192, 255, 0, 0, 192, 255, 0, 0, 192, 255, 0, 0, 192, 255, 0, 0, 192, 255, 0, 0, 192, 255, 0, 0, 192, 255, 0, 0, 192, 255, 0, 0, 192, 255, 0, 0, 192, 255, 0, 0, 192, 255, 0, 0, 192, 255, 0, 0, 192, 255, 0, 0, 192, 255, 0, 0, 192, 255, 0, 0, 192, 255, 0, 0, 192, 255, 0, 0, 192, 255, 0, 0, 192, 255, 0, 0, 192, 255, 0, 0, 192, 255, 0, 0, 192, 255, 0, 0, 192, 255, 0, 0, 192, 255, 0, 0, 192, 255, 0, 0, 192, 255, 0, 0, 192, 255, 0, 0, 192, 255, 0, 0, 192, 255, 0, 0, 192, 255, 0, 0, 192, 255, 0, 0, 192, 255, 0, 0, 192, 255, 0, 0, 192, 255, 0, 0, 192, 255, 0, 0, 192, 255, 0, 0, 192, 255, 0, 0, 192, 255, 0, 0, 192, 255, 0, 0, 192, 255, 0, 0, 192, 255, 0, 0, 192, 255, 0, 0, 192, 255, 0, 0, 192, 255, 0, 0, 192, 255, 0, 0, 192, 255, 0, 0, 192, 255, 0, 0, 192, 255, 0, 0, 192, 255, 0, 0, 192, 255, 0, 0, 192, 255, 0, 0, 192, 255, 0, 0, 192, 255, 0, 0, 192, 255, 0, 0, 192, 255, 0, 0, 192, 255, 0, 0, 192, 255, 0, 0, 192, 255, 0, 0, 192, 255, 0, 0, 192, 255, 0, 0, 192, 255, 0, 0, 192, 255, 0, 0, 192, 255, 0, 0, 192, 255, 0, 0, 192, 255, 0, 0, 192, 255, 0, 0, 192, 255, 0, 0, 192, 255, 0, 0, 192, 255, 0, 0, 192, 255, 0, 0, 192, 255, 0, 0, 192, 255, 0, 0, 192, 255, 0, 0, 192, 255, 0, 0, 192, 255, 0, 0, 192, 255, 0, 0, 192, 255, 0, 0, 192, 255, 0, 0, 192, 255, 0, 0, 192, 255, 0, 0, 192, 255, 0, 0, 192, 255, 0, 0, 192, 255, 0, 0, 192, 255, 0, 0, 192, 255, 0, 0, 192, 255, 0, 0, 192, 255, 0, 0, 192, 255, 0, 0, 192, 255, 0, 0, 192, 255, 0, 0, 192, 255, 0, 0, 192, 255, 0, 0, 192, 255, 0, 0, 192, 255, 0, 0, 192, 255, 0, 0, 192, 255, 0, 0, 192, 255, 0, 0, 192, 255, 0, 0, 192, 255, 0, 0, 192, 255, 0, 0, 192, 255, 0, 0, 192, 255, 0, 0, 192, 255, 0, 0, 192, 255, 0, 0, 192, 255, 0, 0, 192, 255, 0, 0, 192, 255, 0, 0, 192, 255, 0, 0, 192, 255, 0, 0, 192, 255, 0, 0, 192, 255, 0, 0, 192, 255, 0, 0, 192, 255, 0, 0, 192, 255, 0, 0, 192, 255, 0, 0, 192, 255, 0, 0, 192, 255, 0, 0, 192, 255, 0, 0, 192, 255, 0, 0, 192, 255, 0, 0, 192, 255, 0, 0, 192, 255, 0, 0, 192, 255, 0, 0, 192, 255, 0, 0, 192, 255, 0, 0, 192, 255, 0, 0, 192, 255, 0, 0, 192, 255, 0, 0, 192, 255, 0, 0, 192, 255, 0, 0, 192, 255, 0, 0, 192, 255, 0, 0, 192, 255, 0, 0, 192, 255, 0, 0, 192, 255, 0, 0, 192, 255, 0, 0, 192, 255, 0, 0, 192, 255, 0, 0, 192, 255, 0, 0, 192, 255, 0, 0, 192, 255, 0, 0, 192, 255, 0, 0, 192, 255, 0, 0, 192, 255, 0, 0, 192, 255, 0, 0, 192, 255, 0, 0, 192, 255, 0, 0, 192, 255, 0, 0, 192, 255, 0, 0, 192, 255, 0, 0, 192, 255, 0, 0, 192, 255, 0, 0, 192, 255, 0, 0, 192, 255, 0, 0, 192, 255, 0, 0, 192, 255, 0, 0, 192, 255, 0, 0, 192, 255, 0, 0, 192, 255, 0, 0, 192, 255, 0, 0, 192, 255, 0, 0, 192, 255, 0, 0, 192, 255, 0, 0, 192, 255, 0, 0, 192, 255, 0, 0, 192, 255, 0, 0, 192, 255, 0, 0, 192, 255, 0, 0, 192, 255, 0, 0, 192, 255, 0, 0, 192, 255, 0, 0, 192, 255, 0, 0, 192, 255, 0, 0, 192, 255, 0, 0, 192, 255, 0, 0, 192, 255, 0, 0, 192, 255, 0, 0, 192, 255, 0, 0, 192, 255, 0, 0, 192, 255, 0, 0, 192, 255, 0, 0, 192, 255, 0, 0, 192, 255, 0, 0, 192, 255, 0, 0, 192, 255, 0, 0, 192, 255, 0, 0, 192, 255, 0, 0, 192, 255, 0, 0, 192, 255, 0, 0, 192, 255, 0, 0, 192, 255, 0, 0, 192, 255, 0, 0, 192, 255, 0, 0, 192, 255, 0, 0, 192, 255, 0, 0, 192, 255, 0, 0, 192, 255, 0, 0, 192, 255, 0, 0, 192, 255, 0, 0, 192, 255, 0, 0, 192, 255, 0, 0, 192, 255, 0, 0, 192, 255, 0, 0, 192, 255, 0, 0, 192, 255, 0, 0, 192, 255, 0, 0, 192, 255, 0, 0, 192, 255, 0, 0, 192, 255, 0, 0, 192, 255, 0, 0, 192, 255, 0, 0, 192, 255, 0, 0, 192, 255, 0, 0, 192, 255, 0, 0, 192, 255, 0, 0, 192, 255, 0, 0, 192, 255, 0, 0, 192, 255, 0, 0, 192, 255, 0, 0, 192, 255, 0, 0, 192, 255, 0, 0, 192, 255, 0, 0, 192, 255, 0, 0, 192, 255, 0, 0, 192, 255, 0, 0, 192, 255, 0, 0, 192, 255, 0, 0, 192, 255, 0, 0, 192, 255, 0, 0, 192, 255, 0, 0, 192, 255, 0, 0, 192, 255, 0, 0, 192, 255, 0, 0, 192, 255, 0, 0, 192, 255, 0, 0, 192, 255, 0, 0, 192, 255, 0, 0, 192, 255, 0, 0, 192, 255, 0, 0, 192, 255, 0, 0, 192, 255, 0, 0, 192, 255, 0, 0, 192, 255, 0, 0, 192, 255, 0, 0, 192, 255, 0, 0, 192, 255, 0, 0, 192, 255, 0, 0, 192, 255, 0, 0, 192, 255, 0, 0, 192, 255, 0, 0, 192, 255, 0, 0, 192, 255, 0, 0, 192, 255, 0, 0, 192, 255, 0, 0, 192, 255, 0, 0, 192, 255, 0, 0, 192, 255, 0, 0, 192, 255, 0, 0, 192, 255, 0, 0, 192, 255, 0, 0, 192, 255, 0, 0, 192, 255, 0, 0, 192, 255, 0, 0, 192, 255, 0, 0, 192, 255, 0, 0, 192, 255, 0, 0, 192, 255, 0, 0, 192, 255, 0, 0, 192, 255, 0, 0, 192, 255, 0, 0, 192, 255, 0, 0, 192, 255, 0, 0, 192, 255, 0, 0, 192, 255, 0, 0, 192, 255, 0, 0, 192, 255, 0, 0, 192, 255, 0, 0, 192, 255, 0, 0, 192, 255, 0, 0, 192, 255, 0, 0, 192, 255, 0, 0, 192, 255, 0, 0, 192, 255, 0, 0, 192, 255, 0, 0, 192, 255, 0, 0, 192, 255, 0, 0, 192, 255, 0, 0, 192, 255, 0, 0, 192, 255, 0, 0, 192, 255, 0, 0, 192, 255, 0, 0, 192, 255, 0, 0, 192, 255, 0, 0, 192, 255, 0, 0, 192, 255, 0, 0, 192, 255, 0, 0, 192, 255, 0, 0, 192, 255, 0, 0, 192, 255, 0, 0, 192, 255, 0, 0, 192, 255, 0, 0, 192, 255, 0, 0, 192, 255, 0, 0, 192, 255, 0, 0, 192, 255, 0, 0, 192, 255, 0, 0, 192, 255, 0, 0, 192, 255, 0, 0, 192, 255, 0, 0, 192, 255, 0, 0, 192, 255, 0, 0, 192, 255, 0, 0, 192, 255, 0, 0, 192, 255, 0, 0, 192, 255, 0, 0, 192, 255, 0, 0, 192, 255, 0, 0, 192, 255, 0, 0, 192, 255, 0, 0, 192, 255, 0, 0, 192, 255, 0, 0, 192, 255, 0, 0, 192, 255, 0, 0, 192, 255, 0, 0, 192, 255, 0, 0, 192, 255, 0, 0, 192, 255, 0, 0, 192, 255, 0, 0, 192, 255, 0, 0, 192, 255, 0, 0, 192, 255, 0, 0, 192, 255, 0, 0, 192, 255, 0, 0, 192, 255, 0, 0, 192, 255, 0, 0, 192, 255, 0, 0, 192, 255, 0, 0, 192, 255, 0, 0, 192, 255, 0, 0, 192, 255, 0, 0, 192, 255, 0, 0, 192, 255, 0, 0, 192, 255, 0, 0, 192, 255, 0, 0, 192, 255, 0, 0, 192, 255, 0, 0, 192, 255, 0, 0, 192, 255, 0, 0, 192, 255, 0, 0, 192, 255, 0, 0, 192, 255, 0, 0, 192, 255, 0, 0, 192, 255, 0, 0, 192, 255, 0, 0, 192, 255, 0, 0, 192, 255, 0, 0, 192, 255, 0, 0, 192, 255, 0, 0, 192, 255, 0, 0, 192, 255, 0, 0, 192, 255, 0, 0, 192, 255, 0, 0, 192, 255, 0, 0, 192, 255, 0, 0, 192, 255, 0, 0, 192, 255, 0, 0, 192, 255, 0, 0, 192, 255, 0, 0, 192, 255, 0, 0, 192, 255, 0, 0, 192, 255, 0, 0, 192, 255, 0, 0, 192, 255, 0, 0, 192, 255, 0, 0, 192, 255, 0, 0, 192, 255, 0, 0, 192, 255, 0, 0, 192, 255, 0, 0, 192, 255, 0, 0, 192, 255, 0, 0, 192, 255, 0, 0, 192, 255, 0, 0, 192, 255, 0, 0, 192, 255, 0, 0, 192, 255, 0, 0, 192, 255, 0, 0, 192, 255, 0, 0, 192, 255, 0, 0, 192, 255, 0, 0, 192, 255, 0, 0, 192, 255, 0, 0, 192, 255, 0, 0, 192, 255, 0, 0, 192, 255, 0, 0, 192, 255, 0, 0, 192, 255, 0, 0, 192, 255, 0, 0, 192, 255, 0, 0, 192, 255, 0, 0, 192, 255, 0, 0, 192, 255, 0, 0, 192, 255, 0, 0, 192, 255, 0, 0, 192, 255, 0, 0, 192, 255, 0, 0, 192, 255, 0, 0, 192, 255, 0, 0, 192, 255, 0, 0, 192, 255, 0, 0, 192, 255, 0, 0, 192, 255, 0, 0, 192, 255, 0, 0, 192, 255, 0, 0, 192, 255, 0, 0, 192, 255, 0, 0, 192, 255, 0, 0, 192, 255, 0, 0, 192, 255, 0, 0, 192, 255, 0, 0, 192, 255, 0, 0, 192, 255, 0, 0, 192, 255, 0, 0, 192, 255, 0, 0, 192, 255, 0, 0, 192, 255, 0, 0, 192, 255, 0, 0, 192, 255, 0, 0, 192, 255, 0, 0, 192, 255, 0, 0, 192, 255, 0, 0, 192, 255, 0, 0, 192, 255, 0, 0, 192, 255, 0, 0, 192, 255, 0, 0, 192, 255, 0, 0, 192, 255, 0, 0, 192, 255, 0, 0, 192, 255, 0, 0, 192, 255, 0, 0, 192, 255, 0, 0, 192, 255, 0, 0, 192, 255, 0, 0, 192, 255, 0, 0, 192, 255, 0, 0, 192, 255, 0, 0, 192, 255, 0, 0, 192, 255, 0, 0, 192, 255, 0, 0, 192, 255, 0, 0, 192, 255, 0, 0, 192, 255, 0, 0, 192, 255, 0, 0, 192, 255, 0, 0, 192, 255, 0, 0, 192, 255, 0, 0, 192, 255, 0, 0, 192, 255, 0, 0, 192, 255, 0, 0, 192, 255, 0, 0, 192, 255, 0, 0, 192, 255, 0, 0, 192, 255, 0, 0, 192, 255, 0, 0, 192, 255, 0, 0, 192, 255, 0, 0, 192, 255, 0, 0, 192, 255, 0, 0, 192, 255, 0, 0, 192, 255, 0, 0, 192, 255, 0, 0, 192, 255, 0, 0, 192, 255, 0, 0, 192, 255, 0, 0, 192, 255, 0, 0, 192, 255, 0, 0, 192, 255, 0, 0, 192, 255, 0, 0, 192, 255, 0, 0, 192, 255, 0, 0, 192, 255, 0, 0, 192, 255, 0, 0, 192, 255, 0, 0, 192, 255, 0, 0, 192, 255, 0, 0, 192, 255, 0, 0, 192, 255, 0, 0, 192, 255, 0, 0, 192, 255, 0, 0, 192, 255, 0, 0, 192, 255, 0, 0, 192, 255, 0, 0, 192, 255, 0, 0, 192, 255, 0, 0, 192, 255, 0, 0, 192, 255, 0, 0, 192, 255, 0, 0, 192, 255, 0, 0, 192, 255, 0, 0, 192, 255, 0, 0, 192, 255, 0, 0, 192, 255, 0, 0, 192, 255, 0, 0, 192, 255, 0, 0, 192, 255, 0, 0, 192, 255, 0, 0, 192, 255, 0, 0, 192, 255, 0, 0, 192, 255, 0, 0, 192, 255, 0, 0, 192, 255, 0, 0, 192, 255, 0, 0, 192, 255, 0, 0, 192, 255, 0, 0, 192, 255, 0, 0, 192, 255, 0, 0, 192, 255, 0, 0, 192, 255, 0, 0, 192, 255, 0, 0, 192, 255, 0, 0, 192, 255, 0, 0, 192, 255, 0, 0, 192, 255, 0, 0, 192, 255, 0, 0, 192, 255, 0, 0, 192, 255, 0, 0, 192, 255, 0, 0, 192, 255, 0, 0, 192, 255, 0, 0, 192, 255, 0, 0, 192, 255, 0, 0, 192, 255, 0, 0, 192, 255, 0, 0, 192, 255, 0, 0, 192, 255, 0, 0, 192, 255, 0, 0, 192, 255, 0, 0, 192, 255, 0, 0, 192, 255, 0, 0, 192, 255, 0, 0, 192, 255, 0, 0, 192, 255, 0, 0, 192, 255, 0, 0, 192, 255, 0, 0, 192, 255, 0, 0, 192, 255, 0, 0, 192, 255, 0, 0, 192, 255, 0, 0, 192, 255, 0, 0, 192, 255, 0, 0, 192, 255, 0, 0, 192, 255, 0, 0, 192, 255, 0, 0, 192, 255, 0, 0, 192, 255, 0, 0, 192, 255, 0, 0, 192, 255, 0, 0, 192, 255, 0, 0, 192, 255, 0, 0, 192, 255, 0, 0, 192, 255, 0, 0, 192, 255, 0, 0, 192, 255, 0, 0, 192, 255, 0, 0, 192, 255, 0, 0, 192, 255, 0, 0, 192, 255, 0, 0, 192, 255, 0, 0, 192, 255, 0, 0, 192, 255, 0, 0, 192, 255, 0, 0, 192, 255, 0, 0, 192, 255, 0, 0, 192, 255, 0, 0, 192, 255, 0, 0, 192, 255, 0, 0, 192, 255, 0, 0, 192, 255, 0, 0, 192, 255, 0, 0, 192, 255, 0, 0, 192, 255, 0, 0, 192, 255, 0, 0, 192, 255, 0, 0, 192, 255, 0, 0, 192, 255, 0, 0, 192, 255, 0, 0, 192, 255, 0, 0, 192, 255, 0, 0, 192, 255, 0, 0, 192, 255, 0, 0, 192, 255, 0, 0, 192, 255, 0, 0, 192, 255, 0, 0, 192, 255, 0, 0, 192, 255, 0, 0, 192, 255, 0, 0, 192, 255, 0, 0, 192, 255, 0, 0, 192, 255, 0, 0, 192, 255, 0, 0, 192, 255, 0, 0, 192, 255, 0, 0, 192, 255, 0, 0, 192, 255, 0, 0, 192, 255, 0, 0, 192, 255, 0, 0, 192, 255, 0, 0, 192, 255, 0, 0, 192, 255, 0, 0, 192, 255, 0, 0, 192, 255, 0, 0, 192, 255, 0, 0, 192, 255, 0, 0, 192, 255, 0, 0, 192, 255, 0, 0, 192, 255, 0, 0, 192, 255, 0, 0, 192, 255, 0, 0, 192, 255, 0, 0, 192, 255, 0, 0, 192, 255, 0, 0, 192, 255, 0, 0, 192, 255, 0, 0, 192, 255, 0, 0, 192, 255, 0, 0, 192, 255, 0, 0, 192, 255, 0, 0, 192, 255, 0, 0, 192, 255, 0, 0, 192, 255, 0, 0, 192, 255, 0, 0, 192, 255, 0, 0, 192, 255, 0, 0, 192, 255, 0, 0, 192, 255, 0, 0, 192, 255, 0, 0, 192, 255, 0, 0, 192, 255, 0, 0, 192, 255, 0, 0, 192, 255, 0, 0, 192, 255, 0, 0, 192, 255, 0, 0, 192, 255, 0, 0, 192, 255, 0, 0, 192, 255, 0, 0, 192, 255, 0, 0, 192, 255, 0, 0, 192, 255, 0, 0, 192, 255, 0, 0, 192, 255, 0, 0, 192, 255, 0, 0, 192, 255, 0, 0, 192, 255, 0, 0, 192, 255, 0, 0, 192, 255, 0, 0, 192, 255, 0, 0, 192, 255, 0, 0, 192, 255, 0, 0, 192, 255, 0, 0, 192, 255, 0, 0, 192, 255, 0, 0, 192, 255, 0, 0, 192, 255, 0, 0, 192, 255, 0, 0, 192, 255, 0, 0, 192, 255, 0, 0, 192, 255, 0, 0, 192, 255, 0, 0, 192, 255, 0, 0, 192, 255, 0, 0, 192, 255, 0, 0, 192, 255, 0, 0, 192, 255, 0, 0, 192, 255, 0, 0, 192, 255, 0, 0, 192, 255, 0, 0, 192, 255, 0, 0, 192, 255, 0, 0, 192, 255, 0, 0, 192, 255, 0, 0, 192, 255, 0, 0, 192, 255, 0, 0, 192, 255, 0, 0, 192, 255, 0, 0, 192, 255, 0, 0, 192, 255, 0, 0, 192, 255, 0, 0, 192, 255, 0, 0, 192, 255, 0, 0, 192, 255, 0, 0, 192, 255, 0, 0, 192, 255, 0, 0, 192, 255, 0, 0, 192, 255, 0, 0, 192, 255, 0, 0, 192, 255, 0, 0, 192, 255, 0, 0, 192, 255, 0, 0, 192, 255, 0, 0, 192, 255, 0, 0, 192, 255, 0, 0, 192, 255, 0, 0, 192, 255, 0, 0, 192, 255, 0, 0, 192, 255, 0, 0, 192, 255, 0, 0, 192, 255, 0, 0, 192, 255, 0, 0, 192, 255, 0, 0, 192, 255, 0, 0, 192, 255, 0, 0, 192, 255, 0, 0, 192, 255, 0, 0, 192, 255, 0, 0, 192, 255, 0, 0, 192, 255, 0, 0, 192, 255, 0, 0, 192, 255, 0, 0, 192, 255, 0, 0, 192, 255, 0, 0, 192, 255, 0, 0, 192, 255, 0, 0, 192, 255, 0, 0, 192, 255, 0, 0, 192, 255, 0, 0, 192, 255, 0, 0, 192, 255, 0, 0, 192, 255, 0, 0, 192, 255, 0, 0, 192, 255, 0, 0, 192, 255, 0, 0, 192, 255, 0, 0, 192, 255, 0, 0, 192, 255, 0, 0, 192, 255, 0, 0, 192, 255, 0, 0, 192, 255, 0, 0, 192, 255, 0, 0, 192, 255, 0, 0, 192, 255, 0, 0, 192, 255, 0, 0, 192, 255, 0, 0, 192, 255, 0, 0, 192, 255, 0, 0, 192, 255, 0, 0, 192, 255, 0, 0, 192, 255, 0, 0, 192, 255, 0, 0, 192, 255, 0, 0, 192, 255, 0, 0, 192, 255, 0, 0, 192, 255, 0, 0, 192, 255, 0, 0, 192, 255, 0, 0, 192, 255, 0, 0, 192, 255, 0, 0, 192, 255, 0, 0, 192, 255, 0, 0, 192, 255, 0, 0, 192, 255, 0, 0, 192, 255, 0, 0, 192, 255, 0, 0, 192, 255, 0, 0, 192, 255, 0, 0, 192, 255, 0, 0, 192, 255, 0, 0, 192, 255, 0, 0, 192, 255, 0, 0, 6, 0, 8, 0, 4, 0, 6, 0, 0, 0, 4, 0, 0, 0, 128, 0, 0, 0, 0, 0, 192, 255, 0, 0, 192, 255, 0, 0, 192, 255, 0, 0, 192, 255, 0, 0, 192, 255, 0, 0, 192, 255, 0, 0, 192, 255, 0, 0, 192, 255, 0, 0, 192, 255, 0, 0, 192, 255, 0, 0, 192, 255, 0, 0, 192, 255, 0, 0, 192, 255, 0, 0, 192, 255, 0, 0, 192, 255, 0, 0, 192, 255, 0, 0, 192, 255, 0, 0, 192, 255, 0, 0, 192, 255, 0, 0, 192, 255, 0, 0, 192, 255, 0, 0, 192, 255, 0, 0, 192, 255, 0, 0, 192, 255, 0, 0, 192, 255, 0, 0, 192, 255, 0, 0, 192, 255, 0, 0, 192, 255, 0, 0, 192, 255, 0, 0, 192, 255, 0, 0, 192, 255, 0, 0, 192, 255, 220, 253, 255, 255, 224, 253, 255, 255, 15, 0, 0, 0, 77, 76, 73, 82, 32, 67, 111, 110, 118, 101, 114, 116, 101, 100, 46, 0, 1, 0, 0, 0, 20, 0, 0, 0, 0, 0, 14, 0, 24, 0, 20, 0, 16, 0, 12, 0, 8, 0, 4, 0, 14, 0, 0, 0, 20, 0, 0, 0, 28, 0, 0, 0, 108, 0, 0, 0, 112, 0, 0, 0, 116, 0, 0, 0, 4, 0, 0, 0, 109, 97, 105, 110, 0, 0, 0, 0, 1, 0, 0, 0, 20, 0, 0, 0, 0, 0, 14, 0, 22, 0, 0, 0, 16, 0, 12, 0, 11, 0, 4, 0, 14, 0, 0, 0, 24, 0, 0, 0, 0, 0, 0, 8, 24, 0, 0, 0, 28, 0, 0, 0, 0, 0, 6, 0, 8, 0, 7, 0, 6, 0, 0, 0, 0, 0, 0, 1, 1, 0, 0, 0, 3, 0, 0, 0, 3, 0, 0, 0, 0, 0, 0, 0, 2, 0, 0, 0, 1, 0, 0, 0, 1, 0, 0, 0, 3, 0, 0, 0, 1, 0, 0, 0, 0, 0, 0, 0, 4, 0, 0, 0, 60, 1, 0, 0, 200, 0, 0, 0, 96, 0, 0, 0, 4, 0, 0, 0, 234, 254, 255, 255, 0, 0, 0, 1, 20, 0, 0, 0, 28, 0, 0, 0, 28, 0, 0, 0, 4, 0, 0, 0, 52, 0, 0, 0, 2, 0, 0, 0, 255, 255, 255, 255, 32, 0, 0, 0, 212, 254, 255, 255, 25, 0, 0, 0, 83, 116, 97, 116, 101, 102, 117, 108, 80, 97, 114, 116, 105, 116, 105, 111, 110, 101, 100, 67, 97, 108, 108, 58, 48, 0, 0, 0, 2, 0, 0, 0, 1, 0, 0, 0, 32, 0, 0, 0, 178, 255, 255, 255, 0, 0, 0, 1, 16, 0, 0, 0, 16, 0, 0, 0, 3, 0, 0, 0, 44, 0, 0, 0, 28, 255, 255, 255, 31, 0, 0, 0, 115, 101, 113, 117, 101, 110, 116, 105, 97, 108, 95, 50, 48, 47, 110, 110, 95, 108, 97, 121, 101, 114, 95, 51, 47, 77, 97, 116, 77, 117, 108, 0, 2, 0, 0, 0, 32, 0, 0, 0, 64, 0, 0, 0, 0, 0, 22, 0, 24, 0, 20, 0, 0, 0, 16, 0, 12, 0, 8, 0, 0, 0, 0, 0, 0, 0, 7, 0, 22, 0, 0, 0, 0, 0, 0, 1, 16, 0, 0, 0, 16, 0, 0, 0, 2, 0, 0, 0, 60, 0, 0, 0, 128, 255, 255, 255, 47, 0, 0, 0, 115, 101, 113, 117, 101, 110, 116, 105, 97, 108, 95, 50, 48, 47, 110, 110, 95, 108, 97, 121, 101, 114, 95, 51, 47, 66, 105, 97, 115, 65, 100, 100, 47, 82, 101, 97, 100, 86, 97, 114, 105, 97, 98, 108, 101, 79, 112, 0, 1, 0, 0, 0, 32, 0, 0, 0, 0, 0, 22, 0, 28, 0, 24, 0, 0, 0, 20, 0, 16, 0, 12, 0, 0, 0, 0, 0, 8, 0, 7, 0, 22, 0, 0, 0, 0, 0, 0, 1, 20, 0, 0, 0, 32, 0, 0, 0, 32, 0, 0, 0, 1, 0, 0, 0, 64, 0, 0, 0, 2, 0, 0, 0, 255, 255, 255, 255, 64, 0, 0, 0, 4, 0, 4, 0, 4, 0, 0, 0, 34, 0, 0, 0, 115, 101, 114, 118, 105, 110, 103, 95, 100, 101, 102, 97, 117, 108, 116, 95, 110, 110, 95, 108, 97, 121, 101, 114, 95, 51, 95, 105, 110, 112, 117, 116, 58, 48, 0, 0, 2, 0, 0, 0, 1, 0, 0, 0, 64, 0, 0, 0, 1, 0, 0, 0, 16, 0, 0, 0, 12, 0, 12, 0, 11, 0, 0, 0, 0, 0, 4, 0, 12, 0, 0, 0, 9, 0, 0, 0, 0, 0, 0, 9
};
