#pragma once

#include <cstdint>

const uint8_t mod_7[] = {
28, 0, 0, 0, 84, 70, 76, 51, 20, 0, 32, 0, 28, 0, 24, 0, 20, 0, 16, 0, 12, 0, 0, 0, 8, 0, 4, 0, 20, 0, 0, 0, 28, 0, 0, 0, 156, 0, 0, 0, 244, 0, 0, 0, 184, 5, 2, 0, 200, 5, 2, 0, 8, 8, 2, 0, 3, 0, 0, 0, 1, 0, 0, 0, 16, 0, 0, 0, 0, 0, 10, 0, 16, 0, 12, 0, 8, 0, 4, 0, 10, 0, 0, 0, 12, 0, 0, 0, 28, 0, 0, 0, 60, 0, 0, 0, 15, 0, 0, 0, 115, 101, 114, 118, 105, 110, 103, 95, 100, 101, 102, 97, 117, 108, 116, 0, 1, 0, 0, 0, 4, 0, 0, 0, 140, 255, 255, 255, 3, 0, 0, 0, 4, 0, 0, 0, 10, 0, 0, 0, 110, 110, 95, 108, 97, 121, 101, 114, 95, 56, 0, 0, 1, 0, 0, 0, 4, 0, 0, 0, 214, 254, 253, 255, 4, 0, 0, 0, 16, 0, 0, 0, 110, 110, 95, 108, 97, 121, 101, 114, 95, 56, 95, 105, 110, 112, 117, 116, 0, 0, 0, 0, 2, 0, 0, 0, 52, 0, 0, 0, 4, 0, 0, 0, 220, 255, 255, 255, 6, 0, 0, 0, 4, 0, 0, 0, 19, 0, 0, 0, 67, 79, 78, 86, 69, 82, 83, 73, 79, 78, 95, 77, 69, 84, 65, 68, 65, 84, 65, 0, 8, 0, 12, 0, 8, 0, 4, 0, 8, 0, 0, 0, 5, 0, 0, 0, 4, 0, 0, 0, 19, 0, 0, 0, 109, 105, 110, 95, 114, 117, 110, 116, 105, 109, 101, 95, 118, 101, 114, 115, 105, 111, 110, 0, 7, 0, 0, 0, 192, 4, 2, 0, 184, 4, 2, 0, 168, 0, 2, 0, 144, 0, 0, 0, 136, 0, 0, 0, 104, 0, 0, 0, 4, 0, 0, 0, 114, 255, 253, 255, 4, 0, 0, 0, 84, 0, 0, 0, 12, 0, 0, 0, 8, 0, 14, 0, 8, 0, 4, 0, 8, 0, 0, 0, 16, 0, 0, 0, 36, 0, 0, 0, 0, 0, 6, 0, 8, 0, 4, 0, 6, 0, 0, 0, 4, 0, 0, 0, 0, 0, 0, 0, 0, 0, 10, 0, 16, 0, 12, 0, 8, 0, 4, 0, 10, 0, 0, 0, 2, 0, 0, 0, 2, 0, 0, 0, 4, 0, 0, 0, 6, 0, 0, 0, 50, 46, 49, 51, 46, 48, 0, 0, 210, 255, 253, 255, 4, 0, 0, 0, 16, 0, 0, 0, 49, 46, 53, 46, 48, 0, 0, 0, 0, 0, 0, 0, 0, 0, 0, 0, 184, 249, 253, 255, 242, 255, 253, 255, 4, 0, 0, 0, 0, 0, 2, 0, 60, 178, 194, 64, 91, 228, 191, 189, 61, 24, 218, 64, 60, 64, 129, 61, 98, 155, 242, 189, 52, 221, 240, 61, 185, 217, 216, 64, 240, 84, 186, 189, 192, 149, 220, 64, 66, 111, 221, 64, 0, 150, 37, 189, 208, 120, 119, 189, 238, 132, 216, 64, 144, 174, 106, 189, 245, 162, 222, 64, 99, 96, 219, 64, 146, 240, 216, 64, 112, 185, 28, 189, 232, 5, 217, 64, 120, 248, 77, 189, 64, 41, 66, 60, 224, 173, 220, 64, 85, 238, 219, 64, 80, 214, 216, 64, 0, 66, 221, 64, 253, 11, 217, 64, 88, 214, 221, 64, 212, 86, 200, 61, 0, 164, 159, 59, 186, 82, 61, 61, 208, 223, 217, 64, 140, 146, 132, 61, 54, 85, 236, 189, 115, 99, 72, 189, 60, 180, 165, 189, 44, 197, 217, 64, 87, 205, 219, 64, 236, 145, 168, 189, 101, 248, 216, 64, 246, 147, 222, 64, 138, 171, 223, 64, 43, 19, 184, 61, 182, 55, 221, 64, 133, 220, 92, 60, 80, 67, 182, 189, 181, 15, 221, 64, 140, 4, 1, 62, 17, 98, 223, 64, 192, 136, 11, 61, 96, 50, 228, 188, 204, 176, 219, 64, 214, 69, 168, 64, 128, 23, 214, 60, 118, 24, 218, 64, 178, 226, 222, 64, 132, 212, 249, 189, 112, 33, 199, 189, 21, 131, 223, 64, 204, 146, 223, 64, 189, 92, 216, 64, 96, 147, 35, 60, 54, 252, 220, 64, 232, 44, 197, 61, 239, 38, 216, 64, 153, 245, 185, 60, 12, 238, 239, 61, 196, 78, 200, 64, 0, 18, 10, 61, 136, 209, 133, 189, 17, 222, 218, 64, 41, 73, 27, 61, 112, 202, 240, 189, 25, 77, 220, 64, 120, 63, 222, 64, 126, 210, 219, 64, 134, 167, 221, 64, 247, 68, 165, 60, 128, 199, 221, 64, 144, 218, 208, 189, 160, 229, 218, 64, 16, 251, 129, 188, 174, 243, 42, 61, 112, 14, 26, 189, 156, 244, 41, 61, 31, 145, 198, 64, 75, 252, 221, 64, 197, 123, 80, 189, 186, 59, 219, 64, 211, 68, 72, 60, 152, 46, 247, 61, 216, 41, 223, 64, 24, 66, 44, 189, 121, 189, 112, 61, 123, 136, 216, 64, 24, 185, 184, 61, 71, 184, 56, 60, 182, 157, 218, 64, 175, 159, 222, 64, 24, 60, 90, 61, 70, 55, 220, 64, 144, 198, 230, 60, 92, 207, 222, 61, 191, 188, 219, 64, 13, 156, 221, 64, 8, 85, 129, 61, 248, 117, 123, 189, 22, 170, 26, 188, 102, 232, 223, 64, 116, 235, 211, 64, 208, 200, 8, 189, 163, 175, 217, 64, 23, 39, 210, 64, 87, 107, 223, 64, 225, 91, 4, 61, 244, 76, 216, 64, 148, 57, 218, 64, 104, 6, 136, 61, 44, 172, 219, 64, 29, 47, 222, 64, 113, 137, 220, 64, 101, 88, 220, 64, 48, 206, 68, 189, 55, 191, 223, 64, 43, 56, 216, 64, 152, 131, 222, 64, 61, 238, 221, 64, 108, 60, 207, 189, 185, 108, 223, 64, 42, 11, 189, 61, 228, 132, 144, 189, 2, 223, 170, 189, 208, 245, 238, 188, 182, 103, 217, 60, 240, 200, 140, 188, 203, 198, 133, 61, 228, 198, 210, 189, 141, 5, 202, 187, 204, 157, 189, 61, 128, 87, 233, 61, 140, 172, 182, 61, 47, 14, 181, 60, 192, 80, 216, 189, 127, 151, 216, 189, 221, 217, 203, 61, 73, 207, 233, 188, 192, 21, 22, 61, 184, 30, 89, 189, 96, 211, 36, 189, 112, 114, 204, 188, 219, 14, 236, 61, 151, 167, 154, 59, 112, 165, 33, 189, 173, 87, 184, 61, 143, 29, 17, 60, 204, 161, 131, 60, 139, 251, 73, 189, 104, 164, 65, 61, 200, 34, 212, 189, 183, 1, 52, 60, 3, 223, 234, 61, 33, 156, 77, 61, 24, 95, 194, 189, 204, 137, 165, 60, 129, 45, 175, 189, 67, 95, 235, 188, 204, 185, 207, 189, 51, 12, 154, 189, 247, 137, 55, 189, 63, 241, 188, 189, 192, 24, 111, 189, 198, 0, 228, 188, 125, 244, 77, 61, 8, 249, 122, 61, 100, 107, 168, 60, 74, 135, 200, 189, 197, 124, 3, 190, 0, 216, 78, 187, 48, 211, 100, 189, 131, 121, 190, 61, 35, 2, 148, 60, 232, 24, 100, 189, 218, 82, 131, 60, 61, 149, 204, 60, 48, 237, 146, 188, 76, 210, 173, 61, 128, 101, 12, 190, 42, 18, 184, 61, 158, 75, 42, 189, 44, 155, 168, 189, 14, 169, 210, 60, 160, 197, 251, 188, 99, 148, 96, 189, 160, 45, 160, 60, 84, 13, 227, 189, 52, 33, 132, 189, 72, 219, 204, 61, 220, 188, 200, 189, 109, 10, 113, 188, 64, 109, 160, 61, 224, 163, 28, 188, 6, 142, 203, 61, 235, 220, 205, 189, 12, 42, 211, 188, 217, 89, 92, 189, 240, 38, 239, 61, 94, 226, 236, 189, 120, 212, 59, 61, 65, 120, 11, 60, 48, 178, 185, 61, 244, 161, 239, 61, 200, 90, 254, 189, 127, 219, 241, 61, 112, 216, 89, 61, 232, 190, 77, 188, 64, 28, 232, 189, 28, 180, 26, 61, 61, 150, 141, 61, 136, 245, 140, 189, 1, 131, 124, 61, 224, 135, 0, 188, 178, 232, 126, 61, 0, 14, 234, 189, 92, 165, 188, 189, 207, 234, 146, 189, 123, 135, 148, 189, 231, 159, 82, 189, 132, 112, 138, 61, 103, 29, 203, 189, 60, 4, 183, 61, 184, 178, 130, 61, 201, 163, 228, 189, 169, 5, 194, 61, 132, 105, 146, 58, 8, 118, 235, 61, 45, 19, 204, 61, 14, 28, 202, 61, 255, 27, 186, 58, 144, 134, 229, 60, 28, 116, 150, 189, 220, 136, 182, 61, 62, 70, 211, 60, 100, 5, 140, 189, 236, 37, 155, 60, 136, 194, 200, 189, 220, 216, 199, 61, 30, 52, 230, 189, 238, 252, 183, 61, 46, 138, 126, 189, 32, 62, 23, 59, 204, 53, 198, 61, 169, 246, 168, 189, 158, 158, 151, 61, 72, 162, 144, 61, 125, 243, 81, 189, 208, 146, 55, 189, 138, 73, 91, 61, 96, 11, 48, 61, 164, 228, 224, 61, 248, 53, 159, 61, 116, 134, 223, 61, 112, 6, 217, 61, 112, 145, 249, 189, 2, 163, 60, 189, 28, 197, 202, 61, 51, 1, 234, 189, 102, 201, 141, 60, 72, 205, 200, 189, 16, 42, 42, 61, 147, 98, 104, 61, 124, 89, 188, 189, 94, 158, 163, 60, 29, 209, 224, 189, 228, 44, 177, 61, 16, 205, 150, 60, 206, 226, 222, 61, 120, 97, 27, 61, 144, 132, 248, 61, 216, 32, 232, 61, 159, 115, 78, 61, 16, 17, 141, 60, 110, 149, 199, 61, 103, 150, 240, 61, 221, 112, 74, 189, 78, 76, 213, 59, 184, 243, 233, 189, 56, 61, 88, 61, 60, 145, 235, 189, 128, 252, 172, 61, 70, 134, 232, 189, 10, 7, 238, 189, 100, 45, 220, 189, 59, 96, 157, 189, 22, 237, 5, 190, 144, 46, 21, 189, 134, 133, 232, 59, 39, 206, 51, 188, 36, 15, 186, 60, 32, 119, 32, 61, 217, 173, 23, 59, 134, 230, 162, 188, 56, 3, 84, 189, 29, 250, 19, 61, 42, 68, 240, 189, 21, 101, 99, 61, 160, 93, 213, 189, 232, 6, 62, 61, 112, 103, 90, 61, 181, 192, 23, 61, 216, 239, 92, 189, 60, 253, 118, 61, 199, 173, 90, 60, 128, 163, 32, 60, 68, 216, 156, 61, 11, 36, 112, 60, 132, 170, 53, 189, 176, 182, 45, 187, 192, 23, 14, 61, 209, 132, 149, 61, 184, 159, 35, 61, 141, 131, 65, 60, 24, 237, 55, 189, 32, 153, 3, 189, 196, 45, 203, 189, 40, 213, 32, 61, 96, 233, 12, 188, 30, 170, 11, 189, 144, 5, 37, 189, 196, 51, 185, 61, 196, 43, 49, 189, 21, 184, 149, 189, 53, 57, 202, 189, 128, 107, 145, 189, 192, 120, 185, 189, 174, 112, 218, 189, 160, 170, 109, 189, 184, 234, 102, 61, 144, 123, 253, 61, 16, 163, 106, 61, 48, 192, 60, 61, 128, 209, 7, 187, 128, 243, 198, 60, 192, 45, 192, 59, 112, 119, 201, 61, 55, 158, 95, 61, 60, 79, 166, 189, 180, 26, 212, 189, 167, 53, 191, 61, 28, 210, 224, 61, 188, 101, 188, 61, 79, 156, 203, 189, 64, 84, 173, 187, 181, 52, 169, 188, 228, 191, 223, 61, 120, 195, 188, 189, 108, 88, 169, 61, 117, 146, 52, 61, 156, 120, 132, 61, 16, 245, 130, 60, 100, 17, 90, 183, 218, 198, 146, 61, 189, 146, 160, 61, 80, 186, 88, 61, 237, 24, 72, 189, 138, 52, 213, 189, 150, 222, 162, 189, 240, 113, 84, 61, 224, 212, 147, 189, 128, 244, 170, 188, 31, 246, 239, 61, 225, 151, 61, 188, 97, 253, 122, 189, 204, 50, 255, 60, 120, 233, 206, 189, 87, 19, 203, 60, 140, 6, 52, 189, 228, 32, 187, 189, 71, 59, 160, 189, 240, 157, 114, 189, 248, 199, 119, 61, 68, 121, 119, 189, 189, 70, 92, 189, 80, 231, 139, 58, 196, 94, 247, 189, 228, 198, 58, 61, 110, 187, 194, 64, 135, 16, 194, 60, 107, 110, 217, 64, 0, 184, 239, 60, 44, 209, 162, 61, 92, 7, 167, 61, 34, 188, 217, 64, 32, 100, 118, 60, 121, 149, 216, 64, 54, 128, 217, 64, 224, 150, 75, 188, 152, 247, 117, 61, 41, 35, 217, 64, 136, 151, 61, 189, 101, 116, 216, 64, 0, 166, 218, 64, 117, 195, 216, 64, 224, 190, 181, 61, 169, 227, 223, 64, 124, 97, 186, 61, 0, 4, 199, 187, 106, 8, 218, 64, 213, 212, 219, 64, 20, 19, 224, 64, 6, 95, 223, 64, 51, 196, 219, 64, 120, 94, 220, 64, 128, 113, 120, 189, 16, 16, 158, 188, 181, 143, 116, 189, 229, 96, 218, 64, 96, 209, 131, 61, 5, 21, 110, 60, 116, 26, 186, 61, 20, 10, 133, 189, 20, 213, 218, 64, 80, 205, 223, 64, 32, 75, 141, 189, 208, 52, 219, 64, 29, 225, 219, 64, 40, 113, 220, 64, 70, 16, 187, 189, 210, 99, 220, 64, 76, 36, 224, 61, 232, 167, 247, 61, 104, 163, 222, 64, 108, 215, 212, 189, 131, 17, 222, 64, 160, 147, 255, 61, 152, 224, 124, 189, 87, 35, 217, 64, 251, 200, 165, 64, 80, 114, 172, 60, 117, 97, 222, 64, 224, 155, 219, 64, 84, 15, 246, 61, 224, 118, 241, 188, 197, 205, 217, 64, 200, 73, 221, 64, 194, 199, 223, 64, 104, 235, 117, 189, 199, 230, 220, 64, 244, 159, 211, 61, 249, 196, 219, 64, 255, 196, 7, 189, 0, 242, 122, 59, 239, 126, 199, 64, 136, 165, 199, 61, 104, 27, 50, 61, 154, 140, 220, 64, 44, 44, 187, 189, 4, 188, 247, 61, 208, 153, 218, 64, 90, 159, 220, 64, 186, 227, 220, 64, 125, 144, 221, 64, 114, 8, 177, 189, 44, 149, 222, 64, 228, 152, 162, 189, 118, 45, 219, 64, 112, 247, 50, 189, 100, 190, 134, 187, 216, 133, 24, 61, 134, 226, 33, 189, 40, 233, 196, 64, 113, 56, 222, 64, 94, 84, 136, 61, 93, 177, 222, 64, 19, 183, 157, 61, 28, 115, 232, 189, 24, 235, 220, 64, 44, 146, 216, 189, 43, 254, 254, 61, 123, 86, 220, 64, 0, 113, 27, 189, 112, 54, 59, 61, 150, 120, 216, 64, 142, 7, 224, 64, 200, 195, 144, 61, 151, 222, 218, 64, 0, 152, 179, 186, 128, 83, 226, 187, 155, 121, 218, 64, 239, 0, 217, 64, 0, 6, 226, 61, 168, 172, 242, 189, 36, 186, 189, 61, 8, 64, 220, 64, 26, 236, 212, 64, 248, 161, 187, 61, 233, 168, 223, 64, 172, 47, 216, 64, 219, 197, 223, 64, 64, 70, 219, 189, 53, 202, 217, 64, 200, 222, 218, 64, 8, 181, 51, 189, 178, 87, 218, 64, 20, 104, 220, 64, 146, 252, 219, 64, 172, 153, 222, 64, 128, 232, 4, 59, 96, 26, 221, 64, 18, 69, 221, 64, 103, 114, 216, 64, 236, 74, 220, 64, 240, 31, 191, 60, 151, 127, 222, 64, 198, 194, 181, 61, 112, 87, 206, 189, 132, 225, 225, 61, 136, 40, 14, 61, 143, 195, 199, 188, 120, 123, 162, 189, 175, 94, 158, 59, 236, 180, 233, 189, 161, 203, 209, 189, 195, 221, 219, 189, 92, 180, 203, 189, 136, 68, 206, 61, 32, 47, 193, 189, 112, 139, 29, 189, 119, 200, 131, 60, 77, 74, 84, 61, 203, 119, 13, 189, 216, 39, 237, 61, 228, 238, 199, 61, 192, 182, 90, 189, 80, 47, 32, 61, 55, 69, 140, 189, 129, 128, 1, 190, 251, 18, 83, 189, 221, 117, 29, 189, 16, 255, 148, 61, 133, 113, 182, 61, 186, 90, 5, 59, 16, 120, 8, 189, 224, 125, 112, 61, 146, 36, 55, 189, 160, 26, 60, 189, 53, 126, 102, 188, 189, 178, 146, 61, 166, 23, 163, 61, 132, 158, 127, 61, 34, 71, 233, 61, 160, 49, 227, 60, 75, 86, 93, 188, 8, 200, 120, 61, 207, 194, 57, 188, 128, 35, 252, 189, 64, 4, 182, 187, 16, 156, 163, 61, 208, 129, 102, 61, 169, 36, 240, 60, 230, 24, 65, 188, 22, 252, 162, 189, 188, 107, 211, 61, 56, 225, 138, 189, 22, 245, 170, 189, 112, 134, 162, 61, 32, 145, 111, 61, 60, 124, 62, 189, 175, 90, 8, 61, 224, 154, 3, 61, 172, 75, 179, 189, 12, 246, 207, 61, 219, 230, 32, 60, 225, 200, 97, 189, 0, 93, 196, 60, 201, 132, 11, 61, 32, 94, 78, 189, 47, 102, 106, 61, 144, 137, 246, 61, 32, 98, 178, 61, 176, 91, 3, 190, 228, 132, 253, 189, 119, 48, 32, 61, 109, 54, 210, 61, 40, 24, 164, 61, 192, 172, 21, 188, 116, 90, 113, 60, 53, 166, 193, 189, 17, 186, 36, 61, 96, 253, 83, 189, 0, 142, 33, 59, 44, 171, 47, 189, 128, 118, 159, 187, 159, 171, 229, 189, 132, 123, 162, 189, 48, 61, 63, 189, 32, 48, 163, 188, 144, 227, 183, 188, 0, 94, 190, 187, 141, 136, 102, 189, 224, 163, 137, 60, 115, 114, 192, 61, 185, 147, 0, 190, 0, 122, 224, 60, 220, 198, 57, 58, 52, 50, 231, 61, 241, 222, 170, 189, 213, 182, 177, 189, 96, 218, 247, 60, 34, 226, 215, 189, 44, 130, 58, 187, 65, 237, 109, 61, 112, 120, 181, 189, 1, 220, 185, 186, 180, 215, 182, 61, 128, 124, 81, 187, 235, 81, 190, 189, 227, 50, 237, 61, 11, 131, 144, 61, 64, 250, 164, 59, 81, 22, 94, 188, 159, 184, 28, 60, 50, 33, 228, 59, 108, 166, 133, 189, 58, 24, 2, 190, 128, 160, 5, 188, 13, 169, 7, 189, 17, 126, 240, 188, 78, 183, 238, 61, 196, 127, 34, 61, 248, 63, 167, 189, 104, 189, 143, 61, 58, 65, 96, 189, 60, 230, 139, 61, 189, 157, 115, 189, 148, 227, 175, 61, 161, 189, 119, 61, 224, 188, 213, 189, 127, 129, 151, 186, 108, 160, 223, 61, 0, 48, 15, 60, 252, 170, 187, 189, 107, 20, 197, 64, 209, 45, 130, 189, 68, 33, 216, 64, 0, 252, 185, 189, 69, 56, 193, 61, 32, 218, 88, 61, 57, 153, 222, 64, 136, 195, 251, 189, 253, 177, 222, 64, 126, 101, 222, 64, 104, 135, 46, 61, 20, 1, 167, 189, 253, 211, 218, 64, 48, 249, 148, 61, 3, 104, 220, 64, 195, 45, 222, 64, 109, 56, 216, 64, 144, 29, 100, 61, 197, 29, 222, 64, 64, 29, 231, 60, 48, 39, 133, 61, 78, 206, 219, 64, 169, 65, 222, 64, 125, 73, 222, 64, 187, 140, 220, 64, 237, 212, 219, 64, 1, 17, 221, 64, 97, 123, 60, 189, 32, 45, 38, 61, 92, 213, 102, 188, 210, 175, 218, 64, 54, 241, 224, 188, 75, 200, 41, 189, 114, 155, 45, 61, 168, 90, 229, 189, 25, 165, 223, 64, 190, 214, 223, 64, 164, 0, 168, 61, 194, 18, 222, 64, 152, 37, 217, 64, 239, 143, 217, 64, 213, 151, 123, 60, 203, 47, 220, 64, 202, 71, 156, 61, 216, 224, 104, 61, 160, 37, 216, 64, 47, 155, 124, 189, 135, 60, 216, 64, 20, 22, 143, 189, 224, 88, 157, 61, 208, 76, 219, 64, 182, 140, 161, 64, 16, 87, 230, 61, 243, 149, 219, 64, 184, 58, 221, 64, 112, 102, 229, 189, 92, 64, 180, 61, 209, 15, 223, 64, 20, 8, 223, 64, 194, 17, 220, 64, 0, 131, 237, 186, 209, 226, 218, 64, 240, 166, 249, 189, 96, 175, 220, 64, 175, 224, 147, 188, 184, 7, 135, 61, 160, 171, 194, 64, 176, 9, 243, 61, 60, 17, 185, 61, 181, 111, 221, 64, 180, 191, 148, 189, 24, 209, 40, 61, 72, 178, 218, 64, 75, 115, 222, 64, 172, 172, 223, 64, 77, 248, 220, 64, 160, 191, 233, 61, 142, 137, 219, 64, 56, 185, 201, 61, 11, 175, 216, 64, 188, 54, 245, 189, 195, 227, 219, 61, 40, 95, 7, 61, 35, 10, 154, 61, 147, 111, 198, 64, 184, 126, 222, 64, 59, 78, 152, 189, 93, 140, 223, 64, 213, 233, 80, 61, 40, 26, 164, 189, 90, 87, 222, 64, 76, 176, 203, 189, 133, 183, 142, 60, 168, 5, 219, 64, 192, 33, 166, 189, 198, 74, 46, 61, 77, 85, 216, 64, 44, 151, 221, 64, 192, 239, 104, 189, 226, 249, 220, 64, 0, 111, 63, 188, 92, 99, 154, 61, 75, 34, 219, 64, 238, 84, 219, 64, 235, 113, 32, 188, 0, 237, 124, 187, 123, 16, 185, 189, 223, 158, 221, 64, 111, 123, 212, 64, 52, 30, 194, 61, 85, 212, 217, 64, 135, 129, 211, 64, 68, 116, 218, 64, 65, 42, 183, 189, 99, 70, 216, 64, 41, 253, 221, 64, 216, 48, 84, 61, 34, 22, 221, 64, 61, 151, 223, 64, 154, 190, 218, 64, 180, 115, 223, 64, 64, 115, 22, 60, 252, 217, 216, 64, 113, 192, 223, 64, 111, 119, 216, 64, 241, 202, 223, 64, 168, 95, 162, 189, 62, 16, 222, 64, 136, 148, 4, 189, 0, 60, 191, 185, 14, 36, 107, 188, 24, 141, 166, 61, 208, 219, 25, 61, 112, 237, 166, 60, 241, 220, 212, 60, 16, 117, 36, 189, 78, 40, 243, 187, 252, 133, 88, 189, 100, 56, 212, 189, 212, 193, 143, 189, 20, 61, 127, 60, 8, 108, 63, 189, 70, 35, 157, 60, 176, 111, 206, 60, 215, 235, 242, 189, 16, 64, 141, 60, 78, 170, 61, 189, 160, 148, 126, 189, 156, 2, 141, 189, 121, 165, 195, 61, 84, 250, 83, 61, 149, 228, 180, 61, 182, 175, 177, 189, 180, 63, 140, 61, 110, 27, 74, 61, 24, 5, 137, 189, 16, 145, 117, 189, 64, 178, 220, 61, 80, 104, 177, 189, 85, 85, 203, 61, 96, 87, 191, 189, 180, 104, 206, 189, 164, 227, 227, 189, 54, 186, 182, 189, 47, 60, 17, 190, 216, 249, 230, 61, 67, 138, 254, 189, 99, 173, 190, 60, 56, 6, 16, 190, 192, 195, 135, 189, 199, 9, 136, 189, 219, 17, 212, 61, 240, 102, 216, 61, 7, 42, 201, 188, 26, 206, 6, 190, 35, 124, 200, 189, 184, 201, 32, 189, 252, 125, 208, 61, 170, 232, 16, 188, 41, 224, 75, 189, 152, 127, 226, 61, 10, 117, 108, 61, 4, 81, 141, 61, 32, 110, 94, 60, 144, 58, 104, 189, 162, 208, 121, 61, 1, 134, 17, 186, 80, 113, 157, 60, 144, 6, 46, 189, 129, 89, 114, 61, 152, 45, 18, 61, 189, 58, 179, 189, 232, 201, 183, 189, 40, 247, 94, 61, 14, 126, 170, 189, 132, 161, 134, 61, 112, 151, 52, 61, 156, 24, 143, 61, 40, 25, 210, 61, 208, 157, 86, 61, 245, 146, 117, 188, 197, 78, 169, 61, 127, 15, 195, 189, 131, 48, 116, 61, 128, 94, 162, 187, 241, 125, 14, 61, 188, 50, 180, 189, 85, 135, 173, 61, 0, 76, 218, 185, 4, 30, 170, 189, 140, 23, 226, 189, 110, 95, 116, 189, 108, 74, 196, 61, 145, 220, 143, 61, 196, 178, 243, 61, 242, 52, 120, 61, 224, 107, 81, 61, 8, 130, 90, 189, 187, 249, 124, 61, 0, 95, 74, 188, 49, 149, 118, 189, 216, 43, 185, 189, 240, 162, 185, 188, 91, 48, 212, 189, 1, 106, 149, 61, 80, 211, 68, 189, 8, 41, 141, 61, 114, 90, 140, 61, 52, 99, 248, 61, 216, 186, 234, 189, 9, 197, 253, 60, 156, 209, 191, 189, 34, 115, 190, 61, 68, 3, 166, 189, 147, 85, 245, 188, 178, 70, 134, 61, 96, 116, 228, 188, 96, 95, 59, 60, 104, 68, 231, 189, 160, 38, 36, 189, 197, 25, 230, 59, 183, 82, 85, 60, 81, 144, 99, 61, 163, 31, 154, 189, 112, 238, 61, 61, 239, 65, 2, 189, 93, 93, 216, 189, 141, 71, 170, 189, 126, 165, 165, 61, 0, 0, 143, 57, 156, 243, 122, 61, 213, 80, 210, 61, 58, 239, 84, 188, 116, 171, 12, 190, 64, 80, 156, 61, 235, 37, 158, 189, 190, 53, 196, 64, 12, 142, 116, 61, 70, 28, 219, 64, 16, 235, 51, 61, 90, 37, 136, 189, 240, 209, 187, 188, 12, 228, 216, 64, 164, 231, 208, 61, 251, 54, 220, 64, 244, 183, 219, 64, 108, 84, 199, 61, 240, 47, 164, 60, 64, 71, 221, 64, 168, 207, 147, 189, 59, 10, 220, 64, 43, 211, 217, 64, 193, 152, 217, 64, 208, 46, 195, 61, 120, 96, 223, 64, 112, 49, 146, 60, 192, 115, 70, 188, 81, 136, 219, 64, 211, 63, 224, 64, 121, 154, 222, 64, 113, 41, 224, 64, 251, 180, 220, 64, 232, 33, 224, 64, 83, 17, 179, 60, 16, 112, 239, 188, 120, 223, 214, 189, 193, 44, 216, 64, 26, 54, 252, 61, 81, 204, 10, 61, 117, 77, 228, 61, 141, 160, 128, 188, 147, 93, 223, 64, 205, 224, 216, 64, 200, 0, 244, 189, 255, 136, 218, 64, 177, 30, 221, 64, 43, 225, 222, 64, 68, 245, 91, 188, 206, 33, 217, 64, 60, 121, 198, 189, 96, 193, 233, 188, 11, 24, 224, 64, 97, 74, 149, 189, 217, 159, 222, 64, 112, 178, 45, 189, 0, 201, 172, 188, 250, 192, 221, 64, 82, 87, 166, 64, 96, 11, 43, 188, 231, 84, 220, 64, 182, 221, 222, 64, 204, 139, 252, 61, 56, 226, 116, 61, 91, 13, 223, 64, 50, 56, 220, 64, 35, 126, 219, 64, 204, 156, 221, 189, 199, 203, 222, 64, 0, 2, 190, 187, 8, 78, 217, 64, 238, 204, 137, 61, 12, 52, 219, 189, 209, 229, 200, 64, 132, 112, 221, 189, 56, 120, 42, 189, 190, 33, 224, 64, 49, 139, 142, 61, 120, 221, 181, 61, 114, 97, 222, 64, 90, 214, 220, 64, 220, 247, 218, 64, 80, 174, 219, 64, 0, 116, 111, 60, 42, 224, 221, 64, 192, 67, 242, 187, 42, 77, 220, 64, 148, 45, 160, 61, 100, 16, 248, 61, 140, 202, 195, 61, 80, 194, 195, 61, 2, 40, 198, 64, 180, 92, 220, 64, 23, 155, 3, 62, 43, 14, 223, 64, 195, 111, 148, 61, 80, 202, 229, 189, 54, 219, 223, 64, 36, 118, 149, 189, 141, 245, 6, 61, 196, 76, 217, 64, 72, 49, 193, 189, 160, 61, 205, 61, 45, 16, 220, 64, 26, 141, 220, 64, 152, 221, 108, 61, 81, 50, 222, 64, 132, 75, 228, 189, 16, 249, 144, 61, 7, 77, 224, 64, 27, 34, 220, 64, 96, 227, 195, 61, 232, 85, 225, 61, 211, 62, 21, 189, 40, 213, 217, 64, 224, 235, 213, 64, 216, 88, 90, 189, 19, 118, 224, 64, 232, 109, 217, 64, 220, 0, 221, 64, 171, 163, 181, 188, 117, 247, 216, 64, 249, 114, 221, 64, 72, 106, 46, 189, 203, 68, 222, 64, 29, 181, 219, 64, 113, 255, 219, 64, 140, 131, 216, 64, 216, 70, 7, 61, 164, 112, 217, 64, 210, 229, 222, 64, 96, 134, 220, 64, 124, 190, 222, 64, 96, 6, 252, 61, 10, 8, 220, 64, 32, 147, 77, 60, 48, 116, 157, 61, 176, 109, 140, 61, 144, 165, 37, 61, 208, 123, 230, 60, 64, 55, 35, 188, 42, 44, 42, 189, 120, 171, 243, 61, 189, 150, 197, 189, 55, 103, 187, 61, 128, 13, 189, 188, 192, 147, 156, 187, 81, 232, 118, 189, 20, 110, 199, 61, 203, 124, 142, 60, 154, 133, 216, 61, 52, 155, 155, 189, 160, 66, 113, 188, 19, 141, 133, 189, 160, 180, 105, 61, 132, 116, 181, 189, 165, 101, 30, 188, 24, 212, 224, 61, 14, 209, 188, 188, 94, 214, 232, 60, 38, 67, 185, 189, 180, 30, 237, 189, 56, 164, 57, 61, 244, 253, 226, 189, 96, 15, 14, 60, 180, 164, 173, 59, 100, 162, 178, 189, 232, 77, 184, 189, 0, 180, 98, 187, 0, 76, 52, 58, 145, 175, 26, 60, 113, 11, 112, 189, 4, 80, 156, 189, 38, 112, 161, 187, 192, 177, 161, 61, 54, 96, 161, 189, 228, 43, 149, 189, 254, 73, 168, 188, 240, 130, 47, 189, 0, 150, 106, 59, 52, 206, 211, 189, 112, 43, 230, 61, 223, 83, 5, 61, 128, 62, 30, 61, 84, 180, 235, 61, 68, 5, 23, 61, 128, 235, 231, 60, 144, 51, 205, 189, 42, 167, 111, 61, 54, 40, 162, 61, 96, 15, 7, 60, 128, 154, 58, 189, 255, 21, 135, 61, 156, 200, 147, 189, 237, 205, 14, 189, 144, 232, 206, 189, 137, 191, 237, 60, 40, 93, 232, 189, 220, 44, 115, 59, 164, 227, 170, 189, 32, 206, 101, 61, 64, 163, 181, 187, 128, 207, 224, 59, 164, 202, 232, 61, 216, 135, 162, 61, 0, 123, 71, 188, 156, 135, 179, 189, 0, 226, 159, 189, 208, 35, 146, 189, 248, 99, 232, 189, 128, 149, 237, 189, 92, 152, 222, 61, 42, 156, 72, 187, 124, 228, 218, 189, 29, 85, 190, 60, 188, 173, 241, 61, 128, 191, 18, 187, 144, 32, 96, 189, 72, 165, 174, 189, 44, 154, 196, 189, 34, 218, 78, 61, 12, 131, 145, 189, 131, 129, 199, 188, 0, 170, 70, 58, 96, 41, 55, 188, 148, 59, 99, 189, 176, 91, 191, 60, 28, 188, 225, 61, 201, 13, 59, 189, 180, 14, 249, 189, 104, 232, 96, 61, 229, 145, 176, 61, 233, 210, 117, 189, 96, 121, 34, 189, 2, 102, 210, 189, 248, 16, 96, 61, 200, 49, 86, 189, 90, 27, 139, 59, 179, 56, 88, 189, 112, 13, 131, 188, 56, 234, 51, 61, 200, 110, 116, 61, 237, 10, 146, 60, 92, 62, 200, 61, 208, 3, 26, 61, 37, 19, 181, 61, 56, 133, 138, 61, 82, 135, 128, 189, 192, 244, 32, 189, 176, 117, 100, 188, 183, 248, 73, 61, 88, 216, 37, 61, 138, 104, 147, 60, 248, 104, 143, 189, 76, 27, 184, 61, 95, 73, 60, 61, 144, 138, 206, 189, 7, 0, 137, 61, 165, 202, 252, 59, 2, 124, 168, 61, 35, 187, 142, 61, 96, 176, 3, 189, 24, 21, 235, 189, 116, 72, 152, 61, 208, 247, 222, 60, 32, 8, 239, 60, 128, 130, 29, 187, 172, 222, 193, 189, 144, 242, 106, 189, 72, 125, 45, 61, 64, 85, 215, 187, 48, 103, 238, 189, 200, 239, 102, 189, 32, 43, 25, 188, 240, 53, 189, 60, 64, 172, 13, 188, 140, 137, 141, 61, 4, 118, 223, 189, 192, 179, 164, 188, 248, 236, 21, 61, 52, 222, 186, 189, 236, 253, 208, 189, 48, 9, 162, 60, 32, 120, 153, 61, 208, 96, 220, 60, 108, 72, 209, 189, 168, 48, 183, 61, 28, 66, 129, 61, 16, 243, 170, 61, 76, 234, 134, 61, 184, 12, 131, 61, 152, 105, 112, 189, 40, 1, 182, 61, 116, 173, 170, 189, 240, 35, 44, 189, 164, 147, 177, 189, 168, 187, 199, 61, 68, 89, 207, 189, 76, 150, 186, 189, 60, 217, 250, 189, 124, 170, 135, 189, 32, 154, 60, 61, 144, 74, 6, 189, 28, 12, 230, 189, 100, 28, 151, 61, 224, 54, 51, 189, 244, 38, 144, 61, 192, 105, 183, 60, 24, 114, 168, 61, 96, 22, 210, 189, 84, 77, 231, 61, 48, 169, 220, 188, 224, 96, 113, 189, 176, 74, 118, 61, 0, 77, 55, 61, 24, 127, 65, 189, 172, 104, 205, 189, 44, 162, 207, 189, 224, 79, 81, 189, 156, 205, 165, 61, 172, 165, 255, 189, 48, 41, 9, 61, 184, 98, 72, 61, 68, 134, 253, 189, 152, 140, 21, 189, 208, 215, 85, 189, 120, 239, 62, 189, 184, 234, 52, 189, 208, 126, 232, 189, 40, 111, 184, 189, 48, 0, 226, 61, 176, 95, 199, 61, 104, 66, 74, 61, 96, 123, 67, 188, 64, 145, 224, 187, 80, 186, 162, 61, 176, 138, 143, 189, 88, 229, 3, 61, 164, 198, 176, 61, 208, 79, 223, 60, 224, 83, 76, 60, 92, 162, 135, 189, 108, 44, 226, 189, 0, 54, 251, 61, 140, 95, 129, 61, 176, 2, 86, 189, 128, 147, 225, 188, 148, 76, 248, 189, 132, 139, 183, 189, 228, 88, 154, 61, 196, 59, 233, 189, 212, 251, 173, 61, 88, 77, 24, 61, 116, 76, 212, 189, 104, 95, 42, 189, 192, 152, 143, 60, 128, 247, 159, 59, 144, 32, 19, 61, 64, 75, 158, 188, 92, 201, 236, 189, 64, 196, 237, 60, 112, 101, 199, 189, 20, 149, 209, 61, 220, 58, 190, 189, 192, 68, 248, 61, 112, 234, 244, 60, 176, 96, 138, 188, 240, 37, 182, 188, 196, 156, 169, 61, 16, 145, 129, 188, 144, 27, 69, 189, 0, 153, 57, 61, 176, 161, 89, 189, 0, 144, 90, 189, 188, 248, 189, 189, 176, 154, 97, 189, 20, 39, 139, 61, 0, 161, 177, 187, 212, 18, 211, 189, 224, 193, 197, 60, 188, 240, 159, 61, 200, 29, 3, 189, 100, 153, 149, 61, 216, 151, 145, 61, 28, 200, 174, 61, 220, 147, 174, 61, 16, 47, 141, 189, 92, 112, 211, 61, 176, 115, 189, 189, 192, 205, 220, 61, 160, 145, 115, 60, 214, 183, 213, 61, 80, 20, 227, 188, 88, 121, 6, 190, 240, 11, 180, 188, 222, 54, 198, 61, 84, 14, 200, 61, 194, 148, 197, 61, 192, 244, 247, 59, 146, 120, 102, 188, 164, 143, 53, 61, 112, 249, 202, 60, 252, 75, 173, 61, 17, 241, 131, 61, 112, 233, 230, 188, 214, 33, 136, 61, 194, 60, 18, 61, 43, 64, 132, 61, 56, 144, 67, 61, 46, 16, 201, 61, 120, 63, 86, 61, 36, 4, 173, 61, 104, 88, 179, 189, 81, 156, 5, 190, 114, 72, 218, 61, 20, 90, 90, 59, 9, 104, 154, 61, 227, 49, 20, 61, 221, 112, 181, 61, 192, 149, 110, 188, 192, 184, 195, 60, 12, 66, 191, 61, 92, 34, 134, 189, 250, 53, 134, 61, 39, 191, 212, 189, 208, 141, 165, 189, 162, 133, 49, 61, 61, 163, 158, 61, 48, 226, 150, 61, 49, 65, 13, 187, 142, 114, 56, 61, 30, 192, 118, 189, 200, 206, 173, 61, 43, 228, 207, 60, 253, 96, 179, 61, 64, 175, 206, 61, 6, 158, 78, 189, 153, 55, 103, 189, 238, 44, 255, 188, 16, 157, 248, 188, 4, 189, 165, 61, 64, 248, 60, 188, 14, 150, 157, 188, 0, 68, 137, 186, 0, 199, 152, 189, 161, 190, 133, 60, 64, 236, 124, 60, 64, 55, 200, 60, 58, 6, 205, 61, 73, 114, 156, 188, 242, 189, 146, 189, 32, 50, 211, 188, 9, 44, 175, 189, 60, 93, 150, 189, 80, 161, 206, 189, 96, 49, 214, 188, 96, 151, 131, 189, 87, 69, 67, 61, 100, 169, 152, 61, 116, 107, 39, 61, 0, 210, 112, 61, 60, 20, 195, 61, 220, 14, 175, 61, 9, 75, 194, 61, 131, 187, 21, 190, 189, 195, 216, 189, 246, 140, 146, 58, 40, 185, 229, 189, 235, 92, 16, 190, 224, 126, 87, 188, 118, 77, 212, 189, 228, 84, 206, 189, 56, 201, 253, 189, 16, 191, 143, 189, 65, 97, 180, 188, 216, 166, 179, 61, 82, 99, 141, 189, 8, 200, 231, 189, 75, 206, 99, 189, 102, 239, 92, 61, 16, 35, 208, 60, 164, 130, 84, 189, 144, 47, 212, 61, 222, 157, 146, 188, 251, 151, 41, 60, 192, 52, 188, 59, 122, 18, 218, 61, 32, 121, 169, 61, 106, 43, 208, 61, 108, 155, 150, 61, 59, 13, 52, 61, 224, 174, 160, 61, 20, 145, 190, 189, 226, 132, 62, 189, 16, 224, 239, 189, 111, 103, 207, 61, 192, 224, 120, 188, 27, 41, 165, 56, 235, 245, 156, 187, 10, 164, 195, 61, 212, 89, 144, 189, 21, 65, 22, 189, 224, 160, 75, 61, 215, 210, 180, 188, 115, 15, 247, 188, 126, 50, 80, 61, 90, 90, 141, 189, 160, 53, 238, 189, 100, 248, 149, 61, 81, 168, 135, 189, 206, 224, 152, 189, 100, 106, 178, 189, 128, 184, 65, 189, 106, 16, 196, 189, 182, 143, 158, 61, 17, 242, 31, 189, 247, 77, 144, 189, 160, 193, 206, 61, 136, 116, 1, 61, 160, 192, 240, 189, 216, 243, 187, 61, 68, 116, 223, 61, 0, 217, 123, 60, 16, 141, 146, 188, 224, 224, 242, 189, 112, 163, 180, 61, 168, 143, 139, 61, 160, 43, 121, 60, 208, 102, 81, 189, 0, 200, 14, 188, 116, 150, 189, 61, 188, 123, 163, 189, 136, 216, 226, 61, 64, 132, 82, 61, 104, 192, 184, 189, 132, 126, 135, 189, 96, 162, 67, 188, 16, 25, 58, 189, 72, 107, 77, 189, 40, 47, 180, 189, 80, 55, 104, 61, 60, 139, 176, 61, 48, 174, 118, 189, 104, 61, 246, 189, 64, 223, 71, 60, 120, 136, 57, 61, 160, 68, 113, 189, 180, 18, 255, 189, 168, 35, 149, 189, 112, 50, 53, 189, 192, 225, 40, 188, 60, 124, 255, 61, 52, 204, 165, 189, 4, 31, 138, 61, 20, 41, 190, 189, 148, 80, 144, 61, 224, 54, 202, 61, 16, 64, 29, 61, 48, 3, 68, 189, 156, 136, 238, 189, 212, 177, 208, 189, 64, 227, 46, 189, 104, 35, 148, 61, 140, 221, 217, 189, 132, 67, 230, 189, 164, 143, 175, 189, 196, 128, 133, 189, 0, 48, 34, 57, 128, 21, 189, 59, 56, 179, 230, 189, 136, 217, 112, 61, 32, 21, 8, 189, 112, 163, 195, 188, 32, 46, 235, 60, 112, 184, 137, 61, 40, 101, 172, 189, 48, 8, 159, 61, 104, 182, 218, 189, 224, 188, 0, 60, 72, 192, 200, 61, 236, 185, 156, 189, 48, 118, 105, 189, 104, 129, 91, 61, 224, 245, 35, 61, 160, 92, 24, 60, 136, 152, 177, 189, 136, 205, 234, 61, 128, 157, 145, 59, 68, 14, 159, 61, 152, 211, 129, 189, 0, 142, 87, 58, 88, 219, 134, 189, 168, 58, 84, 61, 220, 178, 200, 61, 124, 11, 146, 189, 244, 73, 221, 189, 240, 149, 218, 61, 128, 248, 235, 189, 148, 178, 144, 61, 60, 124, 251, 189, 0, 43, 221, 189, 0, 252, 112, 60, 88, 249, 199, 61, 68, 225, 171, 189, 156, 252, 146, 61, 56, 217, 20, 61, 156, 237, 155, 189, 56, 193, 18, 189, 192, 251, 185, 187, 16, 222, 221, 189, 112, 184, 109, 189, 176, 179, 24, 189, 208, 143, 171, 61, 64, 4, 127, 188, 168, 243, 13, 61, 128, 111, 9, 61, 160, 28, 34, 60, 152, 29, 153, 189, 48, 86, 142, 189, 96, 204, 138, 60, 224, 21, 157, 188, 160, 140, 94, 60, 208, 205, 84, 61, 140, 142, 215, 61, 72, 140, 121, 61, 28, 28, 210, 61, 148, 28, 194, 189, 68, 234, 129, 189, 196, 106, 246, 61, 168, 231, 162, 61, 128, 146, 254, 59, 16, 165, 177, 189, 124, 20, 149, 189, 48, 2, 72, 189, 8, 144, 100, 189, 136, 65, 57, 189, 128, 9, 181, 188, 192, 234, 72, 60, 128, 175, 148, 59, 252, 204, 215, 61, 72, 146, 162, 61, 224, 75, 58, 60, 40, 102, 194, 189, 32, 254, 189, 189, 144, 3, 190, 61, 244, 91, 150, 189, 4, 103, 251, 61, 207, 207, 198, 64, 31, 146, 159, 188, 194, 254, 222, 64, 112, 243, 222, 60, 253, 71, 77, 61, 104, 23, 22, 189, 182, 250, 216, 64, 8, 140, 80, 189, 129, 209, 220, 64, 82, 231, 223, 64, 20, 159, 140, 61, 64, 173, 239, 59, 10, 32, 222, 64, 0, 255, 45, 61, 99, 180, 220, 64, 191, 50, 222, 64, 213, 93, 224, 64, 8, 92, 117, 189, 16, 151, 221, 64, 160, 42, 102, 189, 192, 246, 96, 188, 48, 201, 220, 64, 18, 137, 220, 64, 80, 178, 222, 64, 36, 68, 218, 64, 105, 69, 224, 64, 29, 126, 219, 64, 86, 81, 224, 60, 80, 202, 225, 189, 187, 38, 215, 189, 103, 220, 216, 64, 90, 114, 175, 189, 36, 239, 207, 59, 57, 185, 60, 61, 50, 72, 255, 61, 0, 61, 221, 64, 169, 81, 222, 64, 160, 193, 126, 189, 9, 142, 222, 64, 147, 3, 217, 64, 78, 151, 219, 64, 101, 171, 91, 61, 251, 94, 224, 64, 242, 132, 85, 60, 64, 70, 142, 188, 14, 7, 221, 64, 16, 175, 133, 61, 188, 42, 220, 64, 192, 174, 240, 59, 92, 74, 231, 189, 145, 120, 218, 64, 65, 145, 162, 64, 64, 241, 135, 61, 62, 59, 220, 64, 220, 25, 223, 64, 160, 18, 245, 188, 120, 46, 172, 61, 54, 154, 218, 64, 34, 5, 217, 64, 132, 39, 219, 64, 16, 18, 220, 60, 207, 147, 218, 64, 208, 173, 15, 189, 148, 192, 223, 64, 106, 61, 175, 189, 168, 151, 43, 61, 19, 166, 201, 64, 8, 162, 71, 61, 85, 161, 236, 61, 64, 215, 220, 64, 0, 244, 174, 61, 120, 171, 168, 61, 45, 6, 219, 64, 98, 95, 221, 64, 9, 119, 223, 64, 13, 63, 222, 64, 240, 53, 135, 61, 3, 101, 217, 64, 88, 147, 190, 61, 12, 241, 216, 64, 240, 95, 198, 188, 213, 166, 164, 61, 76, 186, 165, 189, 67, 136, 144, 189, 133, 234, 200, 64, 76, 53, 222, 64, 29, 248, 230, 61, 244, 77, 218, 64, 45, 144, 155, 189, 136, 66, 83, 189, 116, 228, 221, 64, 0, 139, 221, 188, 0, 34, 60, 61, 81, 190, 220, 64, 36, 144, 137, 189, 183, 75, 251, 61, 10, 211, 222, 64, 216, 43, 218, 64, 0, 116, 128, 187, 83, 13, 223, 64, 160, 233, 143, 189, 160, 123, 67, 188, 9, 50, 220, 64, 92, 91, 223, 64, 231, 45, 220, 189, 200, 137, 14, 189, 187, 147, 84, 61, 134, 76, 222, 64, 146, 179, 211, 64, 152, 197, 93, 61, 245, 4, 221, 64, 88, 234, 215, 64, 95, 79, 224, 64, 43, 177, 174, 61, 215, 190, 222, 64, 171, 67, 221, 64, 0, 169, 224, 59, 104, 135, 222, 64, 172, 110, 223, 64, 252, 53, 222, 64, 47, 25, 221, 64, 104, 56, 94, 189, 217, 156, 223, 64, 19, 121, 218, 64, 184, 74, 218, 64, 121, 152, 222, 64, 96, 169, 52, 60, 74, 225, 217, 64, 28, 219, 197, 64, 83, 61, 177, 189, 43, 74, 221, 64, 80, 52, 177, 60, 140, 21, 157, 189, 176, 69, 151, 60, 206, 51, 220, 64, 216, 100, 112, 189, 166, 233, 223, 64, 162, 105, 216, 64, 160, 252, 195, 189, 72, 2, 94, 189, 41, 181, 223, 64, 160, 86, 110, 189, 155, 148, 217, 64, 20, 223, 223, 64, 91, 83, 220, 64, 76, 103, 131, 189, 18, 203, 218, 64, 92, 255, 194, 61, 192, 91, 155, 187, 150, 148, 220, 64, 226, 230, 222, 64, 231, 149, 217, 64, 36, 129, 217, 64, 86, 160, 220, 64, 104, 26, 217, 64, 131, 42, 50, 188, 124, 247, 202, 189, 230, 249, 217, 59, 68, 209, 215, 64, 8, 40, 138, 61, 4, 225, 32, 61, 243, 95, 250, 60, 104, 174, 21, 189, 194, 253, 220, 64, 83, 2, 221, 64, 192, 135, 236, 189, 183, 105, 217, 64, 30, 161, 221, 64, 32, 98, 220, 64, 150, 241, 186, 61, 41, 171, 219, 64, 233, 2, 102, 61, 32, 81, 34, 61, 82, 19, 219, 64, 116, 105, 47, 61, 45, 113, 218, 64, 136, 107, 43, 61, 0, 46, 136, 188, 129, 1, 223, 64, 91, 40, 162, 64, 216, 8, 5, 189, 63, 27, 222, 64, 73, 96, 218, 64, 196, 255, 239, 61, 192, 181, 192, 187, 208, 123, 219, 64, 102, 81, 221, 64, 233, 111, 220, 64, 240, 121, 136, 61, 30, 82, 219, 64, 92, 191, 165, 61, 158, 91, 222, 64, 80, 53, 187, 189, 216, 46, 72, 189, 96, 144, 194, 64, 100, 49, 189, 189, 144, 0, 126, 61, 113, 253, 219, 64, 26, 108, 171, 59, 128, 239, 88, 187, 170, 4, 223, 64, 98, 222, 220, 64, 5, 221, 216, 64, 81, 32, 216, 64, 55, 124, 106, 187, 46, 100, 218, 64, 168, 165, 105, 189, 240, 166, 220, 64, 4, 220, 211, 61, 146, 147, 228, 189, 148, 130, 255, 61, 47, 205, 186, 189, 9, 182, 202, 64, 240, 141, 220, 64, 205, 154, 158, 189, 22, 250, 218, 64, 26, 206, 15, 189, 224, 166, 212, 188, 107, 10, 223, 64, 8, 71, 227, 189, 45, 150, 27, 188, 82, 146, 220, 64, 196, 82, 220, 189, 81, 232, 81, 186, 195, 109, 218, 64, 114, 43, 218, 64, 164, 107, 143, 61, 57, 11, 223, 64, 0, 113, 26, 60, 248, 121, 101, 189, 14, 133, 219, 64, 207, 127, 219, 64, 1, 69, 69, 189, 112, 30, 95, 61, 81, 209, 153, 189, 66, 39, 218, 64, 146, 207, 212, 64, 80, 186, 193, 189, 244, 48, 222, 64, 213, 221, 214, 64, 175, 172, 221, 64, 0, 51, 184, 61, 71, 59, 220, 64, 96, 58, 216, 64, 0, 111, 62, 187, 152, 40, 223, 64, 160, 104, 222, 64, 221, 77, 218, 64, 192, 128, 222, 64, 112, 39, 134, 188, 36, 27, 218, 64, 146, 157, 216, 64, 215, 223, 216, 64, 246, 100, 219, 64, 32, 15, 141, 60, 127, 188, 216, 64, 232, 183, 40, 189, 104, 173, 165, 189, 96, 190, 194, 60, 172, 50, 247, 189, 168, 38, 183, 189, 228, 251, 223, 189, 176, 106, 248, 60, 16, 247, 10, 61, 124, 202, 145, 189, 228, 106, 190, 189, 144, 255, 213, 60, 16, 230, 155, 188, 88, 46, 54, 189, 80, 138, 132, 189, 168, 239, 14, 189, 160, 117, 125, 189, 80, 179, 154, 189, 128, 239, 9, 188, 16, 4, 202, 189, 124, 246, 255, 189, 40, 127, 94, 61, 20, 116, 201, 189, 128, 189, 163, 61, 8, 246, 89, 189, 216, 137, 35, 189, 12, 169, 237, 189, 104, 4, 246, 189, 64, 215, 192, 189, 240, 248, 13, 61, 192, 86, 148, 60, 88, 142, 130, 61, 32, 193, 101, 188, 240, 196, 146, 188, 80, 92, 27, 61, 56, 139, 186, 61, 16, 177, 189, 60, 204, 241, 163, 189, 64, 23, 189, 187, 32, 219, 153, 188, 112, 194, 253, 189, 92, 37, 209, 61, 128, 103, 49, 189, 100, 252, 142, 61, 8, 233, 67, 189, 228, 99, 223, 61, 52, 42, 205, 61, 152, 239, 65, 189, 192, 251, 70, 188, 128, 15, 255, 188, 0, 26, 87, 186, 236, 47, 235, 189, 48, 249, 204, 189, 64, 157, 187, 189, 52, 242, 182, 61, 64, 127, 171, 60, 52, 130, 161, 189, 72, 35, 192, 189, 248, 229, 58, 189, 128, 241, 176, 61, 192, 117, 67, 189, 4, 110, 155, 61, 132, 48, 145, 189, 32, 170, 134, 60, 0, 151, 208, 59, 228, 3, 152, 189, 224, 94, 46, 188, 0, 233, 251, 186, 144, 79, 120, 189, 180, 100, 178, 61, 212, 180, 163, 61, 112, 205, 172, 60, 60, 63, 212, 189, 216, 223, 76, 189, 184, 174, 86, 189, 64, 143, 247, 59, 168, 234, 203, 61, 204, 250, 169, 189, 192, 244, 213, 189, 112, 247, 200, 189, 96, 224, 241, 189, 168, 224, 113, 61, 204, 25, 248, 189, 112, 10, 153, 61, 176, 87, 2, 61, 8, 57, 241, 189, 88, 126, 178, 189, 192, 209, 33, 188, 0, 137, 127, 60, 100, 111, 165, 61, 4, 14, 253, 189, 96, 193, 203, 188, 160, 3, 191, 188, 8, 82, 200, 189, 244, 53, 187, 61, 64, 146, 68, 188, 12, 148, 210, 61, 216, 1, 57, 189, 104, 127, 55, 189, 68, 72, 178, 189, 128, 130, 153, 188, 204, 61, 188, 189, 72, 131, 73, 189, 220, 74, 238, 61, 236, 147, 182, 189, 224, 26, 199, 61, 16, 139, 25, 61, 64, 195, 232, 60, 32, 68, 44, 60, 40, 140, 153, 61, 208, 153, 252, 60, 144, 110, 245, 189, 208, 251, 182, 61, 144, 9, 9, 61, 240, 145, 73, 189, 24, 140, 216, 61, 64, 114, 22, 189, 192, 23, 209, 59, 240, 10, 238, 60, 92, 91, 218, 61, 224, 162, 104, 60, 88, 153, 36, 61, 56, 134, 20, 61, 16, 151, 2, 189, 128, 234, 171, 59, 236, 0, 194, 189, 0, 10, 39, 61, 96, 51, 213, 61, 236, 230, 204, 61, 160, 167, 214, 61, 8, 140, 140, 61, 224, 231, 109, 189, 248, 240, 37, 61, 216, 247, 181, 189, 192, 157, 194, 187, 72, 116, 156, 189, 192, 48, 241, 188, 96, 248, 108, 189, 48, 25, 229, 189, 232, 21, 56, 61, 92, 91, 176, 61, 88, 220, 98, 189, 0, 148, 164, 185, 16, 211, 60, 61, 0, 106, 213, 187, 240, 193, 229, 189, 200, 214, 17, 61, 168, 42, 118, 61, 16, 55, 55, 189, 40, 47, 49, 61, 192, 78, 136, 187, 32, 66, 203, 188, 0, 82, 160, 186, 8, 137, 188, 189, 148, 6, 249, 189, 8, 242, 215, 61, 120, 79, 226, 189, 20, 239, 180, 61, 56, 44, 214, 189, 248, 40, 193, 61, 84, 229, 240, 61, 112, 95, 106, 189, 96, 9, 186, 60, 72, 34, 60, 189, 64, 168, 48, 60, 64, 170, 168, 59, 64, 88, 127, 60, 144, 155, 54, 61, 32, 228, 113, 189, 168, 205, 246, 189, 128, 216, 19, 59, 72, 189, 197, 189, 32, 120, 247, 61, 152, 90, 232, 189, 28, 61, 139, 61, 72, 190, 74, 61, 240, 5, 140, 61, 240, 35, 7, 61, 128, 68, 236, 60, 108, 86, 144, 61, 152, 180, 128, 189, 56, 241, 94, 189, 112, 62, 133, 188, 224, 223, 198, 189, 184, 134, 183, 61, 64, 235, 10, 188, 64, 171, 119, 189, 40, 210, 107, 189, 200, 27, 226, 189, 80, 205, 136, 188, 36, 75, 201, 189, 96, 56, 85, 61, 40, 67, 241, 61, 124, 57, 176, 189, 80, 231, 109, 189, 0, 36, 215, 60, 80, 42, 238, 188, 64, 106, 146, 59, 32, 83, 161, 60, 40, 61, 187, 189, 168, 52, 45, 189, 32, 59, 208, 60, 68, 179, 250, 61, 116, 134, 237, 189, 240, 218, 49, 189, 228, 240, 144, 189, 0, 35, 181, 189, 128, 179, 132, 187, 56, 237, 143, 61, 108, 222, 140, 61, 40, 105, 177, 61, 104, 0, 175, 61, 32, 231, 50, 61, 244, 48, 134, 189, 0, 219, 38, 60, 108, 85, 168, 189, 124, 14, 239, 61, 160, 52, 171, 60, 240, 89, 98, 61, 192, 184, 115, 189, 108, 16, 165, 189, 160, 169, 113, 188, 84, 122, 156, 61, 48, 177, 14, 189, 208, 57, 22, 61, 0, 230, 176, 186, 232, 191, 35, 61, 80, 92, 145, 60, 28, 117, 162, 61, 0, 11, 130, 188, 204, 246, 191, 61, 136, 248, 94, 61, 116, 4, 181, 61, 4, 160, 241, 189, 172, 9, 166, 61, 160, 251, 209, 189, 172, 42, 129, 189, 80, 77, 110, 189, 160, 92, 217, 188, 136, 152, 200, 61, 40, 27, 171, 189, 80, 57, 56, 189, 116, 23, 182, 61, 52, 190, 220, 189, 252, 12, 198, 189, 28, 107, 164, 61, 32, 128, 119, 61, 56, 220, 232, 189, 120, 13, 19, 189, 8, 246, 114, 189, 136, 249, 86, 61, 216, 94, 249, 189, 76, 47, 134, 61, 232, 31, 179, 61, 40, 10, 195, 61, 32, 151, 111, 60, 0, 212, 123, 187, 75, 225, 195, 64, 140, 245, 214, 59, 190, 132, 221, 64, 36, 217, 243, 61, 233, 19, 158, 189, 76, 210, 135, 189, 170, 128, 220, 64, 40, 21, 81, 61, 135, 174, 220, 64, 18, 82, 220, 64, 224, 171, 184, 188, 0, 214, 134, 188, 214, 97, 220, 64, 72, 238, 71, 61, 91, 65, 216, 64, 138, 100, 222, 64, 196, 109, 221, 64, 128, 164, 93, 60, 125, 194, 217, 64, 76, 146, 165, 189, 128, 7, 254, 187, 9, 159, 222, 64, 15, 106, 222, 64, 140, 204, 222, 64, 42, 19, 223, 64, 132, 207, 218, 64, 99, 228, 217, 64, 72, 8, 94, 189, 224, 144, 184, 60, 55, 199, 191, 59, 35, 20, 222, 64, 40, 209, 80, 189, 41, 125, 139, 189, 98, 141, 39, 189, 200, 160, 169, 189, 19, 114, 222, 64, 95, 94, 222, 64, 80, 114, 129, 188, 195, 188, 220, 64, 190, 165, 221, 64, 4, 21, 220, 64, 71, 52, 182, 188, 197, 238, 219, 64, 144, 141, 144, 189, 0, 132, 139, 58, 171, 182, 220, 64, 152, 232, 97, 61, 28, 146, 219, 64, 152, 96, 87, 189, 160, 101, 97, 189, 224, 96, 217, 64, 54, 32, 163, 64, 80, 33, 129, 60, 153, 139, 216, 64, 199, 208, 216, 64, 204, 18, 188, 189, 88, 101, 85, 61, 109, 210, 222, 64, 209, 66, 217, 64, 42, 131, 223, 64, 88, 25, 171, 61, 145, 212, 222, 64, 156, 188, 152, 189, 170, 250, 220, 64, 120, 163, 240, 189, 204, 49, 251, 61, 252, 177, 194, 64, 92, 95, 134, 61, 160, 125, 220, 188, 16, 163, 223, 64, 157, 166, 242, 189, 8, 253, 39, 189, 222, 183, 216, 64, 120, 158, 216, 64, 86, 170, 216, 64, 109, 26, 222, 64, 224, 163, 15, 189, 40, 33, 218, 64, 160, 136, 195, 188, 213, 148, 221, 64, 228, 200, 221, 189, 201, 120, 247, 188, 0, 206, 104, 188, 60, 78, 107, 188, 42, 27, 202, 64, 11, 218, 216, 64, 136, 209, 120, 189, 198, 84, 217, 64, 216, 51, 21, 61, 16, 244, 117, 61, 91, 112, 219, 64, 208, 12, 249, 189, 140, 180, 115, 189, 69, 150, 220, 64, 40, 164, 76, 61, 136, 64, 48, 189, 139, 71, 217, 64, 101, 246, 219, 64, 32, 162, 191, 189, 146, 233, 219, 64, 128, 146, 52, 189, 88, 213, 1, 61, 78, 19, 217, 64, 118, 226, 217, 64, 180, 37, 246, 61, 16, 165, 134, 189, 44, 65, 49, 61, 13, 198, 219, 64, 177, 29, 215, 64, 0, 249, 174, 189, 36, 171, 223, 64, 227, 60, 214, 64, 141, 170, 216, 64, 12, 129, 190, 189, 72, 73, 220, 64, 175, 158, 219, 64, 12, 108, 200, 61, 83, 95, 223, 64, 243, 113, 216, 64, 204, 227, 218, 64, 42, 142, 222, 64, 224, 12, 174, 188, 92, 89, 218, 64, 213, 50, 219, 64, 101, 0, 219, 64, 166, 57, 218, 64, 64, 105, 60, 61, 39, 3, 223, 64, 180, 185, 232, 61, 44, 113, 242, 189, 128, 170, 91, 60, 24, 187, 249, 61, 20, 189, 176, 61, 224, 118, 153, 189, 16, 30, 242, 61, 92, 62, 148, 189, 28, 199, 213, 189, 248, 149, 41, 61, 116, 135, 237, 189, 144, 149, 200, 61, 16, 24, 29, 61, 72, 231, 57, 189, 8, 73, 112, 189, 32, 156, 15, 61, 104, 114, 168, 61, 64, 247, 226, 189, 112, 195, 154, 61, 52, 232, 218, 189, 232, 230, 109, 189, 144, 227, 191, 189, 56, 101, 166, 189, 0, 57, 46, 188, 32, 178, 112, 60, 216, 221, 211, 61, 172, 185, 175, 189, 40, 3, 211, 189, 84, 175, 168, 189, 128, 218, 146, 188, 104, 111, 71, 189, 0, 49, 148, 61, 200, 184, 53, 189, 132, 85, 187, 189, 92, 130, 139, 189, 80, 1, 249, 189, 104, 31, 120, 189, 64, 244, 208, 60, 48, 229, 132, 60, 24, 80, 78, 189, 0, 151, 196, 186, 144, 189, 174, 188, 184, 62, 86, 189, 0, 137, 34, 189, 24, 237, 66, 61, 0, 136, 176, 57, 24, 146, 33, 189, 200, 250, 162, 189, 28, 67, 155, 189, 80, 134, 226, 61, 124, 116, 134, 61, 0, 94, 139, 189, 216, 187, 151, 61, 96, 48, 227, 60, 208, 191, 170, 188, 112, 40, 156, 61, 96, 228, 180, 189, 32, 190, 8, 189, 112, 100, 26, 189, 112, 96, 113, 61, 68, 135, 167, 61, 156, 111, 170, 189, 128, 241, 1, 59, 148, 19, 130, 61, 96, 236, 224, 60, 224, 53, 138, 189, 16, 213, 43, 61, 0, 88, 249, 185, 16, 150, 190, 61, 40, 46, 201, 189, 0, 54, 131, 59, 128, 155, 210, 189, 208, 100, 247, 189, 200, 189, 219, 189, 136, 76, 35, 189, 128, 216, 117, 189, 44, 34, 244, 61, 156, 183, 170, 189, 128, 193, 127, 59, 108, 251, 192, 61, 0, 158, 190, 187, 208, 110, 83, 189, 84, 210, 182, 61, 208, 125, 208, 188, 208, 188, 21, 61, 240, 179, 231, 60, 112, 36, 146, 188, 240, 62, 223, 189, 240, 231, 146, 60, 180, 109, 143, 189, 208, 49, 196, 61, 96, 19, 184, 60, 176, 138, 154, 189, 160, 180, 2, 188, 64, 233, 113, 189, 44, 195, 130, 189, 24, 72, 47, 61, 212, 51, 192, 61, 132, 16, 136, 61, 0, 113, 100, 189, 196, 199, 247, 189, 88, 34, 90, 189, 208, 123, 177, 188, 136, 211, 81, 61, 176, 13, 250, 188, 188, 131, 194, 189, 84, 30, 243, 189, 80, 126, 6, 189, 16, 211, 159, 60, 96, 76, 76, 189, 64, 72, 166, 188, 220, 143, 149, 61, 160, 247, 98, 188, 176, 134, 134, 188, 32, 188, 95, 61, 0, 76, 224, 186, 44, 161, 221, 189, 80, 74, 205, 60, 32, 215, 225, 60, 64, 186, 41, 189, 216, 155, 181, 61, 0, 73, 197, 189, 0, 69, 82, 60, 152, 123, 52, 189, 48, 172, 226, 189, 104, 176, 172, 61, 240, 87, 246, 189, 216, 80, 10, 189, 208, 232, 62, 61, 48, 28, 250, 188, 0, 60, 42, 189, 216, 213, 15, 189, 32, 41, 101, 61, 12, 152, 181, 189, 32, 96, 223, 188, 92, 200, 167, 189, 32, 133, 111, 189, 160, 21, 213, 60, 80, 35, 4, 61, 48, 151, 63, 189, 128, 8, 59, 188, 156, 53, 241, 189, 44, 239, 255, 61, 156, 182, 221, 189, 76, 87, 253, 189, 184, 250, 177, 189, 104, 6, 111, 189, 192, 14, 164, 189, 180, 0, 180, 189, 144, 171, 226, 189, 108, 111, 251, 61, 128, 236, 201, 61, 4, 39, 144, 61, 248, 126, 94, 189, 132, 90, 165, 189, 80, 226, 161, 189, 32, 254, 143, 60, 116, 241, 156, 61, 16, 254, 1, 61, 48, 46, 89, 61, 240, 178, 249, 188, 0, 9, 244, 58, 144, 199, 203, 60, 80, 228, 162, 60, 24, 153, 115, 61, 120, 79, 25, 189, 4, 19, 216, 61, 140, 2, 175, 61, 72, 248, 102, 189, 168, 111, 26, 189, 128, 66, 104, 61, 96, 4, 255, 189, 192, 173, 252, 187, 136, 111, 175, 189, 0, 84, 189, 187, 116, 160, 175, 189, 0, 142, 17, 59, 208, 152, 229, 189, 244, 103, 233, 189, 128, 40, 22, 59, 216, 7, 184, 189, 24, 29, 212, 189, 32, 29, 42, 61, 176, 33, 128, 188, 228, 58, 182, 189, 164, 206, 178, 189, 64, 137, 181, 61, 176, 91, 52, 189, 216, 82, 84, 61, 124, 59, 139, 189, 200, 9, 153, 61, 196, 207, 211, 61, 68, 204, 242, 189, 168, 116, 241, 61, 216, 155, 124, 189, 52, 109, 219, 61, 124, 234, 237, 61, 128, 68, 41, 188, 0, 180, 87, 61, 248, 112, 130, 189, 208, 84, 124, 61, 192, 163, 161, 60, 188, 255, 236, 189, 116, 47, 207, 189, 16, 232, 218, 188, 128, 138, 189, 60, 116, 71, 134, 61, 128, 117, 233, 187, 4, 60, 247, 61, 40, 64, 133, 189, 40, 233, 90, 61, 80, 187, 136, 60, 80, 194, 23, 61, 32, 29, 81, 61, 120, 159, 72, 61, 52, 166, 160, 189, 36, 131, 207, 189, 160, 106, 184, 60, 112, 125, 153, 188, 20, 4, 197, 61, 240, 150, 99, 189, 44, 6, 143, 61, 64, 182, 176, 188, 80, 56, 205, 60, 192, 93, 164, 189, 192, 184, 242, 60, 160, 23, 210, 60, 220, 43, 222, 61, 160, 144, 34, 189, 44, 45, 150, 61, 200, 124, 54, 61, 108, 3, 176, 189, 240, 238, 181, 61, 224, 134, 192, 189, 192, 139, 117, 188, 20, 95, 219, 189, 216, 109, 123, 189, 184, 13, 244, 61, 56, 118, 127, 189, 72, 99, 7, 61, 128, 132, 226, 187, 24, 238, 245, 189, 0, 234, 218, 61, 192, 237, 232, 189, 0, 33, 131, 189, 224, 207, 219, 189, 196, 103, 174, 61, 144, 124, 11, 61, 188, 176, 241, 189, 252, 197, 243, 61, 216, 142, 166, 189, 96, 112, 246, 61, 240, 122, 151, 189, 144, 207, 147, 188, 20, 132, 189, 189, 48, 55, 135, 188, 108, 125, 195, 64, 199, 244, 222, 61, 47, 85, 216, 64, 188, 103, 203, 61, 146, 216, 163, 61, 28, 74, 255, 189, 186, 2, 224, 64, 0, 76, 180, 57, 169, 168, 222, 64, 93, 67, 221, 64, 216, 113, 209, 189, 8, 127, 139, 189, 250, 83, 222, 64, 8, 173, 134, 61, 29, 195, 222, 64, 71, 129, 217, 64, 243, 111, 220, 64, 112, 114, 46, 61, 175, 16, 216, 64, 72, 54, 209, 189, 88, 238, 18, 61, 138, 191, 223, 64, 119, 100, 222, 64, 214, 227, 222, 64, 16, 95, 222, 64, 57, 106, 218, 64, 212, 122, 217, 64, 201, 99, 61, 189, 32, 203, 110, 61, 30, 210, 241, 61, 51, 130, 216, 64, 79, 46, 165, 189, 77, 204, 143, 61, 216, 244, 5, 189, 220, 215, 69, 189, 141, 243, 217, 64, 152, 198, 216, 64, 252, 226, 137, 61, 71, 109, 218, 64, 228, 173, 219, 64, 114, 117, 219, 64, 157, 68, 82, 189, 220, 0, 222, 64, 170, 96, 38, 189, 32, 197, 108, 61, 136, 121, 223, 64, 222, 204, 76, 189, 224, 160, 219, 64, 124, 83, 167, 189, 164, 237, 171, 189, 204, 150, 221, 64, 223, 160, 164, 64, 232, 58, 240, 61, 114, 27, 223, 64, 6, 208, 220, 64, 72, 189, 194, 189, 84, 41, 254, 61, 101, 111, 220, 64, 193, 75, 220, 64, 46, 223, 218, 64, 168, 163, 76, 61, 59, 175, 216, 64, 104, 60, 20, 61, 141, 117, 220, 64, 224, 117, 222, 61, 0, 106, 59, 189, 127, 106, 196, 64, 72, 148, 229, 189, 66, 5, 201, 61, 200, 253, 218, 64, 222, 77, 242, 61, 168, 242, 74, 61, 216, 130, 220, 64, 244, 112, 216, 64, 1, 37, 218, 64, 11, 156, 221, 64, 84, 41, 233, 59, 160, 4, 223, 64, 64, 23, 60, 61, 95, 22, 221, 64, 164, 47, 215, 189, 7, 171, 180, 61, 128, 62, 217, 187, 67, 55, 74, 61, 198, 5, 201, 64, 48, 137, 215, 64, 100, 46, 163, 189, 3, 233, 222, 64, 240, 152, 65, 61, 220, 167, 176, 189, 2, 205, 219, 64, 188, 25, 131, 61, 38, 232, 13, 189, 107, 10, 222, 64, 100, 81, 224, 61, 33, 169, 146, 188, 140, 109, 215, 64, 158, 51, 222, 64, 64, 114, 235, 187, 55, 237, 216, 64, 140, 23, 232, 189, 52, 213, 219, 189, 15, 43, 223, 64, 248, 235, 223, 64, 245, 55, 35, 188, 200, 38, 6, 61, 171, 214, 149, 188, 175, 187, 222, 64, 196, 65, 215, 64, 148, 227, 186, 189, 53, 210, 222, 64, 226, 220, 215, 64, 13, 89, 218, 64, 206, 24, 148, 189, 231, 127, 219, 64, 51, 219, 222, 64, 32, 105, 242, 61, 229, 142, 216, 64, 12, 238, 220, 64, 100, 181, 221, 64, 71, 60, 219, 64, 24, 35, 145, 189, 127, 75, 222, 64, 30, 134, 220, 64, 38, 239, 221, 64, 101, 213, 217, 64, 8, 171, 57, 189, 77, 136, 222, 64, 194, 1, 199, 64, 159, 54, 109, 61, 125, 125, 216, 64, 112, 178, 217, 188, 121, 57, 221, 60, 40, 131, 91, 189, 137, 81, 218, 64, 208, 75, 233, 60, 170, 15, 224, 64, 17, 13, 221, 64, 104, 59, 231, 189, 160, 126, 232, 61, 176, 25, 218, 64, 208, 223, 198, 188, 248, 102, 220, 64, 172, 76, 220, 64, 237, 127, 220, 64, 140, 73, 160, 61, 147, 160, 223, 64, 200, 199, 93, 61, 168, 46, 244, 189, 0, 189, 216, 64, 147, 176, 221, 64, 119, 105, 222, 64, 240, 208, 216, 64, 120, 232, 220, 64, 166, 242, 220, 64, 199, 235, 14, 61, 172, 7, 191, 189, 64, 156, 85, 61, 95, 82, 218, 64, 108, 249, 5, 61, 42, 59, 2, 189, 173, 39, 4, 189, 152, 178, 9, 189, 206, 220, 216, 64, 200, 120, 216, 64, 12, 111, 135, 61, 64, 125, 222, 64, 130, 117, 219, 64, 242, 241, 219, 64, 212, 230, 49, 61, 116, 196, 221, 64, 172, 145, 195, 60, 244, 6, 252, 61, 147, 45, 224, 64, 116, 164, 34, 60, 146, 241, 222, 64, 0, 123, 92, 59, 32, 16, 36, 188, 104, 110, 219, 64, 24, 47, 166, 64, 228, 244, 136, 189, 135, 234, 223, 64, 245, 243, 218, 64, 0, 63, 67, 187, 252, 164, 216, 61, 103, 101, 217, 64, 49, 85, 223, 64, 51, 246, 222, 64, 160, 119, 114, 60, 217, 80, 222, 64, 184, 52, 42, 61, 156, 230, 217, 64, 202, 64, 54, 189, 80, 28, 250, 188, 239, 34, 198, 64, 148, 189, 239, 189, 128, 253, 183, 60, 85, 30, 222, 64, 46, 146, 106, 188, 32, 233, 127, 61, 177, 205, 221, 64, 172, 8, 218, 64, 97, 225, 222, 64, 206, 40, 221, 64, 255, 154, 38, 189, 33, 97, 220, 64, 208, 86, 117, 61, 157, 8, 218, 64, 128, 207, 167, 59, 31, 83, 204, 189, 96, 226, 76, 189, 140, 76, 15, 62, 4, 201, 202, 64, 111, 173, 217, 64, 231, 101, 191, 189, 226, 181, 218, 64, 147, 246, 133, 61, 24, 201, 239, 189, 42, 251, 219, 64, 32, 127, 222, 60, 74, 232, 242, 61, 72, 26, 218, 64, 128, 146, 205, 59, 51, 255, 190, 61, 19, 31, 219, 64, 39, 77, 219, 64, 32, 12, 92, 61, 144, 143, 217, 64, 176, 117, 151, 61, 152, 5, 166, 189, 101, 30, 224, 64, 172, 86, 220, 64, 118, 101, 166, 61, 152, 160, 254, 61, 255, 8, 87, 189, 108, 83, 220, 64, 167, 88, 218, 64, 176, 148, 193, 189, 184, 53, 219, 64, 111, 63, 214, 64, 207, 122, 221, 64, 156, 132, 63, 189, 226, 154, 222, 64, 0, 192, 221, 64, 12, 105, 208, 189, 147, 147, 223, 64, 5, 105, 218, 64, 162, 168, 216, 64, 21, 115, 217, 64, 160, 19, 61, 60, 33, 239, 218, 64, 87, 120, 218, 64, 20, 96, 217, 64, 115, 184, 217, 64, 176, 86, 49, 189, 127, 253, 223, 64, 91, 183, 194, 64, 172, 248, 149, 61, 42, 214, 203, 64, 144, 181, 130, 60, 115, 141, 197, 189, 180, 36, 146, 189, 11, 28, 205, 64, 52, 135, 146, 189, 20, 179, 204, 64, 78, 37, 205, 64, 44, 200, 249, 189, 80, 191, 191, 61, 22, 115, 203, 64, 204, 187, 252, 189, 39, 61, 203, 64, 234, 216, 204, 64, 177, 144, 201, 64, 28, 120, 248, 189, 109, 114, 209, 64, 0, 246, 242, 60, 60, 22, 207, 189, 243, 233, 208, 64, 85, 193, 206, 64, 47, 51, 209, 64, 186, 89, 202, 64, 55, 91, 203, 64, 179, 25, 208, 64, 176, 110, 238, 188, 160, 113, 230, 61, 192, 86, 129, 59, 89, 133, 204, 64, 14, 10, 165, 61, 68, 244, 67, 61, 75, 181, 249, 61, 45, 84, 150, 61, 145, 132, 202, 64, 179, 240, 205, 64, 232, 45, 232, 189, 104, 72, 209, 64, 163, 171, 206, 64, 126, 71, 206, 64, 252, 237, 133, 61, 53, 26, 204, 64, 9, 171, 214, 61, 144, 240, 165, 61, 133, 151, 207, 64, 240, 197, 55, 189, 228, 194, 201, 64, 32, 192, 92, 188, 36, 149, 230, 189, 176, 7, 202, 64, 197, 33, 164, 64, 144, 58, 69, 189, 80, 26, 208, 64, 13, 235, 207, 64, 48, 104, 42, 61, 48, 93, 222, 188, 89, 115, 206, 64, 215, 158, 204, 64, 22, 97, 202, 64, 120, 251, 235, 189, 213, 126, 201, 64, 64, 254, 236, 59, 245, 139, 205, 64, 168, 71, 13, 189, 60, 159, 202, 189, 153, 162, 201, 64, 128, 25, 65, 187, 170, 220, 151, 189, 43, 25, 205, 64, 160, 70, 198, 60, 16, 213, 138, 61, 166, 46, 206, 64, 67, 117, 201, 64, 84, 45, 208, 64, 251, 12, 206, 64, 0, 142, 134, 188, 126, 65, 204, 64, 88, 171, 97, 189, 64, 102, 208, 64, 224, 51, 180, 61, 208, 56, 62, 189, 160, 119, 128, 189, 114, 208, 232, 187, 181, 52, 200, 64, 224, 45, 202, 64, 243, 97, 227, 187, 35, 182, 203, 64, 72, 248, 193, 61, 0, 156, 54, 59, 125, 107, 205, 64, 0, 152, 196, 187, 124, 52, 132, 189, 217, 198, 208, 64, 28, 67, 207, 189, 128, 148, 134, 60, 215, 208, 206, 64, 219, 183, 203, 64, 220, 216, 178, 189, 21, 254, 201, 64, 20, 172, 193, 189, 180, 170, 186, 61, 73, 169, 208, 64, 25, 239, 202, 64, 152, 32, 41, 61, 200, 50, 224, 189, 10, 14, 243, 188, 240, 6, 206, 64, 123, 172, 208, 64, 128, 206, 214, 60, 117, 205, 206, 64, 241, 175, 209, 64, 158, 140, 203, 64, 132, 180, 181, 61, 25, 231, 203, 64, 231, 51, 208, 64, 16, 127, 177, 188, 112, 25, 208, 64, 53, 196, 201, 64, 19, 128, 207, 64, 15, 161, 208, 64, 232, 49, 176, 189, 167, 86, 206, 64, 149, 44, 203, 64, 255, 183, 206, 64, 35, 81, 202, 64, 224, 120, 99, 60, 169, 124, 202, 64, 93, 83, 197, 64, 64, 50, 3, 62, 87, 18, 223, 64, 112, 9, 152, 189, 127, 86, 177, 61, 8, 234, 170, 61, 158, 157, 221, 64, 64, 67, 180, 60, 249, 109, 219, 64, 28, 68, 217, 64, 96, 46, 180, 60, 72, 207, 106, 189, 17, 181, 223, 64, 172, 240, 244, 61, 182, 162, 217, 64, 9, 21, 221, 64, 156, 105, 219, 64, 96, 33, 123, 189, 86, 158, 219, 64, 208, 43, 223, 189, 236, 170, 246, 61, 67, 56, 216, 64, 122, 50, 220, 64, 67, 97, 218, 64, 141, 141, 221, 64, 110, 154, 217, 64, 109, 23, 218, 64, 36, 121, 168, 189, 120, 19, 17, 189, 227, 76, 244, 61, 161, 48, 215, 64, 65, 205, 193, 188, 188, 199, 48, 189, 224, 41, 8, 62, 244, 158, 157, 61, 35, 99, 222, 64, 180, 81, 223, 64, 128, 54, 53, 61, 88, 234, 218, 64, 86, 189, 219, 64, 183, 163, 216, 64, 116, 144, 212, 189, 18, 56, 217, 64, 67, 77, 205, 61, 128, 192, 83, 60, 219, 174, 220, 64, 202, 130, 155, 188, 190, 149, 223, 64, 140, 145, 159, 61, 224, 4, 55, 60, 106, 158, 223, 64, 201, 239, 161, 64, 112, 7, 212, 188, 226, 194, 218, 64, 36, 5, 218, 64, 48, 5, 230, 188, 0, 177, 194, 189, 164, 36, 224, 64, 61, 142, 220, 64, 222, 237, 216, 64, 40, 194, 12, 61, 231, 178, 221, 64, 108, 129, 210, 189, 237, 122, 216, 64, 140, 29, 181, 61, 0, 88, 138, 60, 154, 219, 196, 64, 184, 248, 41, 61, 248, 9, 26, 61, 174, 13, 219, 64, 186, 239, 167, 61, 128, 64, 214, 188, 26, 112, 218, 64, 168, 183, 216, 64, 107, 92, 216, 64, 251, 185, 222, 64, 212, 7, 181, 61, 254, 138, 223, 64, 172, 174, 195, 189, 45, 214, 216, 64, 76, 126, 186, 189, 213, 221, 184, 188, 168, 80, 253, 61, 5, 63, 92, 189, 44, 168, 198, 64, 181, 134, 222, 64, 101, 21, 149, 189, 135, 124, 218, 64, 245, 110, 104, 61, 104, 42, 9, 189, 133, 30, 224, 64, 208, 214, 132, 60, 182, 210, 15, 189, 226, 163, 217, 64, 80, 72, 242, 188, 103, 1, 142, 188, 63, 124, 215, 64, 146, 128, 219, 64, 240, 147, 63, 61, 195, 145, 223, 64, 12, 91, 233, 61, 72, 143, 35, 61, 224, 184, 219, 64, 243, 127, 221, 64, 79, 149, 237, 61, 44, 71, 138, 189, 210, 185, 183, 189, 98, 178, 221, 64, 172, 123, 211, 64, 96, 216, 174, 60, 206, 154, 223, 64, 146, 145, 213, 64, 38, 181, 219, 64, 56, 59, 172, 189, 244, 248, 220, 64, 67, 190, 222, 64, 224, 168, 11, 60, 250, 127, 218, 64, 227, 199, 223, 64, 225, 124, 218, 64, 123, 84, 219, 64, 192, 184, 215, 188, 225, 14, 218, 64, 219, 132, 217, 64, 219, 18, 217, 64, 22, 155, 223, 64, 72, 241, 108, 61, 21, 193, 222, 64, 112, 209, 193, 64, 241, 194, 102, 61, 29, 108, 218, 64, 104, 160, 146, 61, 18, 229, 172, 189, 128, 81, 23, 61, 156, 70, 219, 64, 176, 16, 30, 189, 6, 2, 223, 64, 56, 55, 219, 64, 8, 121, 1, 61, 160, 123, 239, 60, 126, 32, 218, 64, 8, 160, 44, 61, 229, 234, 216, 64, 253, 67, 222, 64, 185, 74, 218, 64, 212, 218, 160, 61, 169, 150, 220, 64, 64, 35, 59, 60, 0, 7, 105, 60, 67, 103, 217, 64, 62, 253, 218, 64, 88, 68, 218, 64, 148, 145, 221, 64, 249, 232, 222, 64, 218, 99, 219, 64, 237, 221, 226, 189, 184, 192, 102, 61, 226, 160, 30, 61, 142, 140, 220, 64, 92, 24, 110, 61, 224, 228, 232, 189, 19, 246, 189, 189, 0, 128, 159, 189, 124, 204, 221, 64, 90, 234, 222, 64, 8, 80, 184, 189, 119, 212, 223, 64, 165, 60, 216, 64, 197, 132, 223, 64, 147, 31, 227, 61, 29, 219, 217, 64, 127, 85, 233, 61, 128, 120, 106, 61, 244, 72, 221, 64, 18, 148, 210, 61, 197, 75, 216, 64, 88, 131, 94, 61, 224, 160, 112, 60, 140, 95, 223, 64, 140, 200, 166, 64, 64, 94, 219, 61, 172, 50, 222, 64, 231, 75, 217, 64, 40, 146, 4, 189, 16, 104, 231, 189, 188, 132, 223, 64, 108, 41, 217, 64, 238, 247, 217, 64, 0, 179, 230, 61, 216, 80, 220, 64, 144, 189, 95, 61, 138, 142, 216, 64, 51, 230, 118, 189, 128, 187, 211, 60, 7, 119, 197, 64, 64, 25, 180, 61, 184, 17, 116, 189, 10, 50, 220, 64, 59, 78, 68, 189, 100, 127, 240, 61, 76, 193, 223, 64, 76, 170, 220, 64, 204, 212, 216, 64, 215, 254, 216, 64, 189, 78, 215, 189, 70, 82, 217, 64, 96, 30, 2, 188, 152, 63, 221, 64, 144, 40, 201, 60, 74, 95, 1, 62, 160, 206, 121, 60, 234, 249, 167, 61, 100, 106, 199, 64, 130, 88, 220, 64, 227, 194, 29, 60, 4, 193, 219, 64, 119, 236, 138, 188, 16, 255, 208, 189, 248, 87, 219, 64, 128, 232, 74, 59, 18, 182, 48, 189, 180, 13, 221, 64, 224, 85, 246, 189, 3, 208, 93, 188, 204, 243, 218, 64, 231, 30, 218, 64, 204, 148, 181, 189, 141, 235, 218, 64, 24, 120, 229, 189, 200, 202, 186, 61, 144, 5, 221, 64, 202, 10, 221, 64, 88, 140, 74, 186, 0, 8, 212, 187, 46, 26, 79, 61, 121, 226, 216, 64, 69, 250, 215, 64, 16, 66, 106, 61, 37, 224, 219, 64, 135, 110, 213, 64, 181, 175, 222, 64, 226, 30, 105, 61, 104, 139, 222, 64, 50, 249, 220, 64, 8, 29, 34, 61, 5, 184, 219, 64, 27, 132, 218, 64, 128, 222, 221, 64, 181, 57, 219, 64, 136, 98, 135, 189, 255, 50, 216, 64, 96, 59, 219, 64, 20, 71, 223, 64, 86, 18, 221, 64, 32, 103, 39, 189, 36, 164, 223, 64, 78, 83, 197, 64, 168, 32, 5, 62, 115, 7, 222, 64, 68, 55, 193, 189, 200, 134, 216, 188, 0, 77, 17, 188, 128, 136, 219, 64, 120, 131, 80, 189, 111, 106, 217, 64, 140, 41, 217, 64, 92, 159, 162, 189, 48, 116, 54, 61, 144, 175, 223, 64, 164, 233, 189, 61, 170, 252, 219, 64, 44, 3, 217, 64, 34, 202, 218, 64, 32, 109, 240, 60, 107, 211, 217, 64, 156, 54, 218, 189, 244, 239, 157, 189, 71, 186, 220, 64, 7, 145, 217, 64, 119, 245, 223, 64, 195, 18, 217, 64, 120, 4, 221, 64, 160, 43, 219, 64, 246, 134, 181, 189, 76, 3, 141, 189, 53, 214, 206, 189, 147, 208, 222, 64, 13, 4, 164, 189, 45, 25, 195, 61, 241, 184, 221, 61, 192, 190, 228, 189, 111, 175, 223, 64, 106, 71, 217, 64, 168, 243, 152, 189, 235, 76, 217, 64, 214, 4, 223, 64, 117, 170, 218, 64, 87, 194, 238, 61, 98, 86, 221, 64, 221, 22, 144, 189, 96, 180, 206, 61, 148, 54, 217, 64, 111, 74, 50, 188, 21, 176, 219, 64, 52, 223, 155, 189, 240, 234, 141, 60, 164, 197, 220, 64, 161, 170, 166, 64, 168, 147, 154, 189, 77, 55, 219, 64, 64, 161, 221, 64, 152, 241, 42, 189, 32, 90, 143, 61, 203, 138, 221, 64, 255, 248, 221, 64, 174, 23, 223, 64, 112, 135, 128, 61, 163, 102, 223, 64, 0, 62, 88, 187, 10, 120, 222, 64, 145, 33, 228, 61, 80, 168, 198, 61, 247, 144, 196, 64, 128, 135, 55, 189, 232, 53, 84, 189, 24, 5, 219, 64, 162, 128, 203, 189, 152, 92, 225, 189, 230, 217, 216, 64, 112, 34, 224, 64, 60, 111, 222, 64, 162, 199, 220, 64, 122, 12, 252, 59, 81, 81, 223, 64, 16, 35, 171, 61, 251, 240, 220, 64, 24, 167, 22, 61, 21, 165, 95, 61, 68, 86, 149, 61, 66, 244, 176, 61, 56, 232, 201, 64, 102, 228, 220, 64, 94, 132, 160, 61, 45, 111, 223, 64, 253, 227, 134, 189, 248, 10, 68, 61, 9, 127, 221, 64, 52, 245, 252, 61, 215, 48, 251, 61, 216, 51, 217, 64, 204, 226, 237, 61, 24, 54, 231, 61, 15, 46, 220, 64, 61, 54, 222, 64, 104, 132, 43, 189, 186, 135, 218, 64, 108, 14, 249, 61, 136, 35, 27, 61, 93, 99, 217, 64, 133, 235, 223, 64, 183, 116, 129, 61, 56, 161, 137, 61, 219, 41, 47, 188, 106, 6, 217, 64, 51, 167, 214, 64, 48, 113, 165, 189, 155, 192, 219, 64, 193, 227, 210, 64, 56, 164, 221, 64, 32, 176, 252, 188, 200, 81, 223, 64, 132, 13, 220, 64, 80, 137, 255, 60, 224, 151, 219, 64, 33, 144, 218, 64, 177, 113, 222, 64, 200, 17, 219, 64, 28, 195, 135, 61, 246, 245, 217, 64, 79, 92, 217, 64, 163, 229, 220, 64, 128, 96, 220, 64, 192, 58, 5, 189, 54, 99, 222, 64, 196, 119, 138, 189, 224, 66, 253, 188, 53, 254, 26, 61, 0, 40, 8, 57, 184, 121, 208, 189, 232, 232, 232, 189, 230, 65, 164, 61, 68, 178, 157, 61, 124, 163, 30, 189, 8, 115, 5, 190, 32, 162, 58, 188, 180, 37, 173, 189, 11, 100, 121, 189, 88, 40, 191, 189, 129, 179, 209, 189, 186, 55, 41, 189, 216, 137, 121, 189, 64, 204, 51, 189, 105, 98, 141, 189, 200, 11, 64, 61, 204, 207, 153, 189, 188, 114, 174, 189, 6, 115, 38, 189, 240, 79, 191, 189, 55, 168, 240, 60, 4, 56, 195, 61, 219, 30, 231, 61, 239, 95, 147, 189, 168, 151, 115, 189, 104, 54, 36, 61, 43, 53, 166, 188, 55, 50, 4, 61, 246, 112, 156, 188, 152, 244, 46, 188, 200, 9, 188, 189, 200, 248, 50, 61, 6, 190, 52, 60, 76, 248, 145, 61, 56, 163, 210, 61, 196, 79, 151, 60, 240, 212, 170, 61, 112, 169, 54, 189, 152, 138, 154, 188, 30, 224, 211, 61, 252, 192, 158, 189, 192, 209, 249, 189, 6, 194, 182, 189, 14, 80, 186, 189, 128, 69, 169, 188, 112, 152, 133, 60, 28, 144, 154, 61, 127, 229, 154, 61, 48, 175, 246, 61, 152, 153, 2, 185, 64, 152, 233, 189, 92, 84, 189, 189, 208, 109, 247, 188, 224, 83, 56, 61, 182, 6, 176, 189, 110, 191, 72, 188, 188, 162, 199, 61, 18, 130, 133, 189, 104, 194, 171, 61, 244, 90, 59, 60, 84, 200, 143, 189, 72, 227, 226, 189, 92, 123, 226, 61, 152, 15, 71, 189, 228, 167, 233, 189, 68, 140, 86, 61, 124, 82, 158, 189, 96, 146, 75, 188, 140, 13, 75, 189, 8, 168, 84, 61, 196, 100, 212, 61, 93, 177, 116, 189, 64, 152, 237, 60, 223, 24, 180, 61, 64, 15, 205, 60, 224, 97, 17, 61, 48, 131, 91, 61, 0, 215, 17, 60, 64, 143, 78, 188, 120, 56, 179, 189, 8, 94, 197, 189, 200, 241, 183, 189, 16, 34, 139, 61, 146, 232, 161, 189, 132, 199, 212, 61, 180, 223, 233, 189, 108, 244, 149, 189, 216, 241, 70, 61, 71, 20, 220, 189, 17, 98, 166, 61, 100, 105, 249, 189, 135, 189, 172, 60, 152, 195, 220, 61, 64, 59, 202, 188, 236, 158, 241, 189, 116, 173, 222, 61, 76, 170, 244, 61, 112, 184, 45, 189, 157, 59, 71, 59, 3, 155, 177, 61, 84, 163, 172, 189, 180, 196, 187, 189, 40, 197, 3, 190, 44, 81, 217, 187, 241, 115, 224, 189, 128, 94, 156, 60, 12, 52, 148, 189, 88, 88, 172, 61, 7, 45, 147, 188, 44, 18, 228, 61, 223, 22, 176, 188, 212, 116, 107, 61, 96, 33, 196, 188, 250, 75, 186, 189, 235, 45, 114, 61, 18, 135, 182, 189, 81, 195, 164, 189, 252, 213, 153, 61, 120, 158, 214, 189, 172, 212, 163, 189, 59, 98, 186, 60, 244, 59, 151, 61, 152, 12, 75, 61, 223, 70, 201, 61, 25, 116, 214, 189, 20, 163, 209, 189, 232, 122, 162, 189, 216, 192, 28, 189, 212, 8, 143, 61, 152, 7, 2, 61, 240, 92, 190, 188, 192, 88, 159, 188, 218, 182, 243, 60, 139, 52, 32, 61, 192, 224, 235, 188, 136, 72, 118, 189, 1, 194, 154, 61, 20, 253, 252, 189, 71, 31, 182, 61, 121, 251, 204, 189, 110, 96, 92, 189, 232, 205, 184, 61, 255, 149, 86, 61, 208, 73, 151, 61, 208, 155, 182, 188, 60, 94, 138, 189, 198, 167, 37, 61, 12, 143, 199, 189, 17, 4, 142, 189, 20, 33, 241, 188, 54, 44, 84, 61, 98, 240, 228, 61, 160, 115, 163, 189, 64, 93, 113, 188, 226, 27, 45, 187, 228, 16, 163, 189, 205, 96, 169, 60, 104, 148, 26, 61, 10, 61, 221, 189, 122, 59, 74, 61, 220, 197, 187, 189, 168, 124, 161, 189, 155, 59, 79, 61, 129, 235, 57, 61, 226, 25, 59, 61, 228, 240, 236, 61, 88, 175, 3, 190, 170, 86, 61, 189, 128, 18, 175, 189, 151, 38, 25, 61, 46, 170, 50, 189, 101, 186, 231, 189, 4, 31, 158, 61, 200, 228, 176, 189, 73, 164, 196, 60, 152, 115, 124, 189, 192, 68, 136, 60, 29, 58, 235, 61, 5, 144, 67, 61, 80, 173, 122, 61, 24, 174, 225, 61, 210, 167, 190, 61, 95, 231, 6, 189, 140, 24, 169, 189, 112, 123, 249, 189, 153, 159, 111, 188, 40, 192, 15, 61, 217, 158, 85, 189, 100, 92, 159, 61, 116, 132, 246, 61, 10, 70, 13, 61, 112, 21, 168, 189, 61, 28, 124, 61, 139, 109, 183, 189, 112, 223, 16, 189, 216, 199, 110, 61, 203, 28, 90, 188, 12, 244, 188, 189, 234, 38, 216, 61, 178, 104, 0, 190, 24, 1, 173, 189, 166, 213, 179, 61, 96, 82, 158, 189, 147, 55, 164, 61, 0, 27, 73, 60, 128, 19, 169, 61, 0, 200, 214, 57, 136, 210, 28, 189, 160, 178, 65, 188, 150, 81, 25, 61, 16, 161, 53, 61, 191, 215, 58, 189, 252, 249, 24, 189, 88, 158, 147, 61, 219, 35, 31, 189, 224, 34, 44, 189, 22, 114, 139, 61, 212, 183, 244, 189, 192, 151, 162, 60, 162, 106, 190, 189, 132, 41, 193, 61, 244, 158, 25, 61, 232, 1, 243, 189, 22, 160, 35, 189, 96, 229, 72, 61, 160, 49, 83, 60, 94, 27, 162, 61, 98, 127, 164, 189, 6, 205, 185, 186, 88, 59, 232, 61, 240, 117, 97, 189, 187, 65, 224, 189, 237, 16, 226, 61, 0, 222, 74, 58, 158, 254, 181, 187, 168, 228, 168, 61, 148, 155, 67, 61, 134, 186, 160, 60, 126, 225, 166, 59, 104, 144, 77, 61, 12, 138, 240, 189, 108, 4, 200, 61, 65, 85, 104, 60, 107, 136, 108, 61, 3, 198, 93, 188, 184, 133, 190, 61, 189, 239, 63, 61, 51, 233, 23, 189, 180, 37, 84, 189, 68, 100, 147, 60, 160, 165, 11, 188, 25, 33, 188, 189, 12, 249, 128, 61, 28, 106, 148, 189, 216, 117, 240, 189, 96, 96, 134, 61, 88, 104, 167, 61, 120, 219, 102, 61, 192, 186, 32, 60, 240, 88, 135, 60, 172, 54, 230, 189, 88, 95, 184, 189, 192, 84, 225, 61, 104, 222, 181, 189, 92, 49, 139, 189, 204, 151, 181, 61, 192, 118, 42, 61, 8, 87, 103, 61, 20, 78, 140, 189, 84, 164, 237, 61, 240, 52, 162, 188, 216, 114, 121, 189, 200, 69, 31, 61, 176, 85, 191, 188, 248, 252, 55, 61, 212, 162, 230, 189, 184, 168, 80, 189, 224, 135, 38, 60, 196, 227, 159, 61, 188, 163, 157, 189, 176, 102, 203, 61, 64, 194, 205, 189, 192, 31, 220, 61, 128, 176, 217, 188, 96, 65, 0, 189, 112, 227, 172, 189, 192, 5, 200, 187, 4, 107, 220, 189, 64, 31, 158, 188, 192, 29, 225, 61, 32, 171, 64, 60, 0, 56, 30, 185, 120, 226, 129, 61, 40, 91, 214, 189, 96, 141, 253, 61, 204, 91, 177, 61, 160, 28, 193, 189, 24, 119, 168, 189, 80, 230, 252, 61, 112, 59, 25, 189, 160, 116, 108, 189, 64, 45, 209, 189, 12, 247, 233, 189, 96, 50, 123, 189, 160, 215, 167, 61, 4, 5, 237, 61, 88, 140, 104, 189, 160, 149, 102, 61, 48, 117, 80, 189, 32, 243, 158, 188, 120, 133, 96, 189, 224, 81, 123, 189, 128, 13, 150, 189, 196, 58, 146, 189, 16, 239, 202, 188, 0, 180, 146, 57, 196, 154, 202, 61, 172, 163, 164, 189, 224, 248, 40, 60, 148, 72, 238, 189, 164, 221, 218, 61, 64, 165, 88, 189, 64, 254, 198, 188, 164, 89, 189, 189, 24, 127, 120, 61, 200, 193, 108, 189, 252, 223, 169, 189, 168, 43, 97, 189, 44, 190, 207, 189, 180, 35, 213, 61, 80, 22, 191, 60, 64, 123, 147, 61, 112, 13, 151, 61, 8, 95, 230, 61, 64, 83, 66, 61, 100, 49, 175, 189, 96, 135, 168, 60, 32, 182, 158, 188, 252, 177, 145, 189, 192, 228, 246, 187, 112, 188, 152, 188, 168, 58, 234, 189, 32, 111, 89, 60, 208, 199, 176, 189, 72, 17, 76, 189, 204, 178, 198, 61, 224, 22, 208, 60, 20, 217, 145, 61, 72, 190, 21, 189, 164, 37, 204, 189, 8, 245, 93, 189, 32, 59, 191, 60, 56, 109, 81, 189, 64, 165, 201, 61, 32, 30, 49, 188, 96, 241, 247, 188, 156, 88, 214, 61, 32, 143, 67, 60, 192, 22, 53, 189, 144, 19, 238, 188, 128, 249, 186, 61, 24, 98, 191, 189, 32, 128, 26, 61, 180, 229, 175, 61, 128, 128, 126, 60, 168, 209, 24, 189, 224, 110, 45, 189, 156, 7, 210, 189, 220, 151, 179, 61, 52, 155, 183, 189, 80, 126, 138, 188, 248, 164, 13, 189, 192, 195, 240, 60, 116, 212, 250, 189, 232, 211, 100, 189, 80, 152, 185, 60, 208, 108, 215, 60, 240, 80, 121, 61, 64, 44, 149, 187, 64, 253, 140, 188, 167, 245, 202, 64, 0, 2, 29, 187, 19, 117, 196, 64, 12, 186, 144, 189, 160, 96, 163, 60, 196, 137, 128, 189, 229, 33, 199, 64, 48, 104, 105, 189, 121, 122, 196, 64, 8, 106, 197, 64, 176, 122, 246, 189, 72, 76, 123, 189, 116, 23, 193, 64, 180, 178, 235, 61, 197, 195, 193, 64, 86, 124, 194, 64, 150, 35, 195, 64, 192, 199, 23, 189, 78, 104, 198, 64, 44, 67, 156, 61, 96, 111, 48, 61, 35, 185, 195, 64, 59, 203, 196, 64, 134, 182, 194, 64, 158, 53, 198, 64, 50, 178, 199, 64, 239, 174, 194, 64, 32, 136, 211, 188, 176, 170, 118, 189, 152, 32, 74, 61, 77, 159, 198, 64, 204, 67, 162, 189, 144, 149, 252, 189, 108, 215, 192, 189, 248, 159, 58, 189, 47, 233, 193, 64, 253, 41, 192, 64, 144, 45, 130, 188, 15, 133, 196, 64, 215, 246, 198, 64, 203, 10, 192, 64, 232, 199, 156, 61, 105, 80, 198, 64, 220, 41, 238, 61, 116, 76, 159, 61, 153, 46, 193, 64, 140, 53, 188, 61, 216, 63, 196, 64, 216, 31, 97, 61, 92, 143, 136, 189, 170, 253, 197, 64, 66, 36, 165, 64, 220, 44, 139, 189, 245, 87, 195, 64, 69, 73, 194, 64, 0, 96, 137, 185, 236, 205, 226, 189, 247, 170, 199, 64, 93, 33, 193, 64, 149, 131, 194, 64, 56, 117, 38, 61, 199, 118, 196, 64, 100, 111, 244, 61, 180, 133, 198, 64, 92, 101, 209, 189, 72, 156, 253, 61, 112, 29, 201, 64, 212, 163, 161, 189, 44, 83, 175, 189, 245, 149, 198, 64, 152, 160, 113, 189, 20, 29, 254, 61, 242, 230, 195, 64, 172, 200, 195, 64, 228, 142, 192, 64, 88, 185, 194, 64, 248, 240, 129, 61, 207, 105, 192, 64, 192, 226, 50, 188, 79, 198, 193, 64, 240, 248, 226, 188, 40, 133, 228, 61, 152, 110, 228, 189, 71, 87, 56, 189, 32, 63, 198, 64, 126, 214, 194, 64, 144, 216, 59, 61, 255, 153, 199, 64, 112, 145, 145, 61, 208, 242, 191, 61, 115, 216, 197, 64, 120, 200, 184, 189, 112, 228, 104, 189, 66, 226, 192, 64, 112, 102, 116, 189, 208, 177, 131, 61, 163, 69, 193, 64, 56, 109, 197, 64, 68, 118, 244, 61, 155, 106, 195, 64, 152, 151, 178, 189, 92, 255, 160, 61, 114, 207, 195, 64, 229, 200, 197, 64, 0, 62, 4, 59, 228, 203, 246, 189, 208, 94, 213, 188, 42, 187, 198, 64, 180, 137, 196, 64, 0, 129, 128, 186, 165, 187, 194, 64, 10, 160, 199, 64, 241, 103, 195, 64, 100, 99, 221, 189, 59, 248, 196, 64, 84, 251, 196, 64, 88, 252, 175, 189, 4, 183, 196, 64, 143, 221, 195, 64, 126, 129, 197, 64, 119, 78, 199, 64, 80, 37, 143, 189, 132, 227, 198, 64, 54, 93, 198, 64, 59, 111, 196, 64, 92, 154, 194, 64, 168, 7, 3, 189, 211, 17, 194, 64, 32, 98, 104, 188, 32, 205, 26, 61, 188, 142, 254, 61, 224, 10, 89, 61, 64, 1, 123, 189, 52, 140, 229, 189, 164, 220, 187, 61, 128, 227, 145, 59, 248, 243, 145, 189, 180, 195, 158, 61, 92, 253, 154, 61, 48, 144, 73, 189, 192, 130, 132, 60, 96, 47, 99, 60, 0, 41, 143, 60, 0, 184, 225, 59, 84, 110, 248, 189, 184, 28, 216, 189, 80, 45, 26, 189, 232, 53, 84, 189, 20, 38, 179, 61, 188, 116, 215, 61, 16, 88, 120, 61, 236, 21, 162, 189, 212, 151, 200, 61, 160, 150, 252, 188, 248, 42, 117, 189, 108, 141, 242, 61, 60, 118, 150, 189, 180, 59, 156, 61, 216, 132, 251, 61, 28, 17, 215, 189, 224, 17, 196, 61, 252, 53, 195, 189, 224, 88, 147, 60, 224, 20, 212, 188, 224, 169, 125, 189, 200, 38, 45, 189, 104, 28, 7, 189, 104, 72, 55, 189, 168, 41, 37, 189, 28, 91, 248, 189, 36, 72, 194, 189, 32, 250, 109, 60, 16, 57, 106, 61, 160, 243, 27, 188, 44, 33, 244, 189, 208, 37, 208, 188, 44, 178, 154, 189, 160, 143, 252, 189, 192, 242, 58, 189, 160, 248, 92, 188, 48, 96, 248, 60, 176, 133, 252, 189, 240, 239, 59, 61, 44, 9, 131, 189, 96, 29, 12, 61, 160, 97, 102, 60, 244, 150, 225, 189, 60, 115, 187, 189, 104, 137, 151, 189, 232, 214, 230, 189, 124, 142, 201, 61, 128, 7, 43, 188, 232, 129, 18, 61, 112, 140, 190, 61, 112, 248, 161, 61, 128, 109, 217, 61, 144, 237, 76, 189, 204, 166, 224, 189, 136, 64, 109, 61, 184, 219, 243, 61, 160, 95, 51, 189, 224, 148, 81, 60, 72, 62, 149, 61, 252, 133, 131, 61, 164, 1, 155, 189, 192, 132, 207, 61, 176, 237, 215, 189, 128, 242, 10, 189, 192, 77, 175, 188, 176, 130, 132, 60, 168, 198, 90, 61, 164, 65, 168, 189, 164, 182, 146, 61, 248, 72, 53, 189, 240, 239, 19, 189, 0, 94, 108, 58, 8, 17, 113, 61, 84, 254, 213, 189, 240, 92, 182, 60, 40, 154, 101, 189, 56, 153, 212, 61, 56, 159, 84, 189, 96, 7, 20, 61, 48, 39, 135, 61, 60, 111, 249, 61, 104, 87, 5, 189, 120, 143, 194, 61, 128, 152, 239, 189, 0, 108, 152, 60, 56, 228, 24, 189, 80, 197, 167, 60, 56, 72, 59, 61, 204, 111, 201, 61, 96, 45, 12, 60, 128, 107, 242, 189, 184, 148, 183, 61, 0, 94, 71, 189, 80, 118, 10, 61, 240, 203, 173, 61, 232, 170, 194, 61, 236, 175, 150, 61, 192, 84, 145, 60, 124, 89, 202, 189, 212, 199, 143, 61, 96, 229, 17, 61, 188, 147, 145, 61, 216, 102, 109, 189, 112, 235, 141, 60, 224, 202, 86, 60, 104, 8, 41, 189, 120, 91, 139, 189, 136, 96, 57, 189, 56, 28, 200, 189, 84, 219, 229, 189, 180, 22, 209, 189, 216, 94, 194, 61, 0, 75, 199, 58, 116, 155, 133, 61, 32, 97, 63, 188, 36, 66, 252, 189, 32, 4, 91, 60, 176, 86, 177, 61, 200, 134, 228, 61, 120, 179, 239, 189, 8, 85, 170, 189, 172, 118, 242, 61, 64, 9, 253, 61, 176, 153, 86, 189, 184, 249, 218, 189, 240, 43, 161, 61, 188, 194, 199, 61, 240, 143, 141, 61, 224, 76, 68, 61, 160, 118, 24, 189, 48, 57, 230, 60, 116, 140, 174, 189, 232, 5, 43, 189, 92, 247, 252, 189, 32, 54, 122, 189, 116, 181, 230, 61, 32, 216, 91, 61, 28, 236, 152, 189, 128, 255, 252, 188, 160, 57, 2, 60, 192, 34, 200, 189, 208, 254, 129, 188, 168, 89, 171, 61, 80, 244, 132, 189, 132, 200, 210, 189, 192, 110, 145, 60, 208, 22, 109, 189, 216, 124, 80, 189, 104, 61, 142, 189, 68, 92, 166, 61, 204, 42, 149, 61, 88, 1, 192, 189, 244, 193, 151, 189, 176, 202, 29, 61, 12, 152, 255, 189, 172, 119, 156, 189, 24, 4, 202, 61, 172, 179, 141, 61, 180, 247, 164, 189, 208, 170, 130, 61, 60, 126, 202, 189, 24, 213, 122, 61, 68, 208, 247, 189, 128, 0, 95, 59, 64, 227, 204, 189, 156, 229, 192, 189, 108, 16, 210, 189, 212, 109, 219, 61, 8, 1, 127, 189, 144, 227, 33, 189, 208, 187, 192, 61, 244, 124, 226, 61, 196, 121, 169, 61, 224, 191, 114, 189, 64, 113, 231, 187, 244, 134, 131, 61, 32, 184, 224, 189, 0, 11, 101, 60, 128, 117, 102, 188, 176, 157, 153, 189, 216, 65, 121, 189, 0, 238, 80, 61, 80, 230, 188, 188, 80, 44, 137, 188, 240, 216, 223, 189, 120, 207, 179, 61, 200, 135, 14, 61, 56, 128, 74, 189, 64, 172, 254, 59, 216, 224, 137, 189, 240, 71, 246, 188, 72, 60, 104, 61, 4, 66, 141, 189, 208, 89, 131, 60, 144, 116, 111, 189, 116, 111, 161, 189, 208, 173, 171, 188, 100, 96, 220, 189, 240, 174, 180, 60, 40, 94, 50, 61, 96, 215, 8, 61, 208, 152, 87, 189, 208, 72, 148, 61, 240, 145, 91, 189, 24, 198, 6, 189, 112, 198, 25, 61, 240, 98, 31, 189, 16, 91, 246, 189, 24, 163, 84, 61, 192, 138, 185, 188, 232, 126, 46, 61, 68, 38, 222, 189, 112, 178, 94, 61, 188, 53, 177, 189, 0, 43, 191, 187, 236, 155, 229, 61, 196, 251, 244, 61, 184, 108, 57, 189, 64, 130, 7, 60, 232, 237, 54, 189, 252, 127, 158, 189, 128, 3, 101, 188, 56, 58, 151, 61, 24, 42, 133, 61, 184, 233, 26, 189, 32, 178, 195, 189, 160, 220, 87, 60, 240, 58, 176, 61, 176, 164, 232, 61, 64, 101, 73, 60, 128, 223, 233, 189, 32, 84, 95, 61, 128, 104, 155, 187, 232, 155, 29, 61, 64, 90, 95, 60, 192, 43, 185, 189, 224, 23, 238, 189, 112, 36, 150, 60, 124, 12, 242, 61, 128, 119, 154, 61, 54, 45, 197, 64, 63, 169, 80, 61, 134, 21, 223, 64, 0, 115, 193, 188, 180, 207, 221, 189, 8, 205, 168, 61, 53, 146, 223, 64, 0, 66, 54, 59, 154, 217, 219, 64, 22, 64, 217, 64, 128, 20, 128, 189, 192, 114, 224, 188, 251, 81, 222, 64, 124, 183, 143, 61, 9, 137, 223, 64, 97, 158, 216, 64, 171, 220, 223, 64, 64, 81, 184, 189, 54, 251, 221, 64, 144, 170, 13, 189, 176, 119, 204, 61, 138, 170, 217, 64, 225, 122, 223, 64, 80, 25, 219, 64, 177, 237, 216, 64, 215, 70, 223, 64, 14, 184, 219, 64, 74, 90, 136, 58, 8, 55, 218, 61, 193, 40, 90, 61, 182, 121, 216, 64, 104, 174, 4, 189, 213, 16, 239, 61, 238, 86, 56, 189, 57, 34, 176, 61, 25, 28, 221, 64, 205, 174, 216, 64, 140, 19, 181, 61, 18, 120, 220, 64, 109, 226, 220, 64, 145, 15, 223, 64, 173, 190, 154, 189, 253, 0, 217, 64, 151, 35, 229, 188, 80, 253, 200, 189, 207, 119, 222, 64, 31, 217, 188, 189, 189, 239, 222, 64, 80, 2, 135, 60, 160, 104, 225, 60, 34, 142, 217, 64, 23, 133, 163, 64, 0, 86, 140, 187, 74, 3, 217, 64, 151, 124, 223, 64, 48, 240, 170, 61, 92, 243, 148, 189, 204, 115, 218, 64, 80, 215, 221, 64, 36, 94, 223, 64, 8, 248, 76, 189, 100, 249, 221, 64, 168, 19, 204, 189, 243, 251, 222, 64, 250, 33, 144, 61, 0, 251, 230, 61, 234, 190, 194, 64, 80, 127, 226, 61, 185, 224, 111, 59, 128, 203, 218, 64, 132, 17, 65, 61, 20, 79, 227, 189, 151, 104, 219, 64, 157, 214, 218, 64, 192, 16, 218, 64, 19, 41, 216, 64, 180, 190, 175, 189, 230, 151, 221, 64, 88, 35, 199, 61, 188, 30, 222, 64, 64, 234, 230, 187, 17, 197, 248, 61, 64, 30, 191, 187, 222, 187, 96, 61, 88, 74, 196, 64, 45, 127, 218, 64, 134, 49, 15, 62, 70, 153, 219, 64, 111, 54, 162, 60, 64, 240, 180, 188, 44, 215, 221, 64, 28, 69, 130, 189, 60, 71, 192, 189, 26, 33, 219, 64, 84, 74, 241, 61, 208, 193, 159, 189, 164, 66, 216, 64, 19, 26, 221, 64, 112, 47, 225, 189, 115, 226, 219, 64, 200, 129, 215, 189, 200, 244, 169, 189, 145, 148, 222, 64, 163, 44, 223, 64, 19, 184, 9, 189, 8, 157, 123, 189, 112, 43, 81, 189, 214, 190, 218, 64, 65, 161, 213, 64, 40, 93, 231, 61, 38, 71, 216, 64, 254, 63, 213, 64, 57, 213, 222, 64, 242, 170, 51, 189, 108, 151, 223, 64, 129, 201, 222, 64, 0, 66, 9, 58, 12, 72, 223, 64, 198, 224, 223, 64, 154, 68, 216, 64, 1, 231, 216, 64, 124, 91, 169, 189, 200, 34, 218, 64, 46, 250, 219, 64, 234, 109, 217, 64, 55, 50, 216, 64, 72, 41, 240, 189, 220, 82, 217, 64, 35, 7, 201, 64, 112, 191, 185, 189, 113, 5, 220, 64, 96, 198, 232, 189, 84, 61, 97, 189, 176, 139, 128, 60, 163, 65, 221, 64, 36, 224, 170, 189, 83, 254, 220, 64, 101, 88, 223, 64, 112, 92, 165, 189, 180, 109, 200, 189, 222, 68, 222, 64, 112, 24, 179, 60, 179, 32, 217, 64, 184, 162, 220, 64, 25, 149, 219, 64, 172, 233, 150, 189, 54, 202, 219, 64, 184, 232, 177, 189, 128, 245, 175, 61, 153, 253, 216, 64, 186, 210, 223, 64, 122, 12, 221, 64, 223, 22, 221, 64, 36, 38, 222, 64, 197, 41, 221, 64, 170, 75, 201, 61, 128, 196, 53, 187, 35, 215, 164, 61, 185, 179, 219, 64, 52, 196, 145, 61, 65, 208, 135, 189, 210, 211, 204, 61, 213, 172, 10, 61, 29, 34, 217, 64, 239, 234, 220, 64, 16, 31, 158, 60, 229, 114, 219, 64, 242, 188, 219, 64, 179, 31, 224, 64, 1, 247, 114, 189, 189, 141, 217, 64, 132, 225, 191, 189, 176, 94, 146, 189, 53, 136, 221, 64, 242, 206, 211, 61, 76, 184, 218, 64, 216, 225, 226, 189, 208, 167, 174, 188, 55, 20, 217, 64, 36, 20, 166, 64, 104, 26, 37, 61, 43, 127, 223, 64, 190, 22, 219, 64, 232, 148, 133, 61, 216, 31, 15, 61, 69, 40, 223, 64, 234, 65, 217, 64, 58, 29, 223, 64, 144, 52, 110, 61, 173, 171, 221, 64, 208, 12, 42, 61, 110, 155, 222, 64, 169, 82, 56, 189, 176, 88, 130, 188, 200, 223, 201, 64, 176, 151, 143, 60, 85, 9, 187, 61, 224, 65, 222, 64, 82, 52, 38, 61, 136, 191, 254, 61, 120, 176, 222, 64, 155, 77, 217, 64, 74, 239, 219, 64, 123, 175, 219, 64, 252, 237, 80, 61, 56, 31, 224, 64, 56, 211, 52, 189, 102, 26, 219, 64, 232, 78, 216, 189, 247, 18, 182, 189, 152, 223, 234, 61, 192, 194, 12, 62, 10, 138, 199, 64, 135, 183, 217, 64, 204, 185, 2, 189, 232, 130, 217, 64, 59, 162, 7, 62, 0, 26, 145, 188, 178, 95, 222, 64, 176, 1, 69, 189, 65, 87, 6, 62, 33, 34, 224, 64, 96, 26, 100, 60, 139, 190, 250, 60, 236, 86, 221, 64, 31, 150, 216, 64, 88, 143, 80, 189, 60, 68, 224, 64, 132, 70, 226, 189, 148, 26, 176, 189, 90, 128, 222, 64, 106, 214, 219, 64, 211, 141, 148, 189, 196, 103, 206, 189, 8, 35, 129, 189, 211, 252, 220, 64, 171, 145, 216, 64, 48, 10, 53, 61, 241, 194, 223, 64, 228, 209, 210, 64, 233, 54, 223, 64, 185, 29, 212, 61, 98, 214, 222, 64, 198, 49, 219, 64, 0, 169, 63, 59, 224, 241, 222, 64, 233, 82, 218, 64, 84, 52, 218, 64, 101, 79, 220, 64, 248, 58, 140, 61, 79, 53, 218, 64, 54, 76, 219, 64, 143, 219, 217, 64, 112, 233, 219, 64, 64, 183, 234, 187, 79, 174, 222, 64, 160, 85, 199, 64, 171, 204, 194, 189, 44, 100, 216, 64, 80, 15, 247, 60, 192, 83, 179, 188, 224, 201, 8, 61, 61, 19, 216, 64, 0, 163, 169, 188, 52, 197, 220, 64, 49, 211, 222, 64, 80, 229, 170, 60, 128, 138, 1, 61, 134, 131, 222, 64, 148, 204, 248, 61, 234, 141, 223, 64, 49, 175, 222, 64, 56, 4, 222, 64, 232, 14, 40, 61, 241, 248, 216, 64, 64, 93, 31, 61, 120, 10, 200, 189, 138, 250, 218, 64, 85, 37, 218, 64, 93, 205, 218, 64, 245, 154, 223, 64, 150, 9, 222, 64, 84, 0, 222, 64, 246, 101, 20, 61, 216, 137, 113, 61, 183, 73, 174, 189, 101, 96, 214, 64, 235, 245, 180, 188, 118, 23, 219, 61, 35, 152, 27, 188, 124, 41, 206, 189, 246, 83, 222, 64, 100, 179, 217, 64, 108, 184, 145, 189, 191, 15, 218, 64, 228, 44, 216, 64, 225, 66, 219, 64, 174, 184, 138, 188, 102, 15, 221, 64, 91, 192, 83, 61, 112, 2, 80, 189, 34, 245, 222, 64, 202, 124, 204, 61, 215, 223, 223, 64, 232, 170, 23, 61, 152, 3, 151, 61, 36, 185, 216, 64, 165, 5, 162, 64, 208, 154, 63, 189, 54, 18, 219, 64, 125, 60, 220, 64, 128, 16, 208, 188, 88, 217, 236, 189, 132, 204, 222, 64, 132, 117, 221, 64, 127, 96, 223, 64, 128, 223, 140, 60, 12, 193, 218, 64, 136, 120, 19, 189, 94, 90, 221, 64, 42, 139, 239, 189, 252, 29, 173, 189, 69, 209, 194, 64, 244, 109, 209, 61, 99, 252, 133, 61, 181, 234, 220, 64, 100, 49, 137, 189, 112, 86, 192, 61, 161, 244, 222, 64, 74, 226, 219, 64, 214, 4, 219, 64, 95, 22, 222, 64, 6, 69, 140, 188, 130, 174, 221, 64, 40, 120, 224, 61, 36, 34, 220, 64, 184, 114, 213, 61, 233, 114, 144, 189, 228, 219, 144, 189, 198, 132, 110, 189, 4, 80, 201, 64, 155, 198, 218, 64, 158, 79, 18, 58, 139, 186, 220, 64, 239, 244, 125, 61, 240, 83, 114, 189, 8, 74, 222, 64, 140, 246, 212, 61, 191, 212, 209, 61, 55, 98, 216, 64, 192, 22, 94, 188, 45, 190, 67, 60, 43, 50, 220, 64, 130, 233, 219, 64, 0, 154, 92, 59, 177, 240, 223, 64, 224, 69, 238, 189, 152, 37, 90, 61, 140, 57, 223, 64, 152, 180, 221, 64, 104, 212, 99, 61, 32, 210, 74, 60, 204, 52, 176, 189, 79, 19, 216, 64, 61, 218, 212, 64, 160, 155, 81, 189, 171, 247, 217, 64, 137, 122, 211, 64, 150, 190, 219, 64, 87, 43, 154, 61, 86, 52, 217, 64, 239, 242, 216, 64, 240, 224, 61, 189, 96, 233, 221, 64, 137, 143, 222, 64, 233, 87, 219, 64, 46, 30, 222, 64, 0, 205, 252, 189, 193, 102, 220, 64, 191, 97, 216, 64, 113, 236, 216, 64, 35, 70, 221, 64, 208, 103, 19, 189, 87, 112, 218, 64, 120, 117, 86, 61, 240, 211, 224, 188, 219, 85, 224, 188, 128, 227, 237, 61, 15, 44, 154, 61, 124, 111, 168, 61, 55, 55, 202, 189, 92, 233, 241, 189, 210, 83, 229, 189, 100, 104, 143, 61, 92, 2, 211, 189, 8, 51, 174, 189, 120, 135, 99, 61, 40, 247, 15, 61, 38, 232, 235, 189, 79, 98, 170, 188, 102, 75, 147, 61, 192, 254, 89, 189, 64, 137, 147, 61, 128, 224, 241, 59, 212, 10, 246, 189, 58, 205, 94, 189, 128, 25, 0, 189, 172, 44, 145, 61, 101, 120, 18, 61, 46, 8, 59, 189, 236, 114, 212, 61, 163, 93, 85, 189, 104, 236, 31, 61, 0, 112, 39, 58, 72, 45, 32, 61, 54, 230, 101, 61, 148, 98, 182, 61, 75, 199, 10, 189, 44, 177, 116, 189, 237, 87, 239, 189, 120, 188, 38, 60, 24, 98, 158, 189, 131, 69, 178, 61, 250, 235, 224, 61, 170, 213, 223, 61, 112, 151, 12, 189, 227, 220, 226, 189, 84, 28, 200, 61, 0, 243, 186, 59, 139, 79, 217, 189, 80, 86, 219, 59, 238, 51, 129, 189, 0, 182, 234, 61, 32, 209, 68, 61, 11, 107, 49, 188, 112, 215, 23, 59, 52, 64, 215, 189, 3, 208, 69, 61, 123, 211, 238, 61, 0, 141, 194, 61, 184, 222, 122, 61, 62, 62, 252, 188, 13, 137, 10, 61, 173, 33, 13, 189, 160, 36, 245, 189, 164, 218, 191, 60, 0, 116, 228, 61, 123, 138, 90, 61, 248, 79, 87, 189, 228, 126, 209, 189, 1, 2, 3, 190, 120, 102, 52, 189, 241, 156, 43, 61, 224, 46, 86, 189, 208, 108, 135, 60, 32, 32, 222, 188, 174, 159, 192, 60, 149, 178, 209, 58, 81, 180, 177, 189, 52, 60, 146, 189, 8, 145, 181, 61, 188, 12, 245, 59, 4, 175, 147, 189, 167, 167, 86, 189, 64, 166, 209, 60, 188, 47, 131, 61, 84, 214, 141, 189, 200, 107, 131, 189, 204, 167, 147, 189, 89, 74, 209, 188, 252, 115, 217, 61, 198, 193, 39, 189, 54, 70, 209, 189, 32, 22, 1, 189, 111, 24, 147, 189, 152, 222, 3, 189, 74, 236, 202, 61, 1, 212, 200, 189, 80, 64, 135, 60, 100, 53, 93, 189, 36, 212, 204, 60, 223, 7, 206, 189, 56, 197, 95, 189, 186, 156, 234, 59, 104, 53, 46, 189, 248, 203, 239, 61, 112, 170, 100, 61, 30, 243, 46, 189, 104, 3, 123, 61, 184, 13, 150, 61, 137, 220, 107, 61, 219, 120, 142, 61, 51, 34, 84, 61, 56, 62, 180, 61, 195, 252, 35, 189, 192, 240, 222, 187, 148, 11, 99, 60, 247, 189, 10, 189, 114, 232, 241, 189, 243, 35, 235, 61, 192, 158, 74, 189, 169, 54, 85, 61, 184, 243, 168, 189, 73, 115, 62, 61, 86, 92, 106, 61, 208, 192, 203, 189, 68, 194, 225, 61, 117, 152, 152, 189, 36, 78, 128, 189, 207, 241, 82, 189, 48, 41, 151, 61, 38, 211, 220, 189, 64, 108, 120, 188, 208, 226, 166, 60, 140, 21, 241, 61, 124, 33, 164, 189, 192, 69, 146, 189, 128, 29, 59, 187, 0, 150, 98, 189, 52, 194, 147, 189, 192, 159, 208, 189, 80, 167, 32, 189, 176, 75, 207, 60, 108, 124, 170, 189, 176, 59, 224, 189, 76, 116, 176, 189, 252, 173, 228, 61, 192, 38, 95, 60, 32, 208, 83, 188, 96, 135, 6, 60, 176, 236, 174, 60, 0, 22, 66, 186, 0, 219, 214, 187, 240, 12, 177, 61, 64, 85, 64, 61, 224, 211, 212, 60, 240, 60, 214, 61, 0, 141, 159, 187, 16, 87, 166, 188, 12, 114, 156, 189, 128, 151, 127, 189, 108, 102, 244, 61, 168, 26, 53, 189, 236, 51, 154, 189, 128, 128, 54, 187, 116, 244, 253, 61, 104, 215, 237, 189, 32, 118, 113, 60, 8, 227, 26, 189, 128, 248, 134, 61, 208, 163, 249, 188, 120, 222, 100, 61, 128, 242, 123, 188, 68, 46, 135, 61, 32, 44, 69, 60, 112, 56, 156, 61, 196, 242, 219, 61, 4, 106, 168, 189, 68, 196, 148, 61, 224, 121, 160, 189, 124, 52, 150, 61, 192, 150, 222, 61, 176, 46, 243, 61, 48, 120, 226, 188, 40, 69, 42, 189, 128, 88, 170, 60, 80, 227, 146, 60, 96, 181, 159, 189, 0, 123, 224, 60, 68, 0, 230, 61, 80, 225, 171, 60, 248, 118, 185, 189, 116, 187, 139, 189, 224, 111, 215, 60, 48, 154, 228, 189, 176, 208, 1, 189, 184, 31, 166, 61, 44, 93, 183, 189, 84, 221, 184, 61, 152, 3, 238, 61, 88, 178, 34, 189, 96, 24, 56, 61, 204, 231, 156, 61, 188, 13, 201, 189, 16, 178, 30, 189, 132, 48, 172, 189, 124, 229, 132, 61, 244, 227, 204, 189, 192, 76, 254, 60, 24, 132, 169, 189, 248, 35, 160, 189, 48, 156, 69, 61, 20, 35, 230, 189, 140, 236, 161, 61, 184, 151, 98, 61, 104, 180, 211, 61, 68, 80, 180, 61, 176, 66, 22, 61, 32, 74, 109, 189, 40, 218, 161, 189, 96, 44, 30, 61, 208, 27, 79, 189, 24, 247, 39, 189, 144, 255, 148, 188, 88, 227, 198, 61, 232, 73, 254, 189, 208, 166, 180, 60, 140, 58, 128, 61, 64, 22, 177, 59, 120, 211, 113, 189, 232, 4, 244, 189, 48, 59, 40, 61, 216, 54, 195, 189, 144, 227, 134, 188, 16, 136, 206, 189, 88, 211, 1, 189, 168, 102, 200, 61, 192, 199, 220, 60, 192, 113, 118, 188, 112, 81, 253, 188, 32, 102, 252, 188, 72, 43, 250, 189, 252, 181, 218, 189, 172, 103, 142, 61, 84, 6, 154, 61, 212, 115, 217, 61, 176, 141, 206, 60, 64, 217, 239, 59, 80, 228, 53, 61, 0, 113, 157, 187, 240, 143, 223, 188, 0, 208, 242, 189, 56, 69, 189, 189, 20, 52, 158, 61, 32, 213, 62, 188, 236, 235, 229, 189, 84, 99, 213, 189, 200, 190, 238, 189, 136, 55, 216, 61, 224, 50, 22, 189, 20, 95, 194, 64, 96, 189, 51, 189, 17, 219, 216, 64, 28, 245, 144, 61, 190, 150, 154, 61, 192, 49, 205, 188, 9, 52, 220, 64, 48, 231, 183, 188, 179, 210, 219, 64, 229, 56, 218, 64, 212, 125, 163, 61, 164, 16, 165, 61, 12, 210, 222, 64, 0, 196, 138, 58, 77, 127, 221, 64, 98, 148, 221, 64, 100, 12, 220, 64, 192, 84, 173, 61, 109, 216, 223, 64, 220, 103, 187, 61, 172, 248, 181, 189, 3, 225, 222, 64, 131, 79, 222, 64, 66, 146, 216, 64, 2, 3, 219, 64, 162, 7, 218, 64, 91, 132, 221, 64, 254, 189, 231, 59, 192, 89, 171, 189, 198, 69, 194, 61, 209, 179, 214, 64, 251, 197, 214, 61, 238, 169, 102, 60, 32, 212, 41, 188, 187, 233, 201, 61, 177, 10, 224, 64, 198, 69, 220, 64, 72, 90, 193, 61, 234, 127, 223, 64, 83, 215, 223, 64, 159, 13, 217, 64, 156, 62, 144, 189, 109, 71, 217, 64, 204, 64, 7, 189, 176, 126, 215, 61, 17, 241, 218, 64, 33, 181, 195, 61, 98, 186, 216, 64, 48, 26, 165, 61, 224, 255, 69, 189, 149, 224, 218, 64, 92, 247, 162, 64, 12, 179, 216, 61, 14, 175, 220, 64, 120, 31, 220, 64, 16, 240, 217, 189, 96, 37, 81, 189, 116, 98, 223, 64, 59, 39, 222, 64, 76, 70, 223, 64, 172, 15, 143, 189, 221, 140, 222, 64, 104, 37, 187, 61, 215, 231, 216, 64, 66, 32, 230, 61, 140, 65, 222, 189, 233, 232, 201, 64, 84, 194, 144, 61, 236, 104, 234, 60, 210, 209, 216, 64, 8, 105, 218, 61, 88, 132, 183, 61, 37, 16, 219, 64, 91, 40, 222, 64, 246, 60, 224, 64, 211, 143, 218, 64, 212, 85, 231, 189, 199, 126, 216, 64, 144, 249, 189, 188, 64, 6, 219, 64, 152, 234, 161, 61, 126, 205, 31, 189, 156, 75, 184, 61, 72, 186, 20, 59, 88, 121, 199, 64, 25, 246, 215, 64, 185, 151, 129, 61, 180, 24, 222, 64, 155, 17, 106, 61, 172, 49, 159, 61, 132, 233, 221, 64, 224, 145, 209, 189, 24, 178, 178, 189, 99, 190, 222, 64, 32, 71, 83, 188, 188, 103, 198, 61, 114, 116, 222, 64, 42, 193, 220, 64, 216, 229, 29, 189, 247, 101, 221, 64, 0, 180, 12, 59, 48, 174, 157, 61, 66, 34, 217, 64, 74, 176, 216, 64, 43, 57, 105, 61, 100, 90, 233, 189, 41, 115, 223, 60, 86, 20, 218, 64, 133, 133, 213, 64, 184, 91, 126, 189, 220, 108, 221, 64, 14, 197, 215, 64, 34, 148, 217, 64, 240, 37, 199, 60, 225, 105, 217, 64, 117, 32, 222, 64, 224, 4, 191, 60, 12, 44, 221, 64, 49, 148, 223, 64, 133, 144, 219, 64, 142, 12, 224, 64, 60, 164, 204, 61, 105, 170, 219, 64, 130, 18, 217, 64, 108, 229, 220, 64, 91, 142, 219, 64, 120, 197, 116, 189, 73, 10, 220, 64, 220, 178, 195, 189, 48, 130, 227, 60, 32, 194, 95, 60, 28, 255, 168, 189, 176, 224, 178, 189, 32, 137, 232, 60, 248, 111, 148, 61, 64, 29, 116, 188, 52, 247, 159, 189, 36, 15, 193, 189, 136, 125, 196, 61, 144, 232, 93, 189, 208, 37, 172, 188, 28, 34, 203, 61, 104, 218, 75, 189, 32, 84, 9, 61, 88, 169, 137, 61, 100, 128, 179, 61, 52, 146, 188, 61, 228, 65, 230, 61, 192, 138, 86, 61, 144, 64, 135, 188, 196, 214, 177, 61, 128, 96, 203, 189, 52, 116, 223, 61, 200, 136, 50, 189, 132, 97, 151, 189, 224, 166, 216, 60, 96, 219, 151, 60, 200, 139, 2, 61, 208, 135, 245, 60, 200, 222, 112, 189, 120, 114, 216, 189, 28, 75, 218, 61, 32, 104, 34, 61, 32, 46, 93, 188, 136, 78, 177, 189, 144, 171, 181, 60, 140, 7, 249, 189, 72, 220, 18, 189, 144, 226, 85, 61, 140, 45, 145, 189, 248, 122, 5, 189, 32, 129, 139, 60, 224, 10, 240, 189, 180, 49, 169, 61, 96, 182, 200, 60, 112, 221, 162, 189, 128, 164, 198, 59, 16, 172, 204, 189, 24, 34, 77, 189, 4, 158, 160, 189, 20, 34, 171, 189, 132, 228, 167, 189, 4, 135, 128, 61, 184, 103, 230, 61, 176, 14, 149, 60, 160, 29, 10, 61, 16, 145, 155, 188, 200, 125, 157, 189, 196, 72, 234, 61, 128, 209, 110, 188, 244, 20, 231, 61, 160, 18, 19, 61, 224, 89, 238, 61, 8, 237, 57, 61, 176, 62, 65, 189, 32, 167, 203, 60, 224, 244, 212, 188, 184, 160, 234, 189, 12, 146, 147, 61, 16, 86, 127, 61, 96, 83, 101, 61, 224, 97, 182, 188, 128, 222, 101, 187, 192, 123, 194, 187, 148, 101, 156, 61, 144, 34, 175, 188, 184, 250, 216, 189, 32, 92, 50, 61, 128, 168, 59, 61, 176, 98, 122, 61, 96, 172, 4, 188, 64, 205, 237, 188, 184, 167, 102, 61, 56, 10, 177, 61, 164, 37, 201, 61, 24, 74, 7, 61, 16, 87, 107, 61, 192, 193, 161, 189, 128, 218, 122, 188, 76, 15, 199, 61, 32, 208, 15, 61, 132, 132, 255, 61, 0, 175, 167, 60, 224, 9, 89, 60, 140, 40, 163, 189, 84, 65, 147, 189, 228, 223, 234, 61, 216, 142, 216, 189, 172, 41, 157, 189, 144, 101, 62, 189, 192, 205, 222, 60, 144, 48, 229, 188, 104, 238, 201, 189, 72, 172, 44, 189, 192, 78, 23, 188, 0, 17, 128, 187, 196, 58, 128, 61, 64, 171, 63, 61, 196, 6, 172, 189, 192, 175, 169, 188, 212, 171, 247, 61, 112, 198, 182, 188, 176, 199, 99, 61, 168, 255, 52, 61, 224, 206, 50, 60, 104, 104, 141, 61, 64, 106, 102, 61, 244, 223, 157, 189, 212, 38, 136, 189, 56, 249, 123, 189, 252, 190, 254, 61, 192, 187, 165, 188, 88, 223, 32, 189, 84, 150, 246, 189, 64, 60, 123, 188, 60, 253, 137, 61, 217, 8, 70, 61, 96, 118, 73, 60, 37, 53, 207, 189, 224, 200, 177, 60, 55, 126, 199, 60, 32, 212, 184, 60, 214, 226, 41, 61, 104, 73, 235, 61, 165, 117, 135, 189, 109, 189, 253, 189, 128, 29, 102, 189, 80, 129, 132, 188, 105, 227, 138, 189, 136, 188, 21, 189, 191, 87, 51, 61, 49, 5, 249, 187, 192, 88, 57, 61, 128, 238, 14, 60, 225, 135, 219, 189, 224, 250, 173, 189, 112, 118, 134, 61, 2, 87, 17, 189, 227, 118, 193, 189, 48, 214, 3, 61, 64, 148, 112, 189, 43, 70, 222, 189, 96, 226, 192, 60, 24, 181, 10, 60, 208, 236, 230, 189, 0, 176, 86, 189, 79, 172, 242, 189, 33, 252, 148, 61, 158, 34, 188, 61, 34, 230, 99, 61, 14, 3, 82, 189, 39, 181, 213, 189, 64, 28, 218, 60, 136, 191, 8, 189, 28, 228, 185, 61, 143, 63, 19, 190, 174, 82, 219, 189, 224, 122, 226, 61, 163, 64, 161, 189, 81, 85, 229, 189, 136, 92, 235, 189, 4, 99, 222, 189, 90, 199, 97, 189, 11, 28, 192, 61, 32, 189, 184, 188, 16, 250, 30, 189, 18, 122, 210, 61, 173, 103, 172, 59, 40, 74, 2, 189, 47, 159, 155, 188, 229, 84, 99, 60, 32, 212, 27, 188, 48, 76, 126, 61, 236, 44, 2, 61, 102, 236, 171, 61, 225, 51, 211, 189, 236, 112, 137, 61, 147, 209, 188, 61, 24, 7, 183, 61, 150, 27, 186, 189, 103, 62, 57, 189, 120, 245, 110, 61, 60, 30, 19, 189, 32, 77, 40, 61, 122, 193, 157, 61, 250, 246, 138, 189, 248, 55, 227, 189, 228, 54, 165, 61, 191, 205, 242, 189, 213, 64, 146, 189, 111, 90, 210, 61, 77, 225, 147, 61, 48, 103, 236, 60, 108, 63, 135, 61, 36, 99, 241, 189, 21, 140, 156, 61, 48, 170, 136, 189, 80, 104, 110, 61, 88, 74, 241, 189, 246, 233, 232, 61, 72, 95, 241, 189, 134, 115, 146, 188, 0, 184, 74, 59, 188, 209, 168, 60, 147, 18, 91, 61, 240, 128, 40, 189, 40, 29, 2, 190, 124, 183, 165, 61, 255, 30, 230, 189, 233, 142, 211, 189, 64, 59, 204, 188, 178, 157, 208, 186, 42, 82, 196, 60, 0, 245, 216, 189, 192, 120, 239, 59, 46, 134, 18, 61, 0, 18, 202, 189, 64, 232, 104, 188, 1, 19, 73, 61, 131, 202, 179, 61, 123, 164, 181, 189, 116, 41, 133, 189, 233, 2, 218, 189, 228, 90, 104, 60, 67, 189, 79, 189, 184, 173, 40, 189, 225, 29, 63, 189, 104, 162, 207, 61, 46, 196, 227, 188, 92, 174, 187, 189, 156, 66, 136, 61, 24, 163, 172, 61, 188, 245, 234, 189, 80, 88, 51, 61, 149, 215, 206, 61, 219, 75, 161, 61, 22, 162, 217, 189, 252, 218, 220, 189, 212, 200, 218, 189, 87, 31, 241, 189, 165, 142, 175, 61, 58, 225, 228, 189, 80, 187, 133, 61, 1, 188, 202, 187, 242, 214, 67, 61, 88, 146, 70, 189, 97, 99, 130, 189, 120, 76, 184, 189, 58, 17, 81, 61, 8, 128, 21, 189, 194, 83, 222, 189, 120, 235, 0, 189, 77, 176, 122, 189, 101, 0, 210, 188, 240, 70, 250, 189, 80, 7, 28, 189, 226, 224, 60, 189, 64, 23, 14, 60, 219, 138, 99, 189, 236, 115, 182, 189, 101, 7, 8, 190, 244, 244, 159, 189, 228, 175, 141, 189, 220, 93, 142, 61, 248, 27, 204, 61, 186, 121, 110, 60, 62, 135, 169, 188, 0, 78, 158, 60, 181, 224, 20, 189, 60, 79, 94, 189, 93, 147, 144, 61, 203, 146, 190, 61, 164, 4, 237, 61, 212, 238, 42, 61, 26, 126, 100, 188, 129, 108, 216, 61, 163, 116, 155, 61, 44, 43, 201, 59, 134, 73, 14, 187, 242, 239, 193, 60, 141, 96, 203, 61, 72, 215, 253, 189, 96, 179, 12, 189, 56, 181, 18, 190, 164, 48, 25, 61, 80, 226, 216, 61, 65, 75, 41, 189, 86, 97, 125, 60, 224, 207, 229, 60, 182, 203, 190, 61, 148, 88, 153, 189, 116, 83, 241, 60, 0, 39, 111, 189, 104, 82, 232, 61, 127, 230, 198, 61, 23, 68, 132, 61, 0, 144, 115, 60, 161, 169, 167, 189, 87, 89, 158, 61, 152, 130, 200, 61, 68, 224, 205, 189, 205, 119, 153, 61, 105, 215, 143, 189, 101, 45, 167, 188, 176, 124, 245, 188, 3, 240, 125, 60, 192, 237, 199, 187, 122, 178, 194, 60, 43, 118, 166, 61, 32, 31, 198, 188, 217, 240, 91, 61, 100, 252, 151, 61, 81, 90, 185, 189, 230, 158, 158, 189, 31, 89, 174, 189, 240, 158, 43, 61, 143, 230, 42, 188, 98, 170, 187, 61, 241, 209, 205, 61, 55, 69, 239, 60, 188, 253, 156, 61, 93, 115, 26, 189, 76, 168, 227, 189, 241, 222, 5, 189, 224, 35, 54, 188, 192, 173, 172, 188, 192, 218, 194, 188, 30, 186, 54, 189, 200, 150, 2, 61, 105, 161, 181, 189, 228, 216, 250, 61, 112, 114, 189, 61, 131, 72, 227, 189, 184, 208, 85, 189, 206, 129, 214, 188, 168, 150, 13, 61, 154, 147, 157, 189, 71, 166, 16, 189, 36, 199, 191, 61, 162, 142, 189, 60, 23, 217, 140, 189, 131, 184, 134, 61, 240, 150, 232, 60, 173, 194, 60, 61, 44, 102, 250, 189, 92, 142, 228, 189, 37, 50, 251, 189, 132, 10, 89, 189, 43, 158, 109, 61, 208, 131, 198, 189, 32, 198, 209, 189, 182, 243, 234, 189, 245, 39, 248, 189, 244, 246, 146, 61, 114, 2, 238, 60, 16, 149, 158, 189, 65, 179, 141, 188, 196, 45, 21, 61, 76, 34, 207, 189, 153, 85, 75, 61, 120, 125, 137, 189, 71, 47, 176, 61, 244, 200, 133, 61, 187, 33, 155, 61, 213, 228, 29, 188, 8, 154, 94, 189, 154, 98, 89, 61, 92, 209, 183, 61, 91, 127, 130, 189, 139, 111, 227, 189, 144, 254, 151, 60, 180, 196, 58, 61, 232, 136, 184, 61, 176, 180, 156, 189, 201, 192, 157, 189, 152, 129, 205, 61, 80, 181, 76, 61, 104, 115, 199, 61, 116, 182, 146, 189, 60, 51, 191, 189, 63, 201, 119, 61, 196, 145, 252, 187, 192, 120, 166, 59, 184, 236, 177, 189, 112, 28, 129, 188, 64, 150, 170, 187, 193, 111, 102, 61, 35, 208, 158, 61, 118, 149, 0, 190, 212, 149, 187, 61, 199, 54, 102, 189, 128, 0, 154, 189, 64, 217, 243, 59, 152, 226, 132, 61, 75, 92, 219, 61, 0, 90, 41, 61, 199, 15, 107, 189, 29, 209, 234, 188, 242, 31, 38, 61, 250, 139, 140, 61, 12, 101, 193, 189, 208, 100, 161, 188, 216, 240, 208, 188, 62, 179, 183, 61, 246, 16, 174, 189, 231, 43, 212, 189, 48, 227, 184, 189, 81, 9, 36, 61, 166, 11, 128, 189, 132, 7, 255, 61, 182, 32, 66, 188, 52, 168, 164, 61, 200, 1, 187, 61, 96, 186, 41, 188, 2, 254, 20, 189, 147, 195, 234, 60, 248, 131, 6, 189, 194, 166, 73, 61, 118, 59, 18, 58, 87, 19, 240, 189, 128, 90, 233, 59, 52, 210, 181, 61, 65, 245, 124, 189, 11, 84, 74, 189, 48, 100, 173, 188, 122, 151, 234, 189, 146, 214, 138, 189, 64, 129, 78, 189, 192, 191, 225, 60, 194, 75, 151, 189, 43, 208, 126, 189, 208, 107, 154, 189, 248, 96, 245, 189, 42, 78, 14, 190, 96, 38, 134, 188, 222, 38, 159, 189, 88, 53, 39, 189, 72, 202, 26, 61, 132, 93, 47, 189, 12, 102, 223, 189, 144, 64, 165, 189, 82, 80, 141, 188, 180, 129, 173, 189, 64, 44, 76, 61, 107, 169, 62, 189, 68, 226, 203, 188, 131, 131, 193, 61, 16, 197, 244, 189, 184, 173, 208, 61, 31, 13, 152, 61, 96, 105, 225, 61, 180, 50, 142, 188, 64, 106, 119, 61, 128, 38, 212, 187, 148, 86, 147, 189, 32, 23, 194, 188, 176, 8, 131, 189, 96, 37, 249, 188, 40, 73, 200, 189, 213, 50, 187, 187, 81, 159, 43, 188, 112, 194, 248, 189, 191, 59, 119, 61, 128, 95, 150, 189, 226, 160, 72, 61, 51, 42, 54, 61, 104, 175, 65, 61, 237, 3, 160, 189, 112, 5, 246, 60, 128, 241, 105, 188, 176, 177, 191, 60, 182, 221, 220, 61, 112, 45, 21, 189, 160, 197, 0, 188, 169, 120, 204, 61, 153, 183, 192, 58, 240, 250, 231, 189, 0, 60, 170, 57, 224, 16, 141, 189, 20, 98, 80, 189, 170, 209, 211, 189, 0, 215, 175, 188, 36, 107, 219, 61, 16, 20, 74, 189, 101, 19, 176, 189, 192, 95, 207, 61, 146, 30, 160, 61, 130, 242, 223, 189, 0, 15, 180, 60, 209, 65, 128, 189, 229, 68, 142, 61, 168, 22, 133, 61, 81, 173, 68, 189, 32, 227, 43, 61, 0, 217, 28, 189, 35, 4, 223, 61, 110, 133, 10, 189, 48, 173, 201, 61, 208, 56, 252, 60, 120, 8, 153, 61, 178, 199, 181, 61, 88, 162, 73, 61, 17, 183, 210, 61, 112, 190, 245, 61, 104, 134, 5, 190, 168, 248, 47, 61, 142, 114, 8, 190, 128, 85, 228, 187, 131, 245, 115, 61, 9, 191, 152, 60, 128, 114, 192, 59, 160, 192, 254, 188, 104, 107, 130, 61, 204, 136, 249, 189, 157, 46, 118, 60, 232, 132, 207, 189, 215, 231, 146, 61, 84, 245, 154, 189, 123, 120, 161, 61, 144, 92, 41, 61, 24, 166, 50, 189, 69, 78, 87, 61, 201, 100, 10, 190, 112, 113, 129, 188, 52, 63, 160, 189, 194, 53, 104, 188, 163, 144, 2, 190, 23, 39, 75, 61, 180, 86, 209, 61, 108, 35, 219, 189, 247, 43, 187, 188, 76, 59, 190, 59, 137, 121, 48, 189, 91, 219, 71, 61, 14, 135, 226, 61, 155, 238, 162, 61, 165, 215, 51, 189, 248, 45, 150, 189, 162, 120, 154, 60, 201, 75, 236, 189, 16, 244, 37, 189, 236, 236, 208, 61, 133, 30, 238, 189, 124, 216, 207, 61, 192, 107, 151, 189, 156, 44, 10, 190, 17, 158, 141, 61, 130, 227, 203, 61, 64, 199, 157, 189, 128, 57, 248, 189, 0, 107, 79, 60, 159, 236, 141, 188, 224, 99, 156, 61, 18, 81, 188, 61, 65, 33, 67, 189, 204, 198, 199, 61, 96, 105, 136, 61, 152, 50, 165, 61, 217, 93, 82, 189, 179, 180, 241, 189, 116, 33, 212, 61, 219, 214, 101, 60, 204, 183, 129, 189, 9, 60, 128, 189, 136, 38, 253, 61, 136, 124, 59, 189, 35, 84, 7, 61, 176, 116, 165, 189, 218, 118, 223, 61, 183, 108, 77, 61, 240, 233, 156, 60, 240, 170, 194, 189, 174, 106, 14, 61, 7, 163, 32, 61, 192, 87, 211, 60, 168, 17, 6, 190, 152, 190, 45, 189, 243, 190, 246, 188, 112, 112, 178, 188, 154, 132, 140, 61, 200, 48, 69, 189, 72, 106, 55, 61, 240, 39, 198, 188, 241, 24, 34, 61, 72, 174, 238, 189, 204, 209, 158, 61, 176, 163, 188, 189, 175, 205, 253, 188, 116, 5, 196, 189, 80, 80, 174, 188, 173, 198, 0, 190, 140, 86, 242, 61, 234, 138, 25, 61, 229, 127, 199, 187, 8, 249, 17, 61, 118, 157, 6, 190, 108, 46, 236, 189, 213, 211, 0, 190, 192, 37, 252, 60, 27, 13, 160, 61, 64, 128, 238, 59, 220, 62, 231, 189, 179, 182, 87, 61, 180, 167, 200, 61, 54, 190, 31, 189, 68, 205, 212, 61, 53, 15, 3, 190, 76, 85, 9, 60, 43, 182, 56, 61, 164, 24, 229, 189, 248, 83, 225, 189, 208, 91, 209, 189, 101, 106, 76, 60, 174, 83, 176, 61, 26, 104, 99, 61, 69, 242, 174, 61, 152, 171, 153, 61, 203, 122, 108, 61, 220, 115, 148, 61, 215, 130, 7, 61, 111, 83, 230, 189, 112, 108, 158, 189, 76, 185, 96, 189, 45, 238, 125, 61, 251, 44, 117, 189, 88, 96, 209, 61, 232, 91, 11, 189, 172, 215, 64, 61, 203, 131, 193, 64, 222, 140, 243, 60, 156, 202, 221, 64, 116, 90, 162, 189, 171, 228, 233, 60, 192, 87, 65, 189, 188, 154, 223, 64, 112, 73, 135, 188,