#pragma once

#include <cstdint>

const uint8_t mod_1[] = {
28, 0, 0, 0, 84, 70, 76, 51, 20, 0, 32, 0, 28, 0, 24, 0, 20, 0, 16, 0, 12, 0, 0, 0, 8, 0, 4, 0, 20, 0, 0, 0, 28, 0, 0, 0, 156, 0, 0, 0, 244, 0, 0, 0, 184, 3, 2, 0, 200, 3, 2, 0, 8, 6, 2, 0, 3, 0, 0, 0, 1, 0, 0, 0, 16, 0, 0, 0, 0, 0, 10, 0, 16, 0, 12, 0, 8, 0, 4, 0, 10, 0, 0, 0, 12, 0, 0, 0, 28, 0, 0, 0, 60, 0, 0, 0, 15, 0, 0, 0, 115, 101, 114, 118, 105, 110, 103, 95, 100, 101, 102, 97, 117, 108, 116, 0, 1, 0, 0, 0, 4, 0, 0, 0, 140, 255, 255, 255, 3, 0, 0, 0, 4, 0, 0, 0, 10, 0, 0, 0, 110, 110, 95, 108, 97, 121, 101, 114, 95, 50, 0, 0, 1, 0, 0, 0, 4, 0, 0, 0, 214, 254, 253, 255, 4, 0, 0, 0, 16, 0, 0, 0, 110, 110, 95, 108, 97, 121, 101, 114, 95, 50, 95, 105, 110, 112, 117, 116, 0, 0, 0, 0, 2, 0, 0, 0, 52, 0, 0, 0, 4, 0, 0, 0, 220, 255, 255, 255, 6, 0, 0, 0, 4, 0, 0, 0, 19, 0, 0, 0, 67, 79, 78, 86, 69, 82, 83, 73, 79, 78, 95, 77, 69, 84, 65, 68, 65, 84, 65, 0, 8, 0, 12, 0, 8, 0, 4, 0, 8, 0, 0, 0, 5, 0, 0, 0, 4, 0, 0, 0, 19, 0, 0, 0, 109, 105, 110, 95, 114, 117, 110, 116, 105, 109, 101, 95, 118, 101, 114, 115, 105, 111, 110, 0, 7, 0, 0, 0, 192, 2, 2, 0, 184, 2, 2, 0, 168, 0, 2, 0, 144, 0, 0, 0, 136, 0, 0, 0, 104, 0, 0, 0, 4, 0, 0, 0, 114, 255, 253, 255, 4, 0, 0, 0, 84, 0, 0, 0, 12, 0, 0, 0, 8, 0, 14, 0, 8, 0, 4, 0, 8, 0, 0, 0, 16, 0, 0, 0, 36, 0, 0, 0, 0, 0, 6, 0, 8, 0, 4, 0, 6, 0, 0, 0, 4, 0, 0, 0, 0, 0, 0, 0, 0, 0, 10, 0, 16, 0, 12, 0, 8, 0, 4, 0, 10, 0, 0, 0, 2, 0, 0, 0, 2, 0, 0, 0, 4, 0, 0, 0, 6, 0, 0, 0, 50, 46, 49, 51, 46, 48, 0, 0, 210, 255, 253, 255, 4, 0, 0, 0, 16, 0, 0, 0, 49, 46, 53, 46, 48, 0, 0, 0, 0, 0, 0, 0, 0, 0, 0, 0, 184, 251, 253, 255, 242, 255, 253, 255, 4, 0, 0, 0, 0, 0, 2, 0, 108, 32, 179, 61, 16, 62, 191, 60, 60, 168, 36, 189, 240, 222, 237, 189, 20, 117, 176, 61, 75, 159, 27, 189, 212, 184, 248, 60, 28, 213, 215, 61, 104, 254, 59, 188, 157, 34, 177, 189, 129, 251, 18, 59, 28, 25, 169, 61, 30, 163, 111, 61, 16, 32, 191, 189, 48, 71, 158, 188, 0, 138, 66, 189, 126, 61, 145, 189, 128, 35, 120, 61, 218, 150, 186, 189, 13, 184, 235, 61, 144, 114, 254, 188, 15, 157, 23, 189, 129, 48, 241, 189, 28, 191, 140, 61, 89, 128, 108, 61, 18, 206, 112, 188, 140, 160, 163, 189, 187, 97, 37, 61, 87, 216, 228, 188, 248, 156, 87, 189, 68, 195, 238, 189, 168, 171, 242, 61, 0, 36, 240, 59, 118, 30, 245, 185, 76, 190, 14, 188, 120, 29, 221, 189, 228, 229, 126, 189, 80, 14, 58, 189, 64, 243, 209, 189, 55, 50, 208, 187, 192, 226, 103, 188, 74, 194, 146, 61, 167, 122, 32, 61, 52, 176, 227, 61, 6, 124, 4, 62, 112, 217, 144, 189, 128, 207, 33, 187, 32, 39, 243, 189, 128, 177, 71, 61, 208, 102, 134, 188, 108, 55, 173, 189, 16, 92, 118, 189, 84, 35, 192, 61, 12, 163, 212, 61, 116, 111, 181, 61, 197, 138, 138, 187, 100, 72, 161, 61, 180, 120, 71, 188, 3, 62, 218, 185, 209, 48, 148, 189, 211, 214, 162, 61, 42, 146, 237, 61, 72, 88, 175, 189, 171, 203, 177, 61, 48, 73, 206, 60, 152, 93, 31, 61, 56, 127, 87, 61, 64, 251, 15, 188, 96, 135, 147, 189, 198, 161, 208, 61, 8, 252, 4, 189, 80, 141, 37, 189, 192, 189, 64, 61, 192, 124, 61, 60, 0, 87, 194, 58, 111, 51, 229, 61, 192, 32, 40, 60, 241, 202, 123, 188, 144, 15, 225, 189, 96, 155, 8, 188, 72, 193, 244, 189, 216, 160, 126, 61, 242, 163, 243, 61, 64, 214, 35, 189, 74, 65, 69, 60, 0, 63, 102, 188, 190, 152, 202, 59, 181, 233, 212, 189, 73, 134, 251, 60, 48, 211, 229, 61, 214, 54, 104, 61, 204, 178, 195, 189, 4, 83, 152, 189, 185, 50, 18, 61, 204, 171, 203, 189, 56, 199, 186, 189, 11, 108, 167, 61, 57, 91, 110, 61, 194, 179, 28, 189, 16, 136, 37, 189, 228, 213, 155, 61, 48, 182, 80, 61, 213, 29, 237, 61, 104, 186, 5, 61, 214, 33, 169, 61, 240, 46, 208, 61, 192, 166, 145, 189, 172, 62, 233, 189, 60, 74, 205, 61, 96, 23, 142, 189, 14, 89, 132, 61, 136, 187, 200, 60, 54, 223, 179, 189, 78, 28, 4, 61, 216, 26, 251, 61, 19, 81, 184, 189, 80, 70, 132, 61, 113, 139, 254, 188, 195, 195, 184, 189, 53, 25, 134, 61, 219, 56, 100, 61, 57, 203, 74, 189, 140, 30, 228, 189, 45, 222, 178, 61, 0, 2, 224, 187, 16, 149, 94, 189, 112, 141, 193, 60, 80, 150, 131, 189, 21, 105, 180, 61, 116, 238, 176, 189, 76, 53, 181, 189, 18, 27, 236, 189, 5, 1, 47, 188, 124, 161, 215, 189, 154, 172, 213, 60, 192, 20, 146, 60, 0, 191, 241, 59, 191, 195, 253, 61, 208, 26, 128, 60, 26, 50, 217, 61, 112, 75, 231, 189, 217, 173, 173, 189, 163, 9, 218, 61, 109, 173, 176, 61, 78, 148, 186, 61, 48, 183, 26, 189, 192, 51, 214, 60, 176, 29, 162, 60, 116, 121, 190, 189, 247, 153, 27, 189, 174, 212, 138, 61, 252, 109, 207, 61, 77, 38, 164, 189, 76, 114, 255, 61, 172, 180, 208, 189, 25, 242, 7, 189, 223, 115, 209, 59, 80, 129, 228, 61, 60, 24, 132, 61, 199, 110, 154, 189, 248, 125, 138, 61, 0, 151, 132, 187, 232, 137, 67, 61, 133, 118, 241, 189, 114, 24, 129, 61, 221, 134, 192, 61, 107, 80, 232, 189, 200, 66, 227, 61, 204, 84, 233, 61, 200, 234, 211, 61, 10, 115, 226, 61, 64, 71, 239, 60, 217, 35, 233, 189, 88, 23, 160, 61, 240, 52, 255, 189, 64, 131, 207, 59, 68, 192, 142, 61, 46, 8, 200, 61, 211, 222, 87, 189, 244, 205, 166, 189, 167, 167, 240, 189, 216, 133, 162, 189, 108, 72, 179, 189, 136, 51, 73, 189, 136, 153, 113, 61, 172, 240, 253, 189, 44, 72, 234, 188, 128, 44, 118, 61, 16, 211, 214, 189, 180, 36, 146, 61, 152, 248, 14, 61, 224, 111, 18, 189, 82, 34, 212, 189, 194, 98, 251, 61, 148, 17, 201, 189, 208, 27, 157, 60, 216, 194, 48, 61, 49, 185, 143, 189, 44, 249, 148, 61, 24, 235, 62, 189, 0, 153, 111, 61, 184, 3, 241, 61, 232, 70, 146, 189, 160, 55, 57, 189, 220, 178, 251, 61, 120, 202, 245, 61, 144, 121, 150, 60, 31, 242, 129, 189, 136, 12, 24, 189, 49, 229, 146, 189, 114, 17, 217, 61, 43, 65, 156, 61, 245, 24, 179, 61, 224, 135, 17, 189, 14, 93, 103, 60, 196, 94, 240, 60, 25, 28, 60, 60, 59, 124, 232, 58, 192, 57, 198, 59, 240, 86, 223, 61, 224, 173, 204, 60, 44, 53, 136, 61, 212, 217, 177, 189, 90, 232, 153, 61, 144, 193, 149, 61, 112, 30, 155, 61, 156, 162, 239, 61, 184, 144, 244, 61, 27, 219, 141, 189, 219, 253, 166, 61, 93, 30, 178, 61, 0, 60, 207, 59, 241, 251, 199, 61, 83, 36, 183, 60, 12, 68, 194, 61, 206, 167, 80, 60, 128, 48, 240, 59, 172, 139, 163, 189, 120, 187, 204, 61, 80, 226, 91, 61, 50, 150, 207, 188, 191, 116, 141, 61, 123, 2, 136, 61, 11, 232, 128, 186, 67, 212, 223, 59, 116, 135, 50, 61, 17, 208, 218, 189, 83, 242, 9, 189, 170, 255, 8, 189, 96, 103, 74, 60, 12, 51, 217, 189, 224, 196, 216, 60, 114, 76, 168, 189, 124, 167, 95, 58, 176, 251, 250, 61, 170, 58, 104, 61, 144, 179, 252, 188, 208, 107, 146, 61, 80, 25, 40, 189, 192, 158, 227, 188, 176, 139, 151, 61, 19, 252, 57, 189, 226, 140, 225, 189, 176, 145, 212, 188, 43, 32, 21, 189, 59, 100, 164, 61, 121, 84, 192, 60, 4, 227, 170, 61, 156, 103, 176, 61, 192, 233, 154, 188, 20, 1, 155, 189, 224, 43, 115, 60, 64, 16, 78, 189, 12, 238, 177, 189, 172, 239, 214, 61, 225, 231, 187, 188, 244, 220, 182, 189, 149, 226, 63, 60, 4, 29, 233, 188, 73, 17, 147, 189, 4, 231, 137, 60, 72, 14, 152, 59, 109, 193, 46, 189, 97, 38, 234, 60, 73, 19, 28, 189, 6, 37, 151, 189, 44, 49, 224, 61, 240, 34, 218, 189, 80, 15, 88, 189, 58, 71, 138, 187, 87, 74, 163, 189, 64, 28, 183, 189, 111, 208, 173, 61, 108, 66, 212, 189, 24, 123, 45, 189, 162, 61, 216, 189, 132, 96, 245, 61, 17, 113, 206, 61, 197, 76, 249, 189, 28, 181, 135, 61, 231, 117, 219, 60, 48, 119, 43, 189, 220, 19, 219, 189, 96, 38, 202, 189, 192, 234, 216, 61, 12, 116, 169, 61, 248, 99, 39, 61, 188, 62, 207, 61, 24, 163, 158, 189, 101, 29, 145, 189, 28, 51, 145, 61, 66, 233, 199, 189, 248, 46, 200, 61, 115, 226, 47, 60, 141, 41, 15, 189, 88, 190, 169, 189, 182, 240, 47, 189, 225, 237, 43, 189, 176, 158, 235, 60, 253, 89, 149, 61, 200, 210, 146, 61, 68, 134, 144, 61, 199, 80, 40, 186, 217, 186, 254, 59, 116, 85, 232, 61, 133, 220, 12, 61, 104, 163, 8, 189, 248, 181, 116, 61, 176, 255, 136, 189, 244, 242, 218, 61, 32, 164, 131, 188, 232, 8, 14, 189, 180, 89, 198, 189, 181, 47, 210, 60, 212, 211, 217, 189, 8, 52, 110, 189, 160, 32, 246, 61, 68, 94, 197, 61, 239, 194, 231, 189, 16, 67, 251, 60, 67, 99, 128, 188, 128, 180, 227, 61, 213, 65, 124, 61, 153, 129, 235, 189, 145, 216, 95, 61, 7, 231, 177, 61, 233, 162, 219, 188, 244, 146, 203, 189, 184, 53, 116, 189, 188, 227, 153, 61, 204, 91, 228, 189, 208, 250, 130, 189, 172, 14, 157, 188, 59, 197, 232, 189, 205, 2, 3, 190, 212, 15, 160, 61, 224, 55, 166, 61, 40, 12, 100, 61, 131, 203, 168, 188, 48, 198, 181, 60, 210, 4, 238, 189, 0, 233, 23, 60, 142, 23, 232, 60, 140, 186, 163, 61, 204, 247, 114, 60, 104, 66, 172, 61, 240, 82, 235, 188, 98, 154, 176, 61, 178, 161, 203, 61, 160, 219, 175, 61, 32, 95, 62, 188, 31, 224, 76, 61, 52, 34, 135, 61, 104, 108, 144, 61, 130, 14, 234, 61, 211, 203, 237, 189, 227, 50, 219, 187, 222, 217, 176, 61, 192, 131, 218, 189, 21, 69, 223, 61, 96, 203, 45, 189, 64, 0, 238, 60, 136, 210, 216, 61, 88, 175, 113, 61, 209, 195, 170, 61, 104, 210, 59, 61, 80, 183, 211, 189, 40, 17, 128, 61, 87, 200, 81, 189, 120, 52, 36, 61, 109, 110, 177, 187, 64, 197, 116, 188, 96, 220, 103, 188, 228, 186, 240, 61, 204, 12, 214, 189, 104, 186, 229, 189, 104, 43, 250, 61, 245, 151, 43, 189, 160, 104, 218, 189, 128, 253, 65, 61, 216, 235, 81, 61, 144, 160, 182, 188, 0, 48, 89, 189, 224, 185, 116, 188, 0, 207, 94, 61, 206, 255, 159, 59, 218, 57, 174, 61, 248, 78, 200, 189, 145, 32, 233, 189, 168, 51, 177, 189, 224, 219, 80, 60, 111, 136, 224, 58, 115, 252, 134, 61, 0, 184, 239, 59, 0, 230, 224, 61, 254, 243, 219, 189, 174, 120, 95, 61, 80, 182, 149, 60, 128, 47, 13, 61, 102, 78, 210, 61, 105, 20, 115, 61, 113, 129, 131, 60, 13, 205, 97, 189, 184, 113, 52, 189, 84, 213, 182, 189, 157, 10, 86, 61, 189, 63, 19, 189, 128, 145, 216, 188, 86, 102, 199, 188, 176, 149, 119, 61, 200, 84, 95, 61, 44, 189, 156, 61, 53, 187, 78, 189, 36, 19, 106, 61, 26, 254, 120, 61, 192, 112, 238, 188, 161, 219, 218, 60, 144, 139, 211, 189, 124, 167, 174, 189, 248, 146, 151, 61, 96, 172, 113, 60, 28, 244, 139, 61, 178, 99, 237, 189, 220, 231, 243, 61, 80, 163, 129, 61, 32, 128, 249, 60, 100, 95, 175, 189, 48, 82, 202, 61, 115, 224, 115, 189, 55, 255, 119, 189, 68, 104, 131, 61, 164, 238, 146, 61, 112, 243, 181, 188, 4, 156, 170, 60, 180, 20, 138, 189, 200, 84, 33, 61, 120, 48, 165, 61, 112, 173, 8, 189, 35, 45, 155, 189, 184, 37, 169, 61, 232, 119, 85, 61, 152, 39, 0, 189, 176, 186, 247, 60, 67, 67, 64, 189, 96, 237, 5, 189, 81, 92, 236, 61, 238, 29, 94, 188, 251, 9, 92, 61, 27, 192, 93, 189, 192, 100, 79, 61, 68, 150, 2, 189, 53, 249, 109, 61, 46, 42, 158, 189, 189, 55, 137, 189, 36, 53, 131, 189, 224, 206, 75, 60, 64, 174, 220, 61, 128, 248, 220, 59, 96, 34, 105, 61, 206, 5, 145, 189, 192, 122, 108, 189, 20, 153, 145, 61, 128, 82, 115, 188, 188, 108, 139, 61, 129, 74, 54, 189, 210, 221, 124, 188, 150, 161, 154, 189, 152, 86, 161, 189, 91, 91, 153, 187, 219, 151, 246, 188, 160, 23, 91, 61, 150, 41, 78, 189, 128, 18, 101, 59, 112, 206, 234, 188, 248, 153, 87, 61, 192, 107, 176, 59, 114, 119, 207, 189, 27, 76, 218, 61, 170, 10, 246, 189, 160, 158, 5, 189, 35, 24, 87, 61, 217, 189, 168, 61, 158, 54, 88, 61, 20, 143, 60, 189, 89, 147, 151, 189, 168, 204, 39, 61, 193, 22, 218, 61, 88, 122, 19, 189, 189, 150, 188, 59, 24, 3, 216, 189, 48, 75, 194, 189, 122, 252, 49, 189, 236, 37, 238, 189, 224, 234, 87, 60, 160, 78, 18, 61, 152, 194, 135, 61, 208, 223, 63, 189, 96, 219, 16, 60, 160, 172, 86, 189, 152, 96, 233, 61, 168, 83, 242, 61, 168, 17, 157, 189, 176, 27, 135, 189, 132, 118, 238, 189, 20, 2, 191, 61, 96, 78, 97, 61, 244, 126, 173, 189, 248, 26, 250, 189, 80, 240, 150, 61, 0, 196, 207, 59, 252, 232, 137, 189, 236, 48, 128, 189, 52, 147, 242, 189, 224, 24, 109, 60, 232, 59, 48, 189, 236, 56, 153, 61, 152, 136, 160, 61, 48, 68, 68, 189, 200, 214, 132, 61, 224, 145, 81, 188, 228, 8, 204, 189, 24, 241, 30, 189, 104, 106, 110, 61, 156, 238, 134, 61, 124, 216, 250, 61, 32, 92, 88, 188, 76, 3, 254, 61, 0, 27, 32, 61, 184, 60, 27, 189, 16, 96, 183, 60, 212, 214, 242, 61, 240, 15, 252, 189, 88, 49, 186, 189, 8, 0, 215, 61, 48, 51, 78, 61, 0, 128, 150, 58, 72, 67, 2, 61, 68, 52, 177, 61, 80, 182, 144, 189, 240, 54, 211, 61, 72, 78, 92, 61, 112, 44, 254, 189, 152, 21, 70, 189, 104, 193, 37, 189, 252, 53, 200, 189, 48, 125, 245, 60, 176, 155, 186, 189, 68, 9, 223, 189, 20, 227, 165, 189, 8, 163, 66, 189, 164, 209, 250, 189, 224, 169, 244, 188, 32, 36, 233, 60, 144, 173, 126, 61, 96, 105, 160, 189, 176, 4, 82, 189, 232, 45, 19, 189, 192, 179, 82, 61, 0, 105, 175, 59, 184, 54, 83, 61, 244, 153, 238, 189, 168, 188, 232, 189, 60, 74, 178, 189, 68, 93, 140, 189, 184, 132, 133, 189, 76, 207, 240, 189, 128, 228, 174, 189, 44, 19, 142, 61, 224, 179, 160, 61, 56, 106, 135, 189, 192, 253, 79, 61, 208, 211, 35, 61, 72, 45, 242, 189, 144, 215, 97, 61, 128, 165, 24, 189, 68, 110, 150, 189, 224, 127, 169, 189, 156, 250, 248, 61, 224, 131, 182, 188, 208, 185, 251, 188, 80, 192, 155, 189, 136, 169, 9, 189, 128, 213, 32, 189, 160, 233, 20, 189, 160, 108, 180, 189, 252, 85, 248, 61, 68, 240, 242, 189, 0, 112, 79, 61, 112, 121, 199, 188, 176, 124, 147, 188, 208, 204, 44, 189, 176, 140, 243, 61, 152, 118, 231, 189, 40, 34, 104, 189, 64, 24, 130, 60, 76, 172, 148, 61, 176, 112, 144, 60, 96, 40, 120, 189, 144, 92, 50, 61, 240, 143, 45, 61, 48, 60, 182, 188, 192, 58, 184, 189, 100, 208, 212, 61, 56, 87, 157, 61, 136, 68, 184, 61, 104, 229, 150, 61, 48, 216, 250, 60, 80, 150, 148, 60, 248, 196, 81, 189, 104, 70, 185, 189, 128, 106, 77, 187, 8, 196, 111, 189, 64, 183, 199, 189, 92, 144, 181, 189, 152, 57, 4, 61, 112, 158, 120, 189, 232, 135, 116, 189, 0, 203, 214, 188, 176, 89, 82, 61, 0, 198, 250, 60, 148, 126, 128, 189, 220, 30, 197, 189, 32, 242, 45, 188, 212, 225, 196, 61, 112, 65, 137, 188, 144, 245, 24, 189, 236, 206, 183, 189, 128, 174, 145, 59, 152, 234, 143, 189, 92, 81, 135, 61, 160, 168, 250, 61, 88, 243, 208, 189, 224, 220, 10, 188, 104, 51, 105, 189, 252, 132, 216, 61, 192, 206, 137, 60, 8, 32, 113, 189, 40, 165, 159, 189, 0, 110, 49, 61, 112, 242, 246, 188, 16, 53, 221, 189, 112, 137, 213, 188, 16, 100, 185, 189, 172, 241, 148, 61, 28, 229, 205, 189, 96, 247, 142, 188, 140, 211, 184, 189, 160, 249, 232, 61, 80, 240, 13, 189, 28, 189, 178, 189, 128, 60, 130, 187, 44, 204, 155, 189, 48, 3, 175, 189, 116, 137, 208, 61, 72, 143, 162, 189, 32, 86, 6, 61, 8, 179, 208, 61, 96, 227, 71, 188, 160, 21, 197, 60, 204, 231, 213, 189, 0, 198, 74, 61, 176, 171, 203, 188, 120, 251, 193, 61, 128, 80, 157, 189, 180, 209, 158, 189, 132, 35, 161, 189, 156, 196, 231, 61, 112, 38, 109, 61, 0, 98, 215, 189, 64, 153, 188, 59, 180, 134, 210, 61, 224, 85, 168, 189, 80, 33, 202, 61, 0, 234, 190, 59, 68, 230, 187, 61, 24, 145, 225, 189, 0, 75, 231, 58, 48, 108, 146, 61, 36, 10, 170, 61, 12, 229, 165, 189, 0, 80, 187, 186, 80, 6, 134, 188, 120, 14, 108, 61, 56, 37, 98, 189, 228, 201, 136, 61, 172, 69, 211, 189, 192, 237, 124, 189, 144, 107, 192, 61, 0, 168, 75, 187, 108, 177, 208, 61, 128, 74, 194, 187, 136, 25, 148, 189, 248, 183, 74, 61, 144, 243, 200, 60, 0, 32, 134, 185, 80, 71, 128, 189, 48, 5, 131, 189, 0, 22, 37, 189, 64, 166, 229, 188, 0, 114, 206, 189, 176, 25, 139, 61, 240, 176, 152, 188, 84, 41, 252, 61, 64, 79, 66, 61, 176, 111, 143, 188, 224, 105, 255, 60, 152, 129, 10, 61, 228, 201, 241, 189, 248, 105, 53, 189, 128, 228, 255, 59, 64, 52, 239, 60, 96, 128, 175, 61, 64, 30, 209, 188, 0, 103, 126, 59, 124, 202, 152, 61, 64, 241, 206, 188, 48, 110, 185, 189, 0, 160, 129, 59, 64, 77, 16, 60, 128, 107, 195, 189, 192, 130, 147, 188, 28, 125, 145, 189, 0, 50, 70, 187, 112, 124, 190, 60, 120, 11, 252, 189, 84, 239, 134, 189, 24, 220, 86, 61, 192, 129, 31, 188, 96, 121, 45, 188, 164, 235, 130, 189, 64, 244, 119, 61, 8, 184, 242, 61, 176, 87, 80, 189, 192, 98, 132, 61, 0, 45, 218, 187, 60, 151, 193, 61, 80, 77, 123, 189, 224, 97, 44, 60, 224, 215, 122, 188, 100, 249, 142, 189, 0, 173, 30, 188, 56, 222, 127, 189, 160, 122, 65, 60, 152, 145, 100, 61, 208, 101, 207, 60, 80, 72, 156, 60, 112, 156, 161, 61, 224, 157, 96, 60, 8, 89, 226, 189, 232, 2, 203, 61, 226, 49, 219, 61, 64, 126, 171, 59, 200, 135, 164, 189, 136, 152, 62, 188, 166, 82, 1, 190, 132, 192, 163, 189, 60, 19, 53, 188, 63, 171, 157, 61, 206, 32, 159, 61, 128, 158, 80, 189, 125, 175, 131, 189, 176, 230, 116, 189, 208, 58, 252, 188, 64, 54, 143, 61, 142, 121, 219, 61, 168, 130, 144, 189, 88, 72, 133, 188, 162, 46, 39, 61, 200, 89, 140, 61, 226, 88, 216, 189, 231, 78, 61, 61, 12, 102, 14, 188, 114, 56, 144, 61, 116, 46, 225, 60, 151, 153, 32, 61, 183, 184, 129, 60, 176, 72, 164, 188, 222, 137, 233, 189, 84, 119, 191, 189, 96, 0, 129, 61, 160, 159, 182, 60, 138, 198, 153, 189, 242, 45, 248, 188, 192, 212, 168, 61, 251, 141, 251, 189, 128, 50, 180, 60, 156, 86, 205, 189, 25, 143, 205, 189, 224, 153, 0, 188, 134, 228, 144, 60, 15, 11, 129, 189, 80, 102, 186, 60, 214, 90, 2, 190, 128, 229, 100, 187, 112, 14, 26, 61, 8, 9, 181, 61, 16, 30, 0, 61, 216, 181, 141, 189, 40, 207, 119, 61, 48, 88, 218, 189, 68, 125, 242, 189, 157, 167, 0, 190, 0, 59, 216, 186, 241, 160, 170, 61, 212, 54, 233, 61, 138, 225, 147, 189, 216, 248, 163, 189, 132, 209, 98, 189, 38, 43, 71, 61, 19, 64, 250, 59, 84, 70, 198, 61, 58, 180, 165, 61, 0, 242, 21, 61, 167, 121, 101, 189, 123, 183, 156, 189, 54, 231, 155, 61, 44, 53, 173, 61, 189, 240, 217, 189, 40, 73, 180, 189, 128, 1, 209, 59, 48, 134, 173, 188, 160, 214, 17, 188, 140, 165, 139, 189, 105, 76, 254, 189, 188, 125, 212, 189, 137, 172, 164, 189, 72, 198, 167, 61, 176, 245, 238, 189, 104, 100, 42, 189, 196, 44, 166, 61, 175, 94, 66, 189, 84, 245, 155, 61, 129, 155, 105, 189, 176, 25, 136, 61, 9, 60, 34, 188, 230, 122, 106, 188, 162, 30, 142, 189, 246, 81, 224, 61, 78, 203, 34, 189, 156, 36, 134, 189, 0, 46, 131, 61, 101, 115, 41, 61, 224, 4, 0, 60, 80, 90, 100, 61, 231, 248, 226, 189, 42, 119, 183, 61, 67, 194, 76, 189, 48, 66, 77, 61, 80, 32, 23, 61, 0, 202, 194, 61, 12, 92, 124, 60, 208, 255, 222, 188, 239, 148, 13, 61, 136, 13, 58, 189, 89, 135, 33, 61, 8, 76, 165, 61, 29, 118, 204, 189, 255, 241, 126, 61, 8, 50, 194, 189, 185, 69, 29, 61, 86, 226, 225, 61, 177, 22, 2, 190, 64, 235, 141, 188, 86, 240, 45, 61, 180, 199, 162, 189, 67, 71, 221, 61, 142, 93, 234, 189, 245, 124, 124, 61, 247, 82, 37, 189, 66, 192, 159, 186, 104, 78, 43, 61, 51, 53, 110, 189, 80, 235, 139, 188, 32, 202, 12, 60, 240, 84, 168, 61, 32, 189, 48, 189, 221, 48, 108, 61, 0, 196, 180, 57, 80, 20, 25, 61, 84, 18, 228, 189, 56, 102, 211, 189, 128, 171, 156, 187, 130, 161, 130, 189, 192, 8, 63, 61, 36, 241, 184, 189, 110, 170, 210, 61, 136, 195, 98, 189, 114, 78, 132, 189, 0, 211, 250, 60, 152, 165, 167, 60, 143, 162, 141, 61, 95, 22, 174, 60, 82, 160, 139, 60, 192, 112, 134, 187, 212, 58, 169, 189, 184, 7, 180, 61, 32, 44, 41, 189, 60, 64, 121, 189, 48, 244, 187, 60, 192, 59, 127, 61, 4, 9, 195, 61, 60, 191, 211, 189, 92, 32, 135, 189, 157, 89, 202, 189, 203, 54, 195, 188, 56, 229, 228, 61, 232, 196, 140, 61, 5, 14, 28, 60, 174, 57, 237, 189, 64, 173, 12, 188, 152, 255, 193, 189, 126, 48, 173, 61, 35, 137, 180, 61, 249, 152, 18, 61, 40, 172, 154, 189, 72, 52, 232, 61, 152, 184, 8, 189, 182, 65, 47, 60, 79, 223, 123, 61, 176, 106, 121, 61, 30, 242, 173, 61, 120, 102, 44, 61, 52, 244, 195, 61, 224, 126, 114, 188, 136, 36, 129, 61, 197, 77, 27, 61, 222, 251, 130, 189, 124, 51, 137, 61, 217, 87, 14, 61, 224, 201, 188, 189, 0, 168, 162, 60, 220, 231, 240, 189, 48, 24, 174, 60, 240, 115, 228, 60, 140, 20, 78, 61, 64, 197, 226, 61, 160, 199, 118, 61, 88, 47, 241, 189, 176, 22, 184, 61, 240, 175, 142, 189, 209, 213, 162, 61, 108, 120, 244, 188, 232, 32, 26, 61, 112, 69, 181, 189, 112, 120, 243, 188, 87, 15, 135, 60, 40, 66, 101, 61, 68, 16, 204, 189, 152, 174, 232, 61, 224, 47, 26, 189, 226, 145, 6, 189, 116, 185, 186, 61, 208, 108, 87, 189, 196, 60, 245, 61, 128, 9, 11, 187, 27, 127, 129, 189, 168, 248, 103, 189, 73, 181, 49, 61, 120, 22, 1, 189, 51, 122, 227, 187, 53, 218, 102, 61, 88, 6, 40, 61, 111, 75, 127, 61, 118, 156, 144, 61, 186, 199, 186, 61, 5, 237, 222, 61, 40, 156, 188, 189, 144, 118, 165, 61, 128, 116, 222, 188, 208, 137, 138, 61, 44, 217, 138, 61, 83, 251, 150, 61, 128, 215, 9, 61, 170, 172, 12, 189, 24, 12, 169, 61, 80, 1, 255, 60, 187, 246, 163, 61, 190, 185, 31, 189, 169, 138, 223, 189, 0, 146, 51, 58, 183, 235, 107, 61, 225, 141, 124, 189, 176, 162, 218, 61, 162, 54, 53, 189, 208, 181, 244, 61, 192, 229, 139, 61, 64, 30, 164, 187, 24, 254, 214, 189, 251, 205, 13, 189, 130, 141, 207, 189, 150, 11, 234, 59, 192, 113, 122, 189, 56, 125, 211, 189, 16, 217, 124, 189, 145, 88, 154, 189, 181, 49, 120, 189, 46, 185, 229, 189, 168, 36, 251, 189, 217, 151, 20, 61, 4, 185, 196, 61, 93, 250, 132, 60, 74, 154, 155, 60, 176, 11, 253, 60, 180, 80, 225, 59, 0, 22, 47, 59, 240, 231, 158, 60, 236, 87, 12, 188, 184, 17, 47, 61, 208, 161, 249, 189, 179, 58, 218, 61, 147, 83, 20, 61, 224, 186, 153, 61, 245, 170, 64, 189, 118, 204, 197, 61, 230, 229, 149, 187, 32, 154, 216, 60, 200, 91, 190, 61, 180, 203, 159, 61, 188, 201, 205, 189, 76, 103, 139, 61, 234, 111, 3, 62, 128, 44, 77, 61, 97, 21, 202, 189, 206, 129, 243, 61, 240, 21, 217, 61, 65, 102, 131, 60, 98, 239, 246, 61, 55, 140, 98, 188, 22, 206, 142, 188, 187, 6, 109, 61, 177, 60, 3, 62, 218, 76, 54, 61, 90, 153, 183, 60, 194, 159, 168, 189, 12, 175, 187, 189, 100, 142, 210, 189, 216, 129, 212, 61, 71, 219, 84, 189, 124, 120, 203, 189, 188, 87, 129, 189, 223, 205, 32, 60, 8, 129, 238, 189, 248, 19, 144, 61, 94, 99, 201, 189, 76, 193, 143, 61, 133, 71, 143, 61, 152, 82, 54, 189, 128, 224, 232, 187, 179, 142, 214, 61, 0, 144, 93, 188, 64, 33, 226, 59, 96, 237, 153, 189, 176, 131, 55, 189, 164, 175, 154, 189, 72, 57, 201, 189, 104, 37, 156, 189, 40, 201, 225, 61, 121, 206, 107, 60, 60, 6, 235, 61, 241, 233, 246, 61, 207, 152, 32, 61, 18, 238, 160, 189, 185, 149, 116, 59, 34, 100, 158, 187, 26, 29, 6, 62, 250, 106, 15, 61, 208, 226, 191, 189, 180, 210, 50, 189, 192, 209, 202, 61, 18, 151, 151, 61, 180, 146, 3, 62, 172, 178, 219, 189, 192, 101, 216, 188, 254, 46, 46, 60, 0, 127, 150, 58, 248, 50, 164, 189, 48, 102, 96, 189, 176, 16, 227, 61, 216, 156, 20, 189, 152, 124, 231, 61, 160, 29, 169, 188, 67, 248, 231, 189, 216, 155, 8, 61, 56, 80, 15, 189, 196, 121, 204, 61, 0, 79, 1, 60, 237, 10, 96, 189, 60, 228, 229, 61, 246, 63, 166, 61, 68, 232, 130, 61, 79, 231, 211, 189, 18, 17, 72, 189, 86, 243, 254, 61, 14, 3, 165, 59, 49, 46, 216, 189, 48, 178, 208, 60, 24, 174, 122, 189, 193, 152, 3, 62, 80, 94, 148, 188, 252, 111, 228, 189, 179, 166, 19, 59, 108, 52, 174, 61, 192, 6, 154, 187, 28, 231, 167, 61, 252, 235, 196, 189, 0, 112, 20, 60, 49, 254, 47, 59, 56, 207, 233, 61, 62, 59, 58, 189, 144, 94, 216, 188, 103, 215, 155, 189, 128, 91, 233, 60, 13, 241, 183, 61, 254, 95, 113, 61, 122, 58, 112, 189, 216, 231, 202, 61, 45, 213, 195, 189, 193, 102, 228, 189, 20, 198, 168, 61, 154, 100, 138, 189, 16, 62, 184, 188, 54, 65, 65, 61, 124, 43, 197, 188, 182, 7, 196, 189, 125, 40, 222, 188, 149, 248, 196, 61, 224, 97, 220, 61, 155, 225, 136, 189, 204, 169, 133, 189, 64, 132, 190, 60, 244, 36, 143, 189, 68, 239, 160, 61, 222, 66, 194, 60, 80, 175, 233, 189, 32, 203, 26, 188, 57, 207, 166, 61, 231, 176, 240, 189, 140, 17, 228, 189, 171, 123, 15, 188, 176, 94, 15, 189, 224, 150, 29, 61, 236, 134, 193, 61, 4, 206, 144, 61, 59, 224, 130, 189, 192, 111, 124, 61, 17, 222, 52, 61, 185, 62, 25, 189, 175, 8, 84, 189, 207, 151, 161, 188, 48, 211, 152, 189, 128, 66, 175, 61, 64, 103, 182, 61, 0, 199, 188, 188, 40, 196, 204, 189, 75, 237, 20, 60, 236, 207, 247, 189, 200, 236, 9, 189, 164, 230, 209, 61, 192, 143, 131, 60, 242, 170, 131, 189, 82, 175, 156, 61, 0, 244, 60, 58, 112, 27, 160, 61, 225, 7, 117, 61, 202, 176, 208, 61, 12, 105, 225, 61, 128, 146, 123, 187, 141, 253, 237, 60, 28, 79, 113, 189, 138, 184, 164, 188, 227, 164, 150, 61, 200, 100, 240, 61, 236, 65, 218, 189, 223, 77, 28, 61, 77, 160, 241, 189, 64, 82, 215, 189, 25, 30, 219, 60, 224, 120, 219, 188, 152, 56, 134, 61, 228, 87, 225, 61, 61, 203, 204, 61, 154, 18, 169, 189, 25, 11, 147, 61, 48, 33, 132, 60, 95, 67, 181, 61, 64, 215, 176, 59, 244, 211, 197, 61, 248, 51, 202, 189, 224, 101, 78, 189, 204, 64, 249, 189, 93, 252, 209, 189, 40, 122, 245, 61, 224, 221, 149, 188, 24, 6, 245, 61, 172, 110, 135, 61, 224, 74, 37, 189, 56, 35, 129, 189, 248, 45, 150, 61, 72, 37, 51, 61, 48, 6, 37, 61, 96, 154, 93, 188, 199, 144, 254, 61, 44, 223, 184, 61, 92, 62, 205, 189, 192, 196, 103, 189, 124, 48, 202, 189, 231, 86, 168, 61, 28, 50, 252, 189, 12, 161, 235, 61, 144, 136, 118, 189, 8, 141, 51, 61, 219, 42, 71, 60, 184, 128, 188, 61, 240, 212, 68, 61, 192, 84, 143, 187, 193, 107, 139, 189, 187, 158, 129, 189, 152, 102, 167, 189, 197, 88, 140, 60, 192, 207, 0, 189, 82, 2, 58, 61, 18, 108, 116, 61, 36, 166, 211, 61, 24, 237, 109, 61, 16, 14, 221, 188, 108, 191, 142, 189, 68, 242, 179, 61, 47, 66, 31, 189, 24, 70, 96, 61, 58, 243, 93, 189, 76, 132, 234, 61, 8, 134, 87, 61, 46, 59, 100, 189, 126, 159, 12, 189, 159, 213, 179, 187, 8, 104, 52, 61, 82, 140, 172, 189, 42, 49, 184, 61, 96, 225, 73, 61, 34, 214, 61, 188, 164, 80, 209, 189, 48, 201, 88, 61, 168, 53, 102, 61, 248, 251, 121, 61, 111, 76, 225, 61, 199, 101, 251, 61, 60, 245, 216, 187, 158, 143, 244, 58, 236, 180, 152, 61, 30, 40, 243, 60, 197, 246, 234, 60, 110, 85, 106, 189, 135, 61, 77, 61, 100, 244, 226, 61, 92, 38, 167, 58, 144, 79, 32, 189, 109, 213, 76, 189, 213, 66, 4, 62, 240, 37, 219, 60, 3, 39, 166, 188, 200, 120, 137, 189, 28, 90, 143, 61, 152, 5, 117, 61, 32, 45, 21, 189, 224, 247, 184, 188, 192, 51, 139, 60, 64, 196, 172, 60, 0, 86, 249, 61, 224, 38, 226, 60, 80, 103, 32, 189, 204, 179, 202, 189, 176, 57, 232, 61, 48, 165, 177, 188, 112, 160, 132, 60, 48, 136, 243, 60, 232, 122, 210, 189, 144, 106, 18, 189, 168, 151, 230, 189, 144, 244, 171, 61, 72, 15, 74, 61, 228, 77, 248, 61, 148, 63, 206, 61, 152, 245, 232, 189, 0, 215, 220, 186, 176, 134, 100, 61, 176, 69, 8, 61, 0, 234, 16, 186, 0, 66, 97, 61, 16, 8, 163, 61, 232, 40, 114, 61, 204, 10, 249, 61, 116, 76, 212, 61, 32, 73, 155, 188, 196, 147, 190, 61, 112, 223, 10, 189, 100, 97, 180, 189, 96, 22, 52, 188, 240, 213, 114, 189, 32, 147, 247, 61, 0, 252, 7, 60, 116, 64, 232, 189, 144, 95, 121, 189, 160, 30, 207, 61, 112, 2, 215, 188, 24, 65, 191, 61, 180, 223, 153, 189, 56, 85, 103, 189, 84, 208, 158, 189, 168, 21, 59, 61, 108, 138, 203, 189, 52, 125, 207, 189, 12, 60, 180, 61, 112, 98, 162, 189, 28, 143, 251, 189, 208, 47, 252, 60, 148, 56, 240, 61, 56, 207, 149, 61, 148, 159, 243, 61, 224, 88, 223, 60, 188, 184, 172, 189, 220, 28, 232, 61, 140, 208, 234, 189, 64, 209, 118, 60, 20, 38, 140, 61, 68, 139, 211, 61, 100, 84, 155, 189, 224, 60, 131, 60, 172, 251, 161, 189, 0, 64, 231, 189, 24, 144, 75, 189, 232, 244, 248, 189, 128, 78, 25, 59, 84, 88, 152, 61, 204, 98, 245, 189, 228, 126, 131, 61, 64, 214, 180, 59, 124, 106, 175, 61, 0, 120, 196, 186, 232, 94, 125, 61, 128, 101, 61, 60, 128, 174, 7, 59, 160, 185, 170, 188, 48, 149, 184, 60, 8, 114, 119, 61, 200, 62, 62, 61, 128, 87, 97, 59, 192, 159, 52, 189, 160, 117, 193, 189, 236, 28, 213, 61, 8, 24, 36, 189, 232, 77, 171, 61, 192, 49, 195, 188, 56, 1, 245, 61, 148, 43, 168, 189, 96, 110, 176, 61, 56, 82, 218, 189, 72, 11, 43, 189, 140, 40, 219, 189, 228, 225, 205, 61, 48, 40, 233, 188, 168, 48, 23, 189, 96, 58, 15, 189, 248, 42, 54, 189, 128, 249, 141, 61, 16, 84, 215, 189, 128, 98, 127, 61, 216, 187, 85, 189, 192, 247, 155, 187, 72, 97, 58, 61, 192, 119, 187, 60, 160, 126, 93, 189, 160, 117, 205, 189, 248, 196, 229, 189, 68, 81, 221, 189, 200, 240, 116, 61, 144, 12, 177, 189, 16, 144, 30, 61, 240, 98, 84, 189, 124, 218, 161, 61, 64, 42, 155, 189, 208, 150, 225, 189, 200, 143, 242, 189, 184, 131, 142, 189, 192, 27, 206, 189, 236, 221, 160, 61, 16, 109, 186, 189, 208, 101, 44, 61, 240, 119, 244, 60, 64, 86, 230, 60, 208, 211, 67, 61, 128, 91, 56, 187, 84, 107, 138, 189, 208, 138, 213, 189, 132, 144, 138, 189, 96, 246, 142, 60, 160, 64, 236, 61, 172, 160, 209, 189, 76, 39, 236, 189, 16, 162, 43, 189, 140, 22, 216, 61, 80, 49, 201, 188, 52, 14, 249, 61, 40, 168, 221, 61, 148, 109, 131, 61, 32, 50, 36, 189, 240, 239, 156, 61, 0, 58, 72, 188, 176, 167, 226, 189, 188, 88, 173, 61, 28, 175, 240, 61, 252, 64, 180, 61, 164, 117, 196, 61, 220, 16, 243, 61, 172, 238, 198, 61, 196, 151, 235, 61, 76, 37, 147, 61, 160, 54, 185, 189, 160, 41, 207, 189, 112, 30, 180, 61, 0, 246, 216, 186, 4, 61, 138, 189, 64, 13, 49, 188, 232, 71, 58, 189, 40, 85, 248, 61, 88, 127, 138, 189, 196, 45, 247, 189, 48, 157, 147, 61, 128, 112, 194, 189, 96, 75, 148, 61, 192, 125, 140, 187, 40, 125, 101, 189, 112, 190, 125, 61, 160, 71, 140, 60, 0, 35, 116, 187, 120, 240, 7, 189, 244, 145, 137, 189, 184, 165, 169, 189, 116, 223, 216, 189, 88, 28, 210, 61, 128, 42, 109, 188, 176, 83, 40, 61, 128, 120, 194, 188, 192, 65, 59, 61, 32, 108, 243, 60, 64, 216, 178, 188, 64, 122, 30, 188, 48, 149, 128, 189, 104, 124, 113, 61, 64, 124, 7, 189, 0, 104, 211, 189, 160, 201, 218, 61, 248, 13, 185, 61, 148, 230, 255, 189, 196, 220, 155, 61, 224, 253, 117, 189, 128, 144, 48, 59, 96, 236, 26, 60, 0, 132, 232, 57, 104, 115, 216, 189, 248, 255, 156, 189, 56, 43, 162, 189, 16, 250, 167, 60, 236, 19, 139, 189, 92, 128, 188, 189, 152, 233, 226, 189, 64, 232, 191, 188, 56, 184, 242, 189, 116, 2, 187, 61, 240, 63, 136, 188, 104, 97, 231, 189, 52, 209, 176, 61, 88, 180, 77, 189, 0, 38, 17, 187, 44, 168, 220, 189, 96, 103, 48, 188, 176, 174, 13, 189, 248, 78, 109, 61, 8, 76, 47, 189, 144, 107, 196, 188, 80, 74, 5, 61, 76, 214, 223, 61, 88, 189, 187, 61, 248, 228, 164, 189, 112, 98, 157, 189, 88, 212, 146, 61, 192, 118, 115, 61, 16, 192, 162, 61, 216, 15, 241, 61, 0, 236, 172, 186, 168, 28, 81, 61, 32, 77, 80, 189, 0, 188, 129, 57, 32, 43, 62, 60, 212, 213, 182, 61, 28, 183, 150, 189, 228, 10, 176, 61, 172, 220, 209, 61, 72, 232, 146, 189, 248, 129, 11, 189, 96, 210, 213, 189, 0, 240, 123, 61, 92, 247, 164, 61, 176, 76, 226, 189, 160, 28, 227, 188, 80, 145, 146, 61, 160, 14, 67, 61, 252, 89, 246, 61, 84, 212, 214, 61, 64, 152, 232, 187, 176, 184, 90, 189, 112, 196, 66, 189, 244, 167, 238, 189, 28, 133, 133, 61, 0, 3, 195, 189, 44, 195, 206, 189, 136, 104, 87, 61, 60, 10, 250, 61, 40, 160, 124, 189, 82, 134, 22, 61, 160, 18, 96, 188, 192, 252, 2, 188, 195, 27, 159, 188, 46, 175, 176, 188, 128, 231, 218, 60, 219, 138, 180, 61, 104, 177, 79, 189, 18, 55, 1, 62, 0, 31, 208, 187, 152, 189, 10, 61, 208, 98, 243, 60, 32, 245, 186, 60, 80, 4, 235, 189, 80, 20, 138, 189, 48, 94, 133, 60, 95, 152, 232, 61, 17, 53, 32, 189, 24, 84, 26, 61, 153, 132, 186, 189, 227, 137, 245, 61, 9, 74, 154, 189, 23, 100, 170, 189, 63, 156, 233, 61, 85, 103, 0, 189, 196, 6, 68, 61, 178, 12, 157, 189, 69, 178, 104, 188, 144, 6, 218, 189, 192, 180, 97, 60, 104, 27, 183, 61, 31, 245, 27, 61, 125, 137, 141, 188, 208, 220, 151, 61, 7, 19, 208, 61, 72, 37, 247, 61, 144, 67, 221, 189, 151, 15, 230, 61, 80, 39, 90, 189, 191, 117, 147, 188, 25, 141, 164, 61, 216, 146, 238, 189, 205, 241, 163, 189, 128, 72, 48, 188, 168, 151, 97, 61, 208, 191, 178, 61, 216, 165, 142, 61, 32, 164, 8, 61, 184, 30, 133, 61, 64, 59, 185, 59, 128, 174, 168, 188, 3, 81, 234, 61, 64, 40, 252, 61, 141, 218, 149, 61, 111, 15, 82, 188, 82, 238, 4, 188, 113, 212, 107, 59, 231, 179, 169, 60, 87, 71, 217, 189, 132, 53, 1, 61, 64, 136, 57, 61, 14, 238, 38, 189, 116, 216, 192, 189, 184, 206, 111, 189, 240, 124, 140, 61, 6, 27, 150, 61, 152, 106, 90, 189, 44, 173, 226, 61, 160, 250, 55, 189, 16, 194, 233, 189, 224, 198, 124, 188, 120, 12, 112, 189, 0, 4, 185, 189, 153, 134, 129, 61, 120, 164, 94, 189, 36, 90, 185, 60, 64, 50, 166, 187, 92, 236, 138, 61, 32, 56, 81, 188, 176, 216, 180, 61, 213, 140, 190, 61, 252, 76, 255, 61, 36, 116, 252, 61, 148, 211, 141, 61, 153, 236, 239, 61, 12, 255, 199, 189, 39, 1, 89, 188, 188, 190, 3, 62, 85, 156, 162, 61, 200, 199, 127, 61, 224, 196, 101, 188, 132, 28, 208, 189, 116, 83, 226, 189, 32, 254, 145, 188, 179, 131, 184, 189, 108, 141, 243, 189, 136, 115, 0, 62, 148, 187, 156, 189, 40, 16, 131, 189, 200, 223, 17, 61, 101, 177, 127, 61, 208, 206, 44, 61, 16, 197, 18, 61, 80, 115, 197, 61, 38, 1, 14, 61, 4, 104, 253, 61, 13, 229, 140, 61, 96, 143, 99, 189, 208, 28, 109, 61, 50, 1, 150, 189, 239, 147, 208, 188, 53, 126, 48, 189, 104, 8, 110, 61, 13, 43, 201, 61, 24, 54, 44, 189, 141, 2, 164, 187, 112, 50, 161, 189, 98, 25, 216, 189, 171, 188, 61, 61, 220, 79, 232, 188, 80, 200, 151, 61, 13, 23, 56, 188, 144, 203, 113, 61, 68, 40, 199, 61, 216, 30, 173, 61, 224, 70, 171, 61, 111, 128, 70, 189, 164, 242, 139, 189, 192, 211, 213, 59, 124, 154, 136, 189, 196, 112, 163, 61, 76, 172, 158, 61, 206, 194, 144, 61, 228, 3, 223, 189, 164, 37, 196, 189, 141, 183, 4, 62, 64, 47, 149, 61, 168, 252, 39, 189, 32, 223, 195, 60, 217, 204, 128, 61, 190, 103, 184, 189, 28, 170, 138, 189, 218, 137, 184, 61, 40, 176, 124, 189, 144, 172, 54, 61, 228, 6, 201, 189, 160, 184, 163, 189, 198, 212, 177, 61, 200, 48, 226, 189, 244, 190, 168, 189, 91, 218, 203, 189, 64, 82, 171, 59, 176, 179, 231, 60, 36, 47, 180, 61, 116, 36, 120, 189, 44, 40, 246, 189, 48, 211, 175, 61, 72, 42, 236, 60, 191, 145, 166, 186, 160, 152, 89, 188, 248, 184, 66, 189, 10, 46, 233, 188, 201, 13, 175, 61, 127, 65, 8, 188, 216, 72, 221, 60, 180, 108, 234, 189, 120, 151, 217, 189, 211, 162, 252, 61, 24, 239, 72, 189, 168, 71, 50, 61, 174, 96, 172, 61, 184, 154, 18, 61, 220, 222, 128, 61, 0, 17, 107, 188, 158, 239, 46, 187, 168, 220, 5, 62, 42, 207, 51, 188, 56, 231, 131, 61, 130, 235, 229, 61, 140, 97, 220, 189, 48, 35, 153, 189, 236, 245, 237, 189, 208, 134, 139, 188, 124, 1, 164, 189, 192, 42, 235, 61, 100, 43, 161, 189, 220, 243, 210, 189, 112, 151, 172, 60, 0, 107, 32, 59, 172, 34, 205, 61, 42, 13, 227, 187, 188, 231, 219, 189, 0, 188, 136, 186, 176, 142, 232, 189, 224, 149, 126, 188, 77, 245, 183, 188, 128, 149, 169, 187, 48, 2, 202, 188, 208, 54, 216, 60, 200, 30, 194, 61, 132, 82, 64, 61, 96, 79, 187, 189, 236, 6, 190, 189, 160, 22, 178, 188, 100, 239, 207, 61, 207, 120, 3, 62, 56, 238, 2, 61, 67, 228, 237, 61, 234, 15, 230, 186, 13, 159, 59, 61, 168, 114, 93, 189, 64, 215, 127, 61, 129, 134, 243, 189, 228, 31, 3, 188, 104, 144, 198, 61, 110, 9, 223, 189, 104, 216, 2, 189, 160, 210, 31, 60, 196, 37, 211, 61, 56, 3, 69, 61, 180, 98, 133, 61, 224, 176, 18, 61, 128, 121, 236, 187, 234, 75, 174, 189, 216, 242, 165, 189, 128, 125, 162, 61, 145, 112, 185, 189, 85, 195, 80, 61, 79, 213, 59, 188, 156, 47, 177, 61, 254, 26, 143, 189, 182, 180, 163, 189, 128, 91, 229, 188, 102, 229, 238, 61, 180, 253, 208, 189, 60, 71, 179, 61, 248, 105, 244, 189, 12, 116, 252, 189, 80, 217, 174, 189, 22, 42, 192, 188, 149, 13, 163, 61, 28, 153, 197, 188, 62, 240, 10, 188, 104, 167, 230, 61, 89, 241, 233, 61, 222, 111, 146, 59, 70, 193, 83, 189, 24, 163, 67, 189, 73, 143, 149, 61, 64, 154, 237, 61, 3, 91, 193, 189, 202, 242, 50, 189, 144, 57, 182, 189, 22, 125, 221, 59, 24, 114, 21, 189, 200, 88, 64, 189, 192, 34, 46, 61, 184, 236, 20, 61, 96, 202, 220, 61, 40, 91, 54, 189, 220, 214, 165, 189, 0, 255, 132, 58, 68, 135, 171, 61, 100, 216, 176, 189, 232, 193, 237, 61, 32, 139, 33, 61, 0, 106, 68, 188, 116, 210, 157, 61, 136, 226, 188, 61, 232, 46, 165, 61, 96, 149, 210, 188, 244, 64, 141, 189, 44, 34, 209, 189, 16, 24, 93, 61, 232, 188, 112, 189, 0, 110, 117, 186, 148, 186, 250, 61, 128, 71, 150, 59, 232, 132, 249, 189, 80, 15, 78, 61, 44, 228, 223, 61, 16, 223, 74, 61, 32, 21, 139, 188, 204, 111, 237, 189, 192, 151, 73, 61, 184, 54, 49, 61, 4, 60, 174, 189, 0, 45, 62, 187, 100, 194, 168, 61, 32, 98, 253, 188, 180, 146, 192, 189, 108, 29, 161, 61, 100, 32, 180, 61, 120, 206, 165, 61, 16, 78, 56, 61, 0, 49, 50, 60, 124, 97, 139, 61, 0, 250, 235, 189, 132, 227, 227, 189, 160, 189, 248, 61, 32, 129, 246, 188, 92, 11, 130, 61, 192, 65, 231, 189, 100, 190, 178, 61, 16, 44, 194, 61, 128, 3, 26, 187, 128, 206, 168, 61, 204, 193, 199, 61, 224, 107, 32, 189, 32, 21, 86, 61, 88, 221, 251, 61, 168, 76, 53, 189, 224, 92, 174, 61, 128, 171, 26, 189, 200, 229, 111, 61, 80, 79, 176, 61, 228, 183, 191, 189, 96, 79, 223, 189, 56, 20, 234, 189, 136, 125, 139, 61, 224, 237, 226, 189, 176, 176, 141, 60, 0, 101, 247, 189, 72, 140, 212, 189, 40, 29, 224, 61, 8, 231, 41, 189, 56, 228, 37, 189, 160, 11, 104, 189, 0, 224, 115, 184, 116, 40, 133, 189, 140, 26, 203, 189, 128, 23, 221, 189, 128, 135, 220, 187, 56, 143, 90, 189, 128, 245, 77, 188, 48, 168, 139, 189, 12, 95, 234, 61, 192, 163, 50, 60, 88, 181, 209, 61, 12, 210, 202, 189, 128, 184, 89, 189, 120, 19, 76, 189, 16, 148, 3, 189, 212, 76, 165, 61, 136, 145, 149, 61, 160, 191, 248, 188, 12, 194, 135, 61, 64, 190, 197, 60, 236, 182, 181, 61, 152, 121, 0, 189, 192, 181, 244, 189, 136, 248, 118, 61, 128, 167, 193, 59, 240, 137, 155, 60, 0, 83, 96, 189, 112, 169, 180, 60, 152, 160, 91, 61, 220, 214, 177, 61, 224, 155, 246, 188, 0, 243, 183, 186, 64, 170, 227, 60, 240, 234, 175, 188, 84, 45, 181, 189, 208, 53, 232, 60, 4, 175, 206, 61, 216, 176, 126, 189, 148, 174, 177, 189, 144, 69, 55, 61, 116, 41, 202, 189, 160, 171, 166, 60, 196, 242, 178, 189, 0, 90, 138, 188, 160, 92, 99, 60, 0, 167, 109, 61, 0, 77, 161, 61, 116, 43, 255, 189, 56, 107, 216, 189, 40, 177, 167, 189, 32, 104, 237, 61, 192, 98, 243, 189, 120, 34, 192, 189, 164, 31, 234, 61, 128, 118, 208, 59, 192, 59, 234, 188, 36, 45, 168, 189, 64, 128, 188, 59, 120, 252, 72, 189, 0, 206, 205, 61, 96, 176, 154, 61, 64, 251, 207, 189, 104, 20, 135, 61, 224, 233, 8, 61, 232, 22, 135, 189, 80, 208, 236, 188, 60, 90, 154, 189, 240, 148, 22, 189, 32, 147, 13, 189, 88, 106, 36, 189, 128, 211, 23, 188, 64, 176, 137, 188, 128, 206, 149, 59, 56, 172, 159, 61, 96, 245, 203, 60, 68, 57, 208, 189, 116, 152, 187, 61, 112, 232, 133, 61, 212, 193, 232, 189, 0, 106, 196, 61, 48, 183, 218, 189, 192, 115, 200, 187, 208, 152, 206, 61, 12, 205, 172, 189, 32, 101, 210, 189, 192, 73, 159, 189, 88, 59, 43, 61, 240, 223, 171, 188, 136, 142, 76, 189, 24, 39, 188, 189, 144, 14, 190, 188, 192, 108, 91, 60, 32, 129, 125, 60, 0, 209, 170, 60, 80, 18, 119, 189, 100, 6, 199, 61, 128, 46, 162, 189, 248, 71, 132, 189, 16, 134, 195, 61, 136, 43, 2, 61, 184, 48, 43, 61, 24, 179, 77, 189, 0, 180, 103, 58, 12, 197, 248, 61, 152, 206, 234, 189, 128, 197, 148, 189, 48, 86, 143, 61, 8, 116, 174, 189, 236, 74, 158, 61, 72, 41, 227, 189, 32, 76, 131, 60, 108, 53, 231, 189, 148, 204, 204, 189, 48, 2, 90, 189, 108, 192, 168, 61, 76, 107, 249, 189, 144, 141, 67, 61, 112, 255, 93, 61, 92, 9, 172, 61, 96, 196, 237, 61, 152, 194, 17, 189, 192, 122, 222, 189, 216, 150, 218, 61, 208, 163, 118, 61, 80, 188, 151, 189, 0, 9, 110, 61, 112, 151, 233, 61, 0, 164, 2, 59, 216, 43, 151, 61, 144, 247, 34, 61, 80, 251, 190, 189, 216, 229, 34, 189, 92, 190, 167, 61, 0, 252, 219, 59, 224, 175, 30, 61, 156, 26, 133, 189, 152, 247, 196, 61, 56, 235, 201, 189, 0, 244, 156, 57, 148, 186, 244, 61, 112, 5, 52, 189, 48, 163, 131, 188, 96, 123, 67, 189, 248, 121, 79, 189, 224, 46, 118, 189, 0, 223, 51, 189, 248, 255, 24, 189, 52, 69, 151, 61, 8, 229, 224, 189, 128, 220, 28, 187, 8, 57, 131, 189, 240, 66, 87, 189, 56, 35, 217, 189, 220, 135, 233, 61, 64, 11, 204, 60, 164, 202, 137, 61, 240, 118, 136, 189, 236, 209, 222, 189, 32, 131, 21, 61, 236, 149, 254, 189, 212, 248, 255, 189, 196, 128, 178, 189, 144, 252, 32, 189, 124, 193, 224, 61, 88, 71, 29, 189, 48, 22, 233, 188, 40, 119, 85, 61, 240, 24, 129, 188, 0, 112, 93, 58, 180, 56, 160, 189, 212, 15, 176, 61, 32, 3, 25, 188, 128, 109, 87, 189, 244, 190, 172, 189, 32, 4, 175, 61, 16, 168, 178, 188, 108, 24, 248, 189, 48, 169, 133, 60, 200, 240, 85, 189, 16, 58, 120, 189, 20, 74, 183, 189, 192, 216, 144, 189, 64, 27, 89, 189, 192, 214, 56, 61, 31, 84, 166, 61, 160, 86, 200, 61, 80, 168, 157, 60, 162, 89, 19, 61, 196, 223, 234, 189, 144, 242, 75, 61, 60, 45, 127, 189, 139, 241, 127, 188, 75, 6, 16, 61, 228, 164, 226, 189, 165, 101, 139, 60, 224, 201, 42, 60, 144, 45, 224, 60, 224, 108, 43, 61, 118, 15, 1, 189, 12, 27, 223, 189, 171, 213, 176, 186, 254, 196, 75, 187, 208, 29, 222, 188, 114, 160, 2, 62, 98, 233, 5, 62, 133, 232, 78, 61, 65, 197, 214, 188, 212, 137, 65, 60, 92, 213, 254, 187, 185, 21, 245, 61, 135, 222, 113, 61, 20, 170, 187, 61, 28, 105, 156, 61, 180, 145, 207, 61, 24, 59, 148, 189, 173, 64, 56, 60, 241, 27, 128, 61, 72, 249, 197, 61, 89, 189, 138, 189, 128, 217, 119, 60, 224, 46, 219, 188, 218, 23, 122, 189, 212, 152, 167, 61, 170, 11, 96, 61, 195, 6, 200, 60, 232, 196, 81, 189, 80, 199, 153, 188, 116, 89, 243, 61, 164, 60, 169, 189, 56, 184, 182, 61, 224, 31, 6, 60, 128, 167, 72, 59, 112, 14, 188, 188, 136, 251, 136, 189, 12, 105, 252, 189, 97, 216, 7, 189, 88, 221, 136, 61, 19, 87, 229, 60, 194, 160, 166, 61, 151, 127, 47, 189, 201, 61, 255, 61, 44, 2, 163, 189, 73, 213, 99, 188, 53, 32, 98, 188, 0, 238, 168, 186, 48, 241, 184, 189, 64, 111, 230, 187, 40, 72, 104, 61, 157, 54, 178, 188, 157, 32, 38, 61, 200, 111, 113, 189, 24, 204, 164, 61, 112, 94, 253, 189, 248, 18, 160, 61, 188, 39, 226, 189, 32, 25, 242, 188, 128, 226, 172, 188, 62, 142, 88, 61, 192, 72, 100, 61, 82, 3, 183, 189, 228, 86, 228, 189, 104, 134, 21, 61, 168, 28, 123, 189, 124, 29, 220, 61, 218, 13, 244, 61, 92, 47, 241, 61, 14, 205, 26, 61, 4, 28, 255, 189, 248, 245, 245, 61, 149, 49, 167, 189, 144, 170, 176, 61, 106, 5, 163, 61, 87, 17, 196, 189, 48, 52, 231, 189, 84, 163, 199, 61, 112, 58, 204, 189, 176, 21, 246, 189, 152, 5, 34, 61, 173, 196, 147, 189, 137, 206, 175, 189, 142, 28, 252, 61, 36, 161, 170, 189, 224, 17, 226, 60, 136, 17, 82, 189, 32, 24, 139, 59, 128, 213, 51, 188, 138, 138, 110, 60, 56, 154, 227, 61, 243, 70, 32, 189, 152, 19, 1, 61, 182, 229, 199, 61, 65, 9, 175, 61, 228, 228, 105, 189, 100, 147, 221, 61, 25, 203, 198, 61, 125, 240, 171, 188, 84, 245, 184, 61, 59, 64, 3, 188, 72, 89, 254, 61, 56, 123, 208, 188, 7, 107, 231, 189, 57, 245, 135, 189, 51, 32, 27, 60, 150, 250, 24, 61, 128, 142, 96, 59, 117, 83, 227, 189, 48, 227, 250, 61, 120, 119, 134, 61, 188, 188, 148, 61, 48, 161, 131, 188, 18, 151, 139, 189, 112, 165, 214, 189, 192, 43, 174, 61, 106, 232, 229, 60, 145, 97, 180, 189, 32, 118, 250, 60, 186, 23, 158, 60, 104, 162, 96, 189, 96, 115, 235, 189, 168, 246, 199, 60, 36, 156, 186, 61, 240, 132, 9, 61, 80, 160, 104, 61, 149, 104, 54, 61, 154, 206, 232, 61, 110, 152, 230, 189, 112, 151, 243, 60, 24, 101, 223, 189, 40, 109, 86, 189, 84, 109, 236, 61, 84, 112, 140, 61, 183, 98, 207, 60, 181, 31, 136, 61, 80, 8, 32, 189, 9, 112, 95, 59, 88, 76, 59, 61, 188, 208, 136, 189, 68, 191, 2, 188, 28, 118, 23, 60, 248, 54, 110, 189, 160, 93, 69, 60, 202, 172, 183, 61, 168, 6, 252, 61, 136, 40, 217, 61, 128, 91, 58, 61, 251, 195, 117, 61, 47, 106, 135, 61, 16, 133, 62, 189, 22, 244, 168, 189, 120, 209, 241, 189, 40, 37, 52, 61, 150, 224, 68, 189, 65, 229, 98, 189, 0, 237, 150, 186, 64, 116, 226, 60, 0, 171, 239, 188, 56, 89, 209, 61, 160, 144, 98, 60, 20, 220, 146, 189, 97, 118, 216, 189, 210, 71, 212, 61, 128, 193, 123, 61, 134, 39, 210, 189, 120, 87, 117, 189, 168, 132, 185, 61, 240, 169, 190, 61, 168, 214, 73, 189, 24, 234, 170, 61, 121, 151, 222, 61, 96, 191, 100, 189, 8, 136, 138, 189, 136, 179, 29, 189, 152, 177, 165, 189, 224, 73, 59, 60, 22, 205, 128, 189, 175, 149, 202, 188, 176, 103, 245, 60, 224, 91, 80, 61, 172, 46, 252, 61, 195, 236, 34, 61, 0, 89, 113, 60, 96, 168, 226, 188, 0, 244, 5, 186, 48, 53, 170, 188, 65, 10, 131, 189, 188, 23, 252, 61, 64, 29, 221, 60, 40, 103, 203, 61, 72, 52, 145, 61, 143, 10, 213, 189, 52, 19, 190, 61, 221, 214, 235, 60, 164, 202, 107, 61, 106, 225, 3, 59, 99, 243, 235, 60, 128, 139, 0, 188, 240, 186, 168, 189, 244, 185, 220, 189, 172, 195, 217, 61, 214, 20, 192, 61, 32, 61, 24, 189, 120, 108, 98, 189, 224, 104, 182, 188, 176, 83, 16, 61, 144, 15, 198, 61, 98, 145, 159, 189, 176, 95, 52, 189, 248, 136, 173, 61, 24, 151, 196, 189, 160, 5, 57, 189, 171, 229, 247, 61, 4, 158, 132, 189, 235, 30, 25, 188, 112, 136, 35, 61, 9, 57, 195, 189, 180, 244, 148, 189, 112, 254, 200, 60, 45, 77, 190, 189, 196, 106, 244, 61, 208, 23, 188, 188, 48, 56, 87, 61, 156, 47, 172, 61, 118, 160, 207, 61, 17, 193, 158, 61, 1, 99, 175, 61, 75, 128, 4, 189, 152, 220, 32, 189, 166, 185, 78, 61, 45, 94, 67, 189, 190, 104, 186, 61, 198, 194, 152, 61, 128, 246, 183, 189, 94, 110, 236, 189, 160, 39, 226, 61, 157, 50, 224, 189, 175, 202, 178, 61, 28, 171, 240, 61, 121, 234, 187, 189, 20, 219, 222, 61, 192, 162, 90, 188, 96, 111, 138, 189, 16, 251, 191, 188, 128, 237, 27, 61, 192, 232, 157, 189, 176, 228, 44, 189, 72, 217, 175, 189, 96, 195, 182, 189, 248, 242, 178, 61, 216, 22, 221, 189, 252, 255, 198, 189, 80, 68, 158, 61, 32, 205, 199, 189, 144, 130, 76, 189, 240, 178, 250, 189, 168, 136, 216, 61, 136, 153, 21, 189, 96, 25, 181, 189, 60, 230, 153, 61, 48, 24, 137, 189, 208, 132, 207, 60, 56, 202, 138, 61, 80, 112, 93, 189, 116, 209, 223, 189, 84, 26, 223, 61, 136, 153, 136, 61, 160, 97, 137, 60, 168, 232, 111, 189, 72, 32, 152, 189, 152, 217, 203, 61, 208, 49, 202, 188, 68, 121, 134, 189, 212, 15, 246, 61, 72, 197, 99, 61, 112, 106, 181, 188, 248, 21, 192, 61, 40, 51, 105, 61, 172, 123, 189, 189, 36, 118, 169, 61, 60, 176, 171, 189, 208, 182, 169, 61, 104, 232, 83, 61, 120, 138, 144, 61, 240, 44, 190, 188, 16, 124, 67, 189, 152, 164, 81, 61, 192, 195, 63, 188, 224, 53, 25, 61, 80, 208, 13, 189, 12, 95, 228, 61, 24, 154, 240, 189, 0, 212, 161, 186, 160, 71, 56, 189, 32, 186, 214, 61, 0, 216, 47, 185, 204, 168, 251, 189, 192, 19, 232, 60, 212, 197, 143, 61, 80, 109, 246, 60, 184, 90, 93, 61, 168, 80, 234, 61, 224, 171, 221, 188, 144, 179, 119, 189, 164, 148, 250, 189, 24, 46, 155, 189, 64, 99, 5, 61, 72, 249, 57, 189, 160, 128, 97, 60, 156, 115, 254, 189, 64, 218, 92, 188, 8, 24, 247, 61, 208, 67, 144, 61, 12, 177, 221, 189, 4, 198, 228, 61, 84, 206, 184, 189, 48, 133, 158, 189, 116, 38, 246, 189, 196, 215, 234, 61, 204, 152, 152, 61, 212, 33, 154, 61, 56, 248, 132, 61, 0, 246, 20, 60, 68, 32, 230, 61, 24, 211, 95, 189, 84, 61, 186, 61, 80, 221, 160, 61, 180, 114, 226, 61, 56, 93, 120, 189, 140, 159, 145, 189, 232, 135, 123, 61, 0, 33, 133, 188, 184, 78, 134, 189, 16, 167, 251, 61, 248, 233, 10, 61, 144, 146, 150, 189, 48, 104, 43, 61, 112, 54, 69, 189, 128, 52, 77, 187, 40, 177, 25, 189, 124, 29, 209, 61, 208, 138, 224, 188, 248, 51, 234, 61, 128, 252, 154, 187, 240, 190, 165, 60, 188, 24, 255, 189, 128, 99, 12, 60, 216, 112, 46, 61, 160, 99, 17, 188, 72, 251, 16, 189, 208, 104, 193, 61, 216, 122, 86, 61, 240, 164, 244, 189, 96, 7, 217, 189, 80, 201, 157, 60, 240, 102, 152, 188, 104, 255, 38, 189, 244, 49, 197, 189, 76, 59, 181, 61, 12, 202, 149, 189, 128, 165, 86, 61, 96, 153, 122, 61, 240, 102, 117, 61, 200, 35, 58, 189, 128, 162, 26, 61, 176, 212, 236, 61, 224, 255, 7, 61, 36, 74, 137, 61, 152, 56, 150, 61, 200, 122, 235, 61, 104, 77, 56, 61, 80, 248, 225, 189, 24, 239, 163, 61, 228, 227, 250, 61, 112, 239, 191, 188, 248, 129, 115, 61, 80, 213, 242, 61, 16, 120, 155, 189, 140, 2, 165, 189, 252, 78, 170, 189, 200, 78, 205, 61, 136, 207, 195, 61, 92, 20, 177, 189, 40, 9, 178, 61, 252, 2, 241, 61, 24, 22, 16, 61, 80, 187, 245, 61, 0, 232, 72, 186, 24, 3, 254, 61, 60, 69, 193, 189, 104, 28, 62, 189, 20, 204, 221, 61, 36, 203, 196, 61, 40, 215, 66, 61, 92, 93, 213, 189, 160, 150, 209, 61, 128, 126, 49, 189, 240, 85, 188, 61, 128, 217, 226, 59, 112, 178, 192, 61, 224, 107, 209, 61, 100, 155, 205, 189, 156, 191, 187, 61, 128, 215, 232, 187, 164, 139, 242, 189, 200, 93, 215, 189, 0, 14, 96, 58, 12, 131, 209, 189, 88, 30, 2, 189, 152, 0, 233, 189, 20, 185, 233, 189, 80, 10, 187, 188, 168, 196, 143, 61, 48, 8, 210, 188, 240, 223, 188, 61, 192, 201, 133, 187, 80, 108, 189, 189, 120, 20, 2, 189, 112, 214, 210, 60, 188, 96, 183, 61, 236, 194, 188, 61, 160, 170, 218, 189, 8, 246, 145, 189, 144, 49, 63, 61, 56, 111, 117, 189, 0, 75, 94, 189, 32, 173, 76, 61, 32, 185, 208, 61, 132, 163, 176, 189, 16, 253, 18, 189, 160, 146, 96, 61, 48, 196, 209, 60, 192, 107, 199, 187, 248, 230, 97, 189, 156, 19, 215, 61, 204, 6, 210, 189, 72, 45, 150, 189, 40, 120, 107, 61, 76, 140, 233, 189, 68, 11, 219, 189, 60, 115, 190, 61, 116, 102, 147, 189, 72, 156, 243, 189, 96, 48, 108, 61, 0, 181, 66, 188, 24, 226, 104, 189, 160, 120, 147, 61, 128, 201, 97, 61, 160, 187, 231, 189, 0, 232, 30, 187, 0, 122, 138, 186, 16, 11, 191, 189, 56, 207, 29, 61, 8, 145, 65, 189, 44, 255, 221, 61, 40, 168, 209, 189, 160, 69, 119, 189, 80, 42, 239, 60, 32, 226, 70, 189, 240, 12, 108, 189, 32, 54, 164, 188, 196, 250, 230, 61, 48, 241, 71, 189, 192, 26, 61, 188, 124, 72, 134, 61, 60, 115, 247, 189, 80, 152, 174, 189, 192, 46, 109, 189, 64, 28, 193, 60, 240, 255, 181, 60, 8, 191, 30, 61, 76, 148, 176, 189, 192, 69, 175, 189, 96, 156, 14, 61, 20, 78, 234, 61, 92, 232, 233, 61, 220, 178, 184, 61, 4, 56, 254, 189, 96, 251, 35, 189, 36, 24, 151, 189, 0, 133, 218, 189, 40, 110, 164, 61, 0, 42, 161, 189, 192, 35, 206, 59, 48, 146, 197, 189, 208, 55, 19, 61, 148, 240, 244, 61, 112, 138, 243, 188, 220, 252, 146, 189, 152, 120, 215, 61, 36, 147, 219, 189, 240, 171, 251, 188, 140, 58, 249, 61, 140, 190, 232, 189, 24, 71, 240, 189, 112, 45, 4, 61, 160, 180, 127, 61, 168, 85, 16, 61, 19, 64, 29, 189, 240, 181, 153, 61, 192, 86, 115, 61, 171, 69, 150, 59, 197, 236, 125, 60, 244, 38, 223, 61, 243, 175, 176, 188, 145, 222, 150, 189, 157, 105, 193, 189, 32, 250, 122, 188, 215, 214, 111, 189, 216, 63, 41, 61, 28, 133, 206, 189, 96, 124, 253, 60, 14, 80, 165, 188, 116, 190, 142, 189, 189, 94, 183, 61, 30, 108, 255, 61, 80, 134, 11, 189, 138, 90, 68, 189, 88, 8, 137, 61, 201, 103, 53, 188, 129, 247, 147, 61, 21, 20, 185, 188, 231, 203, 141, 61, 56, 203, 4, 189, 55, 55, 200, 61, 88, 222, 136, 61, 148, 42, 250, 189, 160, 216, 139, 61, 160, 160, 147, 188, 77, 8, 133, 189, 183, 233, 161, 189, 248, 3, 58, 189, 191, 138, 156, 189, 144, 5, 164, 189, 64, 65, 2, 61, 83, 83, 130, 61, 224, 27, 139, 61, 177, 164, 223, 187, 145, 195, 228, 61, 176, 158, 43, 61, 187, 79, 35, 189, 112, 50, 185, 189, 84, 13, 157, 61, 0, 31, 184, 187, 208, 132, 235, 188, 32, 116, 87, 188, 112, 25, 172, 61, 108, 43, 165, 61, 76, 142, 161, 61, 62, 232, 130, 58, 64, 220, 46, 189, 27, 230, 115, 61, 186, 177, 221, 61, 254, 30, 237, 189, 162, 230, 143, 188, 1, 213, 126, 61, 58, 186, 4, 62, 164, 23, 132, 189, 68, 255, 223, 189, 162, 111, 252, 188, 160, 246, 130, 60, 12, 232, 53, 61, 138, 160, 173, 189, 205, 55, 133, 188, 64, 227, 101, 60, 102, 242, 142, 189, 192, 2, 149, 188, 92, 123, 178, 189, 4, 219, 175, 61, 124, 194, 185, 189, 176, 10, 215, 189, 213, 138, 219, 189, 24, 164, 171, 189, 99, 9, 140, 189, 228, 124, 171, 189, 80, 130, 151, 189, 160, 7, 113, 189, 176, 121, 94, 61, 4, 173, 2, 62, 128, 201, 32, 187, 103, 4, 250, 188, 232, 11, 209, 61, 191, 80, 196, 184, 141, 144, 205, 189, 36, 155, 17, 189, 74, 4, 211, 61, 34, 216, 171, 189, 84, 176, 214, 189, 100, 129, 246, 61, 82, 174, 169, 187, 0, 127, 46, 60, 112, 199, 196, 60, 47, 51, 139, 60, 243, 148, 79, 60, 241, 123, 0, 189, 136, 189, 42, 189, 80, 115, 170, 61, 208, 198, 50, 189, 221, 108, 191, 188, 56, 109, 75, 189, 3, 59, 139, 189, 240, 197, 207, 61, 160, 100, 163, 189, 96, 217, 43, 188, 192, 99, 153, 61, 239, 121, 24, 188, 244, 110, 110, 61, 116, 93, 242, 61, 228, 57, 130, 61, 215, 99, 2, 62, 48, 97, 143, 60, 173, 140, 248, 59, 232, 210, 160, 61, 46, 208, 5, 62, 162, 25, 26, 61, 95, 102, 245, 61, 255, 83, 212, 61, 206, 45, 201, 189, 0, 46, 233, 187, 59, 10, 138, 61, 156, 137, 166, 189, 136, 144, 209, 61, 248, 250, 228, 61, 128, 91, 4, 189, 10, 9, 144, 61, 0, 225, 37, 187, 16, 251, 143, 60, 34, 112, 225, 61, 105, 64, 51, 59, 32, 142, 188, 60, 222, 9, 215, 60, 128, 173, 66, 61, 104, 246, 152, 61, 0, 179, 170, 189, 208, 9, 221, 61, 99, 168, 149, 189, 128, 200, 223, 59, 68, 90, 159, 60, 134, 3, 166, 61, 200, 11, 106, 61, 118, 33, 5, 62, 80, 197, 157, 61, 128, 224, 73, 60, 100, 11, 155, 61, 96, 234, 208, 188, 247, 59, 156, 61, 64, 226, 6, 61, 128, 156, 184, 188, 12, 175, 141, 189, 104, 119, 70, 189, 8, 86, 232, 61, 57, 207, 44, 61, 120, 46, 176, 189, 0, 55, 208, 186, 136, 93, 89, 189, 228, 185, 132, 61, 102, 231, 229, 188, 64, 214, 191, 59, 208, 96, 218, 188, 187, 245, 197, 189, 36, 43, 101, 189, 226, 153, 177, 189, 137, 207, 252, 60, 96, 109, 17, 188, 28, 18, 209, 61, 174, 0, 13, 188, 211, 54, 155, 59, 232, 128, 25, 189, 176, 131, 106, 61, 64, 150, 135, 188, 108, 1, 251, 61, 32, 248, 230, 189, 187, 14, 196, 61, 206, 46, 151, 189, 135, 231, 212, 61, 108, 255, 166, 61, 222, 5, 136, 189, 92, 26, 206, 189, 144, 230, 194, 189, 184, 61, 252, 61, 20, 35, 139, 61, 84, 137, 135, 189, 167, 120, 230, 189, 248, 185, 65, 61, 56, 187, 66, 189, 192, 232, 146, 189, 48, 110, 1, 189, 112, 192, 59, 189, 30, 73, 24, 189, 164, 177, 69, 61, 208, 86, 139, 61, 0, 140, 177, 186, 80, 177, 214, 61, 163, 234, 151, 59, 96, 172, 250, 189, 200, 15, 92, 61, 80, 6, 203, 188, 36, 114, 253, 189, 44, 151, 67, 189, 112, 179, 94, 61, 0, 137, 24, 61, 212, 208, 165, 61, 96, 118, 96, 188, 213, 66, 178, 189, 160, 109, 82, 60, 216, 23, 3, 62, 128, 51, 59, 189, 236, 140, 171, 188, 191, 81, 164, 189, 60, 202, 219, 61, 204, 173, 240, 61, 68, 183, 189, 61, 220, 99, 212, 189, 218, 13, 237, 61, 228, 228, 251, 189, 192, 63, 195, 59, 128, 37, 9, 59, 128, 216, 172, 188, 32, 113, 29, 188, 16, 173, 38, 189, 212, 229, 249, 61, 93, 222, 218, 60, 0, 220, 110, 60, 120, 14, 17, 189, 216, 243, 149, 61, 118, 116, 145, 60, 34, 138, 221, 60, 180, 62, 255, 61, 227, 184, 218, 61, 214, 30, 82, 189, 216, 242, 55, 189, 126, 8, 222, 61, 172, 72, 205, 61, 156, 65, 233, 61, 216, 228, 40, 189, 80, 216, 172, 189, 245, 116, 216, 189, 28, 92, 22, 61, 75, 137, 86, 189, 206, 216, 233, 57, 131, 169, 220, 189, 73, 179, 228, 189, 18, 199, 225, 61, 102, 227, 245, 59, 100, 25, 161, 189, 192, 192, 173, 61, 248, 94, 253, 59, 248, 2, 214, 189, 23, 149, 140, 59, 72, 31, 140, 189, 64, 199, 112, 60, 253, 6, 6, 62, 16, 179, 212, 61, 172, 149, 154, 61, 240, 24, 16, 61, 232, 219, 109, 61, 116, 205, 202, 61, 0, 20, 129, 61, 63, 106, 104, 189, 216, 44, 222, 61, 96, 140, 181, 61, 113, 155, 125, 61, 133, 38, 235, 61, 80, 32, 85, 189, 149, 146, 100, 188, 28, 232, 152, 189, 32, 254, 202, 61, 64, 162, 188, 189, 103, 168, 3, 62, 184, 65, 248, 61, 134, 50, 176, 189, 86, 24, 205, 189, 224, 149, 204, 189, 149, 166, 208, 189, 110, 13, 178, 61, 224, 69, 189, 61, 73, 255, 234, 189, 214, 164, 99, 189, 35, 194, 88, 61, 177, 81, 138, 189, 58, 76, 194, 61, 142, 2, 41, 189, 56, 71, 46, 189, 32, 145, 52, 189, 200, 19, 212, 189, 108, 146, 23, 189, 194, 250, 240, 189, 220, 205, 178, 189, 171, 34, 237, 61, 88, 205, 160, 61, 8, 220, 56, 189, 119, 122, 150, 189, 200, 127, 156, 189, 98, 103, 171, 189, 41, 99, 172, 61, 180, 208, 144, 61, 74, 82, 199, 189, 232, 132, 151, 189, 200, 209, 38, 61, 68, 58, 157, 61, 0, 214, 3, 60, 0, 233, 153, 58, 40, 122, 160, 189, 168, 125, 212, 189, 208, 150, 213, 61, 227, 16, 163, 61, 220, 151, 145, 189, 103, 158, 71, 61, 18, 124, 3, 62, 55, 169, 197, 61, 79, 247, 142, 189, 249, 16, 233, 61, 150, 220, 231, 60, 40, 122, 142, 189, 0, 225, 154, 59, 15, 82, 46, 61, 96, 189, 103, 61, 164, 217, 213, 61, 114, 219, 253, 61, 217, 116, 237, 60, 104, 244, 201, 189, 26, 153, 67, 189, 224, 3, 237, 188, 16, 162, 156, 61, 168, 182, 49, 61, 88, 112, 22, 61, 64, 17, 242, 61, 25, 157, 12, 61, 16, 39, 5, 61, 31, 68, 197, 60, 24, 94, 199, 189, 64, 97, 175, 189, 124, 91, 212, 189, 152, 16, 59, 189, 225, 202, 113, 61, 212, 102, 244, 61, 124, 164, 237, 61, 192, 7, 141, 189, 129, 63, 99, 189, 213, 231, 17, 189, 235, 34, 156, 189, 54, 67, 224, 61, 169, 20, 187, 61, 80, 254, 73, 61, 120, 251, 227, 61, 161, 150, 34, 58, 0, 202, 23, 189, 16, 205, 211, 188, 246, 79, 170, 61, 60, 185, 175, 61, 156, 38, 97, 61, 232, 25, 59, 61, 40, 109, 247, 61, 224, 17, 59, 188, 160, 201, 109, 61, 64, 76, 148, 188, 86, 149, 149, 61, 128, 8, 17, 60, 13, 220, 51, 61, 148, 161, 226, 61, 0, 159, 163, 61, 6, 185, 135, 61, 200, 112, 177, 60, 249, 27, 85, 60, 197, 245, 28, 61, 226, 71, 111, 61, 120, 195, 127, 189, 102, 140, 90, 61, 120, 227, 88, 61, 35, 228, 217, 189, 154, 65, 204, 61, 218, 186, 248, 188, 154, 170, 165, 61, 235, 175, 96, 189, 84, 113, 164, 189, 25, 55, 193, 61, 64, 19, 180, 188, 216, 12, 148, 189, 240, 88, 166, 60, 72, 16, 79, 189, 45, 249, 233, 61, 68, 247, 134, 189, 160, 245, 113, 189, 211, 150, 163, 61, 40, 161, 197, 189, 144, 222, 101, 61, 213, 31, 140, 189, 8, 62, 180, 61, 80, 169, 134, 189, 35, 238, 254, 61, 160, 76, 10, 189, 139, 205, 120, 189, 144, 144, 248, 61, 81, 79, 155, 61, 11, 236, 201, 189, 250, 153, 100, 188, 101, 169, 219, 61, 0, 43, 150, 189, 56, 128, 139, 61, 216, 55, 223, 61, 36, 45, 174, 189, 213, 46, 196, 61, 230, 176, 139, 60, 80, 248, 219, 189, 36, 50, 132, 189, 212, 77, 137, 189, 88, 244, 132, 189, 31, 175, 167, 189, 94, 165, 254, 61, 160, 30, 95, 60, 244, 80, 246, 61, 158, 102, 112, 61, 118, 68, 160, 189, 160, 53, 83, 61, 124, 24, 201, 189, 101, 197, 166, 188, 54, 16, 227, 61, 231, 198, 159, 189, 45, 84, 229, 61, 168, 172, 229, 61, 112, 78, 188, 189, 250, 113, 132, 189, 140, 240, 143, 61, 152, 125, 206, 189, 179, 132, 104, 61, 124, 24, 137, 61, 16, 146, 225, 189, 144, 87, 207, 60, 111, 250, 26, 189, 218, 48, 247, 61, 120, 43, 152, 60, 52, 177, 235, 61, 184, 7, 95, 61, 36, 30, 158, 61, 120, 180, 198, 189, 48, 172, 161, 61, 72, 149, 221, 189, 160, 186, 236, 189, 217, 226, 192, 61, 80, 5, 190, 188, 144, 71, 171, 189, 192, 202, 132, 60, 160, 79, 3, 60, 240, 176, 240, 60, 188, 213, 133, 60, 11, 127, 45, 186, 64, 23, 172, 187, 180, 11, 138, 61, 136, 254, 236, 61, 107, 115, 62, 188, 224, 57, 74, 61, 64, 163, 35, 188, 168, 185, 190, 61, 172, 33, 169, 189, 176, 212, 189, 189, 176, 232, 77, 61, 224, 214, 88, 188, 0, 55, 182, 59, 104, 189, 200, 61, 14, 1, 54, 60, 48, 203, 106, 189, 187, 23, 189, 60, 57, 191, 25, 186, 236, 124, 213, 189, 18, 71, 131, 189, 128, 205, 249, 189, 82, 68, 238, 61, 247, 168, 130, 60, 162, 172, 71, 189, 158, 101, 196, 61, 104, 244, 192, 61, 0, 182, 68, 61, 112, 171, 41, 61, 188, 121, 239, 189, 76, 157, 168, 189, 160, 213, 160, 189, 176, 144, 203, 61, 176, 239, 3, 60, 220, 192, 193, 189, 40, 31, 93, 189, 103, 73, 255, 188, 155, 178, 26, 189, 69, 193, 96, 60, 200, 141, 23, 61, 39, 142, 211, 60, 227, 56, 223, 61, 48, 177, 3, 189, 75, 167, 143, 188, 0, 78, 217, 59, 204, 1, 194, 189, 88, 49, 180, 189, 252, 57, 187, 189, 96, 196, 7, 189, 167, 45, 222, 189, 224, 102, 170, 189, 252, 117, 123, 61, 2, 67, 9, 61, 80, 205, 170, 189, 60, 96, 165, 189, 196, 109, 212, 61, 30, 183, 207, 61, 216, 141, 88, 61, 3, 121, 106, 61, 164, 249, 175, 189, 128, 95, 54, 187, 216, 104, 134, 61, 16, 76, 84, 189, 178, 124, 150, 188, 8, 113, 195, 189, 0, 254, 225, 59, 172, 6, 171, 61, 64, 139, 56, 188, 176, 208, 182, 61, 24, 197, 167, 61, 80, 46, 133, 189, 240, 176, 194, 188, 120, 185, 78, 61, 92, 215, 170, 189, 112, 241, 59, 61, 104, 163, 233, 189, 128, 230, 232, 59, 116, 153, 172, 189, 80, 58, 144, 61, 192, 232, 63, 189, 136, 98, 245, 61, 196, 50, 198, 61, 200, 241, 18, 61, 48, 217, 248, 60, 128, 211, 184, 60, 68, 49, 251, 189, 20, 15, 253, 189, 156, 175, 186, 189, 64, 126, 58, 189, 224, 82, 93, 189, 48, 244, 222, 61, 104, 210, 45, 61, 128, 30, 249, 61, 0, 3, 109, 188, 128, 223, 119, 59, 224, 179, 17, 188, 4, 69, 194, 189, 240, 238, 140, 189, 144, 191, 34, 61, 236, 167, 186, 61, 216, 72, 107, 189, 0, 150, 32, 188, 240, 12, 225, 188, 60, 118, 151, 189, 244, 245, 205, 61, 4, 98, 219, 189, 156, 227, 150, 61, 16, 108, 144, 61, 128, 72, 31, 60, 80, 171, 143, 60, 160, 111, 209, 188, 64, 126, 10, 61, 56, 180, 187, 61, 200, 241, 137, 189, 84, 86, 134, 189, 64, 157, 162, 59, 176, 137, 151, 61, 48, 4, 73, 189, 100, 217, 133, 61, 220, 227, 144, 189, 16, 242, 217, 60, 160, 22, 205, 189, 152, 97, 49, 189, 0, 13, 45, 60, 120, 27, 183, 61, 136, 22, 100, 189, 216, 126, 254, 189, 160, 229, 152, 61, 0, 244, 226, 59, 16, 72, 120, 189, 160, 205, 211, 189, 160, 62, 115, 61, 136, 139, 177, 61, 32, 170, 3, 60, 160, 142, 183, 188, 72, 3, 54, 189, 144, 4, 224, 188, 40, 177, 144, 189, 172, 32, 210, 189, 36, 11, 220, 189, 32, 107, 109, 188, 124, 122, 239, 61, 196, 206, 133, 189, 192, 235, 115, 60, 0, 5, 199, 188, 100, 73, 162, 61, 20, 173, 165, 189, 240, 125, 186, 189, 92, 17, 239, 61, 16, 70, 94, 61, 184, 76, 214, 189, 136, 175, 39, 189, 44, 151, 161, 61, 224, 193, 161, 189, 208, 68, 145, 60, 60, 135, 139, 189, 168, 150, 167, 61, 176, 188, 49, 189, 168, 10, 59, 61, 64, 180, 124, 60, 100, 240, 173, 189, 192, 70, 61, 188, 0, 146, 17, 58, 208, 37, 73, 189, 0, 9, 177, 189, 160, 7, 131, 188, 232, 53, 67, 61, 92, 71, 137, 61, 36, 34, 168, 189, 240, 230, 192, 189, 192, 78, 205, 187, 8, 98, 249, 61, 152, 71, 196, 189, 20, 77, 147, 189, 152, 66, 104, 61, 36, 232, 189, 189, 252, 43, 144, 189, 168, 206, 171, 61, 132, 104, 253, 61, 132, 25, 177, 61, 132, 174, 215, 61, 32, 118, 24, 189, 208, 94, 152, 61, 152, 60, 186, 61, 144, 91, 251, 61, 224, 111, 141, 61, 208, 203, 86, 61, 120, 127, 163, 61, 64, 214, 192, 60, 124, 178, 223, 189, 40, 95, 55, 61, 216, 143, 60, 61, 172, 137, 196, 189, 168, 16, 197, 61, 224, 51, 206, 61, 232, 226, 53, 61, 184, 17, 78, 189, 48, 223, 193, 188, 96, 98, 61, 189, 0, 91, 253, 187, 184, 190, 11, 189, 40, 125, 195, 61, 208, 115, 178, 188, 64, 48, 127, 61, 180, 86, 155, 189, 212, 166, 142, 61, 32, 48, 162, 189, 112, 185, 30, 189, 152, 180, 6, 61, 248, 84, 122, 189, 96, 19, 104, 188, 168, 212, 247, 189, 224, 227, 152, 189, 168, 54, 200, 189, 24, 155, 79, 189, 184, 136, 100, 61, 72, 220, 67, 189, 144, 40, 29, 61, 128, 229, 28, 61, 152, 28, 217, 189, 144, 154, 77, 189, 144, 27, 169, 60, 12, 131, 201, 189, 160, 125, 193, 188, 112, 220, 44, 61, 40, 64, 178, 189, 32, 81, 14, 61, 128, 44, 82, 188, 68, 153, 223, 61, 48, 3, 149, 188, 120, 150, 170, 189, 80, 145, 192, 60, 140, 216, 155, 189, 240, 158, 93, 189, 160, 120, 196, 61, 224, 110, 229, 60, 224, 99, 197, 61, 92, 247, 242, 189, 240, 75, 130, 188, 216, 35, 99, 189, 224, 235, 213, 189, 112, 101, 64, 61, 28, 219, 246, 189, 80, 106, 181, 188, 108, 107, 128, 61, 184, 221, 80, 61, 20, 38, 252, 189, 160, 134, 249, 189, 108, 32, 133, 61, 112, 252, 181, 188, 96, 158, 241, 61, 128, 238, 122, 60, 128, 88, 135, 189, 72, 84, 176, 189, 0, 80, 180, 60, 24, 247, 121, 61, 20, 95, 154, 61, 0, 25, 217, 61, 0, 149, 189, 186, 136, 98, 231, 61, 0, 23, 1, 60, 176, 85, 246, 188, 64, 124, 55, 61, 128, 222, 237, 189, 208, 155, 94, 61, 248, 67, 112, 189, 156, 85, 231, 61, 148, 100, 153, 61, 128, 202, 250, 59, 124, 84, 173, 61, 64, 37, 165, 188, 76, 117, 172, 61, 104, 154, 234, 61, 160, 174, 21, 60, 240, 25, 107, 189, 164, 169, 255, 61, 48, 18, 232, 61, 224, 175, 250, 60, 24, 122, 142, 61, 224, 214, 180, 61, 252, 119, 177, 189, 160, 202, 88, 188, 32, 200, 218, 188, 208, 186, 248, 189, 4, 182, 232, 61, 80, 162, 128, 61, 248, 51, 241, 189, 76, 14, 241, 189, 84, 213, 221, 189, 16, 53, 51, 61, 156, 172, 134, 189, 208, 234, 206, 188, 16, 29, 250, 188, 96, 228, 24, 61, 88, 202, 94, 189, 80, 75, 85, 61, 0, 223, 50, 59, 64, 122, 255, 187, 180, 1, 251, 189, 112, 2, 164, 188, 96, 68, 244, 60, 144, 109, 207, 188, 44, 246, 239, 61, 244, 248, 248, 189, 96, 0, 115, 189, 188, 187, 255, 189, 128, 126, 202, 188, 104, 70, 91, 189, 180, 231, 221, 189, 64, 105, 138, 187, 80, 79, 83, 61, 84, 68, 230, 189, 60, 146, 183, 189, 180, 119, 187, 61, 208, 244, 3, 61, 0, 236, 0, 59, 132, 115, 190, 61, 64, 159, 57, 189, 60, 8, 133, 61, 96, 103, 178, 189, 88, 74, 48, 189, 0, 168, 149, 61, 184, 25, 36, 189, 200, 96, 90, 189, 160, 122, 87, 61, 16, 46, 98, 61, 176, 140, 194, 188, 128, 104, 115, 187, 68, 240, 160, 61, 32, 201, 180, 61, 24, 122, 217, 189, 24, 95, 185, 61, 128, 33, 9, 188, 16, 168, 236, 60, 96, 46, 68, 188, 0, 116, 1, 187, 192, 87, 243, 61, 184, 228, 44, 189, 128, 13, 158, 60, 132, 44, 201, 61, 16, 107, 41, 189, 192, 23, 211, 189, 232, 63, 74, 189, 128, 69, 252, 59, 212, 8, 155, 189, 176, 18, 191, 60, 40, 70, 225, 189, 224, 91, 249, 188, 0, 146, 49, 58, 96, 186, 43, 60, 64, 90, 253, 61, 144, 60, 217, 60, 16, 46, 39, 61, 56, 39, 205, 189, 120, 168, 14, 189, 80, 178, 89, 189, 16, 4, 128, 60, 224, 46, 154, 61, 144, 147, 55, 189, 24, 220, 210, 61, 192, 33, 207, 188, 64, 248, 245, 59, 0, 138, 255, 60, 148, 158, 174, 189, 40, 57, 207, 61, 160, 65, 24, 61, 152, 13, 159, 189, 64, 132, 156, 188, 196, 97, 178, 189, 224, 165, 168, 188, 152, 43, 130, 189, 20, 255, 133, 61, 168, 165, 238, 189, 24, 7, 104, 61, 168, 32, 209, 189, 0, 142, 212, 186, 160, 20, 45, 60, 60, 135, 194, 61, 200, 43, 191, 189, 232, 201, 37, 189, 136, 106, 167, 189, 48, 208, 67, 189, 184, 81, 141, 61, 224, 184, 212, 188, 100, 93, 230, 189, 160, 26, 91, 61, 80, 98, 224, 61, 200, 218, 199, 61, 48, 102, 136, 60, 232, 67, 53, 189, 96, 46, 160, 60, 216, 245, 70, 189, 80, 230, 140, 60, 64, 139, 181, 60, 40, 82, 165, 61, 0, 222, 11, 186, 140, 12, 233, 189, 64, 251, 67, 189, 240, 190, 171, 189, 224, 152, 179, 188, 76, 195, 243, 189, 84, 85, 206, 189, 0, 207, 227, 187, 96, 24, 109, 61, 160, 46, 98, 188, 244, 213, 158, 189, 112, 240, 69, 189, 20, 20, 221, 189, 52, 112, 200, 61, 128, 142, 14, 187, 176, 20, 217, 60, 64, 90, 234, 61, 224, 110, 79, 61, 152, 63, 146, 189, 128, 222, 219, 60, 184, 215, 173, 61, 128, 126, 158, 188, 60, 76, 162, 61, 4, 19, 139, 61, 24, 55, 162, 61, 20, 2, 246, 189, 144, 13, 136, 61, 72, 188, 83, 189, 244, 31, 137, 61, 80, 149, 133, 188, 152, 110, 175, 189, 0, 186, 128, 58, 208, 216, 74, 61, 152, 172, 240, 189, 128, 137, 204, 189, 216, 213, 16, 61, 176, 211, 95, 189, 192, 122, 237, 60, 216, 115, 163, 61, 72, 245, 62, 61, 232, 50, 208, 61, 232, 132, 16, 61, 160, 34, 1, 189, 88, 192, 241, 189, 32, 102, 46, 188, 224, 68, 44, 188, 68, 82, 172, 189, 0, 201, 67, 188, 156, 114, 151, 189, 208, 148, 37, 189, 188, 7, 130, 61, 0, 4, 208, 59, 192, 163, 112, 189, 168, 252, 60, 189, 164, 29, 245, 61, 8, 71, 127, 61, 152, 226, 40, 61, 32, 155, 202, 188, 160, 213, 60, 61, 72, 35, 37, 61, 224, 89, 250, 60, 92, 255, 209, 189, 192, 216, 136, 188, 176, 156, 52, 61, 160, 245, 226, 61, 52, 132, 165, 61, 0, 128, 104, 58, 184, 214, 17, 189, 220, 243, 181, 189, 120, 247, 145, 189, 112, 226, 182, 189, 0, 168, 223, 59, 56, 180, 226, 61, 180, 58, 223, 61, 136, 7, 87, 61, 36, 41, 209, 189, 76, 26, 134, 61, 104, 223, 20, 61, 240, 173, 118, 61, 200, 154, 243, 61, 152, 157, 191, 61, 188, 226, 254, 189, 96, 251, 248, 189, 128, 224, 153, 60, 24, 174, 151, 189, 156, 231, 162, 61, 240, 219, 227, 60, 212, 237, 160, 61, 76, 215, 213, 189, 32, 189, 86, 61, 88, 195, 233, 189, 80, 148, 197, 61, 16, 204, 65, 189, 96, 61, 86, 188, 8, 7, 254, 189, 104, 44, 207, 189, 232, 143, 203, 61, 192, 160, 221, 188, 224, 215, 241, 188, 180, 221, 235, 189, 56, 110, 30, 61, 160, 149, 67, 189, 96, 115, 174, 189, 112, 57, 116, 189, 160, 181, 93, 61, 44, 40, 248, 189, 140, 2, 166, 61, 4, 27, 199, 61, 44, 12, 152, 189, 72, 169, 77, 61, 160, 180, 240, 189, 152, 165, 251, 61, 224, 146, 241, 60, 28, 37, 217, 189, 128, 150, 60, 59, 200, 214, 249, 189, 136, 235, 196, 61, 20, 87, 168, 189, 160, 85, 51, 60, 116, 239, 133, 189, 144, 115, 175, 60, 0, 123, 95, 188, 88, 95, 146, 189, 64, 84, 109, 189, 140, 131, 185, 189, 128, 163, 182, 188, 96, 146, 171, 188, 160, 216, 190, 188, 128, 220, 170, 187, 236, 10, 155, 61, 112, 232, 120, 189, 116, 179, 148, 189, 176, 27, 25, 61, 136, 103, 137, 61, 172, 139, 185, 189, 32, 83, 228, 60, 188, 34, 153, 61, 0, 61, 198, 186, 96, 55, 201, 60, 144, 105, 67, 189, 128, 34, 145, 61, 64, 28, 221, 187, 80, 204, 205, 60, 240, 209, 129, 188, 16, 243, 78, 189, 224, 138, 101, 188, 72, 251, 57, 189, 80, 65, 106, 189, 248, 210, 41, 61, 76, 141, 187, 61, 240, 104, 170, 61, 96, 157, 102, 188, 48, 253, 182, 60, 128, 212, 108, 59, 64, 140, 3, 189, 248, 110, 212, 189, 180, 155, 193, 61, 64, 0, 171, 188, 64, 85, 219, 61, 220, 124, 195, 61, 64, 69, 253, 189, 64, 173, 30, 188, 184, 209, 49, 61, 136, 115, 227, 189, 232, 224, 9, 61, 64, 2, 96, 61, 144, 249, 120, 61, 68, 139, 206, 61, 176, 134, 136, 189, 228, 40, 206, 61, 128, 113, 222, 59, 0, 224, 13, 61, 164, 12, 146, 61, 200, 77, 154, 189, 0, 164, 236, 57, 184, 174, 130, 189, 8, 92, 130, 189, 232, 110, 135, 61, 176, 91, 45, 61, 96, 19, 152, 189, 0, 46, 242, 188, 48, 16, 161, 188, 64, 178, 226, 61, 53, 138, 83, 60, 204, 20, 166, 189, 208, 94, 93, 189, 253, 84, 215, 61, 223, 233, 157, 189, 192, 15, 113, 61, 155, 239, 194, 189, 124, 146, 253, 189, 142, 54, 81, 61, 224, 182, 180, 188, 236, 173, 78, 189, 92, 175, 233, 61, 44, 180, 214, 61, 80, 172, 239, 189, 241, 74, 237, 189, 152, 178, 160, 189, 217, 39, 4, 61, 1, 79, 68, 189, 100, 208, 212, 189, 20, 132, 8, 59, 27, 217, 241, 61, 15, 214, 199, 60, 56, 182, 190, 189, 144, 51, 239, 60, 234, 184, 242, 189, 29, 168, 11, 189, 5, 4, 216, 188, 134, 24, 180, 58, 32, 16, 125, 61, 104, 41, 219, 189, 144, 63, 144, 189, 186, 67, 239, 188, 78, 162, 35, 61, 68, 217, 143, 189, 219, 16, 220, 61, 12, 189, 186, 189, 232, 218, 86, 61, 192, 21, 247, 60, 84, 138, 232, 61, 192, 53, 205, 61, 85, 9, 186, 59, 208, 191, 234, 189, 159, 152, 1, 189, 156, 142, 179, 189, 112, 141, 199, 60, 188, 10, 192, 189, 224, 208, 111, 188, 200, 161, 53, 189, 224, 85, 78, 189, 12, 236, 217, 189, 128, 87, 220, 59, 90, 143, 141, 59, 32, 38, 61, 61, 59, 18, 121, 187, 107, 244, 199, 60, 193, 97, 131, 188, 23, 104, 253, 189, 60, 109, 200, 189, 187, 109, 238, 61, 139, 31, 0, 60, 96, 133, 247, 189, 138, 82, 169, 61, 216, 20, 101, 61, 162, 160, 236, 188, 145, 36, 166, 189, 114, 138, 229, 188, 228, 14, 204, 61, 155, 210, 134, 61, 164, 108, 144, 189, 132, 147, 250, 61, 64, 117, 193, 61, 144, 254, 152, 61, 224, 48, 154, 60, 219, 225, 128, 189, 88, 147, 43, 61, 58, 52, 213, 189, 64, 53, 242, 187, 120, 197, 37, 189, 24, 244, 110, 61, 88, 170, 14, 189, 35, 168, 142, 189, 220, 232, 157, 61, 173, 69, 207, 60, 32, 82, 183, 61, 31, 5, 61, 61, 18, 203, 134, 189, 129, 8, 197, 60, 92, 10, 144, 189, 166, 60, 44, 59, 224, 130, 15, 60, 32, 193, 251, 60, 218, 109, 4, 61, 224, 101, 251, 61, 0, 98, 205, 189, 91, 187, 33, 61, 23, 102, 37, 61, 232, 132, 222, 60, 200, 43, 109, 61, 64, 17, 173, 59, 8, 133, 118, 61, 99, 246, 208, 189, 0, 155, 54, 189, 20, 13, 174, 61, 176, 52, 157, 60, 253, 85, 35, 189, 32, 88, 91, 189, 54, 162, 184, 189, 84, 254, 231, 61, 166, 73, 160, 189, 2, 192, 199, 189, 55, 212, 9, 61, 204, 76, 153, 189, 176, 188, 95, 61, 92, 201, 189, 189, 176, 70, 40, 61, 140, 253, 224, 188, 23, 76, 189, 61, 54, 237, 25, 61, 50, 87, 174, 60, 62, 53, 243, 61, 128, 234, 28, 60, 54, 202, 217, 189, 96, 54, 78, 60, 224, 80, 32, 61, 180, 64, 136, 61, 124, 63, 165, 189, 135, 109, 135, 61, 208, 65, 180, 61, 0, 184, 210, 186, 48, 81, 102, 189, 156, 217, 184, 61, 32, 172, 252, 61, 67, 216, 49, 61, 52, 202, 158, 61, 0, 243, 236, 187, 72, 197, 0, 60, 108, 29, 171, 61, 6, 82, 130, 189, 32, 113, 172, 60, 147, 201, 206, 61, 248, 200, 145, 60, 168, 33, 225, 189, 183, 61, 148, 188, 72, 215, 73, 189, 92, 196, 196, 189, 96, 46, 28, 189, 16, 2, 233, 189, 113, 113, 184, 61, 108, 160, 62, 189, 120, 161, 86, 61, 2, 234, 224, 61, 100, 181, 172, 189, 188, 8, 249, 189, 193, 175, 178, 59, 176, 243, 171, 188, 224, 28, 169, 189, 48, 192, 58, 61, 82, 50, 230, 188, 139, 118, 14, 61, 20, 227, 178, 189, 0, 186, 33, 188, 228, 22, 19, 61, 162, 224, 216, 61, 91, 136, 231, 60, 67, 213, 54, 189, 24, 166, 67, 189, 40, 232, 226, 61, 0, 186, 190, 61, 74, 24, 75, 61, 112, 161, 121, 61, 253, 223, 149, 60, 248, 145, 185, 189, 144, 209, 210, 60, 192, 121, 6, 189, 238, 159, 111, 61, 190, 183, 81, 189, 209, 34, 36, 60, 76, 75, 218, 61, 86, 64, 86, 59, 204, 56, 158, 189, 224, 143, 179, 61, 212, 211, 135, 61, 184, 8, 58, 189, 88, 80, 97, 61, 224, 101, 184, 61, 180, 239, 202, 189, 48, 88, 69, 189, 224, 36, 175, 61, 212, 217, 252, 189, 64, 48, 196, 60, 241, 211, 253, 60, 183, 115, 228, 60, 216, 60, 12, 61, 188, 67, 176, 61, 160, 57, 65, 189, 224, 5, 157, 61, 176, 21, 44, 61, 112, 10, 69, 61, 108, 186, 250, 61, 232, 129, 127, 189, 115, 18, 183, 60, 224, 136, 30, 60, 64, 100, 79, 61, 48, 208, 20, 189, 128, 235, 53, 187, 34, 1, 188, 189, 8, 216, 218, 189, 16, 143, 200, 61, 100, 40, 189, 60, 0, 238, 223, 188, 43, 115, 232, 61, 36, 219, 193, 61, 66, 162, 207, 61, 235, 31, 94, 60, 244, 138, 160, 189, 123, 63, 130, 60, 72, 9, 58, 61, 168, 70, 100, 61, 240, 250, 248, 188, 244, 96, 238, 189, 228, 31, 174, 61, 40, 234, 226, 61, 220, 14, 202, 61, 154, 2, 157, 61, 96, 53, 39, 61, 208, 54, 204, 60, 14, 80, 179, 60, 247, 127, 233, 61, 172, 15, 84, 60, 192, 221, 149, 188, 225, 101, 127, 59, 47, 202, 233, 189, 124, 219, 247, 189, 239, 62, 186, 61, 32, 6, 102, 61, 64, 27, 149, 189, 152, 243, 130, 61, 184, 66, 157, 61, 72, 45, 162, 189, 53, 243, 244, 189, 140, 14, 237, 61, 163, 242, 31, 188, 233, 144, 188, 189, 30, 41, 31, 189, 45, 78, 193, 61, 149, 199, 190, 189, 152, 100, 223, 189, 220, 58, 147, 189, 20, 145, 199, 61, 144, 80, 181, 189, 120, 102, 125, 189, 76, 19, 129, 61, 232, 202, 186, 61, 31, 48, 232, 61, 112, 223, 187, 188, 208, 46, 245, 188, 68, 223, 209, 61, 32, 115, 157, 61, 76, 134, 249, 61, 0, 227, 194, 58, 72, 143, 185, 61, 64, 205, 246, 188, 128, 179, 13, 187, 60, 140, 242, 61, 44, 213, 208, 189, 84, 51, 210, 61, 0, 85, 130, 188, 12, 2, 149, 61, 208, 167, 63, 61, 208, 231, 225, 61, 208, 38, 167, 189, 96, 206, 201, 60, 68, 234, 175, 189, 224, 56, 88, 188, 0, 236, 210, 59, 88, 19, 34, 189, 88, 31, 49, 189, 192, 175, 255, 188, 160, 156, 154, 61, 96, 32, 149, 60, 176, 212, 148, 60, 92, 88, 141, 61, 180, 68, 128, 189, 168, 7, 179, 61, 184, 45, 58, 189, 116, 140, 232, 61, 240, 65, 139, 60, 32, 211, 123, 189, 0, 139, 56, 60, 48, 170, 30, 61, 24, 76, 138, 189, 92, 30, 197, 61, 36, 131, 159, 189, 80, 83, 224, 188, 216, 69, 173, 61, 208, 106, 148, 60, 160, 85, 228, 189, 192, 19, 91, 61, 104, 248, 37, 189, 248, 217, 191, 189, 0, 100, 70, 61, 60, 123, 184, 61, 176, 16, 232, 189, 36, 120, 128, 189, 40, 57, 119, 61, 240, 24, 171, 189, 160, 159, 252, 60, 136, 30, 246, 189, 128, 133, 133, 188, 36, 120, 228, 189, 168, 200, 72, 189, 64, 236, 179, 187, 64, 231, 72, 188, 16, 187, 1, 61, 0, 100, 177, 188, 192, 157, 5, 60, 224, 111, 29, 189, 144, 185, 130, 188, 200, 207, 234, 61, 44, 241, 145, 189, 240, 39, 226, 189, 24, 110, 134, 61, 108, 133, 134, 189, 168, 98, 74, 189, 192, 247, 153, 61, 24, 235, 233, 189, 64, 143, 201, 188, 152, 182, 238, 61, 80, 218, 105, 189, 144, 110, 13, 189, 20, 80, 159, 189, 176, 255, 34, 189, 80, 220, 160, 60, 104, 35, 82, 189, 28, 72, 160, 189, 216, 168, 136, 189, 28, 206, 204, 61, 228, 219, 174, 61, 176, 132, 204, 189, 0, 40, 21, 61, 16, 201, 159, 60, 244, 86, 204, 189, 96, 154, 163, 61, 112, 251, 41, 61, 0, 105, 90, 61, 108, 29, 175, 61, 64, 247, 249, 187, 156, 134, 143, 61, 120, 189, 56, 189, 72, 162, 21, 61, 160, 49, 229, 61, 208, 221, 94, 189, 252, 38, 204, 61, 32, 130, 201, 60, 40, 133, 53, 189, 156, 241, 145, 61, 64, 168, 47, 61, 96, 111, 130, 189, 32, 81, 35, 188, 64, 139, 63, 188, 16, 186, 139, 61, 144, 189, 35, 189, 40, 73, 187, 189, 152, 83, 216, 61, 232, 194, 89, 189, 128, 154, 160, 59, 240, 200, 211, 189, 128, 224, 43, 187, 128, 124, 51, 60, 176, 95, 187, 60, 228, 197, 227, 189, 80, 52, 142, 189, 128, 162, 152, 61, 80, 112, 202, 61, 160, 61, 7, 189, 252, 230, 143, 61, 216, 42, 14, 61, 124, 36, 246, 189, 144, 43, 84, 189, 48, 4, 228, 61, 136, 108, 141, 61, 152, 56, 13, 61, 80, 237, 161, 61, 36, 134, 165, 61, 64, 160, 78, 60, 168, 5, 134, 61, 12, 126, 227, 189, 80, 212, 59, 189, 8, 84, 219, 189, 232, 219, 194, 61, 104, 70, 168, 61, 252, 147, 187, 61, 72, 11, 123, 189, 32, 214, 109, 188, 8, 60, 116, 189, 208, 161, 251, 60, 148, 76, 167, 61, 176, 82, 239, 189, 160, 218, 19, 189, 232, 59, 29, 189, 96, 221, 135, 188, 0, 247, 143, 59, 44, 175, 140, 189, 96, 60, 151, 61, 84, 147, 232, 189, 76, 58, 160, 189, 164, 116, 130, 189, 128, 170, 222, 189, 192, 227, 180, 188, 144, 13, 164, 189, 120, 109, 146, 61, 80, 73, 113, 189, 128, 23, 146, 59, 216, 91, 33, 61, 96, 225, 92, 61, 64, 189, 196, 188, 64, 65, 188, 189, 96, 226, 198, 60, 120, 94, 52, 61, 28, 156, 186, 61, 220, 10, 153, 61, 160, 175, 33, 189, 140, 166, 203, 61, 8, 49, 177, 61, 36, 15, 158, 61, 120, 93, 9, 61, 224, 130, 8, 61, 244, 7, 142, 61, 80, 125, 25, 61, 84, 71, 229, 189, 216, 202, 24, 61, 112, 160, 98, 61, 108, 211, 142, 189, 88, 31, 12, 189, 96, 247, 183, 188, 112, 65, 88, 61, 104, 221, 212, 189, 20, 206, 244, 189, 216, 80, 135, 61, 24, 26, 201, 189, 24, 194, 25, 61, 32, 223, 132, 188, 120, 59, 11, 189, 192, 209, 237, 59, 0, 15, 141, 189, 128, 8, 65, 60, 200, 194, 93, 189, 76, 5, 218, 61, 96, 84, 44, 188, 208, 87, 223, 60, 244, 17, 159, 61, 224, 166, 62, 60, 0, 246, 112, 60, 40, 83, 125, 61, 168, 202, 118, 189, 96, 18, 208, 189, 120, 94, 171, 61, 40, 231, 54, 61, 92, 134, 141, 189, 212, 202, 193, 61, 96, 160, 89, 61, 216, 165, 47, 189, 96, 70, 208, 61, 248, 2, 72, 189, 212, 180, 156, 189, 64, 169, 247, 188, 64, 237, 168, 187, 36, 117, 170, 61, 172, 54, 183, 189, 152, 0, 134, 61, 104, 53, 207, 189, 48, 255, 103, 61, 0, 28, 239, 58, 144, 21, 132, 188, 68, 34, 132, 189, 44, 100, 219, 61, 84, 246, 181, 61, 0, 164, 96, 61, 172, 63, 252, 189, 108, 5, 204, 61, 20, 149, 182, 189, 92, 130, 199, 61, 248, 165, 189, 189, 0, 111, 89, 188, 232, 1, 107, 189, 32, 227, 230, 60, 160, 28, 147, 60, 112, 30, 67, 61, 192, 107, 207, 59, 128, 113, 179, 189, 152, 157, 98, 61, 40, 247, 221, 189, 192, 56, 168, 189, 64, 143, 217, 61, 64, 144, 40, 61, 104, 228, 142, 189, 128, 210, 249, 61, 136, 9, 245, 61, 184, 138, 41, 61, 24, 122, 254, 189, 64, 143, 238, 60, 56, 227, 169, 61, 120, 180, 227, 61, 96, 174, 159, 60, 80, 119, 37, 61, 32, 8, 22, 61, 116, 137, 141, 189, 28, 33, 166, 61, 224, 128, 69, 188, 216, 175, 175, 189, 244, 38, 241, 61, 8, 190, 128, 61, 126, 170, 228, 61, 240, 41, 187, 61, 76, 2, 168, 61, 141, 152, 180, 59, 156, 49, 72, 61, 248, 201, 208, 61, 50, 158, 36, 188, 83, 125, 6, 61, 26, 24, 216, 189, 200, 110, 217, 189, 165, 67, 211, 189, 192, 161, 227, 189, 20, 122, 205, 61, 60, 18, 205, 61, 246, 78, 221, 189, 224, 143, 188, 61, 34, 51, 191, 189, 92, 248, 242, 189, 128, 242, 98, 189, 13, 217, 228, 61, 30, 53, 171, 189, 120, 253, 229, 189, 40, 175, 167, 188, 190, 110, 9, 61, 112, 231, 239, 188, 160, 124, 9, 58, 176, 92, 157, 61, 62, 151, 219, 188, 104, 179, 104, 189, 0, 129, 231, 189, 172, 223, 145, 189, 198, 36, 163, 61, 31, 156, 176, 61, 144, 1, 23, 61, 168, 224, 53, 61, 32, 9, 165, 189, 24, 151, 121, 61, 175, 99, 151, 61, 48, 214, 221, 189, 134, 183, 93, 189, 105, 101, 53, 188, 212, 72, 160, 61, 11, 208, 62, 189, 152, 218, 210, 61, 32, 253, 59, 189, 200, 20, 32, 61, 0, 96, 24, 184, 0, 156, 208, 60, 144, 50, 160, 60, 164, 103, 221, 189, 224, 153, 8, 60, 188, 245, 210, 58, 136, 97, 218, 189, 172, 104, 77, 61, 57, 36, 105, 61, 229, 90, 163, 59, 38, 42, 55, 61, 42, 235, 153, 189, 201, 121, 170, 61, 242, 171, 215, 61, 48, 161, 191, 188, 176, 247, 175, 61, 208, 47, 243, 189, 102, 123, 194, 59, 186, 108, 239, 61, 80, 52, 246, 59, 196, 79, 165, 61, 165, 76, 172, 61, 0, 113, 14, 187, 240, 208, 142, 61, 176, 144, 210, 61, 108, 130, 253, 61, 32, 57, 142, 60, 38, 10, 29, 61, 224, 215, 207, 188, 232, 9, 60, 60, 192, 15, 133, 60, 208, 211, 207, 61, 192, 189, 190, 187, 144, 128, 206, 60, 209, 14, 173, 189, 248, 40, 211, 61, 103, 51, 57, 61, 44, 70, 216, 189, 181, 65, 215, 59, 38, 81, 207, 185, 140, 121, 157, 187, 44, 109, 134, 61, 113, 246, 236, 189, 208, 197, 252, 60, 0, 218, 155, 188, 204, 224, 19, 61, 12, 29, 255, 189, 96, 95, 113, 189, 202, 248, 210, 189, 238, 233, 97, 189, 225, 211, 51, 188, 88, 103, 198, 61, 144, 77, 231, 188, 188, 183, 213, 189, 121, 247, 173, 189, 208, 64, 140, 61, 135, 72, 244, 189, 64, 232, 132, 60, 224, 73, 97, 189, 236, 158, 240, 61, 243, 255, 206, 61, 85, 3, 23, 189, 18, 10, 151, 61, 163, 59, 186, 61, 33, 100, 209, 189, 210, 26, 202, 61, 184, 141, 250, 189, 93, 81, 133, 189, 168, 38, 198, 189, 29, 133, 148, 189, 32, 246, 112, 189, 180, 142, 147, 61, 85, 103, 177, 61, 20, 204, 86, 61, 192, 242, 167, 59, 55, 91, 60, 189, 16, 242, 220, 188, 12, 246, 137, 61, 232, 130, 27, 61, 124, 23, 163, 189, 66, 156, 160, 61, 112, 231, 162, 61, 144, 101, 176, 189, 130, 166, 95, 61, 26, 209, 211, 61, 240, 118, 15, 189, 77, 129, 68, 189, 192, 128, 160, 61, 236, 177, 155, 189, 6, 146, 150, 60, 80, 7, 149, 60, 120, 114, 147, 61, 136, 216, 210, 189, 106, 134, 222, 61, 240, 92, 173, 61, 226, 210, 147, 189, 46, 233, 149, 61, 208, 27, 90, 189, 224, 123, 197, 61, 200, 207, 108, 189, 12, 231, 132, 189, 87, 246, 172, 61, 91, 218, 3, 61, 224, 118, 71, 189, 11, 51, 202, 189, 112, 197, 209, 188, 128, 153, 105, 188, 201, 132, 181, 60, 72, 235, 202, 189, 188, 74, 160, 189, 120, 131, 233, 61, 201, 179, 15, 189, 216, 83, 168, 189, 4, 135, 151, 61, 84, 228, 195, 189, 150, 77, 0, 190, 146, 3, 28, 189, 88, 135, 136, 189, 122, 127, 162, 189, 20, 204, 255, 61, 192, 144, 244, 59, 79, 249, 194, 189, 218, 113, 175, 189, 120, 131, 222, 61, 181, 249, 107, 61, 160, 48, 198, 60, 120, 194, 13, 189, 192, 233, 171, 187, 36, 12, 194, 189, 1, 102, 134, 189, 6, 89, 228, 189, 12, 52, 255, 189, 95, 64, 69, 189, 48, 216, 219, 60, 160, 165, 91, 60, 232, 206, 134, 61, 120, 14, 75, 189, 148, 91, 195, 61, 254, 91, 36, 189, 40, 76, 212, 189, 228, 42, 253, 61, 176, 31, 202, 189, 168, 46, 211, 189, 176, 147, 11, 61, 108, 251, 99, 188, 8, 67, 208, 189, 144, 10, 94, 189, 64, 247, 56, 188, 4, 108, 202, 189, 204, 132, 149, 61, 136, 160, 134, 61, 32, 14, 193, 189, 240, 176, 127, 61, 212, 48, 136, 61, 30, 105, 176, 61, 160, 90, 74, 189, 48, 4, 103, 61, 184, 79, 183, 61, 64, 116, 59, 188, 172, 206, 237, 188, 24, 49, 139, 61, 158, 142, 151, 60, 2, 250, 103, 189, 226, 254, 67, 61, 230, 211, 143, 189, 152, 146, 99, 189, 20, 160, 212, 61, 124, 171, 7, 189, 125, 246, 108, 188, 97, 122, 65, 188, 16, 201, 42, 61, 112, 0, 66, 61, 60, 56, 158, 189, 248, 176, 80, 61, 28, 83, 203, 61, 93, 30, 223, 189, 200, 139, 242, 61, 149, 239, 185, 189, 96, 84, 237, 188, 48, 175, 94, 61, 0, 191, 33, 61, 185, 171, 176, 189, 31, 135, 86, 61, 200, 164, 93, 61, 203, 252, 165, 188, 242, 211, 63, 189, 152, 3, 127, 61, 51, 165, 111, 61, 92, 102, 130, 189, 24, 174, 235, 61, 124, 15, 137, 189, 164, 136, 205, 189, 54, 190, 5, 190, 119, 178, 136, 189, 77, 25, 111, 61, 199, 254, 137, 61, 179, 141, 144, 189, 38, 21, 196, 189, 255, 118, 197, 185, 247, 201, 212, 61, 148, 238, 83, 189, 192, 73, 146, 61, 185, 60, 186, 188, 56, 21, 102, 189, 104, 112, 158, 189, 226, 73, 118, 189, 180, 147, 167, 61, 147, 111, 226, 189, 128, 120, 132, 61, 236, 216, 167, 61, 167, 181, 24, 61, 52, 64, 188, 61, 132, 48, 161, 189, 146, 85, 250, 61, 121, 221, 232, 61, 24, 200, 111, 189, 168, 214, 194, 189, 94, 57, 200, 61, 29, 125, 8, 61, 116, 225, 199, 61, 67, 100, 136, 189, 252, 223, 220, 61, 248, 68, 120, 189, 4, 133, 240, 61, 201, 147, 141, 188, 244, 83, 230, 61, 110, 84, 136, 189, 30, 226, 146, 189, 144, 225, 242, 189, 174, 188, 169, 60, 193, 145, 255, 61, 42, 210, 176, 60, 77, 194, 41, 60, 192, 238, 227, 61, 13, 238, 108, 59, 217, 156, 133, 61, 86, 56, 149, 61, 114, 111, 10, 60, 148, 162, 202, 189, 0, 157, 128, 186, 240, 132, 141, 61, 159, 245, 148, 61, 193, 246, 65, 189, 80, 21, 169, 189, 248, 125, 227, 187, 64, 121, 1, 189, 188, 201, 186, 61, 48, 207, 135, 189, 232, 134, 65, 189, 76, 131, 171, 61, 13, 211, 170, 189, 200, 23, 100, 189, 8, 207, 10, 61, 244, 162, 212, 61, 20, 31, 162, 189, 0, 210, 242, 186, 180, 120, 224, 61, 24, 110, 6, 189, 28, 234, 137, 61, 4, 97, 187, 61, 60, 26, 224, 189, 109, 108, 152, 188, 112, 60, 165, 188, 8, 20, 73, 189, 172, 13, 144, 61, 84, 8, 138, 188, 96, 44, 197, 61, 225, 40, 198, 61, 206, 16, 122, 187, 142, 35, 69, 61, 24, 233, 176, 189, 68, 227, 202, 189, 204, 106, 204, 61, 241, 100, 184, 60, 100, 137, 150, 59, 95, 180, 36, 60, 132, 100, 237, 189, 3, 166, 144, 61, 168, 204, 79, 61, 152, 155, 233, 189, 112, 232, 167, 189, 24, 153, 243, 61, 0, 129, 109, 60, 155, 203, 96, 61, 72, 5, 89, 189, 100, 56, 211, 61, 152, 145, 73, 189, 0, 80, 104, 59, 48, 222, 229, 189, 248, 182, 115, 189, 19, 48, 80, 189, 160, 239, 223, 188, 128, 170, 139, 188, 84, 186, 188, 189, 171, 63, 160, 189, 246, 64, 229, 189, 180, 85, 228, 189, 21, 149, 234, 61, 91, 190, 89, 61, 208, 249, 230, 61, 236, 142, 202, 189, 176, 169, 252, 186, 40, 241, 187, 189, 224, 180, 159, 61, 43, 239, 198, 61, 136, 77, 194, 189, 165, 45, 149, 61, 192, 198, 206, 59, 16, 233, 31, 189, 216, 35, 126, 189, 31, 84, 219, 189, 124, 74, 153, 189, 81, 152, 153, 186, 96, 232, 196, 61, 70, 1, 236, 61, 240, 205, 48, 61, 40, 139, 249, 60, 205, 47, 139, 188, 132, 66, 59, 189, 4, 143, 229, 61, 123, 121, 246, 61, 98, 192, 250, 61, 248, 237, 179, 189, 241, 115, 198, 188, 88, 175, 163, 189, 242, 62, 80, 61, 184, 221, 253, 61, 12, 172, 226, 189, 100, 74, 141, 61, 133, 128, 111, 189, 96, 200, 78, 61, 132, 201, 160, 61, 192, 62, 8, 61, 8, 216, 215, 61, 144, 201, 103, 189, 248, 228, 179, 189, 26, 127, 29, 60, 16, 2, 235, 60, 160, 177, 93, 188, 64, 20, 109, 189, 4, 225, 247, 188, 112, 185, 213, 61, 147, 247, 174, 61, 224, 183, 181, 61, 16, 241, 80, 189, 59, 113, 51, 61, 160, 128, 150, 61, 92, 139, 155, 61, 88, 121, 244, 189, 155, 114, 202, 61, 123, 21, 184, 61, 114, 140, 161, 61, 160, 207, 98, 58, 0, 159, 149, 188, 128, 147, 27, 59, 0, 200, 8, 186, 140, 52, 187, 189, 22, 211, 85, 189, 41, 92, 20, 188, 204, 22, 131, 189, 206, 247, 221, 189, 240, 87, 205, 188, 244, 24, 161, 189, 113, 15, 101, 61, 86, 49, 238, 189, 244, 23, 213, 61, 200, 140, 80, 61, 112, 79, 155, 61, 152, 161, 1, 61, 128, 101, 92, 189, 112, 91, 217, 61, 16, 180, 138, 189, 148, 161, 226, 61, 161, 229, 208, 189, 21, 133, 27, 58, 128, 114, 253, 61, 0, 246, 76, 186, 34, 142, 245, 60, 246, 114, 39, 60, 24, 18, 89, 61, 116, 64, 142, 189, 128, 53, 96, 61, 240, 145, 120, 61, 232, 15, 217, 61, 224, 232, 153, 61, 2, 106, 191, 61, 16, 3, 234, 189, 144, 124, 235, 188, 3, 209, 232, 60, 0, 159, 167, 59, 32, 39, 233, 188, 8, 9, 147, 189, 232, 102, 78, 61, 240, 34, 226, 61, 174, 218, 3, 62, 0, 43, 153, 187, 104, 137, 151, 61, 128, 15, 255, 61, 60, 93, 140, 61, 148, 118, 132, 189, 88, 46, 192, 61, 160, 142, 151, 61, 116, 58, 193, 61, 192, 134, 222, 187, 200, 106, 141, 189, 35, 46, 69, 189, 0, 86, 28, 58, 16, 121, 101, 189, 160, 196, 201, 60, 144, 143, 252, 60, 40, 245, 178, 189, 20, 135, 205, 61, 128, 7, 44, 60, 224, 212, 192, 189, 208, 176, 24, 189, 181, 73, 250, 61, 88, 21, 131, 189, 78, 252, 48, 189, 230, 80, 172, 61, 178, 9, 195, 61, 250, 240, 14, 61, 0, 30, 79, 61, 196, 59, 238, 61, 27, 31, 142, 189, 172, 22, 145, 187, 18, 124, 233, 61, 236, 166, 254, 189, 12, 155, 190, 61, 184, 13, 127, 61, 72, 181, 225, 189, 32, 73, 98, 61, 50, 130, 44, 188, 176, 20, 221, 61, 170, 147, 4, 62, 0, 238, 146, 59, 192, 29, 243, 60, 250, 58, 153, 61, 26, 114, 149, 189, 133, 145, 11, 60, 200, 171, 197, 189, 44, 34, 62, 61, 75, 25, 71, 187, 40, 68, 105, 189, 11, 203, 109, 187, 212, 244, 177, 61, 204, 109, 248, 189, 192, 86, 151, 61, 148, 80, 157, 61, 194, 233, 194, 189, 6, 111, 85, 61, 74, 90, 153, 61, 133, 174, 102, 61, 71, 51, 54, 189, 29, 92, 87, 61, 57, 82, 224, 61, 222, 154, 196, 189, 133, 58, 138, 189, 152, 66, 184, 61, 115, 104, 149, 61, 0, 164, 147, 57, 46, 15, 30, 189, 249, 19, 186, 61, 192, 191, 71, 60, 33, 35, 232, 189, 144, 247, 157, 188, 176, 215, 79, 189, 248, 71, 98, 61, 96, 47, 48, 61, 240, 141, 150, 189, 124, 100, 144, 189, 132, 149, 193, 61, 172, 126, 142, 61, 192, 6, 78, 60, 88, 74, 90, 189, 216, 38, 239, 189, 12, 68, 162, 61, 192, 68, 179, 189, 212, 16, 150, 61, 224, 225, 236, 61, 28, 164, 238, 61, 176, 20, 192, 61, 136, 135, 238, 61, 208, 198, 158, 189, 128, 63, 91, 61, 228, 9, 226, 189, 64, 86, 108, 61, 192, 70, 171, 189, 224, 148, 66, 189, 192, 69, 213, 61, 24, 126, 231, 189, 140, 221, 181, 189, 68, 168, 161, 61, 240, 92, 225, 61, 244, 153, 193, 61, 44, 226, 240, 61, 144, 7, 86, 189, 196, 90, 231, 189, 88, 183, 6, 189, 184, 202, 149, 61, 236, 238, 204, 189, 200, 172, 226, 61, 192, 236, 129, 188, 96, 185, 245, 189, 112, 2, 134, 189, 116, 69, 171, 189, 64, 181, 205, 61, 192, 209, 69, 61, 180, 2, 173, 61, 80, 149, 246, 60, 68, 92, 152, 189, 208, 62, 186, 188, 240, 62, 63, 61, 128, 165, 67, 187, 224, 35, 235, 189, 208, 55, 230, 60, 128, 211, 62, 59, 64, 242, 220, 188, 236, 195, 181, 61, 0, 93, 1, 189, 240, 18, 197, 60, 156, 198, 224, 189, 136, 174, 164, 189, 80, 182, 142, 189, 24, 101, 232, 61, 80, 124, 253, 60, 208, 158, 93, 189, 36, 53, 170, 61, 0, 32, 2, 188, 96, 84, 164, 188, 248, 199, 233, 189, 108, 49, 154, 189, 48, 42, 138, 188, 84, 16, 166, 189, 24, 30, 164, 61, 176, 47, 173, 60, 68, 100, 171, 189, 212, 74, 246, 189, 196, 88, 154, 61, 132, 49, 192, 61, 32, 61, 21, 189, 192, 63, 21, 188, 56, 50, 175, 189, 56, 187, 199, 189, 48, 25, 220, 61, 0, 240, 147, 188, 40, 236, 143, 61, 152, 248, 199, 189, 180, 40, 248, 61, 116, 17, 227, 61, 12, 249, 142, 61, 208, 254, 202, 188, 248, 216, 64, 189, 176, 105, 133, 60, 128, 251, 106, 61, 232, 243, 108, 61, 0, 169, 38, 61, 0, 184, 127, 189, 88, 43, 31, 189, 32, 196, 114, 189, 72, 27, 149, 189, 168, 133, 97, 189, 0, 94, 219, 188, 216, 91, 251, 61, 160, 247, 67, 188, 184, 69, 146, 189, 164, 134, 179, 189, 32, 94, 208, 60, 176, 116, 202, 189, 0, 242, 121, 58, 252, 223, 139, 189, 64, 114, 103, 189, 204, 160, 186, 189, 64, 162, 24, 61, 32, 108, 3, 189, 240, 228, 177, 61, 156, 2, 188, 189, 200, 250, 1, 189, 176, 84, 202, 60, 224, 213, 81, 188, 72, 212, 22, 189, 0, 195, 140, 58, 208, 247, 150, 61, 124, 174, 170, 61, 200, 228, 157, 61, 96, 146, 204, 60, 168, 237, 213, 189, 40, 213, 22, 61, 16, 193, 141, 60, 72, 222, 192, 61, 196, 212, 178, 61, 184, 249, 25, 61, 104, 113, 75, 61, 128, 171, 245, 187, 12, 137, 159, 61, 16, 248, 158, 60, 164, 253, 162, 61, 180, 36, 158, 61, 0, 150, 1, 187, 164, 177, 228, 61, 32, 195, 26, 189, 164, 225, 199, 189, 220, 19, 204, 61, 160, 149, 161, 60, 88, 64, 247, 189, 152, 56, 213, 189, 136, 116, 41, 61, 0, 204, 217, 188, 240, 77, 156, 61, 172, 194, 253, 189, 24, 91, 115, 189, 232, 158, 2, 61, 192, 51, 192, 188, 176, 103, 240, 188, 72, 234, 239, 189, 204, 8, 181, 61, 4, 42, 148, 189, 224, 148, 148, 188, 192, 103, 224, 59, 236, 30, 176, 61, 248, 54, 228, 61, 80, 117, 91, 189, 112, 210, 114, 61, 16, 147, 203, 189, 220, 193, 155, 61, 12, 231, 196, 61, 168, 91, 120, 61, 116, 1, 225, 61, 24, 124, 115, 189, 8, 15, 125, 189, 192, 7, 185, 60, 188, 248, 159, 61, 96, 248, 203, 61, 48, 84, 108, 189, 240, 251, 180, 189, 240, 155, 2, 61, 32, 30, 250, 60, 16, 91, 202, 60, 188, 5, 144, 61, 160, 157, 40, 189, 80, 204, 170, 188, 216, 10, 38, 61, 240, 211, 204, 189, 92, 13, 131, 189, 28, 235, 148, 189, 24, 31, 20, 61, 192, 225, 129, 189, 240, 17, 195, 188, 112, 235, 213, 61, 16, 99, 243, 188, 96, 151, 227, 61, 208, 27, 162, 189, 208, 233, 214, 189, 120, 169, 84, 61, 40, 93, 158, 61, 32, 43, 109, 188, 40, 40, 35, 189, 224, 125, 174, 60, 224, 158, 137, 189, 172, 127, 129, 61, 80, 118, 12, 61, 192, 75, 159, 59, 244, 84, 182, 189, 144, 202, 191, 188, 72, 107, 232, 189, 148, 50, 152, 61, 240, 185, 151, 60, 0, 1, 20, 188, 224, 219, 173, 188, 188, 24, 143, 189, 176, 139, 110, 189, 124, 163, 255, 189, 64, 63, 207, 60, 212, 17, 222, 189, 100, 188, 145, 189, 160, 13, 215, 189, 128, 109, 105, 189, 80, 196, 100, 189, 92, 244, 183, 61, 64, 117, 38, 61, 192, 91, 150, 188, 208, 100, 195, 189, 40, 152, 229, 189, 160, 166, 222, 189, 208, 175, 179, 189, 176, 243, 248, 188, 96, 186, 239, 189, 120, 87, 45, 61, 108, 193, 206, 61, 0, 40, 23, 61, 176, 251, 111, 189, 220, 108, 213, 61, 0, 116, 193, 59, 48, 122, 203, 188, 56, 59, 246, 189, 180, 37, 224, 61, 64, 29, 198, 60, 160, 207, 90, 60, 120, 185, 122, 189, 128, 129, 134, 188, 120, 158, 98, 61, 128, 119, 3, 60, 68, 53, 158, 61, 240, 226, 206, 60, 84, 204, 249, 61, 88, 50, 138, 61, 40, 101, 249, 61, 128, 126, 0, 188, 0, 40, 200, 189, 152, 64, 136, 61, 80, 220, 152, 189, 240, 117, 206, 60, 112, 3, 184, 60, 40, 47, 116, 61, 192, 54, 153, 188, 56, 202, 77, 189, 184, 248, 199, 189, 104, 162, 246, 61, 172, 226, 206, 189, 96, 194, 202, 188, 32, 107, 208, 188, 88, 216, 178, 61, 0, 100, 83, 58, 158, 174, 216, 61, 224, 136, 156, 188, 208, 197, 246, 61, 111, 112, 133, 61, 150, 11, 250, 61, 60, 212, 212, 61, 167, 134, 56, 61, 179, 120, 162, 189, 166, 135, 168, 61, 32, 136, 150, 188, 39, 125, 109, 188, 212, 104, 145, 189, 124, 231, 190, 189, 128, 28, 84, 188, 73, 122, 175, 61, 64, 35, 242, 60, 71, 175, 84, 61, 213, 255, 253, 61, 144, 247, 197, 61, 237, 58, 223, 61, 162, 155, 241, 189, 30, 79, 245, 61, 201, 248, 127, 60, 220, 232, 178, 60, 125, 177, 47, 189, 76, 247, 96, 189, 106, 77, 176, 59, 176, 207, 242, 60, 40, 172, 40, 61, 16, 5, 167, 60, 4, 141, 180, 189, 100, 6, 140, 189, 182, 3, 26, 189, 184, 105, 12, 61, 74, 132, 150, 61, 120, 121, 223, 61, 64, 231, 28, 189, 23, 176, 239, 188, 248, 231, 236, 189, 153, 209, 1, 188, 34, 104, 151, 61, 248, 253, 255, 189, 209, 140, 187, 61, 136, 128, 146, 189, 32, 190, 76, 189, 104, 191, 132, 61, 48, 33, 189, 61, 208, 175, 233, 189, 148, 187, 225, 189, 28, 255, 156, 189, 44, 185, 138, 61, 199, 7, 48, 61, 120, 204, 20, 189, 121, 85, 237, 61, 247, 248, 85, 61, 186, 94, 252, 61, 188, 144, 177, 188, 251, 164, 124, 188, 148, 176, 46, 61, 68, 242, 220, 189, 160, 112, 149, 60, 163, 189, 203, 189, 96, 47, 210, 188, 183, 208, 138, 60, 163, 152, 79, 60, 94, 69, 68, 189, 96, 83, 182, 188, 92, 205, 205, 61, 64, 42, 106, 188, 112, 177, 5, 61, 228, 179, 211, 61, 168, 229, 88, 189, 88, 170, 128, 189, 80, 93, 192, 189, 8, 204, 17, 61, 57, 24, 210, 61, 0, 156, 250, 186, 200, 201, 70, 189, 16, 74, 187, 189, 208, 114, 86, 61, 191, 197, 168, 189, 224, 111, 57, 61, 242, 223, 206, 61, 96, 90, 85, 189, 234, 202, 243, 61, 162, 70, 3, 62, 80, 59, 93, 61, 18, 72, 225, 188, 118, 99, 0, 62, 248, 164, 123, 189, 0, 169, 195, 189, 199, 104, 152, 61, 8, 66, 31, 189, 96, 80, 165, 61, 154, 248, 81, 188, 212, 240, 208, 61, 175, 131, 220, 189, 52, 41, 179, 189, 212, 79, 234, 189, 124, 49, 190, 189, 101, 32, 156, 189, 240, 125, 250, 188, 34, 137, 140, 59, 68, 29, 235, 61, 139, 201, 158, 61, 16, 89, 246, 188, 246, 57, 210, 60, 151, 115, 229, 61, 98, 183, 94, 189, 5, 88, 147, 189, 161, 154, 100, 61, 179, 182, 170, 189, 216, 242, 103, 61, 228, 140, 177, 189, 120, 125, 44, 189, 53, 189, 133, 60, 154, 166, 67, 189, 57, 178, 180, 61, 225, 128, 164, 61, 72, 211, 183, 189, 164, 21, 244, 189, 74, 23, 42, 60, 148, 16, 211, 189, 112, 164, 150, 189, 96, 224, 72, 61, 92, 133, 173, 61, 252, 101, 37, 61, 192, 70, 199, 59, 164, 198, 213, 61, 80, 102, 249, 188, 250, 131, 213, 61, 88, 140, 181, 189, 117, 62, 148, 189, 8, 151, 208, 189, 112, 138, 29, 61, 35, 173, 204, 189, 104, 245, 196, 189, 12, 92, 236, 60, 188, 88, 244, 61, 179, 210, 142, 61, 160, 114, 106, 189, 168, 81, 188, 61, 48, 72, 4, 62, 152, 73, 250, 189, 80, 74, 134, 60, 64, 9, 103, 61, 172, 139, 197, 189, 205, 195, 3, 188, 53, 163, 176, 61, 120, 163, 188, 189, 29, 184, 225, 61, 32, 221, 66, 188, 0, 157, 239, 189, 204, 0, 186, 61, 146, 132, 133, 188, 100, 207, 193, 61, 96, 231, 25, 188, 9, 37, 254, 60, 46, 20, 230, 189, 152, 120, 127, 189, 16, 106, 218, 61, 225, 157, 58, 61, 116, 50, 27, 61, 50, 19, 226, 59, 228, 127, 211, 188, 208, 252, 226, 188, 72, 152, 115, 189, 88, 214, 151, 61, 92, 34, 40, 189, 148, 24, 152, 61, 251, 33, 205, 188, 188, 172, 250, 61, 96, 251, 38, 60, 160, 70, 41, 61, 215, 90, 222, 189, 240, 58, 233, 189, 94, 206, 151, 61, 128, 207, 17, 188, 59, 185, 84, 189, 0, 134, 170, 58, 40, 70, 103, 189, 132, 87, 190, 189, 240, 7, 169, 61, 96, 124, 37, 189, 182, 245, 211, 61, 168, 163, 147, 61, 72, 55, 142, 189, 128, 122, 64, 59, 0, 232, 122, 59, 248, 7, 78, 61, 105, 103, 128, 60, 73, 180, 180, 59, 144, 142, 167, 188, 120, 39, 250, 61, 80, 242, 204, 189, 21, 63, 174, 189, 28, 225, 213, 61, 192, 239, 237, 59, 8, 57, 39, 189, 0, 211, 135, 58, 254, 126, 221, 61, 144, 75, 73, 61, 216, 194, 23, 189, 224, 113, 141, 189, 48, 227, 140, 61, 27, 224, 158, 61, 192, 219, 126, 189, 40, 214, 6, 188, 148, 0, 183, 189, 107, 12, 132, 61, 69, 165, 210, 189, 128, 26, 196, 189, 214, 18, 140, 187, 102, 208, 4, 62, 225, 32, 184, 189, 77, 174, 225, 61, 124, 59, 151, 189, 124, 69, 213, 61, 56, 24, 115, 61, 60, 152, 194, 189, 240, 180, 217, 188, 54, 82, 129, 188, 112, 92, 106, 189, 31, 175, 211, 189, 112, 197, 50, 61, 96, 56, 33, 189, 247, 147, 88, 61, 150, 117, 138, 189, 230, 203, 191, 61, 128, 51, 181, 188, 235, 142, 238, 189, 60, 30, 235, 189, 32, 142, 221, 61, 155, 7, 169, 60, 16, 104, 181, 189, 0, 40, 73, 57, 8, 227, 216, 189, 0, 36, 79, 186, 204, 86, 128, 60, 138, 207, 204, 60, 100, 127, 8, 188, 84, 89, 105, 61, 85, 190, 242, 60, 207, 151, 155, 61, 126, 224, 228, 60, 255, 239, 130, 188, 64, 106, 190, 60, 8, 252, 81, 189, 156, 156, 199, 189, 16, 42, 235, 61, 212, 117, 182, 188, 53, 167, 163, 61, 112, 186, 15, 189, 150, 218, 29, 61, 212, 140, 174, 61, 0, 198, 46, 61, 180, 192, 220, 61, 16, 1, 77, 189, 144, 216, 156, 189, 224, 193, 237, 60, 0, 153, 248, 58, 128, 5, 27, 59, 192, 9, 247, 189, 220, 224, 157, 61, 60, 49, 174, 189, 128, 148, 156, 60, 208, 21, 132, 60, 156, 189, 216, 189, 240, 54, 103, 189, 80, 146, 171, 60, 0, 128, 246, 60, 0, 195, 240, 188, 120, 215, 149, 61, 4, 90, 161, 61, 128, 146, 31, 188, 28, 227, 169, 189, 68, 15, 241, 189, 76, 113, 185, 61, 144, 211, 62, 189, 176, 96, 184, 60, 180, 217, 227, 61, 204, 80, 186, 189, 56, 178, 7, 189, 112, 142, 184, 60, 0, 226, 142, 189, 88, 203, 143, 189, 112, 207, 134, 61, 64, 150, 206, 59, 220, 182, 205, 61, 48, 162, 140, 188, 32, 182, 126, 188, 92, 218, 239, 189, 80, 99, 111, 189, 56, 140, 124, 61, 128, 66, 124, 188, 44, 56, 248, 189, 32, 239, 6, 189, 136, 137, 67, 189, 0, 79, 113, 61, 224, 106, 40, 61, 164, 135, 138, 189, 124, 153, 220, 61, 200, 44, 115, 189, 88, 125, 228, 61, 248, 175, 89, 61, 240, 0, 221, 60, 16, 89, 250, 189, 20, 40, 183, 189, 48, 153, 202, 188, 68, 204, 201, 189, 136, 175, 55, 189, 0, 152, 152, 58, 160, 117, 52, 188, 96, 80, 22, 189, 72, 18, 0, 61, 168, 146, 134, 61, 136, 254, 185, 61, 48, 136, 125, 189, 48, 213, 143, 60, 244, 133, 200, 189, 56, 45, 70, 61, 0, 220, 0, 61, 192, 166, 249, 188, 12, 102, 252, 189, 208, 29, 63, 61, 156, 131, 154, 189, 80, 69, 129, 60, 72, 161, 138, 61, 184, 18, 219, 189, 104, 64, 236, 61, 176, 13, 225, 60, 216, 178, 21, 61, 232, 63, 139, 61, 88, 40, 176, 189, 24, 123, 183, 61, 224, 200, 169, 60, 120, 3, 223, 61, 0, 247, 250, 59, 232, 125, 253, 189, 192, 208, 74, 61, 96, 122, 142, 189, 72, 35, 32, 189, 20, 31, 219, 61, 216, 51, 99, 189, 248, 128, 223, 189, 80, 131, 151, 61, 216, 65, 129, 61, 148, 88, 191, 61, 48, 132, 130, 61, 108, 203, 167, 189, 192, 193, 123, 189, 136, 86, 245, 61, 200, 6, 8, 61, 192, 203, 205, 188, 24, 41, 105, 189, 20, 153, 166, 61, 104, 108, 163, 61, 0, 111, 147, 61, 236, 159, 174, 189, 176, 56, 95, 189, 132, 224, 199, 61, 0, 160, 152, 56, 44, 167, 179, 189, 64, 165, 211, 59, 192, 60, 233, 59, 0, 235, 94, 61, 88, 158, 200, 61, 216, 86, 109, 189, 56, 109, 19, 61, 120, 174, 70, 189, 12, 203, 181, 61, 164, 231, 223, 61, 168, 197, 214, 189, 128, 47, 244, 60, 44, 153, 213, 61, 172, 75, 216, 61, 80, 64, 40, 189, 32, 31, 115, 188, 148, 240, 211, 189, 252, 140, 154, 61, 4, 109, 174, 189, 104, 69, 12, 61, 40, 238, 183, 189, 228, 74, 231, 61, 208, 124, 230, 61, 128, 73, 142, 189, 48, 14, 112, 61, 64, 246, 221, 60, 32, 184, 149, 61, 216, 222, 64, 189, 208, 142, 229, 60, 8, 192, 39, 61, 0, 166, 63, 59, 16, 24, 230, 188, 16, 32, 214, 188, 0, 32, 138, 61, 28, 217, 202, 189, 0, 155, 242, 188, 24, 167, 229, 189, 96, 22, 113, 188, 84, 6, 176, 189, 188, 230, 239, 189, 108, 160, 165, 189, 32, 53, 252, 189, 68, 231, 188, 189, 228, 146, 173, 189, 220, 210, 129, 189, 120, 36, 196, 61, 208, 151, 207, 189, 24, 225, 145, 189, 232, 181, 2, 61, 32, 203, 244, 188, 184, 51, 201, 61, 24, 85, 96, 189, 208, 134, 215, 61, 0, 113, 52, 59, 88, 111, 83, 189, 64, 34, 87, 188, 104, 125, 159, 189, 88, 219, 214, 61, 216, 94, 8, 61, 240, 185, 247, 189, 4, 50, 213, 189, 128, 81, 130, 60, 48, 126, 219, 61, 192, 224, 235, 189, 52, 213, 146, 189, 112, 160, 51, 61, 64, 129, 148, 189, 0, 209, 175, 59, 156, 230, 255, 61, 240, 212, 177, 189, 128, 175, 78, 61, 108, 118, 237, 189, 16, 60, 100, 61, 192, 135, 150, 189, 108, 216, 207, 189, 96, 30, 0, 61, 240, 174, 19, 61, 0, 48, 251, 188, 188, 169, 221, 189, 48, 211, 149, 61, 12, 136, 224, 61, 232, 170, 187, 189, 236, 180, 237, 189, 32, 116, 89, 189, 64, 176, 144, 60, 236, 118, 222, 61, 128, 62, 126, 61, 40, 234, 224, 189, 184, 4, 217, 189, 32, 66, 215, 188, 20, 241, 218, 189, 244, 136, 173, 189, 64, 168, 198, 187, 128, 143, 163, 59, 32, 176, 228, 188, 152, 197, 225, 61, 248, 69, 247, 61, 144, 200, 2, 189, 208, 104, 224, 60, 140, 255, 177, 189, 136, 206, 220, 61, 252, 220, 238, 61, 8, 92, 229, 61, 248, 38, 226, 61, 200, 32, 166, 61, 192, 66, 201, 188, 104, 151, 27, 61, 40, 103, 149, 189, 160, 169, 205, 60, 208, 149, 214, 188, 16, 58, 192, 189, 16, 255, 49, 189, 176, 214, 237, 188, 228, 116, 130, 189, 216, 190, 232, 189, 96, 156, 201, 61, 16, 172, 248, 189, 72, 213, 120, 189, 0, 181, 55, 59, 196, 95, 233, 61, 32, 162, 98, 189, 212, 36, 234, 189, 160, 195, 88, 188, 32, 220, 77, 61, 32, 244, 181, 60, 32, 7, 32, 61, 48, 253, 183, 189, 0, 99, 32, 187, 160, 184, 230, 189, 124, 110, 233, 189, 128, 143, 82, 187, 0, 9, 151, 186, 48, 117, 2, 189, 100, 104, 251, 61, 252, 24, 215, 189, 160, 73, 217, 189, 224, 238, 47, 60, 0, 80, 192, 186, 128, 171, 191, 189, 8, 52, 229, 61, 124, 150, 221, 189, 36, 196, 174, 61, 224, 119, 96, 188, 148, 161, 134, 189, 116, 88, 200, 189, 192, 9, 38, 60, 0, 151, 234, 58, 