#pragma once

#include <cstdint>

const uint8_t mod_2[] = {
28, 0, 0, 0, 84, 70, 76, 51, 20, 0, 32, 0, 28, 0, 24, 0, 20, 0, 16, 0, 12, 0, 0, 0, 8, 0, 4, 0, 20, 0, 0, 0, 28, 0, 0, 0, 156, 0, 0, 0, 244, 0, 0, 0, 184, 130, 0, 0, 200, 130, 0, 0, 8, 133, 0, 0, 3, 0, 0, 0, 1, 0, 0, 0, 16, 0, 0, 0, 0, 0, 10, 0, 16, 0, 12, 0, 8, 0, 4, 0, 10, 0, 0, 0, 12, 0, 0, 0, 28, 0, 0, 0, 60, 0, 0, 0, 15, 0, 0, 0, 115, 101, 114, 118, 105, 110, 103, 95, 100, 101, 102, 97, 117, 108, 116, 0, 1, 0, 0, 0, 4, 0, 0, 0, 140, 255, 255, 255, 3, 0, 0, 0, 4, 0, 0, 0, 10, 0, 0, 0, 110, 110, 95, 108, 97, 121, 101, 114, 95, 51, 0, 0, 1, 0, 0, 0, 4, 0, 0, 0, 214, 126, 255, 255, 4, 0, 0, 0, 16, 0, 0, 0, 110, 110, 95, 108, 97, 121, 101, 114, 95, 51, 95, 105, 110, 112, 117, 116, 0, 0, 0, 0, 2, 0, 0, 0, 52, 0, 0, 0, 4, 0, 0, 0, 220, 255, 255, 255, 6, 0, 0, 0, 4, 0, 0, 0, 19, 0, 0, 0, 67, 79, 78, 86, 69, 82, 83, 73, 79, 78, 95, 77, 69, 84, 65, 68, 65, 84, 65, 0, 8, 0, 12, 0, 8, 0, 4, 0, 8, 0, 0, 0, 5, 0, 0, 0, 4, 0, 0, 0, 19, 0, 0, 0, 109, 105, 110, 95, 114, 117, 110, 116, 105, 109, 101, 95, 118, 101, 114, 115, 105, 111, 110, 0, 7, 0, 0, 0, 192, 129, 0, 0, 184, 129, 0, 0, 168, 128, 0, 0, 144, 0, 0, 0, 136, 0, 0, 0, 104, 0, 0, 0, 4, 0, 0, 0, 114, 127, 255, 255, 4, 0, 0, 0, 84, 0, 0, 0, 12, 0, 0, 0, 8, 0, 14, 0, 8, 0, 4, 0, 8, 0, 0, 0, 16, 0, 0, 0, 36, 0, 0, 0, 0, 0, 6, 0, 8, 0, 4, 0, 6, 0, 0, 0, 4, 0, 0, 0, 0, 0, 0, 0, 0, 0, 10, 0, 16, 0, 12, 0, 8, 0, 4, 0, 10, 0, 0, 0, 2, 0, 0, 0, 2, 0, 0, 0, 4, 0, 0, 0, 6, 0, 0, 0, 50, 46, 49, 51, 46, 48, 0, 0, 210, 127, 255, 255, 4, 0, 0, 0, 16, 0, 0, 0, 49, 46, 53, 46, 48, 0, 0, 0, 0, 0, 0, 0, 0, 0, 0, 0, 184, 124, 255, 255, 242, 127, 255, 255, 4, 0, 0, 0, 0, 128, 0, 0, 40, 161, 153, 60, 56, 72, 44, 190, 144, 115, 80, 188, 39, 102, 31, 189, 66, 191, 41, 62, 14, 199, 185, 61, 222, 38, 36, 61, 59, 109, 226, 189, 66, 234, 160, 61, 114, 168, 47, 190, 49, 16, 9, 61, 226, 17, 67, 188, 170, 143, 175, 61, 138, 104, 9, 190, 44, 58, 128, 189, 210, 134, 159, 189, 92, 1, 2, 62, 110, 146, 102, 61, 100, 94, 50, 61, 41, 224, 240, 189, 226, 63, 0, 190, 42, 40, 36, 190, 80, 134, 245, 60, 217, 148, 143, 189, 214, 163, 147, 189, 207, 114, 61, 189, 116, 86, 122, 61, 188, 180, 60, 61, 72, 0, 168, 60, 85, 10, 212, 189, 104, 110, 27, 189, 68, 107, 61, 61, 187, 24, 52, 62, 31, 248, 170, 189, 80, 53, 210, 60, 16, 0, 221, 188, 210, 100, 26, 61, 115, 220, 13, 190, 231, 59, 21, 62, 158, 226, 236, 61, 190, 134, 249, 189, 204, 240, 21, 62, 84, 230, 168, 60, 70, 113, 231, 61, 240, 117, 239, 188, 63, 72, 34, 62, 222, 241, 247, 61, 218, 141, 37, 190, 234, 22, 214, 60, 35, 129, 150, 189, 171, 185, 28, 190, 168, 137, 209, 60, 184, 204, 30, 61, 192, 46, 167, 59, 150, 44, 240, 189, 49, 253, 42, 62, 133, 131, 255, 61, 48, 201, 80, 189, 234, 62, 224, 61, 60, 102, 145, 61, 0, 41, 153, 58, 57, 157, 2, 189, 136, 172, 255, 189, 230, 207, 42, 190, 32, 189, 144, 187, 16, 228, 43, 190, 72, 223, 42, 62, 14, 51, 199, 61, 29, 4, 172, 189, 145, 40, 31, 62, 96, 224, 45, 189, 32, 218, 194, 188, 0, 121, 239, 188, 0, 174, 67, 186, 33, 16, 236, 189, 225, 177, 47, 190, 210, 181, 239, 189, 248, 233, 98, 61, 167, 100, 228, 189, 50, 126, 240, 61, 233, 58, 39, 62, 191, 221, 244, 189, 27, 23, 54, 62, 222, 119, 48, 189, 131, 27, 5, 190, 94, 217, 86, 58, 252, 93, 63, 61, 144, 210, 109, 61, 169, 52, 141, 61, 185, 255, 118, 60, 134, 69, 81, 60, 18, 254, 157, 61, 3, 237, 40, 190, 181, 92, 46, 61, 196, 194, 58, 189, 0, 241, 54, 61, 141, 146, 29, 190, 168, 104, 194, 60, 230, 144, 143, 61, 149, 217, 205, 186, 130, 232, 2, 190, 180, 121, 42, 61, 123, 96, 27, 62, 97, 168, 59, 189, 197, 103, 121, 188, 17, 181, 30, 62, 129, 69, 167, 189, 226, 204, 142, 60, 109, 178, 50, 62, 29, 180, 42, 62, 207, 243, 30, 190, 81, 88, 17, 62, 28, 1, 216, 61, 224, 233, 73, 188, 238, 113, 201, 59, 104, 113, 152, 60, 128, 218, 227, 188, 113, 89, 21, 190, 216, 148, 56, 62, 247, 208, 33, 190, 231, 25, 46, 190, 189, 137, 37, 62, 26, 246, 36, 62, 57, 3, 216, 189, 17, 21, 155, 61, 138, 25, 132, 61, 232, 89, 129, 60, 243, 24, 130, 189, 27, 92, 190, 188, 253, 44, 133, 60, 71, 95, 203, 189, 63, 195, 176, 61, 107, 110, 147, 189, 54, 117, 167, 61, 160, 149, 107, 189, 1, 43, 31, 62, 176, 168, 18, 62, 221, 150, 24, 190, 78, 37, 138, 61, 100, 176, 173, 61, 11, 14, 36, 62, 4, 190, 26, 61, 154, 233, 16, 190, 178, 179, 124, 189, 3, 150, 6, 190, 35, 111, 44, 62, 59, 81, 36, 190, 114, 161, 53, 62, 24, 140, 230, 188, 40, 213, 253, 187, 141, 141, 79, 61, 150, 65, 189, 61, 3, 88, 5, 62, 254, 26, 41, 190, 109, 39, 88, 189, 119, 119, 45, 62, 64, 56, 209, 188, 227, 12, 225, 189, 71, 126, 19, 62, 25, 75, 4, 62, 23, 51, 21, 190, 236, 252, 17, 190, 80, 146, 154, 189, 231, 191, 162, 189, 117, 68, 254, 189, 173, 108, 70, 61, 77, 5, 135, 189, 80, 163, 239, 61, 143, 149, 42, 62, 92, 229, 34, 190, 50, 234, 198, 61, 16, 64, 102, 188, 202, 121, 4, 61, 113, 209, 17, 62, 150, 175, 249, 61, 178, 35, 53, 189, 76, 91, 133, 61, 204, 222, 241, 189, 48, 76, 124, 60, 171, 100, 48, 62, 93, 83, 149, 189, 164, 245, 27, 61, 230, 107, 126, 189, 227, 165, 235, 189, 245, 183, 145, 189, 66, 247, 212, 61, 88, 205, 220, 189, 0, 40, 166, 188, 193, 80, 49, 62, 9, 148, 44, 62, 131, 164, 56, 61, 123, 233, 188, 189, 242, 58, 192, 61, 42, 25, 153, 61, 149, 188, 216, 60, 52, 15, 87, 189, 67, 188, 41, 190, 118, 13, 99, 189, 60, 75, 25, 190, 101, 176, 10, 62, 151, 123, 8, 62, 218, 142, 33, 190, 58, 217, 3, 62, 168, 117, 22, 61, 43, 169, 161, 189, 128, 70, 240, 188, 220, 125, 231, 59, 19, 116, 232, 189, 72, 115, 60, 189, 77, 199, 46, 61, 213, 175, 2, 62, 78, 241, 255, 61, 224, 178, 168, 61, 184, 62, 232, 61, 175, 55, 173, 189, 124, 37, 127, 61, 239, 39, 6, 190, 32, 0, 239, 61, 197, 129, 229, 61, 100, 81, 44, 61, 62, 13, 0, 62, 218, 202, 152, 61, 132, 89, 30, 190, 184, 233, 31, 61, 208, 107, 172, 188, 102, 192, 203, 61, 144, 51, 192, 60, 49, 216, 94, 189, 0, 242, 188, 59, 250, 229, 145, 61, 70, 59, 49, 190, 16, 148, 29, 190, 13, 0, 61, 189, 241, 5, 10, 190, 235, 60, 15, 62, 96, 118, 134, 189, 202, 160, 209, 61, 9, 90, 44, 62, 208, 82, 230, 188, 21, 130, 240, 188, 216, 9, 169, 61, 146, 42, 254, 189, 243, 7, 36, 190, 3, 168, 13, 62, 204, 244, 11, 61, 160, 68, 7, 60, 148, 194, 233, 188, 216, 228, 226, 188, 136, 243, 86, 61, 64, 103, 156, 59, 175, 196, 33, 187, 58, 100, 13, 190, 213, 75, 26, 61, 108, 116, 18, 189, 200, 172, 166, 188, 0, 103, 115, 59, 43, 118, 251, 189, 191, 106, 39, 190, 216, 123, 85, 61, 249, 97, 175, 58, 230, 44, 81, 61, 192, 71, 71, 59, 47, 14, 144, 60, 154, 83, 24, 190, 245, 199, 31, 62, 34, 252, 206, 61, 166, 30, 34, 62, 225, 98, 131, 189, 80, 197, 117, 60, 177, 79, 51, 190, 196, 177, 40, 190, 140, 118, 249, 189, 213, 145, 12, 190, 188, 33, 115, 188, 36, 39, 97, 61, 86, 217, 94, 187, 232, 116, 38, 189, 230, 225, 22, 188, 91, 171, 121, 61, 245, 29, 25, 190, 39, 36, 132, 189, 234, 24, 221, 60, 210, 152, 42, 62, 32, 33, 237, 60, 46, 222, 161, 61, 130, 234, 18, 61, 164, 131, 50, 61, 160, 125, 99, 189, 230, 50, 213, 61, 18, 77, 253, 189, 4, 116, 51, 61, 34, 91, 90, 189, 8, 135, 126, 60, 150, 13, 0, 190, 229, 234, 229, 61, 64, 51, 169, 61, 9, 110, 21, 62, 101, 55, 220, 60, 87, 17, 234, 61, 36, 195, 39, 189, 217, 171, 150, 61, 255, 192, 44, 62, 156, 52, 34, 62, 122, 167, 19, 190, 201, 232, 167, 61, 62, 31, 156, 188, 222, 72, 233, 61, 41, 207, 34, 62, 118, 93, 166, 189, 240, 182, 112, 189, 81, 51, 34, 59, 120, 11, 36, 189, 70, 116, 27, 62, 220, 5, 41, 189, 11, 250, 68, 189, 172, 60, 245, 189, 195, 251, 0, 62, 139, 218, 13, 61, 55, 233, 53, 189, 93, 71, 175, 189, 25, 71, 141, 189, 68, 37, 30, 61, 189, 224, 163, 189, 184, 117, 217, 188, 46, 17, 251, 189, 3, 50, 12, 62, 230, 199, 85, 189, 87, 188, 20, 62, 88, 155, 237, 60, 133, 212, 250, 189, 49, 90, 150, 61, 161, 38, 19, 62, 0, 243, 24, 60, 74, 81, 109, 189, 110, 52, 40, 190, 22, 35, 131, 61, 92, 69, 83, 61, 227, 62, 138, 189, 4, 30, 182, 189, 104, 23, 225, 188, 106, 45, 101, 61, 241, 220, 134, 61, 226, 253, 133, 189, 165, 212, 14, 190, 105, 121, 27, 62, 192, 128, 176, 61, 254, 58, 2, 62, 64, 159, 136, 61, 139, 168, 41, 62, 231, 52, 163, 61, 149, 120, 35, 62, 4, 212, 37, 190, 224, 48, 240, 189, 110, 175, 249, 61, 192, 242, 210, 189, 40, 209, 5, 62, 174, 182, 48, 190, 126, 34, 135, 61, 248, 67, 50, 189, 172, 240, 242, 61, 197, 177, 185, 189, 113, 117, 39, 62, 114, 251, 138, 61, 187, 217, 109, 61, 177, 135, 23, 62, 129, 235, 37, 62, 8, 233, 238, 188, 167, 240, 165, 189, 21, 36, 42, 190, 49, 180, 233, 189, 42, 87, 25, 190, 84, 103, 1, 61, 134, 200, 96, 188, 19, 190, 207, 189, 118, 133, 232, 61, 190, 183, 142, 61, 241, 206, 48, 190, 146, 229, 29, 190, 206, 76, 43, 62, 79, 54, 169, 188, 161, 115, 148, 186, 186, 38, 8, 190, 206, 154, 255, 61, 82, 20, 212, 189, 120, 183, 162, 61, 204, 170, 35, 61, 111, 124, 44, 62, 11, 57, 44, 190, 205, 192, 166, 189, 149, 76, 140, 189, 169, 62, 43, 62, 26, 135, 199, 61, 135, 92, 210, 61, 125, 119, 200, 189, 26, 231, 199, 189, 215, 35, 29, 62, 99, 241, 30, 62, 74, 16, 185, 61, 42, 174, 79, 186, 2, 9, 246, 189, 64, 62, 176, 61, 10, 128, 181, 60, 18, 195, 206, 61, 154, 109, 233, 61, 128, 188, 111, 187, 169, 42, 174, 61, 205, 190, 211, 61, 255, 174, 175, 189, 115, 241, 168, 61, 110, 139, 232, 189, 145, 61, 138, 61, 114, 236, 85, 189, 248, 17, 141, 60, 114, 238, 3, 190, 22, 208, 26, 190, 70, 85, 231, 61, 10, 174, 235, 61, 249, 149, 49, 62, 176, 135, 28, 190, 135, 100, 24, 62, 45, 14, 10, 190, 177, 142, 44, 190, 45, 108, 109, 189, 47, 148, 220, 188, 192, 154, 55, 61, 116, 113, 44, 190, 211, 228, 3, 61, 148, 71, 94, 61, 201, 62, 111, 188, 104, 155, 50, 62, 225, 118, 22, 190, 25, 213, 11, 189, 41, 167, 4, 62, 62, 17, 147, 189, 128, 231, 144, 59, 50, 9, 193, 61, 28, 6, 30, 189, 77, 2, 29, 62, 170, 127, 15, 190, 157, 206, 35, 62, 94, 228, 191, 188, 12, 174, 72, 189, 140, 134, 154, 58, 74, 96, 233, 189, 112, 5, 150, 188, 175, 155, 152, 60, 168, 190, 57, 62, 129, 140, 18, 61, 176, 183, 38, 61, 24, 244, 205, 60, 81, 220, 181, 189, 8, 56, 21, 189, 178, 74, 14, 190, 238, 198, 253, 61, 131, 169, 12, 190, 16, 211, 18, 61, 33, 192, 12, 190, 140, 83, 131, 189, 197, 103, 198, 189, 192, 110, 110, 59, 73, 132, 9, 62, 30, 248, 51, 190, 138, 189, 40, 189, 81, 177, 47, 190, 102, 234, 35, 190, 156, 71, 230, 61, 86, 239, 229, 189, 35, 184, 172, 189, 227, 40, 204, 61, 52, 215, 37, 62, 92, 119, 24, 61, 241, 98, 36, 62, 94, 144, 205, 60, 237, 171, 120, 61, 113, 29, 146, 189, 246, 38, 243, 61, 211, 29, 197, 60, 160, 242, 1, 190, 66, 233, 247, 61, 65, 9, 190, 189, 192, 93, 177, 59, 38, 231, 6, 190, 53, 243, 164, 189, 146, 206, 57, 189, 40, 208, 171, 188, 147, 31, 3, 190, 101, 245, 39, 62, 1, 187, 254, 60, 203, 115, 47, 62, 199, 206, 228, 61, 16, 245, 58, 60, 218, 194, 184, 189, 114, 78, 232, 61, 82, 140, 139, 189, 92, 63, 10, 189, 25, 158, 16, 190, 71, 20, 55, 189, 225, 74, 31, 62, 12, 129, 11, 62, 79, 79, 17, 190, 220, 152, 33, 190, 192, 55, 2, 187, 243, 216, 49, 62, 70, 44, 207, 61, 236, 196, 209, 189, 56, 211, 161, 189, 152, 106, 39, 62, 75, 102, 178, 61, 169, 165, 248, 61, 73, 182, 240, 189, 234, 234, 228, 61, 178, 152, 193, 61, 219, 163, 159, 189, 152, 81, 133, 189, 210, 219, 206, 61, 27, 227, 40, 189, 40, 200, 178, 61, 12, 248, 5, 61, 163, 73, 127, 189, 244, 161, 6, 190, 137, 246, 50, 61, 128, 147, 36, 61, 59, 62, 89, 61, 106, 179, 32, 190, 200, 195, 158, 188, 224, 250, 201, 187, 152, 147, 113, 61, 144, 77, 22, 188, 200, 152, 114, 61, 66, 136, 5, 62, 81, 239, 52, 190, 221, 209, 168, 189, 247, 201, 43, 190, 45, 125, 170, 189, 3, 107, 36, 62, 161, 177, 187, 189, 196, 153, 243, 61, 97, 172, 105, 61, 203, 75, 183, 61, 112, 35, 126, 189, 70, 199, 124, 189, 30, 78, 16, 62, 93, 138, 2, 190, 77, 155, 33, 62, 6, 148, 174, 61, 227, 44, 205, 189, 158, 48, 4, 190, 219, 146, 38, 62, 27, 215, 166, 61, 102, 108, 54, 190, 44, 150, 9, 62, 61, 193, 23, 190, 156, 116, 41, 61, 149, 119, 183, 60, 65, 116, 10, 189, 229, 121, 13, 62, 140, 163, 183, 57, 10, 140, 129, 60, 169, 248, 215, 189, 79, 215, 214, 60, 241, 8, 9, 190, 163, 216, 11, 190, 75, 143, 52, 190, 6, 213, 150, 189, 160, 57, 76, 61, 208, 168, 124, 60, 91, 63, 16, 62, 28, 233, 2, 61, 39, 120, 137, 189, 91, 251, 38, 62, 104, 85, 9, 190, 16, 24, 2, 189, 54, 205, 220, 61, 56, 112, 124, 189, 217, 250, 131, 61, 32, 226, 10, 62, 131, 121, 36, 62, 185, 94, 15, 62, 189, 249, 156, 189, 208, 0, 131, 61, 124, 133, 12, 61, 78, 100, 167, 61, 96, 22, 117, 61, 56, 246, 156, 60, 208, 120, 43, 190, 96, 21, 249, 60, 202, 164, 42, 190, 112, 58, 17, 189, 223, 25, 14, 62, 32, 66, 30, 189, 228, 74, 14, 190, 48, 63, 254, 189, 129, 185, 206, 189, 193, 21, 244, 61, 211, 4, 252, 61, 223, 171, 136, 61, 40, 59, 48, 188, 117, 20, 71, 61, 248, 201, 168, 189, 130, 128, 212, 189, 199, 3, 45, 62, 184, 9, 199, 61, 59, 69, 171, 61, 176, 209, 6, 188, 46, 181, 4, 190, 22, 158, 174, 60, 107, 75, 17, 190, 43, 32, 52, 190, 136, 135, 105, 61, 56, 120, 187, 188, 25, 100, 78, 186, 53, 55, 29, 61, 156, 243, 9, 189, 130, 243, 168, 61, 148, 106, 83, 189, 200, 20, 149, 58, 12, 211, 6, 62, 216, 107, 12, 189, 34, 116, 118, 189, 54, 170, 14, 61, 119, 130, 31, 62, 86, 236, 3, 61, 190, 164, 154, 189, 226, 73, 1, 62, 45, 64, 43, 62, 130, 244, 188, 61, 134, 120, 21, 62, 200, 139, 135, 61, 200, 97, 6, 190, 173, 230, 12, 190, 96, 22, 2, 61, 253, 227, 149, 189, 103, 97, 34, 62, 37, 204, 141, 189, 9, 16, 4, 61, 117, 22, 135, 189, 76, 176, 209, 188, 82, 48, 4, 190, 167, 103, 161, 189, 46, 64, 214, 61, 54, 20, 22, 61, 212, 130, 130, 189, 27, 72, 25, 190, 97, 245, 42, 62, 149, 103, 3, 61, 102, 170, 242, 61, 56, 103, 3, 190, 152, 14, 4, 189, 155, 165, 42, 190, 240, 228, 56, 61, 8, 136, 31, 62, 207, 240, 61, 61, 216, 198, 143, 60, 48, 192, 46, 60, 7, 100, 130, 61, 25, 50, 21, 62, 81, 243, 129, 189, 225, 81, 38, 62, 248, 35, 165, 189, 144, 206, 216, 61, 174, 27, 23, 190, 181, 91, 167, 189, 30, 22, 28, 62, 144, 34, 194, 188, 209, 198, 186, 188, 23, 183, 36, 62, 241, 93, 52, 61, 183, 107, 42, 190, 50, 182, 242, 61, 178, 53, 32, 189, 160, 231, 157, 60, 203, 88, 11, 62, 26, 220, 204, 61, 169, 28, 38, 190, 32, 155, 121, 61, 124, 252, 116, 61, 205, 129, 180, 61, 246, 59, 246, 189, 167, 69, 130, 59, 46, 123, 2, 190, 251, 178, 50, 62, 19, 223, 247, 60, 93, 66, 252, 189, 190, 40, 172, 61, 45, 22, 50, 62, 252, 245, 29, 62, 106, 174, 234, 61, 97, 168, 134, 189, 192, 81, 202, 188, 138, 51, 44, 62, 113, 116, 24, 62, 132, 26, 108, 61, 152, 240, 139, 60, 5, 60, 35, 62, 243, 213, 43, 189, 248, 98, 240, 188, 37, 81, 199, 60, 150, 247, 170, 61, 191, 136, 141, 61, 108, 233, 79, 189, 145, 90, 6, 62, 137, 178, 80, 189, 165, 167, 191, 60, 86, 218, 175, 189, 224, 211, 229, 187, 245, 199, 189, 189, 44, 53, 44, 61, 141, 0, 5, 62, 183, 24, 38, 190, 139, 175, 27, 190, 94, 181, 87, 189, 163, 135, 24, 62, 114, 197, 220, 61, 56, 250, 34, 189, 251, 109, 29, 190, 164, 181, 69, 61, 131, 29, 8, 62, 170, 175, 27, 190, 125, 54, 14, 190, 188, 41, 132, 61, 72, 87, 218, 188, 205, 27, 43, 62, 235, 16, 64, 61, 124, 24, 220, 61, 97, 154, 146, 189, 85, 111, 173, 189, 16, 41, 153, 60, 144, 152, 92, 60, 43, 63, 30, 188, 57, 18, 40, 62, 214, 166, 245, 61, 50, 83, 2, 190, 155, 41, 142, 61, 106, 217, 227, 187, 70, 95, 212, 189, 48, 34, 233, 60, 34, 48, 164, 61, 103, 180, 51, 62, 129, 157, 8, 190, 117, 252, 49, 62, 200, 113, 55, 61, 200, 220, 224, 188, 192, 27, 149, 187, 71, 137, 40, 62, 117, 73, 51, 60, 219, 116, 157, 58, 148, 211, 34, 190, 56, 211, 196, 61, 192, 198, 90, 188, 75, 130, 8, 187, 204, 31, 202, 189, 31, 44, 121, 189, 152, 18, 36, 187, 62, 118, 164, 61, 156, 218, 238, 61, 74, 224, 226, 61, 202, 106, 3, 190, 186, 30, 222, 61, 196, 91, 216, 60, 245, 0, 1, 62, 212, 123, 39, 190, 112, 29, 203, 188, 33, 11, 61, 60, 175, 97, 16, 190, 237, 8, 47, 187, 242, 176, 184, 60, 198, 5, 43, 190, 38, 139, 228, 61, 216, 169, 131, 188, 127, 103, 229, 189, 81, 155, 182, 189, 44, 22, 237, 61, 27, 18, 47, 190, 57, 75, 197, 189, 14, 171, 58, 61, 0, 95, 30, 58, 210, 151, 38, 62, 14, 233, 30, 190, 113, 88, 57, 190, 139, 19, 37, 62, 96, 170, 77, 61, 124, 186, 110, 61, 179, 75, 133, 187, 12, 46, 116, 61, 106, 194, 246, 60, 136, 27, 236, 61, 116, 126, 7, 189, 241, 35, 134, 60, 56, 93, 83, 61, 41, 21, 100, 61, 211, 29, 8, 62, 46, 52, 206, 61, 157, 231, 140, 189, 75, 138, 44, 62, 122, 169, 167, 188, 192, 1, 146, 60, 246, 185, 221, 61, 220, 214, 65, 61, 30, 192, 193, 61, 125, 155, 128, 189, 232, 88, 217, 188, 235, 105, 51, 62, 200, 191, 130, 189, 1, 26, 52, 62, 145, 0, 9, 62, 125, 243, 245, 61, 26, 47, 190, 61, 190, 13, 108, 189, 192, 170, 67, 59, 168, 43, 173, 61, 81, 250, 254, 189, 24, 31, 240, 60, 238, 16, 8, 61, 234, 56, 140, 59, 180, 248, 27, 190, 188, 235, 106, 189, 132, 15, 10, 188, 117, 165, 241, 189, 126, 126, 167, 189, 149, 168, 41, 62, 8, 250, 188, 60, 72, 7, 37, 189, 218, 33, 161, 188, 80, 82, 56, 188, 156, 161, 127, 61, 36, 194, 12, 190, 0, 129, 39, 62, 170, 155, 241, 61, 0, 34, 148, 61, 192, 49, 228, 189, 142, 88, 132, 61, 180, 252, 33, 62, 231, 67, 219, 189, 85, 181, 2, 62, 39, 77, 10, 188, 248, 235, 224, 60, 72, 119, 181, 189, 129, 213, 32, 62, 106, 135, 194, 61, 250, 220, 90, 189, 139, 222, 180, 189, 198, 130, 218, 61, 45, 18, 33, 62, 64, 182, 7, 59, 153, 248, 28, 62, 213, 83, 6, 62, 190, 73, 44, 190, 43, 44, 45, 62, 169, 190, 6, 62, 95, 176, 1, 189, 150, 189, 163, 189, 115, 89, 14, 62, 23, 140, 48, 190, 151, 220, 13, 62, 194, 38, 147, 189, 45, 242, 2, 62, 218, 192, 12, 190, 73, 130, 45, 190, 101, 223, 138, 61, 16, 214, 159, 60, 190, 137, 162, 61, 220, 66, 192, 61, 126, 59, 255, 61, 16, 249, 249, 188, 192, 91, 42, 190, 126, 103, 137, 61, 253, 110, 163, 60, 106, 67, 187, 189, 144, 159, 88, 188, 38, 71, 173, 61, 107, 198, 30, 190, 55, 48, 172, 189, 165, 30, 155, 60, 65, 4, 221, 189, 112, 88, 186, 60, 172, 202, 36, 188, 128, 159, 12, 188, 189, 26, 222, 189, 116, 196, 47, 190, 104, 157, 208, 59, 80, 84, 189, 61, 144, 165, 29, 188, 171, 164, 85, 61, 208, 20, 37, 190, 136, 89, 12, 190, 218, 112, 34, 190, 218, 104, 186, 60, 208, 128, 167, 60, 54, 208, 176, 189, 80, 64, 255, 189, 149, 124, 162, 61, 202, 198, 226, 189, 183, 214, 71, 189, 40, 165, 127, 60, 40, 101, 180, 60, 215, 125, 1, 190, 167, 157, 54, 189, 251, 113, 68, 189, 121, 1, 25, 190, 249, 99, 41, 190, 150, 71, 252, 61, 87, 150, 128, 189, 87, 107, 149, 60, 64, 3, 224, 60, 92, 67, 250, 189, 184, 11, 166, 60, 71, 222, 0, 62, 13, 75, 18, 190, 10, 97, 225, 61, 217, 151, 144, 189, 191, 32, 213, 60, 144, 6, 91, 61, 90, 158, 135, 61, 205, 108, 53, 62, 174, 23, 249, 61, 192, 167, 248, 61, 14, 114, 169, 61, 161, 217, 242, 59, 255, 190, 138, 61, 88, 105, 195, 60, 61, 218, 4, 189, 50, 214, 21, 188, 9, 103, 25, 62, 141, 223, 203, 189, 121, 137, 5, 62, 92, 189, 251, 189, 166, 20, 155, 61, 59, 123, 211, 189, 60, 133, 32, 190, 95, 142, 156, 189, 234, 41, 183, 61, 190, 157, 167, 61, 195, 244, 78, 189, 206, 243, 149, 189, 125, 109, 32, 62, 252, 171, 203, 61, 216, 49, 191, 189, 32, 203, 142, 61, 169, 231, 45, 62, 16, 66, 199, 188, 236, 155, 184, 61, 206, 143, 71, 188, 135, 101, 239, 61, 46, 227, 4, 62, 185, 171, 47, 62, 1, 131, 133, 61, 100, 68, 30, 190, 100, 248, 135, 61, 112, 77, 78, 188, 139, 45, 44, 62, 89, 142, 46, 190, 160, 253, 222, 188, 21, 231, 203, 61, 92, 49, 108, 61, 209, 123, 0, 190, 74, 45, 166, 61, 230, 254, 242, 61, 172, 33, 107, 189, 105, 167, 55, 189, 170, 107, 238, 61, 218, 18, 244, 61, 11, 174, 27, 62, 225, 242, 34, 62, 50, 89, 38, 190, 165, 205, 16, 62, 82, 142, 238, 61, 0, 129, 30, 58, 116, 175, 103, 61, 128, 122, 66, 188, 232, 84, 51, 189, 110, 34, 234, 60, 140, 25, 17, 190, 120, 74, 3, 189, 22, 230, 166, 61, 92, 67, 232, 61, 193, 177, 1, 62, 34, 205, 248, 61, 197, 0, 220, 60, 233, 190, 4, 190, 76, 132, 216, 189, 18, 92, 19, 62, 30, 127, 39, 189, 144, 253, 0, 60, 36, 187, 181, 189, 149, 135, 66, 61, 228, 231, 15, 190, 241, 26, 140, 189, 51, 155, 208, 189, 106, 16, 215, 189, 194, 98, 20, 185, 192, 120, 81, 59, 196, 255, 83, 61, 254, 188, 156, 61, 113, 149, 7, 62, 170, 87, 17, 61, 238, 138, 21, 61, 128, 130, 241, 186, 90, 177, 201, 61, 162, 84, 177, 61, 47, 110, 3, 60, 47, 139, 229, 61, 187, 141, 105, 189, 122, 159, 202, 61, 89, 254, 9, 189, 76, 4, 133, 189, 91, 191, 33, 190, 73, 223, 29, 190, 181, 93, 56, 62, 212, 31, 200, 61, 223, 140, 46, 62, 222, 27, 132, 189, 90, 165, 181, 61, 188, 240, 223, 185, 253, 12, 31, 62, 1, 209, 181, 189, 134, 93, 153, 61, 71, 58, 165, 60, 161, 181, 4, 190, 117, 219, 167, 188, 141, 66, 12, 62, 14, 52, 143, 189, 94, 95, 75, 61, 226, 107, 150, 61, 88, 219, 85, 61, 133, 100, 30, 62, 0, 54, 226, 185, 84, 205, 155, 189, 28, 106, 215, 189, 64, 183, 36, 189, 39, 137, 186, 189, 232, 62, 67, 61, 125, 167, 199, 189, 156, 193, 87, 189, 32, 189, 166, 60, 118, 204, 229, 61, 66, 224, 162, 61, 113, 227, 31, 62, 189, 46, 34, 62, 210, 103, 176, 61, 9, 38, 43, 62, 80, 185, 237, 60, 48, 28, 136, 60, 192, 245, 154, 60, 153, 14, 40, 190, 204, 62, 97, 61, 212, 121, 39, 61, 40, 82, 8, 189, 189, 189, 51, 62, 70, 147, 225, 61, 253, 246, 16, 62, 41, 75, 9, 62, 16, 94, 148, 60, 102, 48, 146, 61, 107, 19, 178, 189, 96, 3, 32, 188, 232, 54, 36, 189, 219, 35, 128, 189, 146, 202, 250, 61, 75, 214, 9, 62, 220, 57, 238, 189, 140, 37, 68, 189, 136, 252, 116, 61, 31, 129, 41, 190, 3, 203, 226, 189, 239, 82, 155, 189, 143, 40, 137, 189, 26, 228, 157, 189, 103, 213, 137, 189, 185, 186, 2, 190, 144, 234, 156, 188, 93, 179, 42, 62, 101, 25, 142, 189, 80, 46, 133, 60, 190, 245, 159, 61, 28, 20, 58, 189, 97, 43, 227, 189, 128, 101, 32, 60, 24, 224, 5, 190, 2, 72, 254, 189, 24, 198, 33, 190, 51, 245, 51, 62, 43, 146, 161, 189, 210, 187, 16, 190, 208, 92, 41, 60, 77, 13, 177, 189, 90, 104, 196, 189, 239, 223, 210, 189, 148, 150, 64, 189, 52, 55, 56, 61, 105, 240, 144, 189, 56, 124, 26, 189, 192, 149, 112, 187, 144, 14, 182, 188, 171, 138, 5, 62, 88, 180, 44, 61, 10, 75, 210, 61, 123, 94, 20, 62, 182, 244, 16, 190, 152, 71, 119, 61, 187, 74, 194, 189, 240, 222, 58, 60, 71, 179, 4, 190, 76, 59, 32, 190, 249, 224, 13, 62, 192, 100, 14, 60, 175, 223, 228, 189, 63, 134, 29, 62, 34, 143, 137, 61, 137, 194, 42, 190, 236, 59, 100, 61, 180, 148, 128, 61, 145, 224, 42, 62, 68, 37, 154, 189, 182, 167, 18, 190, 123, 133, 40, 190, 29, 88, 27, 62, 139, 119, 13, 62, 18, 156, 219, 61, 22, 164, 212, 61, 16, 181, 173, 188, 97, 107, 28, 190, 36, 178, 6, 190, 255, 41, 10, 62, 48, 184, 9, 188, 218, 133, 129, 61, 114, 11, 147, 61, 127, 74, 52, 62, 38, 16, 157, 61, 34, 195, 161, 61, 144, 79, 12, 189, 170, 221, 210, 61, 160, 161, 152, 59, 176, 118, 129, 61, 68, 243, 206, 189, 110, 50, 46, 190, 74, 55, 234, 61, 129, 166, 15, 62, 172, 158, 220, 189, 128, 37, 90, 188, 232, 42, 40, 189, 44, 179, 26, 190, 82, 28, 21, 190, 58, 183, 249, 189, 82, 190, 253, 189, 24, 50, 150, 60, 176, 187, 86, 60, 224, 252, 207, 60, 232, 87, 176, 60, 192, 72, 195, 187, 160, 142, 186, 188, 28, 69, 246, 189, 26, 75, 48, 190, 75, 21, 250, 189, 20, 176, 12, 61, 39, 75, 3, 62, 182, 47, 248, 189, 234, 24, 246, 61, 40, 130, 137, 188, 176, 167, 148, 60, 64, 121, 239, 189, 216, 111, 21, 61, 145, 195, 22, 190, 224, 100, 52, 61, 208, 137, 20, 61, 224, 127, 83, 188, 29, 179, 16, 62, 115, 173, 255, 189, 200, 251, 205, 60, 255, 165, 50, 190, 234, 89, 186, 61, 44, 156, 10, 61, 204, 113, 108, 61, 162, 52, 237, 61, 178, 31, 189, 61, 220, 83, 32, 190, 216, 200, 128, 188, 0, 155, 216, 187, 23, 80, 17, 62, 160, 35, 255, 188, 240, 253, 173, 189, 204, 201, 56, 61, 232, 119, 28, 190, 132, 116, 7, 190, 250, 149, 142, 61, 210, 133, 139, 189, 30, 253, 140, 189, 132, 219, 100, 61, 216, 236, 30, 189, 94, 193, 249, 189, 184, 161, 130, 188, 207, 64, 17, 62, 194, 127, 149, 189, 91, 211, 186, 189, 90, 176, 109, 189, 64, 140, 251, 187, 198, 148, 240, 61, 163, 108, 196, 189, 138, 237, 202, 61, 28, 177, 47, 61, 79, 203, 10, 190, 76, 54, 10, 61, 22, 189, 161, 61, 113, 115, 22, 62, 94, 224, 121, 189, 32, 96, 182, 60, 221, 2, 25, 190, 110, 252, 165, 61, 227, 43, 168, 189, 150, 156, 225, 61, 28, 36, 146, 61, 130, 166, 243, 61, 116, 170, 103, 61, 169, 184, 228, 189, 255, 166, 217, 189, 216, 138, 251, 189, 56, 237, 129, 189, 160, 99, 142, 60, 10, 220, 152, 61, 120, 242, 52, 61, 184, 30, 51, 189, 117, 238, 43, 190, 92, 43, 72, 61, 166, 128, 188, 61, 69, 31, 19, 190, 245, 217, 174, 189, 112, 226, 106, 188, 155, 166, 216, 189, 1, 82, 42, 190, 214, 203, 233, 61, 8, 13, 157, 188, 36, 127, 53, 189, 104, 183, 200, 188, 92, 236, 103, 61, 124, 71, 20, 61, 116, 30, 64, 189, 220, 37, 84, 61, 114, 233, 4, 190, 210, 81, 245, 189, 64, 209, 209, 59, 64, 133, 160, 188, 16, 66, 3, 189, 224, 141, 87, 60, 37, 219, 18, 190, 244, 118, 107, 61, 144, 37, 135, 189, 165, 245, 174, 189, 46, 198, 101, 189, 39, 88, 12, 62, 128, 17, 139, 58, 124, 50, 122, 189, 28, 12, 103, 189, 15, 238, 16, 62, 0, 119, 7, 58, 150, 49, 160, 61, 193, 10, 8, 190, 228, 22, 27, 189, 72, 247, 159, 188, 238, 103, 209, 61, 48, 146, 226, 60, 12, 53, 6, 190, 179, 234, 39, 62, 116, 61, 52, 189, 61, 218, 230, 189, 117, 249, 34, 62, 62, 104, 250, 61, 65, 72, 211, 189, 76, 247, 188, 189, 213, 174, 240, 189, 22, 242, 173, 61, 128, 45, 182, 60, 28, 184, 24, 190, 58, 20, 189, 61, 32, 169, 42, 60, 156, 187, 77, 61, 30, 194, 170, 61, 216, 0, 186, 60, 72, 168, 51, 190, 208, 185, 26, 190, 127, 228, 141, 189, 212, 203, 176, 189, 160, 93, 237, 187, 250, 13, 7, 190, 232, 63, 155, 60, 158, 174, 205, 189, 183, 111, 229, 189, 119, 210, 42, 190, 208, 186, 225, 60, 196, 241, 68, 189, 178, 222, 252, 61, 229, 220, 145, 189, 223, 228, 2, 62, 224, 161, 209, 187, 16, 80, 73, 189, 115, 10, 22, 62, 160, 148, 187, 59, 10, 224, 232, 189, 240, 250, 23, 188, 232, 160, 212, 60, 38, 145, 136, 189, 176, 191, 101, 61, 160, 41, 56, 188, 10, 45, 12, 190, 89, 143, 4, 190, 160, 32, 165, 60, 238, 167, 171, 61, 52, 140, 24, 190, 54, 109, 179, 61, 145, 98, 25, 190, 162, 232, 237, 61, 72, 68, 166, 60, 115, 29, 16, 62, 85, 134, 0, 62, 61, 168, 145, 189, 136, 158, 238, 189, 212, 166, 29, 189, 0, 90, 98, 58, 60, 26, 134, 61, 222, 246, 160, 61, 238, 89, 140, 61, 120, 101, 136, 60, 42, 120, 227, 189, 78, 88, 248, 61, 200, 182, 230, 60, 118, 172, 227, 61, 120, 105, 198, 189, 196, 76, 248, 189, 121, 218, 135, 189, 143, 139, 21, 62, 158, 72, 14, 190, 144, 211, 138, 189, 214, 150, 210, 189, 211, 72, 31, 62, 248, 35, 245, 189, 18, 72, 224, 61, 40, 162, 127, 189, 151, 196, 15, 62, 61, 96, 16, 62, 176, 141, 145, 60, 237, 55, 41, 62, 196, 105, 1, 61, 124, 27, 22, 190, 80, 102, 241, 188, 6, 28, 200, 61, 48, 155, 79, 60, 235, 31, 16, 62, 160, 147, 200, 60, 192, 148, 245, 189, 80, 63, 159, 189, 0, 165, 199, 59, 12, 236, 247, 189, 254, 99, 159, 189, 129, 104, 201, 189, 4, 165, 121, 189, 112, 153, 2, 188, 0, 228, 27, 190, 120, 12, 194, 188, 201, 184, 36, 62, 93, 109, 27, 190, 139, 102, 38, 62, 168, 136, 206, 188, 96, 27, 215, 189, 253, 229, 27, 190, 148, 178, 55, 61, 74, 142, 251, 189, 184, 123, 227, 60, 128, 235, 47, 189, 160, 206, 72, 61, 65, 246, 35, 62, 120, 8, 16, 190, 71, 98, 46, 62, 112, 123, 110, 60, 168, 10, 237, 60, 196, 25, 181, 189, 64, 142, 183, 189, 34, 1, 248, 61, 16, 17, 2, 190, 170, 161, 44, 190, 197, 72, 163, 189, 105, 211, 47, 190, 176, 54, 88, 61, 52, 145, 27, 190, 210, 182, 132, 61, 140, 62, 44, 190, 253, 9, 21, 190, 210, 32, 229, 61, 112, 150, 44, 190, 44, 166, 116, 61, 212, 30, 197, 189, 135, 13, 8, 190, 35, 164, 21, 62, 232, 133, 100, 61, 196, 137, 127, 189, 37, 75, 19, 62, 28, 19, 136, 61, 233, 113, 51, 190, 186, 100, 231, 61, 148, 107, 122, 189, 0, 114, 149, 59, 32, 149, 101, 189, 200, 110, 110, 61, 173, 94, 17, 190, 4, 246, 34, 61, 114, 30, 160, 61, 249, 254, 241, 189, 168, 181, 148, 189, 68, 74, 91, 61, 148, 248, 81, 189, 152, 165, 24, 189, 117, 174, 171, 189, 52, 174, 89, 189, 96, 208, 177, 59, 103, 216, 197, 60, 167, 181, 15, 62, 177, 192, 1, 62, 253, 108, 40, 190, 210, 92, 183, 61, 5, 251, 131, 61, 0, 217, 74, 61, 9, 198, 219, 189, 178, 205, 128, 61, 194, 122, 118, 189, 128, 154, 239, 58, 227, 130, 36, 62, 238, 30, 160, 61, 4, 232, 4, 62, 32, 215, 103, 60, 0, 147, 133, 189, 217, 207, 51, 61, 241, 37, 15, 190, 246, 114, 118, 61, 165, 143, 193, 189, 178, 88, 95, 189, 103, 169, 33, 189, 248, 172, 140, 60, 177, 105, 204, 188, 248, 155, 45, 190, 164, 125, 66, 61, 168, 64, 45, 190, 16, 65, 13, 190, 226, 82, 151, 61, 224, 122, 242, 60, 204, 143, 11, 190, 54, 6, 244, 61, 254, 247, 24, 190, 153, 243, 21, 190, 149, 205, 23, 62, 211, 143, 14, 190, 83, 182, 6, 190, 56, 8, 236, 60, 95, 81, 94, 61, 31, 222, 227, 189, 154, 37, 113, 189, 238, 42, 169, 189, 3, 57, 24, 189, 58, 76, 17, 190, 209, 148, 46, 189, 28, 61, 185, 189, 89, 37, 143, 187, 20, 244, 16, 61, 210, 215, 153, 61, 0, 216, 173, 58, 200, 216, 247, 60, 95, 149, 183, 61, 101, 215, 52, 190, 114, 179, 108, 189, 224, 65, 4, 190, 42, 14, 158, 60, 235, 114, 33, 62, 64, 131, 5, 188, 219, 115, 27, 62, 137, 226, 52, 189, 231, 125, 253, 61, 0, 222, 200, 186, 40, 204, 138, 61, 82, 190, 46, 62, 114, 238, 112, 189, 244, 185, 24, 190, 144, 109, 85, 61, 128, 221, 224, 58, 115, 194, 33, 190, 153, 121, 51, 190, 243, 51, 185, 189, 92, 35, 98, 58, 60, 61, 48, 190, 77, 9, 3, 190, 152, 91, 128, 60, 216, 148, 61, 189, 0, 183, 182, 186, 48, 236, 4, 190, 204, 183, 187, 189, 251, 116, 21, 190, 242, 91, 49, 59, 129, 199, 149, 58, 155, 30, 8, 62, 122, 132, 202, 61, 132, 132, 28, 189, 13, 209, 92, 61, 166, 2, 42, 190, 95, 246, 116, 61, 106, 167, 163, 189, 81, 187, 8, 190, 232, 10, 216, 61, 32, 218, 141, 187, 50, 180, 208, 61, 190, 5, 219, 61, 0, 214, 255, 188, 235, 149, 146, 189, 163, 171, 213, 188, 112, 212, 14, 190, 38, 18, 20, 190, 250, 56, 201, 61, 149, 140, 16, 62, 156, 7, 90, 189, 61, 225, 112, 187, 51, 159, 204, 189, 133, 216, 149, 61, 166, 171, 244, 189, 37, 160, 32, 62, 40, 20, 210, 60, 2, 51, 175, 189, 245, 242, 0, 62, 224, 188, 223, 60, 86, 216, 16, 190, 34, 144, 241, 189, 233, 139, 154, 189, 200, 152, 160, 188, 98, 130, 52, 190, 212, 58, 53, 61, 202, 205, 10, 190, 56, 186, 156, 188, 57, 165, 221, 189, 178, 11, 91, 188, 128, 152, 56, 190, 100, 215, 144, 189, 204, 124, 3, 61, 128, 175, 221, 188, 181, 52, 133, 189, 181, 196, 205, 61, 208, 30, 103, 61, 85, 209, 98, 60, 71, 10, 40, 190, 226, 13, 159, 61, 5, 63, 195, 61, 168, 139, 223, 188, 21, 211, 163, 61, 205, 232, 5, 62, 252, 175, 214, 189, 155, 96, 109, 189, 29, 94, 48, 190, 128, 242, 145, 59, 22, 115, 105, 61, 138, 125, 39, 190, 154, 59, 22, 190, 58, 244, 210, 61, 141, 194, 7, 190, 128, 242, 28, 61, 106, 2, 86, 189, 19, 218, 230, 189, 244, 91, 238, 189, 30, 159, 245, 61, 104, 88, 210, 189, 71, 166, 32, 61, 139, 60, 18, 61, 138, 62, 175, 61, 67, 247, 18, 62, 99, 38, 177, 188, 192, 161, 66, 60, 55, 22, 213, 189, 52, 126, 15, 61, 0, 21, 8, 59, 189, 73, 22, 62, 103, 62, 40, 190, 12, 165, 3, 190, 147, 138, 18, 62, 27, 190, 28, 62, 216, 168, 157, 189, 246, 191, 210, 61, 94, 9, 205, 189, 195, 87, 4, 184, 170, 91, 240, 61, 21, 231, 38, 62, 53, 76, 148, 189, 125, 168, 26, 190, 55, 155, 124, 60, 158, 195, 134, 61, 167, 109, 149, 189, 99, 180, 49, 62, 202, 115, 197, 61, 100, 46, 26, 189, 200, 61, 249, 60, 239, 165, 255, 188, 198, 71, 223, 61, 164, 195, 240, 60, 112, 88, 108, 61, 57, 148, 38, 61, 69, 54, 7, 62, 182, 131, 152, 61, 204, 43, 4, 190, 234, 105, 12, 190, 112, 43, 120, 189, 19, 255, 18, 190, 225, 205, 198, 189, 7, 139, 246, 187, 104, 118, 77, 61, 120, 113, 134, 61, 199, 187, 207, 189, 26, 113, 157, 61, 207, 32, 35, 62, 156, 45, 42, 190, 124, 120, 4, 189, 0, 135, 199, 189, 208, 1, 147, 60, 0, 204, 242, 58, 114, 197, 242, 61, 187, 178, 52, 189, 14, 138, 33, 190, 48, 249, 183, 188, 206, 153, 4, 61, 136, 78, 188, 61, 95, 90, 139, 61, 249, 144, 47, 189, 102, 75, 46, 62, 244, 125, 19, 189, 112, 163, 88, 60, 91, 218, 218, 189, 159, 7, 170, 61, 8, 153, 158, 189, 200, 155, 166, 60, 117, 196, 150, 61, 230, 146, 3, 62, 63, 40, 230, 189, 224, 223, 130, 188, 150, 216, 25, 190, 139, 106, 9, 62, 158, 76, 0, 190, 145, 191, 41, 62, 48, 231, 125, 188, 248, 116, 209, 60, 160, 98, 188, 188, 88, 110, 34, 190, 116, 138, 203, 60, 130, 197, 9, 62, 112, 47, 26, 60, 222, 189, 8, 190, 140, 11, 12, 61, 44, 251, 154, 61, 76, 100, 139, 189, 188, 125, 46, 190, 206, 253, 7, 61, 107, 210, 5, 62, 83, 111, 139, 60, 140, 230, 39, 190, 246, 198, 29, 189, 23, 131, 32, 190, 224, 46, 135, 189, 0, 165, 44, 58, 172, 189, 138, 61, 249, 79, 239, 189, 18, 78, 15, 190, 149, 185, 160, 61, 60, 158, 42, 62, 227, 112, 26, 62, 185, 38, 196, 189, 172, 180, 119, 61, 111, 123, 11, 190, 229, 237, 43, 62, 239, 223, 47, 62, 77, 113, 135, 188, 99, 56, 232, 60, 159, 251, 49, 62, 107, 99, 68, 61, 204, 61, 23, 190, 225, 77, 252, 61, 138, 169, 159, 61, 11, 104, 127, 61, 200, 138, 12, 190, 190, 16, 33, 190, 153, 116, 195, 189, 53, 243, 197, 188, 18, 80, 145, 189, 154, 69, 192, 189, 86, 60, 47, 188, 29, 153, 46, 62, 15, 227, 251, 60, 187, 177, 176, 189, 179, 218, 50, 61, 164, 61, 133, 61, 170, 247, 207, 61, 69, 156, 45, 190, 231, 194, 140, 189, 49, 242, 41, 187, 22, 167, 230, 61, 180, 140, 84, 189, 37, 240, 224, 61, 120, 194, 161, 188, 250, 84, 128, 61, 87, 124, 43, 62, 177, 40, 30, 190, 119, 61, 145, 189, 5, 170, 243, 189, 93, 121, 49, 61, 142, 7, 46, 61, 230, 67, 28, 62, 253, 136, 243, 188, 236, 100, 52, 189, 193, 79, 85, 61, 143, 101, 18, 190, 222, 139, 33, 190, 78, 134, 51, 61, 146, 112, 43, 188, 182, 240, 40, 190, 154, 8, 198, 61, 125, 96, 239, 189, 220, 14, 215, 61, 255, 169, 12, 62, 183, 93, 34, 62, 9, 255, 15, 62, 168, 112, 218, 60, 232, 178, 153, 59, 170, 100, 166, 189, 202, 137, 244, 189, 208, 57, 69, 189, 184, 121, 94, 61, 200, 241, 241, 188, 11, 181, 42, 190, 57, 147, 166, 61, 255, 33, 88, 189, 245, 88, 44, 62, 173, 138, 26, 62, 64, 6, 34, 59, 173, 209, 149, 189, 210, 193, 181, 61, 191, 43, 37, 190, 97, 43, 164, 189, 254, 226, 239, 61, 101, 57, 33, 62, 92, 168, 86, 61, 64, 215, 40, 190, 82, 154, 7, 189, 10, 106, 232, 61, 116, 200, 71, 61, 128, 255, 109, 61, 199, 73, 208, 188, 114, 158, 187, 61, 128, 216, 149, 187, 189, 60, 41, 62, 78, 131, 20, 62, 223, 58, 174, 61, 83, 59, 24, 61, 246, 41, 103, 188, 24, 110, 119, 189, 86, 89, 7, 190, 7, 51, 148, 189, 141, 107, 19, 190, 6, 161, 144, 61, 203, 2, 179, 189, 49, 221, 36, 62, 108, 43, 46, 190, 119, 83, 50, 190, 48, 151, 160, 189, 178, 176, 255, 189, 196, 9, 47, 190, 109, 54, 149, 61, 240, 62, 200, 189, 96, 56, 142, 189, 244, 198, 18, 61, 254, 66, 152, 61, 36, 194, 44, 190, 62, 182, 224, 189, 105, 191, 239, 61, 255, 132, 140, 189, 29, 136, 97, 189, 16, 101, 141, 60, 243, 177, 0, 190, 176, 116, 59, 60, 127, 75, 229, 189, 136, 151, 135, 61, 200, 15, 48, 189, 163, 31, 232, 61, 21, 168, 6, 62, 249, 210, 189, 189, 88, 233, 53, 61, 89, 129, 252, 189, 113, 16, 48, 62, 156, 165, 63, 60, 199, 178, 128, 189, 245, 187, 42, 62, 72, 184, 29, 62, 71, 59, 10, 62, 195, 105, 21, 62, 192, 114, 105, 188, 34, 64, 129, 61, 255, 118, 27, 62, 254, 120, 126, 189, 104, 45, 218, 60, 106, 87, 121, 189, 86, 157, 242, 61, 246, 64, 186, 189, 8, 70, 23, 189, 163, 250, 204, 189, 246, 174, 41, 190, 64, 30, 117, 188, 28, 245, 18, 190, 76, 231, 110, 189, 233, 77, 46, 62, 249, 243, 47, 62, 21, 238, 3, 62, 64, 198, 4, 60, 151, 149, 48, 62, 171, 122, 3, 62, 44, 228, 48, 189, 16, 167, 84, 188, 2, 58, 235, 61, 144, 185, 87, 61, 190, 133, 196, 61, 159, 24, 5, 62, 22, 150, 8, 190, 184, 128, 148, 60, 88, 94, 32, 190, 73, 18, 42, 62, 254, 68, 236, 61, 167, 149, 1, 62, 31, 212, 229, 189, 163, 163, 230, 189, 8, 170, 131, 61, 8, 43, 123, 189, 150, 175, 238, 61, 42, 125, 206, 61, 53, 151, 29, 62, 0, 192, 147, 55, 96, 83, 38, 190, 28, 174, 47, 61, 157, 228, 16, 62, 181, 82, 148, 189, 119, 7, 20, 190, 208, 157, 34, 61, 240, 45, 96, 189, 47, 108, 16, 62, 228, 239, 66, 189, 160, 244, 26, 190, 245, 240, 20, 62, 56, 192, 12, 189, 122, 143, 197, 61, 78, 122, 208, 61, 81, 221, 52, 190, 21, 52, 4, 62, 224, 69, 134, 189, 112, 106, 110, 188, 87, 135, 182, 189, 164, 93, 149, 61, 4, 223, 0, 190, 200, 51, 234, 189, 168, 212, 132, 61, 48, 87, 58, 189, 139, 143, 28, 62, 243, 75, 26, 62, 234, 206, 191, 61, 89, 182, 19, 62, 111, 214, 6, 62, 198, 108, 180, 61, 105, 11, 35, 62, 56, 18, 151, 60, 92, 142, 90, 61, 192, 116, 70, 188, 178, 119, 151, 61, 182, 48, 154, 61, 92, 191, 108, 61, 144, 226, 183, 60, 102, 25, 230, 61, 184, 156, 41, 190, 182, 115, 9, 190, 40, 174, 196, 60, 128, 171, 173, 188, 100, 68, 123, 61, 230, 249, 50, 190, 53, 51, 133, 189, 10, 219, 153, 61, 49, 5, 160, 189, 53, 248, 33, 62, 26, 154, 245, 189, 224, 153, 139, 187, 49, 226, 31, 190, 11, 121, 131, 189, 88, 17, 151, 188, 96, 7, 215, 188, 85, 243, 194, 189, 144, 225, 203, 189, 114, 240, 223, 61, 142, 129, 86, 189, 128, 235, 28, 59, 154, 146, 163, 61, 145, 40, 165, 189, 12, 242, 14, 190, 197, 95, 51, 190, 83, 227, 27, 62, 51, 206, 0, 190, 134, 61, 106, 189, 20, 3, 133, 61, 44, 41, 34, 189, 213, 165, 186, 189, 240, 23, 26, 61, 134, 95, 220, 61, 119, 200, 1, 62, 249, 125, 24, 62, 224, 251, 38, 190, 80, 55, 178, 188, 96, 15, 181, 60, 98, 199, 193, 61, 152, 80, 15, 189, 224, 10, 151, 189, 167, 247, 179, 189, 248, 107, 189, 189, 27, 40, 40, 62, 172, 224, 52, 61, 48, 42, 184, 189, 39, 224, 40, 62, 128, 13, 240, 188, 152, 18, 215, 188, 204, 3, 186, 189, 64, 10, 65, 59, 8, 224, 139, 189, 114, 29, 31, 190, 216, 42, 143, 188, 162, 82, 153, 61, 217, 76, 251, 189, 82, 214, 11, 190, 57, 126, 210, 60, 143, 233, 220, 189, 91, 25, 42, 62, 86, 101, 243, 61, 190, 25, 173, 61, 38, 247, 109, 189, 230, 239, 132, 189, 135, 214, 150, 189, 239, 172, 30, 190, 34, 127, 176, 61, 105, 182, 83, 189, 49, 225, 151, 189, 134, 60, 209, 61, 144, 67, 224, 189, 77, 34, 44, 62, 75, 100, 17, 61, 54, 8, 214, 61, 224, 245, 9, 190, 168, 143, 225, 61, 169, 31, 135, 188, 232, 24, 52, 62, 16, 165, 41, 60, 96, 162, 127, 188, 126, 185, 111, 61, 224, 145, 167, 60, 46, 42, 199, 61, 32, 97, 75, 60, 43, 222, 201, 189, 68, 70, 29, 189, 145, 65, 25, 190, 142, 152, 184, 189, 148, 11, 128, 189, 120, 241, 111, 188, 246, 4, 240, 60, 246, 16, 232, 61, 26, 240, 221, 61, 50, 95, 232, 189, 28, 46, 12, 190, 158, 66, 52, 62, 166, 175, 187, 61, 245, 141, 146, 189, 58, 238, 136, 60, 162, 211, 167, 61, 212, 23, 14, 190, 170, 119, 175, 189, 28, 204, 88, 61, 54, 192, 49, 190, 100, 51, 241, 189, 169, 51, 32, 62, 135, 226, 242, 189, 60, 170, 37, 62, 71, 64, 22, 62, 111, 230, 55, 189, 193, 17, 204, 189, 243, 7, 0, 62, 43, 193, 180, 188, 126, 189, 202, 188, 37, 53, 78, 187, 48, 18, 47, 61, 127, 43, 9, 190, 244, 150, 212, 61, 248, 207, 58, 61, 192, 176, 114, 61, 76, 147, 111, 61, 90, 226, 216, 61, 94, 232, 227, 61, 233, 125, 5, 62, 11, 184, 12, 62, 206, 243, 26, 190, 57, 107, 32, 62, 136, 61, 38, 190, 38, 106, 220, 61, 251, 230, 12, 62, 63, 116, 46, 62, 183, 102, 47, 190, 171, 213, 122, 60, 161, 147, 12, 190, 182, 252, 75, 61, 199, 51, 144, 61, 164, 60, 14, 62, 2, 154, 46, 190, 98, 37, 199, 61, 21, 22, 68, 61, 96, 239, 10, 60, 52, 208, 157, 61, 172, 2, 96, 189, 187, 251, 152, 61, 80, 132, 253, 189, 21, 170, 44, 190, 98, 154, 162, 189, 182, 49, 174, 189, 172, 237, 34, 189, 47, 177, 130, 61, 183, 35, 59, 62, 96, 141, 41, 188, 160, 127, 182, 187, 88, 169, 155, 188, 157, 97, 168, 61, 26, 84, 202, 60, 49, 181, 195, 188, 132, 162, 246, 189, 234, 88, 217, 61, 21, 11, 30, 62, 86, 193, 23, 190, 50, 98, 121, 189, 220, 217, 170, 61, 204, 105, 204, 189, 81, 142, 36, 62, 105, 36, 20, 190, 153, 142, 6, 62, 5, 210, 128, 60, 88, 7, 226, 189, 148, 109, 7, 62, 220, 144, 44, 190, 149, 90, 0, 62, 104, 169, 183, 189, 188, 113, 19, 62, 57, 20, 90, 189, 66, 175, 28, 61, 167, 69, 247, 189, 136, 234, 52, 190, 144, 135, 23, 61, 84, 105, 131, 189, 30, 26, 235, 189, 128, 126, 213, 188, 29, 147, 203, 189, 239, 170, 133, 61, 40, 138, 6, 190, 222, 243, 159, 60, 182, 195, 244, 61, 135, 86, 188, 189, 48, 159, 50, 60, 183, 187, 18, 62, 1, 10, 158, 60, 32, 21, 53, 61, 24, 15, 91, 61, 81, 243, 234, 189, 208, 222, 68, 61, 247, 114, 190, 61, 82, 144, 228, 189, 223, 63, 36, 190, 7, 243, 34, 190, 18, 34, 228, 189, 95, 233, 114, 61, 236, 56, 188, 61, 13, 36, 26, 62, 229, 216, 64, 61, 48, 0, 29, 190, 233, 156, 96, 189, 2, 200, 110, 189, 0, 24, 36, 190, 103, 187, 179, 187, 108, 185, 57, 189, 55, 154, 28, 62, 70, 153, 222, 61, 65, 201, 199, 189, 90, 4, 240, 189, 120, 183, 23, 61, 218, 64, 1, 62, 136, 210, 61, 61, 212, 193, 9, 62, 173, 147, 133, 61, 18, 209, 49, 190, 82, 105, 44, 61, 230, 248, 247, 60, 236, 18, 163, 189, 215, 17, 245, 61, 175, 52, 152, 60, 158, 27, 218, 189, 130, 9, 21, 62, 106, 41, 224, 189, 136, 201, 201, 189, 70, 225, 224, 189, 12, 233, 11, 190, 96, 81, 198, 188, 64, 123, 160, 187, 246, 73, 215, 61, 230, 125, 234, 61, 147, 241, 128, 61, 208, 209, 125, 188, 49, 4, 13, 62, 102, 19, 211, 189, 223, 240, 12, 62, 193, 214, 8, 190, 45, 198, 217, 61, 121, 233, 136, 59, 247, 164, 15, 190, 51, 180, 253, 189, 178, 181, 3, 190, 202, 57, 167, 189, 56, 201, 43, 189, 0, 53, 3, 60, 82, 15, 252, 61, 208, 43, 2, 188, 120, 120, 32, 189, 57, 15, 51, 62, 123, 7, 252, 189, 201, 160, 35, 62, 162, 254, 7, 190, 160, 25, 136, 60, 240, 49, 216, 188, 120, 50, 77, 189, 19, 10, 35, 62, 215, 135, 229, 61, 174, 200, 44, 62, 247, 203, 3, 188, 48, 162, 31, 188, 178, 65, 3, 62, 184, 185, 223, 60, 251, 109, 50, 62, 225, 172, 49, 190, 115, 94, 46, 62, 185, 100, 137, 61, 148, 36, 26, 189, 243, 250, 37, 62, 208, 97, 196, 61, 208, 110, 211, 189, 146, 159, 167, 189, 86, 90, 239, 189, 104, 25, 241, 60, 143, 93, 245, 189, 100, 94, 104, 189, 136, 64, 16, 190, 204, 185, 6, 61, 72, 96, 26, 189, 213, 254, 86, 188, 140, 131, 151, 61, 191, 13, 37, 190, 220, 214, 42, 61, 30, 159, 28, 62, 85, 121, 41, 62, 77, 70, 208, 187, 13, 219, 51, 62, 28, 179, 104, 189, 143, 68, 27, 62, 123, 88, 27, 190, 1, 157, 229, 189, 70, 250, 210, 189, 162, 118, 76, 61, 80, 36, 38, 60, 66, 110, 152, 189, 26, 252, 3, 190, 148, 219, 168, 189, 164, 235, 140, 61, 137, 156, 14, 190, 243, 209, 164, 61, 107, 132, 2, 190, 160, 39, 45, 62, 228, 255, 14, 61, 122, 229, 223, 189, 189, 227, 8, 62, 29, 182, 36, 62, 249, 205, 42, 62, 110, 25, 193, 61, 122, 154, 168, 61, 34, 62, 1, 190, 9, 71, 33, 190, 124, 14, 21, 189, 180, 198, 138, 61, 102, 4, 152, 61, 34, 175, 23, 190, 14, 148, 222, 189, 0, 102, 15, 186, 232, 123, 8, 189, 42, 79, 220, 61, 225, 144, 141, 189, 140, 31, 110, 61, 31, 23, 47, 190, 188, 133, 231, 189, 152, 48, 137, 188, 43, 128, 226, 189, 141, 80, 129, 189, 164, 80, 81, 189, 29, 48, 36, 62, 136, 223, 188, 60, 137, 38, 219, 189, 92, 171, 20, 61, 224, 120, 186, 188, 183, 137, 184, 189, 39, 84, 31, 62, 52, 127, 125, 61, 86, 81, 139, 61, 222, 222, 12, 190, 101, 106, 198, 189, 254, 174, 171, 61, 112, 102, 50, 189, 171, 185, 51, 62, 224, 34, 247, 60, 12, 31, 240, 189, 28, 90, 21, 189, 4, 26, 102, 189, 90, 141, 232, 61, 112, 192, 36, 189, 182, 31, 112, 189, 188, 24, 5, 189, 192, 62, 74, 61, 244, 140, 16, 190, 76, 16, 102, 61, 102, 25, 154, 189, 101, 2, 10, 62, 4, 105, 217, 189, 108, 23, 69, 189, 226, 31, 117, 189, 232, 55, 119, 61, 156, 7, 18, 190, 12, 56, 179, 189, 236, 119, 83, 189, 252, 80, 34, 190, 200, 84, 184, 188, 136, 57, 18, 189, 201, 191, 12, 62, 120, 251, 2, 190, 88, 128, 229, 188, 16, 4, 187, 188, 212, 200, 117, 61, 134, 41, 147, 189, 28, 175, 64, 61, 90, 148, 224, 61, 22, 15, 182, 61, 140, 77, 255, 189, 200, 81, 229, 60, 148, 35, 111, 189, 33, 104, 10, 62, 41, 240, 43, 62, 248, 69, 140, 60, 100, 128, 37, 190, 192, 147, 175, 189, 212, 208, 72, 189, 146, 95, 207, 61, 176, 116, 112, 61, 0, 118, 29, 187, 16, 116, 30, 61, 3, 96, 164, 189, 48, 133, 175, 60, 240, 65, 79, 189, 63, 182, 25, 62, 252, 13, 33, 189, 80, 31, 164, 60, 0, 52, 71, 188, 228, 123, 2, 190, 126, 63, 41, 190, 136, 186, 17, 190, 78, 7, 221, 61, 103, 102, 25, 190, 16, 77, 5, 61, 133, 225, 22, 190, 189, 22, 24, 62, 132, 170, 42, 190, 7, 181, 1, 190, 210, 24, 31, 190, 0, 156, 95, 61, 2, 227, 242, 61, 73, 98, 7, 190, 195, 67, 221, 189, 96, 236, 174, 188, 52, 195, 87, 189, 143, 102, 171, 189, 32, 169, 144, 60, 120, 17, 12, 189, 157, 111, 21, 190, 86, 18, 237, 189, 237, 184, 211, 189, 204, 140, 128, 61, 204, 89, 199, 189, 192, 177, 71, 189, 81, 214, 28, 190, 0, 210, 232, 58, 26, 133, 187, 189, 160, 57, 28, 188, 192, 165, 157, 187, 223, 170, 16, 62, 173, 104, 33, 62, 120, 222, 37, 189, 134, 108, 154, 61, 155, 6, 24, 62, 64, 215, 250, 59, 152, 237, 72, 189, 53, 31, 218, 189, 220, 118, 5, 189, 119, 156, 111, 59, 51, 252, 52, 190, 170, 181, 121, 189, 249, 37, 177, 61, 232, 172, 104, 61, 148, 9, 107, 189, 0, 0, 186, 55, 245, 171, 36, 62, 184, 50, 102, 61, 216, 233, 233, 61, 40, 252, 15, 189, 56, 244, 184, 188, 23, 198, 38, 62, 152, 41, 32, 62, 115, 166, 174, 189, 8, 221, 111, 189, 191, 178, 243, 59, 0, 108, 239, 59, 87, 48, 78, 189, 63, 161, 130, 189, 205, 29, 44, 190, 174, 77, 190, 61, 64, 56, 137, 61, 179, 78, 112, 187, 215, 214, 33, 189, 195, 167, 103, 189, 112, 104, 153, 188, 64, 34, 68, 60, 189, 76, 54, 62, 144, 20, 45, 60, 166, 228, 183, 61, 24, 68, 141, 60, 48, 1, 169, 189, 99, 15, 150, 189, 96, 83, 235, 189, 10, 213, 163, 60, 86, 67, 196, 189, 8, 249, 159, 188, 251, 152, 58, 61, 248, 19, 246, 188, 184, 202, 171, 61, 69, 81, 164, 189, 39, 147, 3, 190, 116, 73, 130, 60, 66, 124, 119, 61, 9, 182, 79, 61, 32, 67, 27, 62, 96, 63, 10, 190, 31, 10, 58, 62, 244, 191, 75, 61, 0, 33, 167, 60, 136, 105, 249, 60, 221, 255, 36, 62, 197, 156, 4, 62, 41, 69, 228, 189, 170, 70, 238, 189, 127, 219, 37, 190, 115, 165, 30, 62, 171, 184, 29, 62, 133, 7, 14, 62, 229, 91, 159, 61, 104, 211, 17, 190, 212, 28, 201, 189, 208, 66, 181, 188, 208, 169, 251, 188, 70, 212, 40, 190, 57, 38, 228, 189, 104, 76, 132, 61, 242, 4, 1, 190, 9, 249, 164, 189, 150, 240, 8, 190, 84, 202, 137, 61, 87, 72, 46, 62, 219, 247, 166, 61, 180, 214, 27, 61, 97, 32, 24, 62, 25, 27, 129, 189, 146, 139, 25, 62, 106, 195, 166, 61, 10, 63, 161, 61, 99, 89, 201, 189, 154, 125, 3, 190, 4, 83, 36, 62, 92, 146, 3, 62, 210, 61, 2, 190, 48, 143, 45, 61, 250, 128, 37, 190, 51, 23, 199, 61, 108, 102, 174, 188, 187, 157, 84, 189, 162, 207, 47, 190, 14, 149, 178, 60, 93, 194, 187, 61, 182, 81, 215, 189, 0, 253, 108, 59, 179, 58, 13, 62, 30, 87, 196, 189, 74, 138, 11, 190, 133, 21, 19, 62, 152, 121, 72, 61, 218, 9, 191, 61, 189, 215, 40, 62, 184, 61, 7, 61, 213, 189, 229, 189, 178, 77, 210, 189, 92, 34, 115, 61, 94, 107, 195, 61, 118, 244, 185, 61, 193, 227, 38, 62, 32, 44, 154, 60, 70, 55, 37, 190, 100, 167, 90, 61, 25, 125, 222, 189, 171, 204, 44, 62, 221, 61, 6, 190, 16, 209, 25, 189, 72, 177, 201, 188, 187, 243, 58, 62, 186, 233, 163, 61, 65, 245, 165, 61, 114, 57, 150, 61, 180, 113, 232, 61, 57, 92, 32, 62, 105, 98, 207, 189, 33, 172, 161, 188, 93, 159, 36, 190, 193, 201, 175, 189, 216, 225, 42, 190, 177, 214, 30, 62, 162, 48, 144, 61, 93, 134, 48, 190, 137, 15, 227, 189, 32, 70, 190, 59, 44, 70, 246, 189, 210, 222, 232, 61, 40, 136, 42, 189, 107, 94, 33, 62, 90, 252, 164, 61, 113, 127, 205, 189, 36, 91, 72, 189, 50, 5, 19, 190, 152, 242, 32, 190, 45, 225, 32, 62, 233, 156, 19, 62, 186, 106, 32, 190, 28, 84, 141, 61, 25, 159, 7, 190, 0, 83, 219, 186, 20, 249, 27, 189, 16, 73, 171, 189, 108, 19, 13, 190, 40, 165, 119, 61, 24, 74, 115, 189, 171, 229, 50, 62, 50, 32, 40, 190, 120, 77, 241, 189, 88, 204, 200, 189, 154, 60, 178, 61, 239, 84, 21, 190, 36, 214, 70, 61, 216, 97, 249, 60, 241, 197, 43, 190, 212, 174, 39, 190, 15, 0, 44, 62, 8, 198, 20, 190, 34, 1, 214, 61, 52, 126, 21, 61, 120, 68, 145, 189, 183, 246, 42, 62, 34, 57, 2, 190, 248, 10, 146, 61, 221, 249, 17, 62, 200, 99, 18, 189, 32, 213, 15, 189, 136, 210, 227, 60, 96, 122, 180, 187, 33, 32, 5, 62, 176, 248, 234, 188, 186, 48, 38, 190, 100, 123, 74, 61, 162, 36, 214, 61, 124, 11, 13, 61, 146, 37, 181, 61, 38, 142, 9, 190, 128, 219, 107, 188, 146, 105, 25, 190, 60, 102, 59, 189, 74, 155, 205, 61, 162, 111, 219, 61, 56, 198, 6, 61, 64, 94, 49, 189, 239, 29, 0, 190, 200, 59, 34, 189, 49, 193, 135, 189, 132, 54, 65, 61, 128, 119, 52, 188, 0, 44, 50, 187, 20, 230, 124, 61, 175, 174, 146, 189, 108, 131, 158, 189, 32, 21, 12, 188, 232, 151, 166, 188, 180, 233, 98, 61, 32, 195, 228, 60, 170, 26, 175, 61, 95, 26, 7, 190, 60, 45, 91, 189, 208, 151, 61, 61, 224, 196, 13, 61, 214, 97, 242, 61, 126, 102, 98, 189, 44, 189, 57, 189, 225, 18, 14, 62, 237, 171, 32, 62, 6, 166, 197, 61, 214, 252, 147, 61, 62, 11, 241, 189, 195, 171, 210, 189, 10, 115, 234, 61, 44, 77, 175, 189, 127, 124, 5, 62, 88, 145, 183, 60, 25, 133, 26, 62, 5, 113, 178, 189, 128, 128, 118, 188, 249, 185, 10, 190, 144, 255, 34, 190, 36, 231, 197, 189, 176, 68, 137, 189, 33, 8, 219, 189, 150, 41, 253, 189, 90, 64, 85, 189, 238, 172, 241, 61, 32, 67, 29, 60, 42, 209, 217, 61, 172, 227, 36, 61, 114, 134, 209, 61, 0, 206, 53, 58, 46, 23, 30, 190, 52, 2, 178, 189, 201, 206, 50, 62, 136, 112, 48, 190, 174, 240, 153, 61, 6, 3, 249, 61, 162, 204, 8, 190, 103, 82, 235, 189, 47, 64, 10, 62, 234, 136, 227, 189, 150, 155, 189, 61, 164, 66, 131, 189, 224, 222, 50, 190, 76, 56, 110, 61, 24, 18, 24, 190, 152, 0, 36, 189, 76, 233, 48, 61, 175, 112, 158, 189, 238, 102, 201, 61, 72, 186, 234, 188, 36, 164, 142, 61, 176, 186, 135, 60, 168, 150, 74, 61, 151, 13, 19, 190, 225, 226, 146, 189, 112, 227, 125, 61, 31, 234, 33, 62, 224, 90, 33, 61, 224, 96, 206, 189, 42, 156, 107, 189, 152, 21, 154, 188, 69, 65, 44, 62, 8, 150, 23, 190, 24, 222, 185, 60, 188, 173, 90, 61, 235, 202, 189, 189, 35, 188, 214, 189, 224, 84, 140, 187, 31, 166, 249, 189, 252, 153, 20, 189, 105, 124, 52, 62, 4, 174, 31, 61, 128, 201, 174, 186, 216, 218, 146, 60, 110, 108, 177, 61, 36, 230, 81, 61, 8, 205, 93, 61, 127, 94, 255, 189, 184, 240, 21, 189, 116, 157, 0, 189, 20, 167, 36, 190, 46, 203, 248, 61, 240, 205, 3, 189, 182, 12, 239, 61, 210, 250, 144, 61, 140, 118, 112, 189, 96, 228, 146, 188, 48, 155, 125, 189, 177, 40, 51, 190, 16, 150, 8, 188, 0, 241, 121, 186, 96, 192, 45, 60, 64, 14, 95, 60, 190, 252, 162, 61, 119, 194, 43, 62, 24, 174, 93, 189, 22, 60, 255, 61, 0, 29, 180, 186, 82, 69, 205, 61, 96, 164, 145, 59, 136, 135, 76, 189, 83, 43, 4, 62, 107, 248, 0, 62, 180, 191, 2, 190, 161, 99, 182, 189, 52, 85, 55, 61, 224, 90, 41, 61, 20, 228, 71, 61, 74, 181, 31, 190, 44, 69, 4, 61, 126, 182, 33, 190, 100, 173, 211, 189, 30, 70, 31, 190, 161, 14, 13, 190, 204, 253, 31, 61, 6, 233, 28, 190, 0, 244, 244, 188, 80, 230, 143, 188, 90, 98, 13, 190, 38, 194, 198, 61, 84, 226, 109, 61, 234, 9, 208, 61, 77, 204, 11, 62, 143, 28, 38, 62, 144, 167, 9, 60, 78, 118, 5, 190, 240, 186, 204, 188, 16, 86, 7, 61, 240, 55, 211, 188, 172, 18, 83, 189, 194, 33, 144, 61, 144, 130, 126, 60, 15, 181, 20, 62, 175, 28, 38, 190, 222, 185, 188, 189, 20, 28, 80, 189, 122, 150, 31, 190, 134, 84, 151, 61, 69, 55, 37, 190, 3, 32, 10, 62, 217, 159, 15, 62, 32, 115, 20, 60, 58, 73, 164, 61, 36, 159, 211, 189, 222, 74, 243, 61, 162, 123, 190, 61, 91, 146, 52, 190, 60, 132, 31, 190, 125, 217, 24, 62, 14, 235, 7, 190, 166, 61, 190, 61, 96, 24, 18, 61, 178, 140, 201, 61, 41, 26, 11, 62, 204, 163, 36, 190, 100, 172, 200, 189, 110, 171, 139, 189, 185, 177, 3, 190, 90, 201, 17, 190, 112, 195, 137, 61, 21, 22, 167, 189, 68, 243, 49, 189, 231, 190, 4, 62, 177, 157, 43, 190, 200, 229, 101, 189, 72, 43, 182, 189, 21, 49, 243, 189, 20, 249, 77, 61, 194, 60, 198, 61, 248, 106, 209, 188, 194, 157, 221, 61, 93, 179, 210, 189, 56, 118, 208, 188, 126, 73, 169, 61, 203, 57, 200, 189, 32, 23, 255, 189, 189, 198, 18, 62, 72, 79, 213, 188, 213, 6, 41, 62, 104, 193, 225, 189, 45, 104, 21, 62, 231, 116, 17, 62, 152, 24, 222, 60, 112, 7, 54, 189, 194, 181, 150, 61, 43, 221, 36, 62, 126, 102, 197, 61, 224, 132, 196, 59, 112, 138, 26, 188, 146, 168, 170, 189, 217, 87, 30, 62, 4, 190, 180, 189, 40, 204, 198, 60, 202, 109, 249, 61, 126, 97, 176, 61, 84, 85, 110, 61, 216, 207, 218, 188, 120, 137, 174, 60, 10, 215, 254, 61, 225, 170, 231, 189, 56, 60, 55, 189, 33, 194, 4, 62, 12, 105, 79, 189, 25, 161, 225, 189, 53, 142, 21, 190, 216, 61, 46, 190, 190, 76, 139, 61, 138, 99, 38, 190, 175, 133, 135, 189, 22, 17, 102, 189, 66, 141, 200, 61, 192, 59, 32, 189, 87, 52, 136, 189, 248, 91, 248, 189, 42, 230, 13, 190, 233, 223, 206, 189, 82, 16, 174, 189, 88, 7, 85, 61, 50, 188, 221, 61, 232, 254, 172, 188, 64, 106, 43, 189, 226, 104, 188, 61, 143, 239, 172, 189, 128, 99, 49, 189, 61, 27, 157, 189, 138, 176, 31, 190, 144, 67, 26, 189, 33, 227, 14, 190, 226, 183, 174, 189, 21, 178, 25, 190, 112, 175, 17, 60, 5, 4, 160, 189, 106, 52, 167, 61, 78, 251, 245, 189, 150, 35, 129, 61, 176, 60, 61, 61, 16, 255, 74, 188, 176, 248, 56, 189, 108, 24, 239, 189, 222, 135, 96, 189, 139, 66, 51, 62, 121, 121, 25, 62, 136, 77, 239, 60, 184, 166, 65, 61, 37, 54, 14, 190, 142, 146, 119, 189, 32, 90, 13, 190, 50, 204, 241, 61, 198, 113, 148, 189, 148, 174, 54, 61, 0, 236, 158, 185, 224, 87, 38, 189, 240, 71, 76, 189, 149, 222, 32, 62, 2, 110, 32, 190, 113, 162, 138, 189, 179, 55, 0, 62, 200, 46, 203, 60, 112, 236, 82, 60, 158, 140, 250, 189, 224, 142, 229, 187, 55, 108, 26, 62, 176, 44, 146, 61, 182, 193, 170, 61, 169, 160, 14, 62, 243, 148, 21, 62, 48, 220, 106, 189, 182, 28, 246, 61, 102, 127, 216, 61, 229, 54, 16, 190, 244, 169, 33, 190, 61, 177, 1, 62, 177, 7, 15, 190, 96, 156, 74, 188, 210, 69, 16, 190, 194, 255, 231, 61, 21, 175, 28, 62, 200, 26, 37, 61, 241, 17, 240, 189, 8, 162, 20, 189, 132, 34, 124, 189, 48, 243, 113, 60, 142, 7, 194, 61, 136, 17, 94, 189, 91, 88, 19, 62, 46, 7, 28, 190, 237, 96, 26, 190, 235, 71, 216, 189, 214, 36, 236, 189, 188, 20, 243, 189, 82, 111, 20, 190, 136, 189, 2, 189, 123, 174, 206, 189, 42, 157, 196, 189, 160, 102, 35, 189, 254, 61, 133, 189, 193, 164, 160, 189, 58, 5, 109, 189, 8, 134, 73, 189, 162, 247, 166, 189, 201, 177, 8, 62, 46, 223, 248, 61, 32, 248, 36, 189, 192, 155, 80, 61, 200, 31, 134, 188, 225, 33, 14, 62, 206, 196, 157, 61, 247, 116, 46, 190, 8, 201, 218, 60, 142, 141, 228, 61, 11, 120, 43, 62, 119, 171, 170, 189, 196, 2, 102, 61, 116, 125, 158, 189, 16, 135, 188, 189, 168, 35, 63, 189, 122, 203, 254, 61, 246, 217, 232, 189, 192, 189, 185, 59, 112, 92, 68, 189, 64, 172, 107, 189, 44, 116, 20, 190, 76, 245, 17, 189, 4, 199, 51, 189, 48, 184, 28, 190, 62, 42, 178, 189, 148, 150, 221, 189, 224, 172, 55, 189, 185, 48, 38, 62, 168, 44, 242, 60, 126, 130, 28, 190, 97, 7, 42, 62, 250, 30, 223, 61, 63, 42, 34, 62, 127, 220, 11, 62, 76, 247, 92, 61, 44, 45, 69, 189, 44, 208, 31, 190, 236, 152, 13, 190, 136, 106, 38, 190, 45, 54, 186, 189, 251, 6, 38, 62, 178, 65, 143, 189, 209, 132, 233, 189, 32, 36, 23, 189, 224, 223, 220, 60, 6, 224, 235, 61, 0, 68, 73, 189, 163, 15, 48, 190, 100, 5, 84, 189, 171, 57, 3, 62, 54, 47, 183, 61, 76, 138, 48, 190, 16, 244, 216, 60, 249, 75, 12, 62, 198, 207, 224, 61, 250, 126, 12, 190, 30, 115, 211, 61, 104, 159, 121, 61, 188, 32, 200, 189, 168, 127, 196, 188, 70, 250, 167, 61, 5, 160, 36, 62, 185, 228, 50, 62, 212, 15, 35, 190, 175, 147, 255, 189, 128, 109, 156, 188, 212, 33, 28, 189, 100, 199, 65, 61, 48, 51, 43, 188, 112, 141, 14, 188, 16, 230, 69, 60, 62, 130, 184, 61, 16, 88, 65, 189, 166, 241, 249, 61, 173, 216, 50, 190, 186, 156, 254, 61, 167, 116, 147, 189, 13, 228, 45, 190, 226, 49, 204, 61, 32, 170, 143, 189, 2, 180, 240, 61, 130, 4, 223, 61, 137, 33, 174, 189, 245, 143, 8, 62, 161, 61, 30, 190, 194, 220, 183, 61, 251, 11, 142, 189, 199, 183, 8, 62, 48, 108, 168, 188, 124, 113, 105, 61, 93, 219, 31, 190, 80, 73, 47, 189, 168, 118, 134, 60, 91, 59, 42, 190, 168, 251, 167, 60, 169, 123, 4, 62, 105, 98, 15, 190, 162, 214, 218, 189, 48, 28, 11, 189, 254, 168, 203, 61, 10, 205, 135, 61, 120, 68, 145, 189, 20, 28, 83, 61, 218, 137, 230, 61, 82, 154, 157, 189, 118, 237, 10, 190, 237, 78, 39, 190, 207, 250, 52, 62, 248, 88, 56, 189, 216, 105, 111, 61, 167, 97, 44, 62, 252, 247, 129, 61, 157, 200, 19, 62, 167, 48, 144, 189, 145, 83, 224, 189, 222, 148, 240, 61, 32, 172, 18, 189, 133, 224, 38, 190, 4, 69, 0, 189, 214, 5, 160, 61, 32, 69, 111, 61, 10, 73, 47, 190, 210, 47, 90, 189, 128, 171, 129, 59, 0, 7, 23, 189, 128, 70, 211, 188, 0, 168, 164, 187, 142, 236, 180, 61, 151, 195, 13, 62, 88, 143, 153, 188, 77, 88, 27, 62, 23, 231, 167, 189, 14, 200, 201, 61, 248, 218, 142, 60, 228, 171, 216, 187, 156, 158, 9, 190, 21, 200, 14, 61, 161, 24, 21, 190, 151, 51, 230, 61, 24, 212, 48, 189, 245, 184, 25, 62, 104, 199, 9, 188, 41, 8, 16, 190, 160, 151, 110, 61, 76, 253, 233, 61, 126, 245, 84, 189, 133, 177, 6, 62, 54, 196, 168, 61, 26, 74, 180, 61, 52, 53, 26, 189, 190, 72, 155, 61, 175, 198, 19, 60, 82, 143, 250, 60, 254, 101, 144, 61, 0, 28, 209, 60, 246, 165, 238, 61, 2, 78, 75, 60, 20, 127, 59, 61, 36, 240, 128, 189, 100, 4, 226, 61, 58, 174, 167, 61, 110, 168, 181, 61, 210, 190, 212, 189, 32, 75, 176, 187, 186, 209, 138, 189, 80, 129, 130, 189, 111, 166, 1, 190, 85, 142, 212, 58, 122, 11, 178, 58, 83, 209, 32, 190, 170, 117, 202, 61, 54, 143, 207, 61, 211, 233, 5, 62, 248, 45, 93, 189, 253, 46, 160, 189, 52, 240, 77, 61, 121, 92, 212, 189, 35, 67, 199, 189, 227, 110, 43, 61, 74, 108, 103, 189, 171, 103, 13, 190, 119, 238, 39, 62, 162, 33, 44, 190, 238, 236, 238, 61, 32, 139, 3, 62, 243, 54, 38, 62, 201, 218, 37, 190, 8, 154, 128, 189, 210, 102, 123, 189, 172, 225, 41, 189, 14, 96, 11, 190, 90, 162, 157, 61, 252, 216, 136, 189, 165, 221, 39, 62, 63, 246, 26, 190, 90, 149, 7, 190, 179, 143, 194, 61, 211, 111, 136, 189, 77, 106, 40, 190, 100, 108, 12, 190, 52, 201, 13, 190, 144, 238, 243, 189, 196, 50, 167, 189, 42, 156, 230, 61, 104, 216, 185, 61, 18, 222, 148, 61, 192, 77, 47, 188, 30, 195, 251, 61, 111, 228, 214, 189, 148, 60, 115, 61, 121, 169, 213, 189, 157, 19, 6, 62, 109, 249, 173, 189, 126, 122, 138, 189, 56, 216, 17, 62, 244, 127, 234, 61, 176, 172, 80, 188, 155, 192, 154, 189, 152, 139, 227, 60, 37, 239, 135, 188, 72, 255, 118, 61, 84, 69, 141, 61, 112, 162, 2, 61, 100, 155, 111, 61, 157, 112, 230, 189, 114, 225, 250, 189, 144, 192, 46, 189, 51, 226, 50, 190, 174, 124, 41, 62, 13, 213, 136, 187, 199, 244, 18, 62, 85, 13, 14, 62, 153, 8, 185, 189, 181, 105, 166, 189, 16, 60, 225, 60, 205, 112, 243, 189, 3, 100, 26, 62, 252, 113, 139, 189, 110, 222, 130, 189, 87, 230, 189, 189, 226, 109, 183, 61, 220, 159, 79, 189, 63, 181, 85, 61, 70, 240, 237, 61, 212, 13, 183, 189, 18, 114, 90, 189, 152, 234, 1, 188, 168, 186, 156, 60, 70, 149, 30, 62, 20, 150, 19, 189, 91, 250, 180, 61, 52, 113, 248, 189, 160, 34, 41, 59, 232, 160, 175, 189, 59, 197, 62, 187, 186, 158, 38, 62, 0, 185, 179, 187, 64, 109, 143, 61, 140, 103, 206, 189, 86, 15, 169, 61, 240, 182, 133, 188, 0, 183, 31, 59, 179, 50, 137, 189, 47, 117, 235, 189, 184, 19, 43, 190, 48, 241, 188, 60, 146, 54, 246, 189, 14, 141, 243, 61, 191, 58, 51, 62, 86, 61, 105, 189, 226, 220, 198, 61, 241, 46, 18, 190, 128, 161, 235, 59, 8, 71, 141, 189, 128, 221, 235, 186, 93, 113, 31, 62, 228, 173, 39, 189, 84, 141, 203, 189, 242, 211, 234, 61, 252, 81, 43, 189, 76, 197, 25, 61, 236, 54, 196, 189, 103, 220, 188, 189, 28, 98, 11, 189, 177, 184, 43, 62, 96, 66, 37, 189, 118, 150, 164, 189, 184, 54, 145, 60, 166, 36, 30, 190, 27, 208, 49, 62, 229, 77, 189, 189, 150, 250, 14, 190, 117, 102, 216, 189, 8, 88, 133, 60, 0, 126, 254, 188, 165, 143, 17, 62, 114, 107, 106, 189, 24, 12, 230, 60, 193, 5, 171, 189, 248, 221, 142, 61, 108, 17, 77, 189, 120, 196, 14, 190, 192, 168, 62, 60, 136, 226, 100, 189, 107, 243, 32, 62, 190, 81, 226, 61, 208, 91, 54, 189, 64, 150, 0, 190, 56, 203, 88, 61, 200, 40, 229, 189, 219, 113, 42, 62, 117, 237, 36, 190, 86, 131, 174, 61, 96, 185, 4, 190, 80, 213, 203, 188, 126, 203, 176, 61, 211, 142, 4, 62, 250, 117, 164, 189, 225, 207, 7, 62, 54, 93, 6, 190, 20, 39, 64, 189, 16, 17, 14, 190, 24, 213, 42, 190, 184, 30, 23, 190, 54, 89, 238, 61, 38, 200, 244, 61, 168, 116, 133, 61, 82, 148, 171, 61, 39, 241, 18, 190, 251, 18, 19, 62, 205, 208, 176, 189, 0, 131, 163, 59, 176, 107, 222, 188, 112, 78, 114, 188, 102, 220, 213, 61, 107, 236, 206, 189, 247, 42, 188, 189, 238, 116, 238, 61, 226, 241, 162, 61, 6, 194, 13, 190, 192, 50, 252, 188, 144, 241, 131, 189, 160, 254, 189, 189, 110, 218, 223, 189, 218, 11, 206, 61, 239, 160, 143, 189, 160, 228, 28, 190, 0, 160, 34, 188, 252, 69, 218, 189, 246, 74, 255, 61, 172, 175, 15, 190, 87, 135, 27, 62, 94, 16, 204, 61, 144, 94, 191, 60, 199, 253, 254, 189, 163, 48, 30, 62, 179, 236, 48, 62, 236, 70, 13, 61, 104, 63, 245, 188, 10, 120, 218, 61, 48, 120, 34, 188, 68, 147, 114, 189, 118, 132, 15, 190, 105, 114, 46, 190, 152, 208, 48, 189, 196, 144, 255, 189, 60, 104, 189, 189, 16, 104, 251, 189, 207, 200, 5, 62, 108, 25, 35, 189, 14, 15, 20, 190, 208, 12, 242, 188, 93, 116, 34, 190, 206, 215, 50, 190, 252, 239, 35, 61, 24, 188, 48, 189, 68, 62, 6, 61, 25, 149, 22, 62, 141, 83, 12, 62, 202, 46, 192, 189, 230, 147, 248, 189, 2, 197, 137, 61, 240, 4, 85, 188, 199, 78, 10, 62, 148, 87, 115, 189, 118, 159, 167, 189, 23, 194, 36, 189, 66, 94, 1, 190, 100, 8, 16, 190, 236, 224, 16, 62, 79, 15, 136, 61, 40, 115, 165, 188, 8, 200, 161, 189, 128, 246, 77, 188, 18, 8, 37, 62, 232, 128, 134, 188, 213, 238, 139, 189, 227, 135, 28, 62, 32, 93, 211, 60, 55, 156, 26, 62, 34, 82, 31, 190, 248, 244, 11, 190, 53, 215, 219, 189, 75, 215, 149, 189, 147, 49, 32, 190, 34, 218, 21, 62, 148, 99, 171, 189, 202, 30, 15, 61, 246, 167, 177, 61, 105, 155, 44, 62, 207, 128, 232, 189, 159, 66, 73, 61, 125, 154, 195, 61, 202, 228, 3, 190, 236, 2, 48, 190, 53, 246, 230, 187, 18, 126, 209, 189, 75, 123, 19, 190, 234, 101, 158, 61, 24, 217, 145, 188, 32, 26, 155, 187, 107, 121, 18, 62, 109, 65, 119, 61, 43, 221, 187, 189, 77, 5, 47, 62, 201, 209, 213, 61, 113, 54, 22, 62, 99, 160, 155, 189, 96, 156, 46, 62, 118, 120, 197, 61, 120, 99, 196, 60, 106, 138, 132, 189, 137, 29, 22, 189, 198, 163, 174, 189, 131, 54, 80, 61, 229, 253, 203, 61, 67, 45, 39, 190, 46, 76, 220, 61, 129, 20, 139, 189, 66, 50, 252, 61, 9, 1, 13, 62, 243, 173, 36, 190, 9, 86, 228, 61, 230, 1, 173, 61, 99, 151, 5, 62, 212, 168, 243, 189, 132, 128, 116, 61, 117, 64, 0, 189, 15, 223, 24, 62, 20, 163, 192, 188, 88, 150, 243, 188, 152, 99, 62, 61, 66, 77, 63, 61, 108, 244, 94, 189, 226, 191, 254, 189, 118, 82, 144, 61, 60, 5, 59, 61, 242, 60, 223, 61, 150, 53, 235, 189, 197, 184, 6, 62, 39, 83, 186, 61, 82, 243, 45, 190, 108, 10, 100, 61, 176, 224, 59, 188, 139, 142, 35, 190, 22, 81, 17, 190, 86, 149, 0, 190, 56, 116, 2, 190, 196, 216, 42, 190, 168, 74, 144, 60, 21, 165, 42, 190, 40, 42, 57, 61, 46, 236, 133, 61, 48, 112, 33, 61, 66, 252, 192, 189, 236, 174, 153, 61, 162, 74, 18, 190, 142, 7, 211, 61, 160, 42, 186, 61, 223, 170, 54, 188, 89, 58, 179, 189, 40, 246, 191, 188, 155, 228, 43, 62, 26, 60, 144, 61, 237, 230, 25, 62, 71, 9, 200, 189, 217, 98, 142, 189, 120, 225, 71, 61, 168, 235, 43, 189, 116, 18, 140, 60, 135, 49, 9, 62, 28, 244, 34, 62, 140, 109, 16, 61, 73, 76, 33, 62, 56, 95, 62, 189, 128, 179, 0, 189, 2, 238, 198, 189, 3, 127, 109, 61, 98, 164, 189, 189, 52, 150, 39, 189, 205, 120, 35, 60, 147, 80, 14, 62, 255, 209, 77, 61, 0, 199, 79, 189, 8, 184, 57, 62, 123, 195, 21, 62, 99, 18, 201, 189, 176, 124, 33, 189, 135, 173, 46, 62, 197, 155, 219, 189, 36, 88, 19, 190, 69, 213, 208, 61, 176, 220, 165, 60, 64, 25, 60, 60, 43, 15, 172, 61, 208, 93, 250, 61, 126, 197, 201, 61, 148, 42, 25, 62, 1, 16, 70, 60, 154, 167, 236, 61, 108, 75, 8, 62, 50, 252, 227, 61, 41, 26, 152, 189, 0, 119, 235, 60, 0, 178, 204, 188, 91, 41, 205, 61, 212, 208, 12, 61, 228, 222, 135, 189, 129, 179, 30, 190, 224, 94, 3, 60, 28, 209, 22, 190, 120, 159, 232, 188, 11, 15, 1, 62, 226, 64, 227, 61, 208, 244, 143, 189, 254, 83, 143, 61, 236, 51, 130, 60, 0, 224, 149, 55, 199, 157, 37, 189, 152, 164, 180, 61, 14, 11, 181, 61, 202, 0, 46, 190, 100, 238, 27, 189, 250, 38, 177, 189, 0, 167, 46, 190, 155, 115, 18, 62, 120, 43, 166, 60, 224, 55, 53, 60, 66, 95, 16, 190, 208, 77, 71, 189, 226, 99, 30, 62, 253, 88, 19, 189, 157, 29, 193, 188, 92, 126, 103, 189, 84, 154, 90, 61, 9, 43, 245, 61, 127, 206, 137, 61, 208, 24, 208, 60, 107, 59, 9, 61, 52, 140, 15, 190, 100, 176, 252, 61, 43, 221, 107, 189, 209, 58, 33, 190, 139, 208, 42, 189, 44, 202, 78, 189, 81, 106, 171, 189, 114, 159, 118, 189, 248, 111, 169, 188, 0, 38, 250, 187, 88, 105, 182, 188, 4, 131, 156, 60, 73, 137, 131, 189, 224, 190, 20, 189, 248, 122, 67, 189, 106, 233, 172, 189, 114, 76, 56, 62, 222, 81, 205, 61, 118, 236, 25, 190, 112, 22, 53, 60, 33, 178, 29, 62, 77, 55, 211, 61, 109, 160, 139, 189, 56, 128, 85, 189, 124, 23, 9, 189, 106, 200, 27, 190, 74, 102, 155, 61, 226, 157, 139, 61, 126, 155, 16, 190, 129, 97, 166, 61, 50, 177, 240, 61, 39, 180, 9, 62, 235, 28, 153, 189, 6, 178, 31, 62, 240, 96, 160, 189, 165, 173, 205, 189, 76, 119, 14, 190, 180, 255, 87, 188, 26, 105, 178, 61, 10, 248, 178, 61, 43, 100, 174, 189, 254, 186, 227, 61, 96, 118, 193, 188, 235, 58, 191, 60, 98, 186, 42, 62, 252, 79, 245, 189, 36, 63, 0, 189, 84, 248, 12, 61, 53, 50, 26, 62, 111, 63, 33, 190, 0, 198, 216, 185, 219, 64, 19, 190, 4, 144, 23, 61, 169, 62, 21, 61, 148, 252, 67, 61, 58, 68, 178, 61, 225, 66, 23, 190, 108, 215, 49, 190, 91, 124, 150, 59, 54, 113, 23, 62, 43, 57, 30, 190, 240, 113, 42, 60, 91, 113, 152, 189, 22, 225, 201, 189, 143, 200, 152, 61, 12, 108, 21, 190, 61, 83, 206, 189, 94, 92, 25, 62, 34, 114, 15, 190, 143, 84, 170, 60, 200, 30, 131, 61, 153, 162, 15, 61, 124, 200, 28, 61, 248, 162, 172, 59, 88, 240, 242, 188, 115, 10, 227, 61, 110, 197, 199, 189, 111, 55, 10, 62, 157, 198, 17, 62, 37, 253, 31, 62, 16, 218, 82, 59, 2, 118, 179, 189, 44, 50, 33, 189, 20, 32, 220, 188, 204, 83, 226, 189, 236, 206, 106, 61, 184, 172, 239, 61, 137, 205, 28, 190, 203, 153, 45, 62, 37, 127, 14, 62, 57, 221, 234, 189, 220, 59, 202, 188, 215, 128, 170, 189, 111, 8, 14, 62, 250, 144, 147, 189, 148, 37, 114, 189, 185, 1, 9, 62, 196, 214, 25, 190, 108, 143, 23, 190, 72, 202, 13, 189, 140, 138, 84, 61, 222, 99, 221, 61, 46, 139, 227, 189, 248, 143, 133, 188, 18, 9, 15, 190, 195, 149, 249, 61, 13, 77, 13, 62, 58, 255, 39, 62, 98, 247, 47, 190, 21, 30, 148, 61, 164, 206, 49, 190, 249, 170, 14, 62, 153, 138, 204, 189, 248, 157, 154, 188, 2, 88, 18, 190, 204, 75, 6, 189, 111, 248, 203, 189, 186, 202, 206, 61, 115, 219, 31, 62, 46, 240, 142, 188, 125, 202, 208, 61, 148, 220, 102, 189, 57, 143, 222, 60, 180, 34, 41, 61, 216, 106, 144, 61, 110, 155, 149, 60, 228, 211, 68, 61, 136, 196, 235, 61, 147, 228, 9, 190, 195, 190, 243, 61, 114, 72, 175, 189, 85, 1, 25, 188, 113, 75, 185, 61, 118, 229, 229, 61, 104, 176, 240, 188, 158, 45, 193, 61, 233, 188, 44, 62, 136, 218, 193, 189, 174, 38, 1, 190, 234, 169, 39, 62, 79, 49, 38, 62, 207, 79, 7, 189, 192, 114, 187, 59, 167, 236, 153, 189, 232, 55, 197, 61, 149, 128, 168, 61, 158, 204, 191, 187, 170, 145, 9, 190, 30, 209, 238, 61, 164, 26, 10, 189, 12, 133, 147, 61, 182, 236, 35, 190, 61, 172, 48, 62, 8, 149, 158, 189, 0, 56, 150, 60, 157, 165, 148, 189, 242, 59, 131, 189, 78, 98, 21, 61, 131, 252, 188, 189, 148, 143, 92, 61, 8, 52, 189, 60, 109, 96, 39, 62, 80, 17, 60, 61, 107, 79, 202, 189, 76, 249, 223, 189, 125, 19, 237, 189, 113, 52, 48, 190, 213, 36, 6, 189, 120, 26, 78, 60, 218, 133, 238, 189, 28, 141, 51, 190, 86, 90, 222, 61, 70, 107, 212, 189, 65, 64, 189, 61, 59, 221, 165, 189, 115, 0, 115, 61, 141, 130, 27, 62, 224, 113, 60, 189, 88, 177, 45, 189, 160, 167, 97, 188, 199, 244, 192, 189, 5, 187, 31, 189, 253, 119, 66, 60, 240, 218, 12, 188, 78, 231, 202, 61, 112, 37, 11, 61, 39, 86, 139, 61, 100, 61, 13, 190, 111, 103, 199, 61, 187, 178, 0, 62, 154, 216, 246, 61, 250, 82, 48, 190, 229, 128, 203, 61, 240, 139, 82, 188, 140, 162, 141, 189, 33, 164, 81, 61, 153, 220, 42, 62, 128, 117, 109, 188, 0, 11, 206, 187, 68, 46, 13, 189, 50, 221, 163, 61, 231, 48, 137, 189, 201, 5, 20, 190, 83, 203, 36, 190, 160, 91, 38, 60, 212, 193, 198, 61, 45, 202, 95, 189, 248, 231, 55, 190, 250, 91, 246, 61, 40, 191, 237, 188, 75, 31, 39, 62, 24, 234, 21, 189, 128, 255, 103, 60, 2, 200, 205, 189, 82, 236, 208, 189, 148, 182, 59, 61, 56, 93, 88, 189, 215, 164, 10, 62, 111, 51, 21, 62, 14, 189, 152, 61, 213, 22, 218, 189, 224, 188, 16, 61, 185, 61, 230, 189, 106, 62, 238, 189, 11, 228, 30, 62, 4, 229, 40, 190, 32, 236, 54, 188, 244, 107, 5, 189, 48, 148, 224, 188, 0, 143, 234, 189, 120, 146, 61, 61, 70, 134, 85, 189, 166, 247, 240, 61, 100, 128, 9, 189, 62, 164, 202, 61, 201, 39, 42, 62, 136, 151, 29, 61, 238, 146, 179, 61, 96, 249, 50, 61, 60, 120, 76, 189, 121, 67, 166, 189, 92, 236, 25, 189, 160, 82, 56, 60, 243, 223, 44, 62, 16, 63, 212, 60, 71, 213, 43, 190, 206, 228, 208, 61, 84, 49, 14, 190, 253, 188, 140, 189, 102, 255, 227, 61, 124, 120, 145, 61, 172, 33, 6, 189, 0, 248, 52, 189, 212, 90, 17, 61, 41, 249, 22, 62, 13, 118, 47, 190, 88, 133, 51, 190, 80, 150, 45, 190, 92, 45, 241, 189, 169, 190, 230, 189, 62, 167, 228, 61, 250, 107, 242, 61, 192, 76, 115, 189, 6, 66, 216, 61, 240, 29, 205, 60, 28, 233, 5, 190, 216, 174, 14, 189, 0, 201, 158, 60, 209, 237, 47, 62, 137, 206, 2, 62, 160, 158, 213, 59, 238, 26, 18, 190, 178, 54, 164, 61, 162, 45, 235, 61, 89, 208, 144, 189, 188, 240, 35, 61, 75, 75, 213, 189, 174, 63, 169, 189, 99, 76, 173, 189, 219, 197, 211, 189, 26, 104, 173, 61, 167, 212, 17, 190, 137, 115, 5, 62, 236, 35, 110, 61, 91, 2, 21, 62, 110, 174, 144, 189, 108, 159, 59, 61, 25, 9, 35, 62, 80, 96, 80, 60, 74, 199, 245, 189, 13, 109, 14, 62, 96, 21, 186, 59, 22, 11, 195, 189, 5, 153, 228, 189, 58, 224, 178, 61, 80, 155, 30, 188, 28, 220, 31, 61, 157, 108, 22, 190, 96, 245, 148, 60, 8, 167, 9, 190, 148, 172, 36, 190, 44, 155, 38, 61, 101, 101, 212, 189, 167, 35, 38, 62, 21, 151, 197, 189, 113, 59, 143, 189, 122, 82, 47, 190, 140, 33, 159, 189, 68, 20, 115, 189, 180, 124, 118, 189, 180, 182, 24, 189, 120, 204, 144, 188, 203, 62, 157, 189, 144, 57, 83, 189, 63, 246, 28, 62, 0, 47, 245, 58, 96, 114, 2, 188, 108, 125, 11, 190, 219, 250, 17, 62, 63, 45, 44, 62, 236, 190, 1, 61, 148, 105, 28, 190, 201, 43, 187, 189, 16, 149, 3, 189, 115, 207, 214, 189, 96, 131, 249, 59, 13, 182, 15, 62, 8, 46, 125, 61, 49, 227, 242, 189, 110, 243, 233, 61, 4, 141, 23, 190, 232, 133, 187, 60, 48, 240, 118, 61, 106, 62, 157, 61, 41, 251, 176, 189, 138, 129, 180, 189, 128, 61, 104, 61, 16, 164, 59, 188, 99, 90, 217, 189, 190, 117, 224, 189, 212, 33, 138, 189, 128, 57, 160, 59, 143, 238, 169, 61, 104, 142, 123, 61, 109, 104, 10, 62, 248, 197, 165, 61, 46, 242, 170, 61, 157, 142, 215, 189, 255, 223, 24, 190, 159, 51, 245, 186, 28, 52, 2, 190, 120, 139, 32, 61, 14, 217, 233, 61, 160, 130, 148, 61, 216, 126, 85, 61, 13, 247, 172, 189, 252, 231, 198, 61, 106, 242, 226, 61, 241, 134, 195, 61, 232, 196, 75, 189, 179, 171, 20, 62, 135, 12, 8, 61, 19, 206, 43, 190, 197, 147, 12, 62, 186, 193, 6, 186, 146, 125, 178, 61, 186, 253, 192, 61, 128, 197, 212, 59, 37, 189, 230, 189, 219, 198, 231, 189, 28, 210, 132, 61, 56, 30, 81, 61, 128, 57, 128, 186, 56, 233, 247, 60, 6, 140, 101, 189, 164, 181, 11, 62, 94, 143, 24, 190, 145, 162, 211, 61, 143, 183, 8, 62, 105, 224, 2, 190, 252, 143, 54, 61, 119, 238, 253, 61, 68, 207, 241, 189, 166, 71, 145, 60, 34, 143, 149, 60, 150, 62, 249, 61, 208, 57, 120, 189, 91, 190, 56, 62, 8, 241, 105, 186, 149, 40, 27, 62, 128, 187, 45, 59, 236, 99, 135, 189, 70, 111, 174, 61, 94, 231, 98, 189, 58, 194, 23, 190, 84, 86, 249, 61, 202, 229, 205, 61, 131, 174, 181, 61, 143, 26, 51, 62, 167, 122, 11, 62, 170, 219, 151, 61, 254, 7, 32, 61, 165, 32, 32, 190, 54, 254, 242, 61, 100, 64, 87, 189, 200, 214, 43, 189, 84, 165, 84, 61, 0, 22, 176, 59, 208, 196, 77, 60, 58, 22, 253, 61, 25, 231, 24, 62, 248, 37, 127, 189, 70, 242, 176, 61, 202, 210, 50, 62, 54, 4, 145, 61, 192, 165, 120, 60, 92, 99, 48, 61, 150, 112, 37, 62, 92, 164, 21, 190, 41, 29, 2, 190, 141, 105, 160, 61, 125, 99, 121, 189, 165, 247, 206, 61, 123, 247, 198, 188, 151, 191, 51, 62, 202, 210, 198, 61, 102, 51, 124, 189, 123, 131, 166, 188, 65, 242, 35, 189, 82, 168, 237, 61, 204, 166, 40, 61, 88, 31, 165, 61, 55, 169, 32, 61, 114, 151, 246, 189, 224, 99, 79, 189, 208, 68, 51, 60, 69, 173, 14, 190, 147, 72, 164, 61, 71, 233, 106, 61, 224, 171, 247, 188, 246, 107, 178, 61, 8, 238, 240, 189, 159, 248, 143, 189, 94, 166, 153, 61, 45, 199, 246, 60, 124, 113, 29, 189, 13, 250, 69, 61, 216, 78, 32, 61, 221, 162, 7, 62, 48, 137, 72, 60, 198, 134, 143, 61, 175, 102, 178, 61, 143, 199, 15, 62, 130, 49, 47, 62, 32, 199, 194, 188, 102, 194, 233, 61, 93, 57, 47, 190, 155, 190, 217, 61, 218, 138, 173, 61, 110, 10, 71, 61, 72, 226, 139, 60, 44, 233, 120, 60, 200, 80, 16, 190, 35, 201, 46, 61, 156, 6, 3, 62, 150, 111, 245, 61, 187, 70, 160, 189, 58, 30, 173, 189, 99, 23, 43, 62, 235, 161, 30, 62, 82, 53, 180, 61, 31, 13, 52, 62, 69, 180, 189, 189, 112, 185, 47, 190, 104, 151, 92, 189, 233, 146, 18, 62, 46, 220, 151, 189, 136, 55, 52, 61, 122, 251, 128, 61, 229, 158, 12, 190, 188, 214, 43, 190, 200, 139, 144, 61, 16, 118, 117, 61, 63, 244, 11, 62, 143, 16, 14, 62, 102, 58, 236, 189, 222, 31, 160, 61, 128, 109, 181, 186, 80, 128, 130, 60, 219, 75, 148, 189, 248, 120, 22, 190, 184, 148, 231, 60, 95, 35, 52, 190, 135, 166, 21, 62, 159, 196, 181, 189, 56, 159, 52, 189, 228, 6, 28, 190, 26, 228, 248, 61, 218, 46, 129, 61, 41, 183, 156, 189, 64, 57, 153, 60, 118, 41, 106, 189, 220, 221, 72, 61, 134, 59, 255, 61, 181, 140, 6, 190, 240, 17, 214, 60, 238, 174, 114, 189, 182, 186, 162, 189, 224, 149, 6, 190, 80, 125, 60, 188, 160, 22, 157, 187, 144, 169, 45, 188, 162, 224, 178, 189, 214, 179, 195, 61, 252, 222, 20, 189, 86, 25, 242, 61, 174, 102, 175, 61, 174, 51, 164, 61, 156, 203, 38, 61, 62, 6, 241, 61, 194, 18, 232, 189, 80, 226, 113, 189, 81, 99, 2, 190, 0, 213, 12, 190, 179, 117, 32, 62, 19, 83, 1, 62, 143, 12, 52, 62, 112, 117, 75, 189, 176, 113, 27, 188, 240, 25, 144, 188, 140, 49, 6, 190, 144, 155, 174, 60, 176, 35, 130, 189, 72, 67, 209, 60, 36, 243, 36, 61, 0, 192, 52, 188, 180, 206, 3, 190, 49, 63, 45, 62, 243, 73, 51, 62, 25, 37, 52, 62, 116, 56, 249, 189, 80, 48, 160, 60, 66, 194, 197, 61, 0, 166, 131, 58, 135, 38, 17, 190, 208, 149, 194, 60, 186, 223, 207, 61, 0, 12, 159, 60, 162, 151, 219, 61, 191, 199, 183, 189, 3, 22, 39, 62, 136, 42, 67, 61, 6, 54, 252, 61, 12, 165, 91, 61, 242, 115, 213, 61, 145, 96, 2, 190, 230, 114, 236, 61, 6, 149, 240, 189, 78, 128, 153, 61, 0, 204, 151, 186, 42, 185, 213, 61, 226, 217, 129, 189, 136, 84, 183, 189, 150, 60, 241, 61, 159, 61, 27, 62, 88, 240, 228, 189, 204, 65, 81, 189, 4, 184, 237, 189, 75, 196, 46, 190, 0, 8, 121, 59, 232, 152, 100, 61, 107, 182, 247, 189, 174, 61, 24, 190, 96, 11, 72, 189, 75, 68, 0, 62, 135, 86, 4, 62, 2, 63, 235, 61, 179, 4, 10, 190, 32, 97, 213, 189, 151, 34, 34, 62, 192, 224, 103, 60, 194, 110, 166, 61, 64, 105, 144, 59, 42, 75, 194, 61, 118, 190, 146, 61, 104, 181, 34, 189, 156, 54, 251, 189, 134, 183, 18, 190, 127, 49, 232, 189, 213, 221, 240, 189, 109, 183, 38, 62, 113, 124, 0, 62, 157, 121, 195, 189, 1, 149, 40, 190, 128, 158, 153, 187, 100, 11, 9, 190, 163, 121, 223, 188, 62, 130, 244, 189, 63, 190, 167, 61, 164, 85, 57, 190, 244, 105, 57, 189, 121, 62, 10, 61, 191, 85, 7, 190, 138, 168, 231, 188, 192, 1, 188, 60, 68, 58, 39, 62, 154, 239, 167, 61, 194, 49, 92, 189, 184, 234, 69, 189, 245, 71, 11, 62, 184, 237, 189, 188, 179, 175, 0, 189, 210, 103, 5, 189, 162, 212, 211, 61, 28, 122, 46, 190, 156, 28, 7, 189, 251, 53, 7, 190, 50, 57, 35, 190, 0, 183, 64, 60, 2, 223, 46, 62, 112, 55, 101, 61, 219, 76, 146, 189, 141, 153, 232, 189, 146, 120, 145, 61, 135, 67, 246, 60, 249, 19, 131, 189, 240, 165, 248, 188, 132, 85, 30, 190, 1, 36, 209, 189, 176, 212, 41, 61, 235, 251, 25, 62, 55, 21, 166, 189, 55, 92, 40, 61, 21, 240, 1, 190, 176, 250, 184, 188, 252, 226, 50, 190, 12, 230, 230, 189, 243, 172, 48, 189, 236, 224, 57, 61, 104, 223, 208, 60, 53, 49, 18, 62, 10, 169, 167, 189, 10, 142, 185, 61, 59, 58, 21, 190, 138, 180, 147, 189, 255, 185, 42, 62, 136, 58, 148, 188, 26, 93, 243, 61, 43, 247, 204, 189, 253, 9, 39, 190, 231, 22, 179, 189, 12, 44, 46, 190, 204, 148, 108, 189, 218, 171, 250, 61, 64, 227, 149, 60, 154, 195, 236, 61, 229, 181, 9, 60, 96, 92, 0, 190, 8, 107, 152, 61, 50, 47, 121, 189, 224, 30, 61, 60, 98, 52, 214, 61, 192, 249, 201, 59, 0, 168, 5, 60, 160, 133, 72, 188, 227, 216, 176, 189, 138, 86, 33, 190, 228, 243, 49, 61, 168, 224, 15, 61, 221, 91, 174, 189, 0, 180, 15, 187, 217, 193, 204, 189, 222, 93, 95, 189, 206, 177, 249, 61, 45, 106, 45, 62, 32, 63, 57, 61, 222, 160, 190, 188, 121, 22, 2, 190, 251, 38, 18, 62, 124, 251, 159, 61, 159, 70, 203, 189, 255, 26, 136, 189, 252, 178, 156, 189, 206, 69, 131, 61, 96, 56, 201, 188, 172, 4, 37, 59, 94, 82, 162, 61, 193, 116, 81, 61, 213, 150, 218, 61, 18, 33, 226, 61, 152, 171, 107, 61, 192, 96, 221, 188, 48, 95, 227, 188, 7, 64, 136, 60, 189, 101, 4, 61, 177, 146, 242, 189, 230, 151, 12, 190, 224, 26, 223, 188, 233, 131, 100, 188, 106, 94, 131, 61, 9, 180, 230, 189, 23, 243, 13, 190, 72, 20, 198, 60, 174, 31, 216, 61, 153, 124, 135, 61, 86, 35, 134, 61, 174, 247, 200, 59, 2, 39, 152, 60, 92, 75, 28, 190, 225, 36, 217, 61, 15, 177, 228, 189, 38, 230, 11, 190, 180, 105, 8, 61, 27, 240, 162, 61, 129, 69, 43, 62, 36, 85, 21, 62, 120, 174, 58, 189, 134, 240, 54, 61, 255, 6, 254, 61, 179, 31, 37, 190, 150, 199, 29, 61, 112, 1, 39, 60, 186, 108, 229, 61, 36, 128, 91, 189, 28, 36, 197, 189, 116, 38, 64, 61, 65, 146, 17, 62, 88, 125, 248, 188, 192, 42, 80, 189, 190, 41, 125, 189, 85, 88, 13, 190, 179, 48, 45, 62, 96, 10, 55, 188, 38, 150, 182, 61, 119, 209, 37, 190, 78, 226, 238, 61, 157, 79, 28, 190, 176, 79, 31, 190, 18, 145, 192, 61, 184, 157, 251, 188, 255, 52, 129, 189, 160, 102, 239, 60, 131, 207, 190, 189, 245, 149, 35, 190, 246, 228, 187, 61, 185, 67, 186, 189, 10, 103, 188, 61, 166, 73, 160, 189, 42, 138, 225, 61, 180, 202, 5, 61, 86, 70, 135, 61, 169, 24, 244, 189, 137, 235, 4, 190, 58, 221, 184, 61, 123, 205, 49, 62, 160, 124, 199, 59, 172, 44, 233, 189, 236, 39, 25, 190, 176, 85, 107, 188, 114, 179, 39, 190, 150, 221, 220, 61, 13, 31, 14, 190, 95, 208, 24, 190, 117, 46, 141, 189, 158, 160, 208, 61, 104, 242, 153, 60, 4, 117, 60, 189, 16, 77, 68, 189, 174, 38, 45, 190, 56, 146, 242, 188, 239, 72, 10, 62, 24, 72, 127, 61, 218, 245, 219, 189, 70, 49, 219, 189, 249, 35, 7, 190, 44, 236, 29, 189, 220, 140, 204, 189, 112, 159, 142, 189, 191, 135, 2, 62, 228, 111, 6, 190, 21, 24, 24, 190, 36, 52, 97, 61, 71, 206, 42, 62, 226, 106, 38, 190, 151, 112, 43, 62, 96, 76, 73, 60, 104, 78, 232, 60, 202, 210, 250, 61, 57, 153, 223, 189, 100, 69, 43, 190, 105, 41, 13, 62, 112, 117, 37, 60, 163, 160, 233, 189, 86, 144, 214, 61, 192, 221, 255, 189, 43, 174, 34, 190, 92, 37, 48, 190, 137, 71, 50, 62, 84, 212, 7, 190, 224, 178, 141, 59, 52, 216, 69, 61, 141, 6, 2, 62, 68, 186, 7, 190, 164, 25, 85, 189, 144, 27, 146, 61, 124, 131, 146, 61, 123, 185, 37, 62, 178, 244, 132, 61, 209, 75, 223, 189, 112, 24, 148, 61, 70, 255, 174, 61, 88, 66, 77, 189, 80, 249, 97, 60, 88, 246, 114, 61, 192, 180, 44, 188, 147, 43, 215, 189, 244, 29, 145, 189, 32, 47, 138, 188, 55, 1, 38, 190, 73, 88, 39, 190, 85, 204, 24, 62, 144, 235, 4, 60, 182, 42, 215, 189, 17, 11, 22, 62, 142, 90, 220, 61, 68, 242, 132, 189, 192, 157, 27, 59, 234, 81, 185, 61, 83, 129, 31, 62, 109, 205, 30, 62, 116, 67, 49, 189, 180, 194, 86, 189, 220, 93, 27, 190, 216, 115, 34, 190, 120, 187, 22, 190, 128, 225, 85, 59, 168, 146, 142, 188, 161, 105, 52, 62, 212, 244, 46, 190, 16, 132, 217, 189, 180, 185, 24, 190, 138, 1, 178, 61, 163, 156, 23, 190, 70, 249, 216, 61, 136, 61, 75, 61, 88, 128, 40, 61, 206, 57, 220, 61, 186, 27, 252, 61, 12, 78, 69, 189, 150, 255, 207, 61, 202, 201, 253, 189, 8, 198, 113, 189, 169, 129, 3, 62, 178, 134, 136, 189, 0, 215, 84, 188, 48, 229, 249, 189, 149, 67, 196, 189, 11, 105, 14, 190, 114, 60, 204, 61, 68, 39, 62, 61, 194, 196, 138, 189, 248, 86, 159, 188, 68, 215, 103, 61, 233, 208, 19, 62, 165, 84, 51, 62, 64, 139, 249, 59, 79, 146, 130, 189, 143, 84, 220, 189, 128, 113, 14, 189, 169, 210, 22, 190, 64, 134, 97, 189, 245, 38, 202, 189, 58, 112, 235, 61, 128, 69, 245, 186, 16, 75, 129, 188, 100, 231, 42, 61, 100, 214, 82, 61, 35, 189, 45, 62, 46, 140, 216, 61, 30, 64, 141, 61, 184, 108, 220, 188, 246, 242, 151, 61, 122, 232, 144, 61, 148, 241, 12, 61, 30, 88, 229, 61, 239, 128, 3, 190, 247, 40, 31, 62, 69, 96, 52, 190, 53, 33, 31, 62, 160, 222, 200, 187, 165, 115, 23, 62, 239, 163, 37, 190, 188, 240, 46, 189, 216, 228, 226, 60, 0, 64, 143, 186, 80, 2, 23, 190, 38, 128, 18, 190, 177, 107, 33, 62, 90, 94, 152, 61, 244, 32, 26, 61, 168, 87, 24, 190, 224, 255, 236, 60, 252, 23, 81, 61, 240, 216, 47, 61, 144, 235, 68, 188, 210, 131, 246, 189, 0, 246, 151, 58, 76, 163, 100, 189, 192, 180, 166, 59, 144, 183, 175, 60, 200, 163, 187, 60, 96, 146, 170, 59, 48, 54, 205, 189, 253, 224, 32, 62, 200, 95, 145, 189, 40, 148, 65, 61, 26, 56, 244, 61, 185, 9, 30, 62, 24, 40, 43, 189, 126, 187, 24, 190, 65, 223, 7, 62, 175, 255, 173, 189, 112, 186, 193, 189, 229, 135, 32, 62, 39, 41, 196, 189, 76, 186, 7, 190, 8, 139, 48, 189, 103, 120, 33, 190, 228, 38, 40, 61, 14, 250, 235, 61, 24, 214, 59, 61, 244, 156, 112, 189, 15, 18, 29, 190, 57, 180, 0, 62, 36, 82, 239, 189, 215, 210, 38, 190, 16, 177, 251, 188, 170, 38, 224, 189, 238, 85, 149, 61, 109, 62, 168, 189, 70, 158, 240, 61, 120, 148, 2, 189, 228, 129, 85, 61, 216, 108, 250, 189, 64, 184, 9, 189, 0, 71, 100, 188, 186, 220, 219, 189, 184, 65, 66, 61, 132, 200, 67, 189, 184, 111, 34, 189, 206, 2, 172, 61, 110, 140, 44, 190, 64, 23, 5, 188, 15, 97, 30, 190, 31, 106, 9, 62, 63, 90, 193, 189, 174, 177, 219, 189, 112, 181, 51, 188, 128, 16, 57, 189, 165, 192, 11, 62, 36, 187, 13, 190, 10, 251, 178, 189, 232, 164, 41, 190, 89, 54, 187, 189, 171, 66, 34, 190, 13, 245, 27, 62, 150, 252, 242, 61, 134, 25, 181, 189, 0, 210, 42, 61, 12, 160, 62, 61, 188, 135, 101, 189, 206, 38, 150, 61, 204, 216, 83, 189, 77, 93, 188, 189, 152, 212, 83, 189, 144, 15, 91, 188, 211, 20, 45, 190, 1, 150, 7, 190, 249, 23, 31, 62, 54, 159, 199, 61, 29, 197, 194, 61, 93, 66, 163, 189, 177, 123, 24, 62, 124, 139, 169, 61, 252, 236, 46, 61, 225, 253, 40, 190, 224, 71, 81, 188, 159, 163, 34, 189, 144, 17, 137, 188, 15, 2, 44, 190, 241, 135, 136, 189, 128, 76, 170, 60, 134, 249, 197, 189, 177, 192, 160, 61, 112, 167, 154, 188, 107, 181, 22, 189, 39, 206, 45, 190, 250, 5, 155, 61, 191, 58, 214, 187, 182, 212, 158, 61, 81, 26, 23, 62, 89, 117, 19, 190, 155, 127, 18, 190, 120, 53, 147, 61, 227, 23, 226, 61, 98, 103, 52, 190, 71, 213, 47, 190, 49, 83, 186, 189, 233, 31, 108, 189, 68, 172, 198, 189, 224, 73, 86, 60, 88, 43, 105, 189, 13, 74, 33, 62, 160, 154, 162, 189, 0, 91, 151, 189, 189, 31, 3, 62, 85, 7, 28, 62, 163, 48, 135, 61, 14, 91, 225, 187, 53, 23, 226, 189, 164, 56, 127, 189, 240, 101, 133, 59, 205, 240, 47, 190, 201, 21, 40, 62, 204, 231, 96, 189, 41, 91, 244, 61, 28, 78, 1, 62, 56, 161, 4, 189, 30, 128, 152, 61, 187, 16, 130, 189, 70, 27, 37, 190, 120, 197, 239, 188, 216, 250, 220, 188, 150, 46, 38, 190, 205, 180, 25, 62, 157, 123, 164, 189, 164, 95, 72, 189, 240, 126, 239, 189, 28, 191, 21, 190, 131, 86, 34, 62, 51, 81, 13, 62, 93, 174, 6, 62, 26, 72, 190, 187, 148, 121, 116, 61, 144, 133, 252, 60, 78, 119, 181, 60, 115, 1, 4, 190, 130, 195, 46, 190, 250, 242, 116, 189, 130, 221, 150, 189, 181, 84, 158, 189, 188, 116, 173, 189, 24, 95, 250, 189, 14, 198, 43, 190, 135, 155, 18, 62, 203, 108, 19, 62, 238, 43, 232, 61, 210, 222, 53, 61, 80, 4, 165, 188, 93, 2, 7, 62, 66, 37, 7, 58, 27, 177, 25, 62, 61, 55, 28, 62, 6, 133, 171, 61, 221, 85, 178, 188, 89, 16, 51, 62, 82, 85, 147, 61, 5, 122, 56, 190, 21, 15, 45, 190, 44, 68, 141, 189, 240, 131, 59, 189, 36, 215, 21, 190, 60, 103, 255, 189, 204, 98, 39, 189, 193, 74, 181, 189, 195, 190, 232, 189, 128, 102, 222, 59, 39, 5, 203, 61, 160, 34, 3, 190, 24, 155, 175, 60, 238, 146, 177, 61, 64, 57, 101, 61, 247, 247, 5, 61, 210, 58, 178, 61, 5, 81, 10, 62, 108, 33, 62, 189, 211, 203, 118, 189, 205, 226, 5, 62, 14, 193, 129, 189, 96, 94, 79, 60, 201, 101, 186, 60, 104, 246, 25, 62, 199, 140, 215, 189, 206, 161, 128, 189, 188, 23, 116, 61, 132, 5, 42, 60, 40, 50, 218, 188, 181, 165, 43, 62, 240, 216, 228, 188, 114, 40, 28, 62, 237, 248, 193, 189, 216, 146, 211, 59, 254, 167, 118, 188, 221, 158, 112, 61, 49, 243, 56, 190, 75, 252, 51, 190, 176, 13, 69, 188, 176, 114, 119, 61, 20, 50, 10, 190, 29, 234, 8, 62, 142, 134, 175, 61, 191, 125, 25, 190, 179, 243, 40, 62, 168, 114, 203, 188, 175, 52, 159, 189, 233, 163, 10, 62, 32, 238, 22, 61, 194, 23, 185, 61, 110, 86, 241, 61, 138, 199, 27, 190, 64, 35, 2, 187, 136, 239, 14, 61, 235, 22, 23, 62, 208, 27, 229, 189, 85, 14, 19, 62, 18, 70, 231, 61, 110, 41, 198, 189, 128, 94, 5, 60, 112, 3, 96, 60, 100, 35, 170, 189, 128, 123, 240, 59, 64, 41, 125, 61, 86, 205, 217, 61, 229, 225, 20, 190, 178, 44, 220, 189, 93, 197, 50, 190, 0, 48, 78, 186, 86, 104, 31, 190, 52, 25, 191, 189, 240, 220, 106, 60, 32, 90, 221, 60, 96, 97, 252, 59, 0, 86, 217, 187, 18, 155, 236, 61, 110, 254, 44, 190, 213, 169, 203, 189, 32, 251, 72, 189, 238, 143, 84, 189, 244, 103, 72, 61, 144, 54, 27, 190, 148, 91, 85, 61, 36, 174, 41, 61, 226, 58, 29, 190, 77, 191, 25, 62, 170, 20, 99, 189, 251, 113, 23, 190, 167, 11, 133, 189, 40, 11, 23, 189, 247, 237, 25, 62, 152, 57, 39, 190, 218, 2, 172, 189, 87, 112, 37, 62, 38, 38, 1, 190, 248, 162, 227, 189, 50, 8, 211, 61, 231, 61, 13, 62, 126, 231, 138, 189, 0, 72, 217, 57, 152, 220, 91, 189, 0, 163, 111, 61, 0, 228, 54, 60, 163, 175, 133, 189, 26, 215, 22, 190, 184, 104, 7, 189, 115, 4, 5, 62, 188, 160, 27, 189, 194, 210, 241, 61, 9, 113, 192, 189, 11, 207, 44, 62, 76, 248, 62, 61, 216, 171, 33, 61, 2, 133, 201, 189, 30, 207, 186, 61, 128, 33, 219, 58, 158, 1, 21, 190, 158, 245, 20, 190, 94, 229, 231, 61, 91, 23, 215, 189, 112, 109, 80, 61, 241, 83, 8, 62, 138, 24, 158, 189, 192, 226, 117, 187, 80, 89, 69, 189, 97, 44, 47, 62, 136, 94, 100, 61, 99, 28, 12, 62, 196, 196, 145, 189, 88, 225, 228, 188, 254, 216, 24, 190, 49, 17, 143, 189, 169, 253, 150, 189, 31, 75, 38, 62, 20, 245, 194, 189, 193, 171, 165, 189, 16, 74, 14, 190, 80, 94, 124, 189, 74, 14, 8, 190, 14, 49, 243, 61, 37, 41, 164, 189, 148, 247, 14, 61, 60, 216, 42, 190, 8, 90, 138, 61, 14, 33, 228, 189, 219, 74, 40, 190, 192, 47, 95, 59, 121, 253, 17, 62, 84, 180, 112, 61, 160, 31, 31, 189, 172, 49, 124, 61, 104, 68, 146, 60, 70, 112, 3, 190, 96, 60, 4, 188, 128, 145, 156, 58, 72, 185, 184, 188, 119, 160, 12, 62, 234, 88, 240, 61, 116, 151, 164, 189, 83, 59, 132, 189, 172, 255, 251, 189, 143, 76, 13, 62, 184, 82, 26, 189, 136, 100, 215, 60, 194, 84, 204, 61, 136, 207, 220, 188, 137, 96, 48, 62, 92, 175, 0, 189, 215, 18, 117, 189, 152, 43, 131, 61, 166, 134, 245, 189, 189, 196, 77, 60, 249, 229, 43, 62, 2, 154, 134, 61, 151, 217, 206, 189, 183, 16, 137, 189, 156, 82, 40, 190, 220, 94, 172, 189, 219, 191, 205, 60, 72, 17, 137, 60, 68, 193, 27, 190, 162, 187, 40, 62, 178, 166, 212, 61, 249, 91, 34, 62, 9, 90, 129, 189, 32, 160, 157, 59, 124, 156, 53, 190, 64, 29, 131, 59, 91, 11, 163, 188, 254, 173, 127, 189, 204, 243, 20, 189, 246, 244, 182, 189, 110, 42, 112, 188, 86, 110, 192, 189, 225, 248, 49, 62, 209, 127, 1, 190, 249, 189, 90, 60, 96, 46, 95, 188, 240, 29, 109, 60, 24, 185, 187, 188, 104, 112, 70, 189, 234, 193, 92, 189, 68, 250, 203, 189, 173, 17, 33, 190, 242, 79, 190, 61, 1, 198, 227, 59, 25, 95, 195, 61, 184, 171, 142, 61, 168, 135, 13, 62, 249, 113, 49, 188, 145, 130, 182, 189, 119, 189, 180, 61, 242, 194, 128, 189, 239, 239, 49, 190, 249, 115, 16, 187, 163, 201, 30, 62, 59, 154, 174, 61, 118, 137, 125, 189, 95, 85, 238, 189, 144, 96, 192, 188, 2, 199, 214, 61, 25, 182, 62, 61, 136, 247, 11, 61, 141, 209, 2, 190, 132, 19, 94, 61, 196, 106, 23, 189, 64, 75, 49, 190, 92, 44, 121, 61, 95, 239, 188, 61, 137, 43, 151, 61, 159, 222, 1, 62, 98, 236, 3, 190, 56, 6, 246, 189, 194, 0, 82, 189, 14, 193, 160, 61, 80, 6, 35, 60, 88, 202, 62, 189, 232, 104, 55, 189, 228, 243, 70, 189, 224, 90, 161, 188, 192, 30, 155, 188, 173, 201, 200, 61, 107, 65, 141, 189, 32, 107, 30, 190, 75, 68, 48, 62, 253, 148, 14, 189, 48, 94, 86, 188, 236, 29, 252, 189, 177, 142, 85, 61, 229, 190, 3, 61, 221, 2, 17, 190, 249, 232, 8, 190, 135, 3, 85, 60, 197, 138, 45, 62, 192, 123, 19, 189, 253, 140, 166, 59, 224, 109, 247, 189, 45, 179, 165, 61, 128, 57, 197, 189, 27, 28, 9, 190, 196, 20, 151, 60, 74, 222, 149, 61, 230, 212, 88, 189, 190, 69, 219, 61, 73, 211, 12, 62, 84, 237, 143, 61, 201, 239, 88, 189, 218, 228, 203, 61, 113, 106, 28, 190, 80, 166, 113, 188, 140, 230, 218, 187, 144, 72, 253, 189, 245, 46, 243, 189, 238, 234, 144, 189, 138, 48, 22, 190, 200, 226, 221, 188, 108, 212, 5, 62, 68, 77, 229, 189, 199, 45, 13, 62, 222, 196, 204, 189, 202, 208, 233, 61, 253, 2, 26, 62, 215, 172, 20, 62, 6, 135, 207, 60, 242, 174, 107, 189, 192, 180, 10, 62, 114, 198, 236, 61, 87, 15, 146, 61, 199, 14, 136, 189, 251, 236, 13, 62, 94, 125, 202, 188, 224, 76, 66, 188, 36, 101, 98, 61, 187, 160, 18, 62, 36, 112, 4, 61, 165, 130, 58, 61, 192, 75, 211, 189, 18, 29, 23, 190, 212, 117, 182, 61, 226, 29, 42, 189, 96, 222, 183, 187, 238, 44, 40, 190, 64, 196, 135, 188, 16, 217, 230, 61, 9, 174, 181, 189, 252, 116, 253, 188, 168, 130, 220, 188, 57, 221, 32, 62, 224, 216, 146, 188, 109, 222, 169, 189, 223, 247, 39, 62, 123, 150, 126, 61, 93, 63, 196, 189, 52, 68, 56, 61, 210, 241, 207, 61, 28, 232, 98, 61, 91, 66, 13, 190, 156, 28, 43, 62, 109, 126, 12, 62, 235, 36, 76, 61, 86, 192, 159, 189, 199, 150, 228, 189, 248, 35, 31, 190, 192, 69, 91, 59, 227, 228, 9, 62, 208, 50, 220, 188, 0, 240, 6, 186, 122, 199, 222, 61, 234, 255, 197, 61, 65, 209, 50, 190, 142, 34, 169, 61, 65, 129, 144, 189, 203, 133, 7, 190, 229, 73, 184, 61, 252, 167, 247, 61, 194, 52, 216, 61, 213, 132, 74, 61, 18, 162, 157, 189, 72, 28, 140, 61, 42, 29, 135, 61, 161, 80, 110, 189, 234, 69, 140, 61, 164, 172, 10, 190, 143, 182, 30, 62, 195, 66, 46, 62, 49, 85, 18, 62, 176, 222, 50, 190, 161, 234, 0, 190, 240, 232, 9, 188, 166, 143, 121, 61, 114, 157, 169, 61, 232, 183, 36, 190, 218, 231, 230, 189, 253, 243, 151, 61, 172, 139, 86, 61, 48, 168, 192, 189, 140, 1, 54, 188, 125, 148, 48, 189, 218, 14, 26, 61, 211, 48, 7, 62, 228, 121, 9, 61, 100, 73, 147, 60, 18, 167, 96, 189, 96, 90, 147, 187, 21, 105, 13, 62, 41, 237, 212, 189, 0, 126, 99, 60, 224, 206, 6, 189, 120, 149, 201, 189, 96, 132, 146, 189, 69, 119, 36, 190, 20, 59, 3, 61, 197, 209, 4, 62, 180, 26, 196, 189, 117, 235, 36, 190, 213, 189, 211, 189, 69, 212, 202, 189, 253, 135, 2, 189, 84, 209, 220, 189, 250, 181, 44, 62, 60, 199, 167, 61, 48, 61, 92, 60, 26, 72, 236, 61, 163, 152, 156, 61, 110, 160, 218, 60, 196, 180, 158, 61, 135, 201, 172, 189, 177, 53, 154, 189, 140, 27, 218, 189, 192, 9, 225, 59, 56, 75, 29, 61, 136, 62, 126, 61, 79, 118, 44, 190, 252, 168, 32, 190, 152, 206, 185, 61, 230, 64, 135, 61, 127, 139, 32, 62, 118, 171, 191, 61, 223, 242, 63, 189, 47, 74, 15, 61, 170, 234, 16, 190, 198, 78, 174, 61, 209, 252, 19, 62, 11, 82, 173, 189, 68, 156, 16, 60, 96, 114, 123, 188, 49, 39, 11, 190, 13, 89, 246, 60, 230, 37, 164, 61, 152, 209, 27, 189, 166, 205, 46, 190, 187, 1, 13, 62, 192, 43, 66, 61, 102, 49, 9, 62, 254, 243, 131, 61, 106, 87, 175, 61, 200, 23, 82, 189, 123, 72, 211, 187, 28, 47, 216, 189, 154, 56, 9, 61, 7, 156, 65, 189, 82, 113, 226, 189, 8, 213, 148, 188, 40, 10, 157, 189, 5, 109, 38, 62, 0, 114, 78, 189, 66, 221, 160, 189, 238, 241, 192, 61, 240, 216, 26, 61, 104, 117, 57, 61, 158, 109, 50, 190, 181, 81, 37, 62, 89, 4, 33, 190, 16, 58, 69, 60, 0, 179, 175, 59, 33, 164, 18, 62, 218, 13, 249, 61, 177, 153, 3, 62, 220, 132, 17, 189, 43, 228, 161, 189, 166, 204, 89, 189, 243, 6, 229, 189, 120, 166, 176, 188, 112, 127, 36, 61, 205, 96, 33, 190, 96, 54, 14, 190, 83, 151, 23, 62, 21, 89, 9, 190, 127, 108, 49, 62, 112, 40, 32, 189, 220, 77, 145, 189, 200, 234, 177, 188, 16, 0, 99, 61, 247, 133, 12, 62, 128, 63, 218, 188, 228, 67, 209, 189, 143, 31, 138, 189, 84, 105, 2, 190, 34, 110, 143, 189, 0, 122, 117, 188, 96, 245, 39, 60, 252, 176, 52, 61, 105, 122, 229, 189, 163, 104, 10, 62, 188, 230, 211, 189, 149, 170, 10, 62, 38, 9, 173, 61, 174, 61, 251, 61, 233, 115, 208, 189, 86, 86, 221, 61, 250, 39, 194, 61, 113, 6, 19, 190, 203, 219, 178, 189, 15, 222, 5, 62, 124, 224, 120, 189, 205, 5, 48, 62, 0, 224, 1, 186, 160, 72, 100, 60, 208, 120, 24, 190, 184, 184, 76, 189, 30, 112, 219, 61, 225, 229, 0, 62, 232, 210, 56, 189, 73, 32, 10, 62, 16, 159, 41, 188, 187, 214, 44, 62, 224, 22, 108, 60, 224, 236, 193, 59, 195, 43, 9, 62, 244, 4, 27, 189, 60, 141, 105, 189, 223, 176, 8, 62, 41, 119, 2, 62, 138, 224, 229, 189, 2, 195, 241, 61, 154, 64, 161, 61, 224, 96, 121, 61, 196, 236, 10, 190, 101, 205, 134, 189, 116, 195, 52, 189, 52, 0, 97, 61, 246, 91, 224, 61, 67, 154, 42, 62, 183, 209, 250, 189, 187, 213, 14, 62, 16, 182, 15, 189, 63, 48, 43, 62, 253, 250, 11, 62, 144, 20, 38, 190, 111, 146, 50, 62, 64, 102, 143, 188, 55, 215, 19, 190, 207, 9, 228, 189, 219, 151, 222, 189, 102, 88, 226, 61, 188, 51, 188, 189, 124, 23, 93, 61, 114, 168, 189, 61, 135, 108, 39, 62, 242, 66, 136, 61, 112, 189, 173, 189, 19, 102, 45, 190, 162, 174, 26, 190, 12, 214, 182, 189, 234, 20, 221, 189, 254, 188, 210, 61, 240, 212, 158, 60, 135, 69, 154, 189, 174, 6, 222, 189, 220, 33, 14, 189, 105, 104, 130, 189, 75, 70, 235, 189, 246, 206, 87, 189, 186, 76, 177, 61, 28, 153, 219, 189, 78, 129, 251, 61, 72, 145, 83, 189, 126, 48, 251, 61, 152, 75, 244, 189, 34, 45, 159, 61, 239, 186, 132, 189, 122, 8, 205, 61, 97, 15, 18, 62, 196, 144, 63, 189, 100, 134, 53, 61, 217, 209, 132, 189, 110, 59, 201, 61, 64, 236, 38, 60, 41, 62, 46, 62, 3, 93, 50, 62, 124, 245, 47, 189, 25, 29, 33, 62, 101, 11, 112, 61, 114, 202, 241, 61, 75, 22, 31, 190, 74, 86, 54, 62, 51, 217, 41, 190, 163, 22, 20, 62, 202, 226, 123, 189, 111, 108, 23, 62, 96, 110, 179, 188, 217, 195, 9, 189, 98, 133, 218, 189, 120, 147, 183, 188, 90, 101, 250, 189, 254, 11, 203, 61, 96, 178, 82, 61, 132, 8, 14, 62, 134, 11, 1, 62, 146, 205, 228, 61, 15, 157, 220, 60, 100, 89, 39, 61, 27, 13, 218, 61, 197, 221, 205, 60, 112, 151, 209, 188, 7, 152, 42, 60, 234, 71, 250, 189, 86, 4, 236, 189, 117, 212, 46, 62, 144, 61, 252, 189, 211, 148, 106, 189, 189, 145, 49, 62, 14, 110, 154, 61, 192, 178, 32, 59, 196, 214, 146, 61, 144, 148, 27, 190, 32, 112, 128, 60, 9, 89, 65, 189, 153, 182, 63, 61, 128, 251, 19, 62, 20, 106, 255, 189, 80, 91, 82, 189, 117, 156, 110, 61, 2, 112, 44, 62, 57, 71, 44, 62, 202, 206, 89, 189, 104, 225, 52, 189, 189, 186, 59, 61, 251, 244, 198, 61, 101, 139, 41, 189, 58, 164, 156, 61, 64, 82, 118, 59, 6, 117, 16, 190, 10, 160, 128, 189, 70, 20, 254, 61, 205, 240, 66, 61, 46, 194, 250, 61, 162, 116, 43, 188, 208, 209, 1, 60, 69, 120, 12, 62, 46, 221, 182, 61, 111, 158, 47, 62, 159, 238, 13, 61, 122, 149, 24, 62, 191, 20, 115, 61, 123, 178, 23, 190, 146, 183, 186, 61, 183, 96, 165, 189, 111, 142, 173, 189, 16, 96, 69, 188, 104, 141, 172, 60, 226, 128, 220, 61, 56, 133, 251, 60, 148, 34, 18, 190, 238, 120, 244, 61, 32, 179, 23, 62, 184, 173, 157, 60, 51, 167, 229, 189, 70, 66, 223, 61, 249, 93, 217, 61, 48, 167, 62, 60, 144, 237, 27, 60, 59, 40, 142, 189, 115, 32, 238, 189, 190, 237, 197, 61, 79, 70, 140, 189, 137, 40, 159, 60, 154, 18, 35, 190, 106, 128, 238, 61, 44, 203, 252, 189, 72, 92, 236, 189, 173, 101, 211, 189, 18, 83, 133, 189, 141, 143, 198, 189, 232, 18, 161, 189, 30, 72, 169, 61, 77, 231, 32, 62, 186, 23, 168, 61, 85, 190, 42, 62, 110, 128, 226, 189, 199, 98, 13, 62, 86, 200, 248, 61, 91, 43, 2, 62, 64, 230, 23, 188, 96, 173, 34, 190, 170, 98, 222, 189, 203, 156, 207, 187, 22, 68, 201, 189, 156, 47, 43, 62, 56, 29, 171, 189, 210, 66, 153, 61, 14, 0, 141, 61, 12, 13, 157, 61, 166, 92, 196, 61, 246, 233, 194, 189, 212, 120, 58, 62, 58, 149, 215, 61, 197, 169, 52, 62, 12, 120, 78, 61, 186, 227, 140, 188, 236, 31, 12, 61, 207, 116, 25, 62, 152, 26, 223, 60, 175, 242, 133, 187, 213, 134, 169, 189, 82, 75, 82, 61, 95, 203, 5, 189, 246, 129, 167, 189, 94, 14, 44, 190, 177, 234, 213, 189, 134, 154, 44, 62, 144, 244, 236, 188, 254, 105, 204, 61, 167, 142, 237, 60, 169, 230, 36, 190, 119, 132, 231, 189, 56, 160, 62, 61, 244, 178, 11, 190, 8, 190, 253, 189, 169, 61, 162, 61, 198, 86, 28, 189, 120, 16, 215, 188, 14, 102, 38, 190, 125, 167, 44, 62, 8, 95, 44, 190, 119, 129, 93, 189, 103, 162, 48, 189, 78, 169, 191, 61, 81, 194, 245, 61, 128, 252, 211, 188, 175, 253, 236, 59, 154, 22, 1, 62, 160, 238, 117, 61, 55, 40, 20, 190, 93, 99, 42, 62, 102, 116, 145, 189, 56, 178, 78, 61, 171, 78, 12, 62, 116, 217, 145, 61, 220, 123, 2, 189, 240, 210, 251, 60, 167, 250, 52, 62, 11, 241, 26, 62, 128, 207, 28, 188, 128, 12, 242, 59, 105, 127, 239, 61, 166, 1, 0, 190, 185, 112, 55, 61, 78, 114, 150, 59, 237, 222, 17, 190, 66, 254, 221, 61, 122, 57, 35, 190, 88, 95, 243, 188, 4, 226, 31, 62, 209, 163, 30, 62, 109, 127, 26, 190, 224, 247, 24, 190, 144, 131, 249, 188, 1, 62, 175, 61, 192, 233, 178, 187, 50, 57, 47, 190, 22, 207, 84, 189, 87, 57, 3, 62, 41, 108, 134, 189, 42, 153, 251, 61, 25, 164, 39, 190, 253, 106, 33, 62, 252, 85, 151, 61, 79, 189, 130, 189, 212, 239, 0, 189, 16, 247, 48, 61, 129, 87, 3, 62, 6, 73, 5, 61, 72, 228, 109, 189, 172, 166, 157, 189, 186, 162, 1, 62, 180, 171, 14, 61, 148, 184, 2, 61, 200, 128, 152, 188, 151, 96, 17, 62, 128, 33, 164, 58, 62, 103, 252, 61, 182, 95, 102, 189, 65, 178, 148, 60, 112, 14, 21, 61, 248, 188, 161, 189, 207, 255, 10, 62, 37, 144, 241, 61, 208, 99, 65, 189, 40, 2, 2, 190, 252, 68, 1, 62, 62, 27, 10, 190, 196, 202, 188, 189, 168, 9, 20, 190, 118, 38, 37, 189, 138, 156, 202, 61, 252, 233, 36, 61, 161, 81, 210, 61, 64, 134, 180, 61, 12, 124, 25, 190, 250, 191, 211, 189, 41, 179, 235, 61, 171, 15, 113, 189, 154, 18, 14, 190, 32, 208, 57, 60, 152, 25, 33, 190, 0, 193, 40, 61, 200, 85, 181, 189, 248, 35, 40, 62, 139, 36, 14, 190, 162, 19, 183, 61, 84, 171, 73, 61, 163, 34, 34, 62, 137, 182, 251, 189, 69, 8, 172, 61, 84, 137, 23, 61, 234, 225, 5, 190, 44, 103, 227, 189, 20, 169, 183, 61, 103, 209, 7, 62, 189, 16, 215, 189, 253, 53, 5, 188, 187, 115, 1, 190, 248, 33, 212, 187, 144, 112, 100, 61, 110, 102, 218, 61, 30, 53, 250, 61, 240, 196, 178, 189, 136, 176, 125, 61, 27, 159, 106, 189, 42, 213, 96, 189, 0, 224, 193, 61, 112, 51, 54, 189, 119, 166, 25, 62, 198, 227, 59, 61, 128, 252, 82, 188, 24, 152, 143, 188, 200, 59, 196, 188, 20, 203, 209, 189, 16, 157, 17, 60, 0, 43, 38, 60, 114, 122, 172, 61, 136, 114, 175, 188, 228, 22, 87, 61, 44, 129, 48, 190, 25, 36, 166, 189, 39, 74, 203, 189, 108, 207, 86, 61, 146, 0, 5, 190, 130, 147, 34, 190, 104, 116, 252, 188, 120, 77, 121, 61, 184, 100, 223, 189, 224, 143, 227, 189, 242, 237, 193, 189, 14, 46, 147, 61, 88, 21, 189, 60, 20, 230, 51, 189, 201, 230, 52, 190, 112, 93, 62, 188, 179, 81, 205, 189, 206, 170, 162, 61, 128, 115, 121, 59, 126, 73, 186, 61, 128, 237, 98, 61, 210, 133, 160, 189, 201, 238, 46, 62, 32, 71, 102, 188, 245, 159, 144, 189, 216, 92, 157, 188, 98, 125, 172, 189, 152, 175, 202, 60, 102, 4, 165, 61, 70, 74, 134, 189, 74, 210, 183, 61, 176, 213, 221, 60, 169, 117, 33, 190, 79, 122, 23, 62, 132, 166, 50, 189, 64, 10, 34, 188, 102, 240, 193, 189, 247, 190, 51, 62, 40, 95, 244, 188, 10, 39, 136, 61, 109, 43, 48, 190, 217, 114, 133, 189, 100, 39, 157, 189, 235, 155, 244, 189, 249, 185, 134, 189, 108, 245, 133, 61, 70, 33, 5, 190, 12, 196, 138, 61, 226, 180, 212, 61, 185, 144, 32, 190, 112, 3, 49, 60, 64, 230, 31, 60, 8, 134, 21, 190, 108, 96, 15, 190, 128, 142, 206, 60, 4, 104, 120, 189, 28, 202, 119, 189, 163, 16, 253, 189, 153, 15, 253, 189, 90, 140, 191, 61, 221, 143, 51, 190, 224, 47, 143, 60, 38, 132, 167, 189, 64, 20, 168, 188, 4, 220, 62, 189, 242, 186, 197, 61, 248, 171, 114, 189, 141, 45, 30, 62, 247, 156, 11, 190, 96, 125, 173, 189, 130, 152, 154, 61, 72, 144, 128, 60, 160, 0, 138, 189, 150, 210, 227, 189, 240, 142, 139, 188, 142, 69, 232, 61, 121, 11, 172, 189, 238, 125, 9, 190, 40, 111, 195, 188, 24, 196, 11, 189, 232, 173, 154, 188, 14, 35, 230, 189, 150, 175, 38, 190, 111, 128, 142, 189, 154, 188, 198, 61, 114, 166, 176, 61, 100, 212, 105, 61, 56, 96, 14, 61, 236, 210, 81, 189, 210, 227, 17, 190, 115, 247, 180, 189, 228, 63, 243, 189, 22, 69, 9, 190, 152, 232, 254, 188, 90, 218, 145, 189, 167, 119, 9, 62, 204, 124, 110, 61, 197, 130, 34, 190, 60, 149, 39, 61, 98, 75, 84, 189, 200, 254, 176, 60, 88, 243, 171, 60, 176, 29, 60, 61, 176, 0, 227, 188, 238, 157, 151, 61, 144, 192, 58, 188, 148, 42, 122, 61, 92, 63, 251, 189, 176, 2, 34, 61, 47, 241, 161, 189, 100, 58, 122, 61, 224, 215, 39, 188, 168, 114, 114, 61, 149, 206, 37, 62, 181, 134, 32, 62, 34, 50, 229, 61, 4, 242, 179, 189, 46, 151, 233, 189, 109, 189, 51, 190, 176, 20, 38, 189, 140, 156, 20, 189, 24, 130, 23, 189, 44, 238, 54, 61, 132, 193, 145, 61, 177, 72, 229, 189, 248, 120, 144, 188, 201, 109, 41, 62, 234, 92, 172, 61, 248, 72, 231, 60, 17, 223, 49, 62, 86, 135, 234, 61, 176, 61, 16, 61, 210, 225, 34, 190, 54, 142, 216, 61, 138, 223, 173, 61, 156, 115, 16, 189, 9, 187, 8, 62, 149, 27, 3, 62, 66, 16, 185, 61, 135, 180, 29, 190, 244, 240, 6, 61, 74, 225, 171, 189, 160, 113, 60, 188, 94, 203, 137, 61, 168, 116, 42, 189, 224, 84, 180, 187, 129, 33, 52, 62, 84, 69, 2, 61, 148, 160, 78, 189, 167, 78, 41, 62, 198, 3, 241, 61, 129, 169, 152, 189, 0, 132, 226, 59, 64, 9, 32, 60, 192, 139, 16, 60, 159, 98, 46, 190, 4, 155, 99, 61, 28, 49, 93, 189, 96, 116, 224, 188, 253, 62, 23, 62, 56, 204, 50, 189, 73, 40, 42, 62, 144, 239, 196, 60, 140, 65, 3, 190, 244, 193, 234, 189, 60, 52, 8, 61, 240, 123, 148, 60, 99, 219, 222, 189, 188, 49, 132, 61, 0, 138, 106, 60, 116, 11, 171, 189, 162, 209, 232, 61, 54, 184, 98, 189, 101, 0, 24, 190, 0, 238, 195, 188, 160, 168, 220, 59, 2, 201, 149, 189, 185, 181, 24, 62, 112, 194, 3, 