#pragma once

#include <cstdint>

const uint8_t mod_6[] = {
28, 0, 0, 0, 84, 70, 76, 51, 20, 0, 32, 0, 28, 0, 24, 0, 20, 0, 16, 0, 12, 0, 0, 0, 8, 0, 4, 0, 20, 0, 0, 0, 28, 0, 0, 0, 156, 0, 0, 0, 244, 0, 0, 0, 184, 131, 0, 0, 200, 131, 0, 0, 8, 134, 0, 0, 3, 0, 0, 0, 1, 0, 0, 0, 16, 0, 0, 0, 0, 0, 10, 0, 16, 0, 12, 0, 8, 0, 4, 0, 10, 0, 0, 0, 12, 0, 0, 0, 28, 0, 0, 0, 60, 0, 0, 0, 15, 0, 0, 0, 115, 101, 114, 118, 105, 110, 103, 95, 100, 101, 102, 97, 117, 108, 116, 0, 1, 0, 0, 0, 4, 0, 0, 0, 140, 255, 255, 255, 3, 0, 0, 0, 4, 0, 0, 0, 10, 0, 0, 0, 110, 110, 95, 108, 97, 121, 101, 114, 95, 55, 0, 0, 1, 0, 0, 0, 4, 0, 0, 0, 214, 126, 255, 255, 4, 0, 0, 0, 16, 0, 0, 0, 110, 110, 95, 108, 97, 121, 101, 114, 95, 55, 95, 105, 110, 112, 117, 116, 0, 0, 0, 0, 2, 0, 0, 0, 52, 0, 0, 0, 4, 0, 0, 0, 220, 255, 255, 255, 6, 0, 0, 0, 4, 0, 0, 0, 19, 0, 0, 0, 67, 79, 78, 86, 69, 82, 83, 73, 79, 78, 95, 77, 69, 84, 65, 68, 65, 84, 65, 0, 8, 0, 12, 0, 8, 0, 4, 0, 8, 0, 0, 0, 5, 0, 0, 0, 4, 0, 0, 0, 19, 0, 0, 0, 109, 105, 110, 95, 114, 117, 110, 116, 105, 109, 101, 95, 118, 101, 114, 115, 105, 111, 110, 0, 7, 0, 0, 0, 192, 130, 0, 0, 184, 130, 0, 0, 168, 128, 0, 0, 144, 0, 0, 0, 136, 0, 0, 0, 104, 0, 0, 0, 4, 0, 0, 0, 114, 127, 255, 255, 4, 0, 0, 0, 84, 0, 0, 0, 12, 0, 0, 0, 8, 0, 14, 0, 8, 0, 4, 0, 8, 0, 0, 0, 16, 0, 0, 0, 36, 0, 0, 0, 0, 0, 6, 0, 8, 0, 4, 0, 6, 0, 0, 0, 4, 0, 0, 0, 0, 0, 0, 0, 0, 0, 10, 0, 16, 0, 12, 0, 8, 0, 4, 0, 10, 0, 0, 0, 2, 0, 0, 0, 2, 0, 0, 0, 4, 0, 0, 0, 6, 0, 0, 0, 50, 46, 49, 51, 46, 48, 0, 0, 210, 127, 255, 255, 4, 0, 0, 0, 16, 0, 0, 0, 49, 46, 53, 46, 48, 0, 0, 0, 0, 0, 0, 0, 0, 0, 0, 0, 184, 123, 255, 255, 242, 127, 255, 255, 4, 0, 0, 0, 0, 128, 0, 0, 88, 226, 201, 189, 150, 139, 195, 64, 128, 239, 183, 189, 148, 250, 90, 61, 220, 171, 198, 64, 229, 34, 196, 64, 170, 205, 197, 64, 86, 150, 145, 61, 5, 231, 191, 64, 80, 219, 151, 188, 187, 61, 193, 64, 145, 84, 191, 64, 44, 155, 119, 61, 6, 18, 202, 64, 84, 98, 45, 61, 160, 193, 201, 64, 245, 224, 16, 62, 107, 32, 197, 64, 224, 23, 168, 60, 122, 150, 201, 64, 250, 50, 220, 61, 136, 91, 183, 61, 241, 196, 198, 189, 112, 9, 107, 189, 124, 15, 192, 64, 182, 120, 1, 190, 228, 85, 104, 61, 1, 42, 28, 62, 16, 19, 218, 60, 176, 142, 200, 64, 60, 174, 23, 61, 186, 20, 247, 61, 227, 87, 196, 64, 47, 109, 202, 64, 217, 109, 14, 62, 201, 175, 201, 64, 89, 109, 21, 62, 210, 79, 127, 189, 57, 248, 31, 190, 233, 19, 192, 64, 47, 251, 247, 189, 57, 159, 201, 64, 213, 4, 197, 64, 144, 156, 47, 189, 94, 169, 192, 64, 108, 212, 197, 64, 168, 158, 203, 64, 12, 226, 200, 64, 121, 242, 197, 64, 3, 255, 194, 64, 116, 229, 192, 64, 220, 235, 199, 64, 110, 165, 195, 64, 61, 238, 193, 64, 221, 64, 7, 62, 132, 6, 96, 61, 104, 58, 241, 61, 63, 88, 200, 64, 98, 35, 253, 189, 115, 209, 193, 64, 198, 28, 247, 61, 76, 128, 172, 189, 104, 222, 203, 189, 64, 233, 112, 187, 230, 67, 229, 61, 11, 91, 242, 189, 7, 105, 43, 62, 64, 211, 162, 188, 140, 119, 30, 190, 151, 195, 219, 60, 61, 215, 244, 59, 96, 178, 201, 187, 214, 248, 164, 61, 208, 78, 59, 189, 71, 204, 160, 189, 187, 31, 36, 61, 240, 188, 49, 188, 163, 222, 82, 189, 2, 208, 102, 189, 248, 8, 223, 61, 96, 34, 136, 188, 72, 24, 84, 188, 204, 39, 12, 189, 32, 104, 114, 61, 187, 175, 23, 190, 186, 24, 231, 61, 43, 195, 129, 189, 188, 127, 104, 61, 32, 38, 162, 61, 240, 80, 188, 188, 55, 203, 7, 62, 87, 242, 160, 189, 122, 207, 225, 61, 196, 131, 1, 62, 48, 174, 96, 61, 188, 54, 67, 61, 196, 61, 53, 190, 193, 53, 148, 189, 127, 98, 21, 62, 119, 40, 203, 61, 218, 194, 124, 189, 3, 164, 26, 62, 14, 3, 227, 61, 211, 211, 124, 61, 104, 142, 148, 60, 68, 34, 52, 190, 214, 95, 122, 61, 152, 46, 190, 188, 107, 13, 129, 61, 181, 204, 251, 61, 46, 11, 159, 61, 194, 4, 238, 188, 126, 1, 244, 189, 172, 116, 79, 61, 223, 70, 85, 60, 84, 182, 248, 188, 34, 199, 238, 61, 90, 53, 28, 190, 246, 58, 180, 61, 183, 141, 159, 189, 8, 175, 177, 60, 144, 193, 21, 188, 61, 215, 4, 190, 43, 40, 97, 188, 158, 27, 237, 61, 62, 141, 5, 190, 17, 150, 3, 62, 65, 165, 4, 62, 244, 95, 151, 189, 241, 149, 223, 64, 132, 220, 5, 189, 69, 8, 4, 62, 15, 110, 208, 64, 186, 129, 215, 64, 168, 111, 218, 64, 32, 98, 242, 188, 239, 56, 213, 64, 12, 81, 25, 189, 169, 36, 220, 64, 54, 26, 215, 64, 105, 3, 41, 190, 64, 10, 224, 64, 119, 153, 40, 62, 25, 202, 220, 64, 151, 137, 15, 62, 200, 155, 224, 64, 152, 94, 35, 190, 32, 29, 221, 64, 137, 243, 8, 62, 207, 170, 55, 188, 96, 19, 118, 61, 222, 77, 207, 189, 205, 28, 219, 64, 102, 252, 63, 189, 200, 183, 11, 190, 200, 107, 176, 188, 212, 33, 31, 61, 231, 224, 219, 64, 184, 78, 130, 188, 125, 73, 144, 189, 155, 180, 214, 64, 6, 49, 224, 64, 19, 17, 237, 189, 200, 225, 219, 64, 192, 45, 35, 60, 224, 151, 91, 60, 200, 212, 235, 60, 137, 42, 223, 64, 226, 221, 188, 189, 34, 57, 218, 64, 103, 49, 217, 64, 65, 246, 151, 189, 23, 23, 224, 64, 148, 161, 218, 64, 246, 189, 202, 64, 222, 251, 220, 64, 1, 134, 219, 64, 163, 251, 222, 64, 177, 74, 219, 64, 233, 209, 218, 64, 75, 121, 224, 64, 133, 173, 219, 64, 224, 223, 12, 188, 218, 59, 57, 189, 78, 71, 21, 190, 2, 87, 212, 64, 71, 21, 6, 60, 42, 237, 219, 64, 123, 67, 41, 62, 34, 24, 214, 61, 128, 6, 160, 189, 117, 111, 43, 62, 216, 48, 51, 190, 200, 31, 52, 190, 39, 185, 50, 62, 162, 169, 170, 61, 216, 2, 245, 188, 160, 76, 236, 188, 147, 60, 41, 190, 218, 220, 232, 61, 134, 94, 44, 190, 127, 107, 41, 62, 226, 27, 26, 190, 166, 187, 252, 61, 32, 229, 72, 60, 163, 172, 2, 190, 158, 2, 200, 61, 152, 80, 33, 190, 224, 185, 159, 188, 56, 229, 29, 190, 64, 151, 209, 60, 32, 227, 150, 188, 141, 35, 45, 62, 59, 89, 0, 62, 88, 51, 105, 61, 48, 170, 9, 60, 39, 144, 25, 190, 115, 87, 6, 62, 168, 173, 3, 190, 176, 222, 8, 61, 30, 137, 147, 61, 226, 102, 216, 61, 0, 95, 220, 60, 88, 63, 4, 61, 218, 108, 27, 190, 204, 102, 40, 190, 200, 235, 52, 190, 124, 39, 31, 61, 105, 142, 245, 189, 42, 108, 203, 61, 232, 84, 234, 60, 231, 204, 20, 190, 254, 13, 252, 189, 54, 140, 176, 189, 134, 28, 235, 61, 10, 230, 189, 61, 38, 127, 206, 61, 93, 21, 45, 62, 172, 127, 211, 189, 55, 98, 48, 190, 144, 30, 165, 188, 124, 200, 194, 189, 132, 95, 225, 189, 71, 82, 3, 62, 214, 164, 170, 189, 70, 206, 166, 61, 82, 186, 151, 61, 208, 238, 113, 61, 70, 61, 245, 61, 81, 191, 34, 190, 10, 177, 219, 61, 62, 85, 158, 61, 152, 213, 1, 61, 32, 37, 118, 188, 205, 27, 172, 189, 236, 101, 221, 189, 6, 13, 30, 190, 185, 8, 106, 61, 236, 37, 180, 189, 68, 187, 83, 189, 238, 91, 235, 61, 200, 78, 237, 60, 81, 129, 149, 189, 8, 81, 104, 61, 46, 1, 89, 189, 94, 113, 213, 189, 233, 175, 239, 61, 183, 34, 68, 189, 150, 67, 166, 189, 212, 157, 70, 60, 204, 89, 192, 189, 56, 241, 100, 60, 30, 56, 44, 190, 124, 224, 32, 190, 72, 100, 72, 61, 127, 156, 59, 61, 251, 189, 145, 189, 38, 57, 27, 62, 178, 67, 254, 61, 128, 165, 201, 186, 190, 71, 70, 189, 31, 149, 226, 186, 10, 47, 156, 61, 248, 117, 9, 189, 168, 10, 127, 61, 180, 37, 32, 190, 18, 159, 122, 189, 28, 107, 5, 61, 17, 242, 152, 61, 100, 67, 138, 61, 38, 99, 148, 61, 219, 247, 186, 61, 114, 13, 228, 61, 64, 58, 206, 189, 118, 197, 182, 61, 224, 42, 60, 190, 154, 227, 190, 61, 225, 78, 42, 61, 41, 251, 98, 189, 212, 39, 38, 189, 100, 167, 171, 61, 57, 125, 83, 189, 8, 223, 22, 62, 255, 221, 8, 62, 177, 200, 17, 185, 159, 214, 124, 189, 45, 15, 65, 190, 200, 122, 235, 189, 99, 202, 233, 61, 170, 68, 29, 189, 76, 153, 16, 61, 247, 118, 47, 62, 7, 121, 150, 189, 255, 31, 185, 189, 54, 6, 165, 61, 33, 51, 153, 61, 217, 215, 29, 190, 244, 89, 45, 190, 39, 117, 198, 61, 145, 202, 214, 189, 80, 79, 3, 188, 6, 77, 170, 61, 179, 12, 157, 189, 72, 157, 183, 188, 22, 95, 168, 61, 217, 252, 19, 62, 8, 73, 210, 189, 241, 208, 50, 62, 90, 77, 109, 189, 170, 172, 47, 190, 79, 124, 162, 189, 30, 92, 212, 61, 20, 162, 41, 189, 240, 171, 11, 190, 67, 196, 165, 189, 19, 20, 141, 189, 48, 241, 15, 189, 136, 202, 231, 60, 25, 61, 11, 62, 64, 115, 29, 190, 222, 147, 195, 189, 90, 163, 250, 61, 162, 192, 154, 61, 123, 102, 6, 62, 149, 101, 252, 189, 248, 79, 175, 60, 252, 119, 18, 190, 204, 99, 39, 190, 84, 64, 102, 189, 234, 194, 156, 61, 135, 197, 51, 62, 236, 194, 130, 61, 250, 195, 43, 190, 222, 170, 36, 190, 174, 170, 181, 61, 0, 40, 205, 187, 241, 97, 192, 189, 0, 138, 229, 60, 173, 149, 6, 62, 29, 8, 27, 190, 0, 42, 116, 187, 160, 189, 177, 188, 71, 98, 0, 190, 196, 35, 33, 61, 187, 193, 23, 62, 98, 28, 225, 61, 183, 155, 35, 62, 191, 87, 19, 62, 32, 199, 4, 188, 214, 93, 254, 61, 141, 119, 129, 189, 240, 244, 37, 60, 76, 120, 189, 189, 184, 97, 16, 190, 250, 27, 111, 189, 76, 164, 99, 61, 27, 58, 212, 189, 103, 90, 210, 189, 40, 185, 162, 188, 242, 153, 35, 190, 242, 100, 210, 61, 207, 225, 35, 62, 171, 129, 40, 190, 26, 109, 238, 61, 201, 216, 70, 61, 94, 225, 223, 64, 154, 141, 247, 61, 164, 196, 131, 61, 231, 15, 218, 64, 48, 20, 222, 64, 22, 10, 217, 64, 198, 227, 181, 61, 128, 248, 217, 64, 243, 24, 37, 188, 147, 8, 223, 64, 67, 112, 214, 64, 62, 45, 167, 61, 169, 200, 220, 64, 75, 156, 52, 61, 208, 123, 221, 64, 85, 12, 48, 62, 5, 38, 216, 64, 114, 34, 155, 61, 242, 138, 219, 64, 160, 87, 68, 188, 159, 51, 217, 189, 238, 229, 21, 190, 116, 130, 32, 189, 72, 25, 222, 64, 90, 116, 76, 188, 87, 100, 31, 190, 228, 56, 9, 189, 66, 149, 178, 61, 133, 139, 222, 64, 164, 214, 44, 188, 13, 189, 51, 62, 31, 16, 220, 64, 44, 212, 218, 64, 148, 228, 77, 189, 29, 127, 220, 64, 43, 148, 51, 62, 144, 56, 117, 60, 84, 176, 46, 190, 251, 143, 221, 64, 31, 231, 26, 190, 41, 102, 216, 64, 151, 64, 219, 64, 152, 91, 5, 61, 139, 168, 222, 64, 146, 152, 225, 64, 251, 185, 201, 64, 39, 47, 223, 64, 255, 41, 222, 64, 242, 114, 225, 64, 241, 179, 221, 64, 25, 205, 214, 64, 155, 237, 223, 64, 130, 223, 219, 64, 49, 75, 9, 62, 84, 52, 79, 188, 176, 51, 138, 189, 132, 176, 214, 64, 180, 141, 101, 189, 250, 223, 218, 64, 149, 223, 14, 62, 120, 176, 241, 188, 36, 147, 152, 189, 211, 156, 12, 62, 5, 187, 23, 62, 90, 255, 190, 189, 215, 79, 201, 189, 218, 92, 224, 61, 148, 230, 17, 189, 121, 130, 221, 189, 20, 10, 61, 189, 114, 54, 195, 61, 48, 48, 33, 61, 187, 68, 28, 190, 232, 203, 68, 61, 219, 252, 202, 189, 90, 37, 227, 61, 147, 5, 26, 62, 64, 131, 46, 190, 22, 120, 193, 61, 152, 7, 11, 189, 176, 221, 118, 60, 16, 158, 241, 60, 184, 252, 48, 190, 47, 136, 11, 190, 30, 228, 196, 61, 218, 246, 239, 189, 176, 84, 191, 189, 222, 255, 164, 61, 146, 12, 244, 61, 62, 172, 148, 189, 236, 76, 68, 61, 238, 35, 152, 61, 24, 153, 64, 189, 243, 240, 0, 190, 214, 218, 110, 189, 144, 163, 150, 188, 64, 18, 100, 61, 176, 201, 182, 60, 192, 96, 48, 61, 242, 229, 235, 61, 208, 247, 67, 189, 232, 12, 27, 61, 20, 47, 13, 190, 136, 100, 167, 188, 107, 18, 4, 62, 234, 69, 189, 61, 0, 19, 120, 60, 48, 170, 135, 61, 228, 83, 149, 61, 32, 13, 113, 61, 10, 247, 165, 189, 52, 113, 39, 189, 110, 26, 227, 189, 195, 96, 236, 189, 172, 237, 16, 61, 205, 176, 51, 62, 120, 190, 4, 190, 134, 218, 183, 61, 235, 2, 5, 62, 34, 188, 232, 61, 80, 5, 60, 60, 6, 185, 252, 61, 124, 249, 43, 189, 112, 86, 40, 188, 104, 199, 40, 190, 160, 241, 2, 190, 48, 124, 249, 60, 254, 7, 232, 189, 4, 154, 220, 64, 198, 246, 150, 61, 240, 28, 30, 60, 216, 182, 208, 64, 119, 65, 225, 64, 226, 89, 218, 64, 20, 247, 5, 190, 30, 48, 213, 64, 229, 230, 61, 189, 103, 211, 216, 64, 144, 223, 214, 64, 120, 71, 215, 60, 13, 71, 217, 64, 63, 100, 196, 189, 133, 79, 221, 64, 83, 225, 247, 189, 227, 85, 224, 64, 32, 60, 206, 189, 26, 145, 223, 64, 88, 224, 17, 190, 157, 34, 206, 61, 11, 113, 52, 62, 130, 247, 240, 61, 73, 108, 224, 64, 197, 226, 97, 188, 28, 96, 26, 189, 94, 172, 11, 190, 96, 136, 241, 189, 248, 168, 220, 64, 55, 150, 167, 61, 89, 180, 254, 189, 15, 205, 214, 64, 47, 87, 217, 64, 19, 127, 37, 62, 167, 3, 223, 64, 30, 248, 251, 61, 235, 207, 52, 62, 20, 68, 96, 61, 125, 52, 224, 64, 218, 83, 158, 61, 68, 198, 224, 64, 128, 102, 215, 64, 254, 194, 247, 61, 160, 180, 220, 64, 147, 154, 221, 64, 244, 239, 204, 64, 253, 173, 224, 64, 175, 37, 225, 64, 229, 200, 217, 64, 33, 201, 216, 64, 233, 191, 219, 64, 122, 47, 218, 64, 191, 147, 216, 64, 71, 103, 190, 189, 12, 210, 10, 190, 53, 136, 143, 60, 223, 22, 222, 64, 191, 248, 149, 60, 231, 107, 219, 64, 106, 108, 200, 61, 75, 131, 132, 189, 235, 83, 226, 61, 35, 255, 189, 61, 122, 109, 198, 189, 41, 137, 224, 64, 94, 88, 112, 189, 62, 92, 255, 189, 203, 125, 214, 64, 29, 80, 220, 64, 80, 73, 220, 64, 158, 209, 48, 190, 186, 163, 212, 64, 110, 90, 197, 61, 61, 60, 225, 64, 166, 14, 220, 64, 78, 184, 190, 61, 200, 111, 217, 64, 195, 47, 184, 61, 40, 32, 225, 64, 143, 155, 207, 189, 97, 120, 224, 64, 160, 140, 122, 60, 104, 56, 222, 64, 208, 87, 160, 189, 34, 235, 78, 189, 196, 155, 233, 61, 248, 99, 6, 190, 231, 73, 225, 64, 117, 0, 173, 60, 106, 125, 245, 61, 240, 135, 80, 188, 84, 39, 35, 190, 88, 221, 215, 64, 254, 105, 174, 188, 104, 163, 34, 190, 18, 8, 220, 64, 125, 193, 217, 64, 50, 184, 140, 189, 110, 23, 222, 64, 240, 206, 56, 188, 147, 128, 191, 189, 17, 189, 8, 62, 234, 184, 217, 64, 160, 251, 12, 188, 192, 58, 215, 64, 4, 166, 215, 64, 86, 16, 226, 61, 120, 94, 221, 64, 64, 201, 219, 64, 4, 5, 201, 64, 18, 24, 221, 64, 247, 53, 214, 64, 29, 6, 225, 64, 152, 103, 220, 64, 125, 98, 222, 64, 203, 88, 223, 64, 7, 206, 217, 64, 162, 197, 253, 61, 145, 160, 11, 62, 235, 155, 31, 62, 126, 150, 215, 64, 83, 63, 36, 62, 247, 187, 220, 64, 96, 124, 255, 60, 229, 172, 32, 62, 213, 242, 222, 189, 239, 183, 191, 189, 103, 186, 44, 190, 116, 22, 248, 189, 74, 14, 44, 190, 200, 222, 131, 61, 233, 212, 43, 62, 164, 124, 204, 189, 183, 91, 32, 190, 174, 255, 237, 189, 46, 218, 140, 189, 110, 95, 8, 190, 62, 202, 196, 189, 240, 242, 90, 188, 202, 29, 44, 190, 77, 58, 158, 189, 86, 176, 138, 61, 236, 33, 130, 189, 198, 20, 8, 190, 226, 34, 25, 190, 178, 203, 90, 189, 128, 80, 31, 61, 128, 71, 72, 59, 170, 235, 1, 190, 220, 31, 95, 61, 60, 130, 148, 189, 74, 75, 172, 61, 49, 217, 30, 190, 243, 2, 15, 62, 2, 73, 252, 61, 62, 228, 2, 190, 253, 124, 12, 62, 232, 174, 81, 189, 194, 150, 238, 61, 18, 66, 51, 190, 74, 131, 123, 189, 173, 137, 45, 62, 86, 128, 28, 190, 144, 124, 101, 188, 248, 20, 78, 61, 24, 137, 239, 60, 171, 102, 26, 62, 4, 151, 48, 189, 215, 170, 5, 190, 218, 184, 11, 190, 200, 234, 60, 61, 12, 234, 79, 61, 57, 220, 48, 62, 10, 231, 140, 61, 80, 35, 98, 61, 248, 192, 12, 61, 183, 64, 48, 190, 7, 70, 23, 62, 75, 28, 30, 62, 92, 203, 49, 189, 155, 236, 208, 189, 160, 11, 37, 61, 206, 103, 166, 61, 125, 188, 38, 190, 47, 10, 37, 62, 184, 153, 41, 61, 200, 233, 140, 61, 66, 133, 238, 61, 154, 14, 202, 61, 208, 165, 16, 190, 58, 143, 131, 61, 100, 254, 98, 189, 145, 151, 16, 62, 248, 243, 135, 60, 228, 197, 250, 189, 224, 14, 39, 189, 8, 134, 244, 60, 250, 230, 182, 189, 155, 120, 215, 189, 142, 117, 253, 61, 184, 97, 170, 188, 254, 30, 88, 189, 172, 148, 58, 61, 200, 32, 178, 60, 80, 126, 174, 60, 88, 199, 243, 189, 227, 138, 24, 190, 38, 124, 166, 61, 146, 115, 207, 61, 215, 105, 157, 189, 186, 28, 17, 190, 216, 246, 28, 190, 155, 11, 45, 62, 56, 201, 72, 61, 0, 49, 96, 188, 33, 21, 31, 62, 18, 117, 193, 61, 147, 210, 9, 62, 63, 139, 212, 189, 162, 238, 187, 61, 25, 207, 10, 62, 44, 197, 120, 61, 218, 121, 241, 61, 160, 203, 135, 61, 128, 210, 127, 61, 119, 30, 1, 62, 64, 220, 47, 190, 229, 36, 25, 62, 174, 229, 10, 190, 101, 125, 31, 62, 186, 40, 15, 190, 158, 66, 249, 189, 76, 208, 24, 190, 245, 176, 42, 190, 68, 253, 37, 189, 46, 63, 25, 190, 224, 62, 80, 188, 244, 36, 127, 189, 0, 16, 155, 189, 48, 202, 227, 189, 177, 190, 52, 62, 215, 176, 3, 190, 16, 157, 75, 60, 47, 13, 166, 189, 179, 138, 32, 62, 136, 56, 116, 61, 49, 221, 43, 62, 240, 90, 34, 189, 200, 155, 131, 61, 241, 10, 50, 62, 22, 142, 235, 189, 66, 105, 189, 61, 89, 88, 235, 189, 0, 228, 4, 185, 175, 169, 34, 62, 219, 116, 110, 61, 84, 249, 216, 64, 4, 234, 72, 189, 32, 6, 247, 189, 109, 250, 213, 64, 168, 35, 216, 64, 49, 77, 225, 64, 38, 236, 246, 61, 49, 211, 215, 64, 13, 105, 160, 188, 23, 88, 219, 64, 174, 223, 221, 64, 70, 13, 182, 61, 29, 166, 221, 64, 18, 196, 48, 62, 103, 227, 219, 64, 18, 44, 5, 190, 249, 47, 221, 64, 13, 201, 179, 189, 29, 196, 218, 64, 231, 207, 35, 62, 250, 90, 4, 189, 99, 19, 14, 62, 39, 98, 3, 190, 250, 50, 215, 64, 38, 77, 133, 60, 238, 226, 41, 190, 181, 91, 20, 62, 135, 64, 163, 189, 39, 169, 221, 64, 190, 6, 40, 190, 166, 166, 121, 189, 61, 185, 219, 64, 224, 24, 217, 64, 236, 225, 66, 61, 95, 202, 225, 64, 80, 220, 241, 60, 204, 3, 16, 189, 133, 18, 51, 62, 160, 146, 224, 64, 173, 231, 13, 190, 150, 239, 223, 64, 173, 77, 217, 64, 56, 225, 180, 189, 128, 144, 223, 64, 196, 128, 215, 64, 253, 9, 201, 64, 252, 163, 224, 64, 93, 85, 220, 64, 60, 218, 222, 64, 145, 90, 222, 64, 188, 166, 215, 64, 224, 123, 215, 64, 39, 248, 217, 64, 209, 76, 8, 62, 129, 92, 208, 189, 158, 252, 158, 61, 241, 104, 212, 64, 201, 144, 24, 190, 65, 181, 224, 64, 186, 194, 212, 61, 217, 109, 52, 62, 1, 226, 218, 61, 100, 247, 42, 190, 214, 119, 181, 61, 0, 69, 111, 59, 164, 90, 139, 189, 171, 240, 1, 190, 70, 186, 249, 61, 138, 114, 197, 61, 178, 142, 31, 190, 174, 247, 165, 61, 176, 46, 110, 60, 96, 147, 158, 189, 112, 216, 35, 190, 87, 2, 232, 189, 46, 61, 140, 61, 36, 182, 50, 190, 149, 137, 21, 62, 236, 49, 14, 190, 92, 88, 99, 61, 10, 157, 240, 61, 80, 103, 18, 60, 92, 50, 223, 189, 146, 5, 152, 61, 135, 238, 27, 62, 110, 92, 211, 61, 162, 210, 223, 61, 148, 31, 11, 190, 238, 19, 177, 189, 248, 124, 227, 60, 77, 224, 1, 62, 130, 27, 39, 190, 8, 175, 164, 188, 89, 232, 45, 62, 9, 124, 36, 62, 88, 40, 11, 189, 231, 141, 43, 62, 34, 61, 194, 61, 164, 192, 100, 189, 109, 104, 224, 189, 141, 211, 0, 62, 112, 253, 13, 61, 138, 38, 13, 190, 32, 210, 188, 187, 78, 241, 25, 190, 143, 175, 49, 62, 130, 228, 235, 189, 176, 100, 177, 60, 27, 137, 39, 62, 78, 171, 221, 61, 220, 218, 133, 61, 108, 230, 37, 61, 116, 84, 152, 189, 127, 167, 51, 62, 212, 71, 67, 189, 194, 73, 206, 61, 44, 204, 37, 61, 203, 172, 29, 190, 162, 70, 47, 190, 137, 0, 10, 190, 243, 2, 26, 190, 148, 105, 13, 190, 163, 9, 46, 62, 164, 210, 27, 61, 75, 57, 182, 189, 136, 200, 131, 61, 123, 53, 33, 62, 28, 38, 243, 189, 49, 130, 215, 64, 189, 39, 13, 62, 122, 31, 153, 61, 189, 117, 219, 64, 157, 105, 218, 64, 121, 238, 223, 64, 195, 100, 15, 62, 239, 1, 215, 64, 192, 109, 118, 60, 6, 134, 217, 64, 144, 185, 223, 64, 230, 119, 215, 61, 242, 121, 219, 64, 245, 46, 40, 62, 147, 248, 218, 64, 228, 178, 182, 189, 37, 142, 220, 64, 157, 85, 3, 62, 133, 163, 214, 64, 38, 107, 155, 61, 100, 71, 41, 190, 26, 92, 241, 61, 155, 66, 50, 190, 126, 101, 218, 64, 202, 22, 31, 189, 121, 4, 29, 61, 216, 34, 10, 189, 38, 228, 215, 61, 122, 153, 222, 64, 38, 235, 241, 61, 200, 11, 138, 189, 238, 190, 215, 64, 1, 45, 223, 64, 32, 150, 32, 60, 241, 191, 225, 64, 38, 131, 86, 189, 156, 248, 91, 189, 146, 47, 220, 189, 157, 72, 222, 64, 2, 109, 214, 61, 186, 24, 221, 64, 23, 83, 223, 64, 236, 7, 62, 189, 69, 66, 221, 64, 6, 195, 215, 64, 178, 123, 201, 64, 56, 237, 219, 64, 110, 198, 222, 64, 194, 76, 225, 64, 180, 237, 219, 64, 147, 157, 219, 64, 127, 115, 222, 64, 170, 182, 214, 64, 88, 144, 155, 60, 93, 243, 143, 188, 202, 2, 69, 189, 124, 26, 215, 64, 91, 0, 59, 189, 207, 195, 225, 64, 96, 173, 87, 61, 182, 47, 251, 61, 86, 216, 47, 61, 183, 200, 16, 190, 148, 119, 219, 189, 65, 130, 222, 64, 48, 205, 101, 60, 27, 215, 21, 190, 47, 39, 219, 64, 192, 81, 221, 64, 16, 185, 216, 64, 156, 64, 50, 189, 165, 26, 220, 64, 216, 51, 132, 189, 39, 29, 225, 64, 88, 32, 223, 64, 208, 94, 38, 60, 30, 172, 217, 64, 99, 136, 242, 188, 244, 115, 225, 64, 210, 167, 45, 189, 44, 124, 220, 64, 89, 143, 222, 189, 1, 30, 223, 64, 74, 77, 169, 61, 28, 3, 120, 187, 76, 35, 173, 61, 197, 34, 47, 62, 130, 66, 225, 64, 118, 255, 23, 190, 78, 234, 141, 61, 0, 65, 68, 189, 0, 135, 161, 60, 77, 223, 222, 64, 200, 71, 192, 189, 109, 217, 250, 189, 29, 17, 214, 64, 21, 4, 218, 64, 254, 37, 146, 189, 236, 108, 218, 64, 70, 144, 213, 61, 164, 110, 131, 61, 20, 173, 25, 61, 171, 254, 217, 64, 211, 89, 15, 62, 26, 79, 223, 64, 26, 6, 224, 64, 229, 41, 223, 189, 243, 114, 215, 64, 136, 131, 220, 64, 158, 223, 205, 64, 211, 130, 216, 64, 14, 144, 223, 64, 197, 197, 217, 64, 13, 235, 220, 64, 28, 56, 221, 64, 13, 69, 221, 64, 75, 58, 223, 64, 122, 229, 233, 61, 77, 123, 24, 190, 70, 37, 19, 190, 95, 241, 222, 64, 86, 97, 210, 61, 140, 240, 221, 64, 128, 47, 72, 187, 65, 175, 151, 189, 52, 224, 245, 189, 158, 121, 23, 62, 157, 92, 19, 190, 215, 249, 218, 64, 106, 96, 236, 61, 210, 192, 210, 61, 155, 172, 214, 64, 82, 242, 220, 64, 103, 245, 215, 64, 128, 70, 23, 60, 33, 254, 213, 64, 26, 236, 14, 61, 34, 91, 216, 64, 66, 225, 221, 64, 122, 93, 255, 61, 229, 106, 217, 64, 61, 29, 9, 189, 181, 72, 225, 64, 178, 41, 212, 60, 168, 209, 224, 64, 10, 213, 202, 61, 186, 63, 219, 64, 85, 24, 168, 189, 163, 19, 92, 188, 71, 250, 42, 190, 203, 36, 30, 62, 194, 89, 217, 64, 216, 37, 166, 189, 79, 222, 19, 190, 48, 7, 199, 60, 148, 140, 241, 189, 0, 251, 216, 64, 198, 57, 174, 61, 60, 69, 4, 190, 119, 35, 223, 64, 243, 172, 224, 64, 146, 198, 41, 190, 199, 37, 218, 64, 195, 141, 7, 62, 248, 175, 185, 60, 0, 174, 230, 187, 93, 143, 223, 64, 128, 92, 1, 189, 126, 94, 223, 64, 221, 56, 218, 64, 184, 188, 219, 60, 194, 72, 222, 64, 13, 113, 217, 64, 114, 30, 206, 64, 0, 114, 223, 64, 200, 162, 224, 64, 3, 246, 221, 64, 90, 121, 223, 64, 19, 10, 221, 64, 104, 81, 217, 64, 170, 238, 216, 64, 110, 40, 165, 61, 214, 217, 144, 61, 87, 107, 44, 62, 226, 103, 222, 64, 244, 11, 229, 189, 120, 34, 222, 64, 12, 212, 27, 189, 64, 147, 42, 61, 147, 14, 211, 60, 124, 180, 226, 61, 38, 145, 12, 190, 6, 159, 19, 190, 126, 59, 216, 61, 72, 129, 141, 61, 121, 31, 12, 62, 136, 86, 95, 61, 131, 87, 247, 189, 56, 156, 199, 188, 71, 200, 3, 62, 136, 224, 7, 61, 128, 50, 203, 60, 90, 74, 238, 61, 0, 136, 143, 56, 154, 13, 163, 61, 0, 148, 240, 187, 165, 21, 137, 189, 177, 41, 14, 62, 144, 123, 144, 61, 156, 104, 176, 189, 22, 156, 160, 61, 110, 167, 21, 190, 101, 251, 49, 62, 60, 101, 34, 189, 104, 106, 196, 189, 48, 96, 52, 60, 185, 208, 12, 190, 147, 128, 46, 62, 86, 245, 188, 61, 59, 193, 23, 62, 200, 57, 244, 189, 247, 54, 162, 189, 12, 245, 37, 189, 206, 151, 202, 189, 174, 230, 175, 189, 169, 111, 31, 62, 131, 221, 158, 189, 194, 40, 199, 61, 64, 141, 46, 188, 114, 23, 42, 190, 168, 139, 134, 189, 122, 157, 225, 61, 24, 33, 183, 188, 248, 220, 22, 190, 98, 112, 95, 189, 176, 109, 94, 60, 208, 188, 210, 188, 137, 17, 27, 62, 237, 113, 27, 62, 53, 254, 48, 190, 96, 232, 16, 189, 203, 249, 184, 189, 121, 101, 35, 62, 230, 139, 193, 189, 30, 87, 217, 61, 242, 250, 203, 61, 105, 93, 46, 62, 136, 97, 14, 190, 91, 136, 203, 189, 207, 196, 17, 62, 14, 129, 222, 61, 34, 250, 170, 61, 158, 213, 164, 61, 139, 179, 48, 190, 18, 121, 147, 189, 188, 20, 98, 61, 119, 254, 213, 64, 32, 170, 57, 60, 92, 212, 184, 189, 133, 37, 214, 64, 112, 144, 217, 64, 187, 76, 219, 64, 16, 90, 70, 188, 173, 0, 216, 64, 155, 221, 253, 61, 56, 137, 218, 64, 248, 15, 220, 64, 24, 196, 48, 61, 33, 98, 219, 64, 87, 223, 152, 189, 194, 91, 220, 64, 8, 204, 130, 61, 141, 162, 220, 64, 236, 61, 61, 189, 200, 24, 220, 64, 168, 204, 113, 61, 136, 243, 73, 61, 47, 231, 115, 61, 160, 118, 165, 188, 172, 38, 219, 64, 197, 89, 46, 190, 216, 176, 160, 189, 0, 48, 101, 188, 190, 4, 190, 61, 167, 174, 219, 64, 226, 153, 211, 61, 176, 11, 47, 190, 92, 48, 216, 64, 80, 27, 223, 64, 223, 154, 191, 189, 129, 67, 220, 64, 64, 189, 207, 60, 106, 203, 137, 189, 148, 39, 5, 189, 242, 167, 216, 64, 216, 88, 203, 60, 154, 5, 221, 64, 28, 188, 222, 64, 106, 134, 254, 61, 41, 194, 220, 64, 211, 42, 222, 64, 203, 137, 204, 64, 36, 128, 216, 64, 97, 88, 224, 64, 12, 121, 220, 64, 214, 20, 222, 64, 74, 189, 215, 64, 101, 162, 224, 64, 178, 216, 223, 64, 212, 182, 215, 189, 35, 150, 13, 190, 42, 46, 208, 189, 176, 244, 215, 64, 55, 37, 52, 62, 190, 177, 222, 64, 19, 156, 197, 189, 222, 7, 95, 189, 38, 248, 24, 190, 18, 221, 114, 189, 249, 164, 13, 62, 229, 221, 39, 190, 176, 253, 8, 190, 140, 124, 25, 189, 38, 173, 37, 190, 85, 144, 50, 190, 160, 195, 164, 60, 209, 180, 20, 62, 88, 4, 75, 61, 48, 118, 183, 189, 0, 96, 90, 61, 14, 212, 162, 61, 62, 142, 222, 61, 16, 221, 95, 189, 163, 40, 0, 62, 174, 115, 184, 61, 140, 243, 42, 61, 178, 159, 19, 190, 96, 205, 239, 189, 93, 165, 11, 190, 194, 149, 251, 189, 0, 188, 44, 188, 106, 28, 187, 61, 0, 27, 10, 60, 174, 210, 225, 61, 230, 155, 29, 190, 178, 118, 169, 61, 128, 84, 38, 190, 11, 12, 24, 62, 244, 224, 40, 61, 54, 167, 193, 61, 84, 203, 55, 189, 224, 220, 170, 59, 164, 47, 35, 61, 44, 30, 89, 189, 64, 108, 70, 189, 10, 191, 137, 61, 79, 139, 5, 62, 143, 43, 29, 62, 79, 113, 186, 189, 170, 130, 239, 61, 59, 113, 37, 62, 106, 248, 144, 61, 136, 79, 130, 188, 108, 217, 26, 190, 46, 206, 190, 61, 160, 102, 242, 187, 160, 252, 136, 187, 134, 4, 174, 61, 64, 42, 82, 189, 17, 126, 193, 189, 16, 21, 123, 188, 56, 175, 232, 188, 144, 77, 16, 60, 240, 107, 245, 188, 136, 58, 3, 190, 120, 150, 183, 60, 86, 45, 224, 189, 246, 105, 167, 61, 38, 147, 94, 189, 54, 113, 89, 189, 108, 215, 78, 61, 96, 199, 159, 60, 64, 240, 232, 60, 14, 90, 243, 61, 21, 66, 30, 62, 176, 46, 46, 189, 132, 119, 67, 189, 209, 204, 0, 62, 138, 182, 161, 61, 181, 230, 195, 189, 60, 36, 37, 190, 48, 76, 198, 189, 58, 141, 29, 190, 187, 236, 46, 62, 98, 254, 130, 61, 121, 149, 9, 62, 130, 143, 7, 190, 48, 254, 74, 188, 200, 60, 59, 189, 230, 24, 144, 61, 164, 191, 4, 61, 22, 247, 47, 190, 206, 122, 154, 61, 172, 79, 225, 189, 203, 201, 50, 190, 28, 129, 182, 189, 27, 104, 52, 190, 18, 108, 153, 189, 180, 148, 92, 189, 74, 16, 138, 61, 86, 215, 150, 61, 166, 113, 231, 61, 242, 223, 114, 189, 103, 29, 6, 190, 232, 203, 146, 188, 144, 153, 36, 190, 65, 178, 207, 189, 195, 105, 35, 62, 176, 139, 221, 189, 100, 50, 149, 61, 80, 219, 193, 188, 72, 90, 149, 189, 34, 171, 254, 189, 192, 163, 218, 60, 79, 66, 161, 189, 246, 42, 25, 190, 76, 8, 39, 189, 238, 0, 44, 190, 218, 23, 97, 189, 66, 5, 235, 61, 128, 71, 57, 188, 141, 109, 136, 189, 239, 22, 131, 189, 178, 159, 28, 190, 166, 10, 87, 189, 163, 36, 38, 62, 254, 117, 203, 61, 114, 41, 17, 190, 182, 15, 147, 189, 155, 120, 49, 62, 169, 217, 142, 189, 250, 186, 158, 61, 36, 129, 16, 190, 8, 82, 3, 190, 64, 144, 108, 189, 194, 127, 232, 61, 166, 47, 230, 189, 193, 31, 189, 189, 126, 51, 215, 64, 136, 191, 139, 60, 112, 246, 96, 61, 233, 4, 211, 64, 187, 7, 220, 64, 26, 131, 214, 64, 144, 15, 132, 188, 93, 60, 222, 64, 32, 97, 77, 188, 62, 136, 215, 64, 94, 168, 215, 64, 144, 53, 217, 60, 126, 86, 223, 64, 126, 101, 13, 190, 194, 104, 223, 64, 73, 15, 171, 189, 179, 98, 225, 64, 178, 139, 135, 189, 136, 138, 224, 64, 108, 59, 68, 189, 135, 175, 33, 190, 249, 206, 136, 189, 21, 230, 26, 190, 200, 247, 219, 64, 138, 87, 98, 188, 82, 215, 137, 61, 154, 201, 203, 61, 242, 107, 163, 61, 18, 45, 221, 64, 224, 189, 41, 61, 16, 180, 74, 60, 40, 118, 224, 64, 137, 175, 217, 64, 89, 206, 26, 62, 121, 168, 221, 64, 160, 57, 184, 60, 137, 180, 46, 62, 82, 22, 210, 61, 4, 135, 219, 64, 192, 47, 39, 60, 132, 215, 224, 64, 124, 186, 219, 64, 88, 169, 37, 61, 104, 31, 216, 64, 16, 68, 224, 64, 136, 42, 204, 64, 177, 43, 217, 64, 5, 13, 216, 64, 94, 173, 215, 64, 150, 128, 224, 64, 167, 2, 218, 64, 62, 190, 218, 64, 141, 185, 224, 64, 110, 210, 232, 61, 173, 180, 8, 62, 166, 119, 31, 62, 137, 100, 219, 64, 229, 115, 76, 189, 2, 94, 217, 64, 225, 210, 222, 189, 216, 104, 12, 189, 164, 209, 6, 62, 150, 205, 208, 61, 89, 76, 240, 189, 113, 145, 217, 64, 224, 168, 133, 61, 124, 208, 198, 189, 97, 151, 209, 64, 113, 18, 217, 64, 45, 239, 224, 64, 161, 34, 13, 62, 107, 206, 220, 64, 4, 255, 219, 61, 28, 94, 224, 64, 86, 126, 223, 64, 8, 182, 138, 60, 141, 39, 222, 64, 90, 82, 217, 60, 59, 49, 219, 64, 223, 65, 130, 189, 28, 3, 224, 64, 40, 40, 65, 61, 28, 138, 220, 64, 244, 42, 21, 189, 141, 253, 231, 189, 97, 228, 145, 189, 241, 47, 8, 62, 90, 212, 219, 64, 11, 138, 231, 189, 253, 24, 213, 61, 31, 12, 212, 189, 178, 120, 165, 61, 18, 119, 224, 64, 56, 7, 177, 61, 240, 233, 133, 188, 195, 173, 220, 64, 239, 71, 216, 64, 109, 200, 243, 189, 112, 151, 225, 64, 102, 127, 233, 61, 220, 95, 98, 61, 4, 160, 204, 189, 118, 239, 217, 64, 126, 48, 128, 61, 208, 33, 220, 64, 164, 224, 217, 64, 0, 58, 91, 186, 248, 163, 223, 64, 229, 68, 222, 64, 68, 221, 206, 64, 51, 78, 220, 64, 103, 169, 225, 64, 251, 23, 219, 64, 3, 85, 216, 64, 3, 52, 220, 64, 131, 245, 221, 64, 174, 234, 214, 64, 122, 220, 29, 190, 202, 21, 21, 190, 20, 209, 32, 62, 126, 135, 221, 64, 48, 121, 137, 189, 208, 117, 223, 64, 70, 198, 236, 189, 52, 249, 4, 190, 145, 210, 159, 189, 189, 80, 254, 61, 96, 57, 149, 189, 179, 221, 214, 64, 213, 234, 25, 62, 128, 56, 207, 186, 25, 47, 219, 64, 253, 95, 221, 64, 253, 129, 221, 64, 181, 246, 44, 190, 201, 208, 214, 64, 116, 26, 52, 190, 245, 248, 224, 64, 105, 81, 221, 64, 26, 45, 248, 189, 8, 27, 223, 64, 99, 164, 155, 60, 165, 248, 217, 64, 110, 205, 26, 62, 254, 182, 219, 64, 16, 203, 62, 60, 152, 186, 215, 64, 88, 29, 14, 61, 74, 155, 27, 190, 40, 149, 202, 189, 40, 205, 177, 188, 197, 143, 223, 64, 69, 64, 24, 62, 60, 224, 38, 188, 238, 187, 199, 61, 103, 35, 10, 62, 35, 160, 216, 64, 232, 200, 187, 188, 48, 96, 6, 60, 110, 117, 218, 64, 53, 186, 219, 64, 126, 27, 235, 189, 125, 141, 218, 64, 92, 124, 124, 61, 14, 106, 233, 61, 216, 152, 13, 190, 52, 182, 217, 64, 228, 30, 11, 61, 229, 63, 219, 64, 125, 88, 220, 64, 230, 149, 128, 61, 66, 49, 223, 64, 44, 15, 224, 64, 113, 164, 203, 64, 68, 128, 225, 64, 215, 250, 214, 64, 20, 209, 214, 64, 119, 144, 219, 64, 231, 161, 217, 64, 124, 251, 217, 64, 130, 25, 219, 64, 52, 13, 39, 189, 201, 198, 168, 188, 146, 46, 233, 61, 142, 251, 220, 64, 207, 181, 26, 62, 106, 216, 214, 64, 188, 101, 126, 61, 252, 28, 136, 61, 9, 85, 41, 62, 110, 32, 171, 61, 4, 24, 42, 62, 52, 110, 222, 64, 145, 164, 30, 62, 190, 43, 150, 61, 97, 78, 217, 64, 114, 212, 220, 64, 254, 21, 223, 64, 220, 179, 5, 61, 61, 112, 220, 64, 252, 151, 17, 62, 146, 112, 216, 64, 31, 84, 215, 64, 224, 34, 211, 59, 149, 245, 224, 64, 69, 237, 54, 189, 4, 46, 219, 64, 187, 55, 211, 61, 174, 147, 217, 64, 128, 229, 67, 187, 123, 27, 214, 64, 239, 41, 29, 62, 146, 96, 5, 190, 67, 184, 180, 60, 27, 165, 18, 62, 239, 65, 220, 64, 65, 251, 247, 61, 231, 67, 13, 62, 200, 73, 125, 61, 82, 232, 17, 190, 131, 105, 221, 64, 193, 166, 1, 62, 42, 103, 140, 189, 190, 165, 224, 64, 36, 41, 223, 64, 252, 155, 52, 189, 227, 199, 216, 64, 186, 72, 173, 61, 68, 16, 25, 190, 12, 2, 88, 61, 46, 155, 220, 64, 0, 158, 133, 185, 85, 23, 224, 64, 70, 54, 223, 64, 247, 43, 27, 62, 144, 210, 215, 64, 4, 177, 222, 64, 90, 135, 206, 64, 204, 181, 216, 64, 48, 51, 216, 64, 127, 88, 216, 64, 140, 167, 214, 64, 92, 136, 222, 64, 22, 242, 218, 64, 172, 99, 218, 64, 63, 73, 10, 190, 46, 238, 89, 188, 186, 121, 9, 62, 205, 242, 212, 64, 225, 58, 221, 60, 94, 144, 215, 64, 236, 236, 19, 189, 54, 1, 189, 61, 66, 254, 169, 189, 196, 140, 133, 189, 190, 207, 111, 61, 54, 36, 224, 64, 218, 17, 244, 61, 208, 240, 103, 60, 120, 118, 208, 64, 28, 104, 220, 64, 223, 212, 217, 64, 162, 249, 240, 61, 75, 71, 212, 64, 9, 19, 2, 189, 167, 1, 219, 64, 85, 169, 223, 64, 192, 35, 92, 59, 198, 117, 225, 64, 20, 57, 117, 188, 223, 173, 223, 64, 147, 129, 118, 61, 60, 206, 218, 64, 81, 134, 2, 62, 218, 254, 219, 64, 80, 137, 4, 190, 11, 149, 3, 190, 160, 114, 36, 190, 192, 68, 148, 59, 142, 90, 225, 64, 242, 31, 140, 61, 135, 51, 1, 61, 76, 41, 17, 61, 48, 246, 42, 188, 145, 232, 223, 64, 87, 207, 4, 190, 210, 101, 186, 189, 104, 8, 224, 64, 81, 78, 219, 64, 228, 61, 30, 190, 63, 154, 215, 64, 8, 223, 167, 188, 240, 180, 152, 188, 134, 22, 180, 189, 131, 176, 220, 64, 73, 42, 46, 62, 74, 172, 215, 64, 32, 211, 222, 64, 192, 115, 212, 188, 240, 207, 219, 64, 166, 52, 218, 64, 50, 207, 197, 64, 181, 7, 219, 64, 205, 165, 221, 64, 225, 23, 216, 64, 147, 194, 217, 64, 58, 101, 216, 64, 146, 213, 224, 64, 225, 39, 225, 64, 78, 58, 15, 190, 16, 28, 12, 189, 220, 215, 210, 59, 223, 78, 222, 64, 155, 201, 232, 189, 109, 7, 215, 64, 176, 188, 90, 188, 53, 213, 140, 189, 86, 135, 142, 189, 80, 48, 0, 62, 4, 101, 237, 61, 58, 211, 217, 64, 32, 159, 191, 187, 0, 196, 247, 188, 44, 210, 213, 64, 198, 85, 220, 64, 178, 12, 222, 64, 138, 72, 253, 61, 87, 15, 221, 64, 37, 95, 120, 61, 250, 142, 215, 64, 201, 144, 223, 64, 183, 208, 217, 189, 90, 17, 216, 64, 102, 244, 193, 189, 216, 175, 214, 64, 138, 51, 6, 62, 40, 31, 216, 64, 86, 159, 224, 61, 233, 9, 217, 64, 104, 240, 89, 189, 221, 166, 19, 189, 61, 132, 22, 62, 144, 202, 52, 189, 188, 96, 218, 64, 160, 98, 42, 62, 103, 231, 183, 61, 194, 142, 32, 190, 32, 75, 19, 61, 29, 204, 216, 64, 30, 59, 176, 61, 152, 64, 217, 60, 162, 110, 222, 64, 243, 162, 224, 64, 20, 4, 250, 189, 167, 86, 218, 64, 190, 149, 46, 190, 177, 171, 169, 189, 24, 99, 219, 188, 218, 230, 222, 64, 62, 89, 196, 61, 135, 229, 221, 64, 170, 213, 215, 64, 0, 23, 93, 187, 208, 93, 223, 64, 193, 180, 221, 64, 156, 49, 201, 64, 42, 170, 214, 64, 190, 190, 215, 64, 119, 186, 223, 64, 56, 198, 218, 64, 97, 105, 222, 64, 143, 175, 224, 64, 242, 130, 221, 64, 76, 93, 116, 61, 157, 239, 224, 189, 205, 74, 122, 61, 171, 49, 223, 64, 28, 1, 11, 189, 195, 231, 224, 64, 160, 117, 78, 61, 251, 14, 0, 62, 170, 147, 38, 62, 125, 165, 45, 190, 24, 44, 104, 60, 89, 145, 39, 61, 104, 217, 146, 188, 182, 156, 239, 61, 117, 114, 18, 62, 151, 34, 18, 190, 54, 121, 128, 188, 169, 83, 185, 189, 247, 197, 26, 190, 13, 254, 9, 190, 230, 112, 53, 190, 164, 236, 52, 190, 74, 83, 179, 61, 63, 243, 89, 189, 217, 218, 146, 61, 136, 0, 140, 187, 151, 173, 166, 60, 139, 60, 32, 62, 36, 210, 69, 189, 105, 96, 17, 62, 1, 99, 209, 189, 98, 125, 107, 189, 25, 20, 136, 189, 160, 138, 144, 188, 15, 210, 194, 61, 85, 187, 6, 190, 154, 244, 201, 61, 26, 211, 129, 189, 136, 64, 51, 189, 240, 218, 181, 188, 186, 4, 41, 190, 82, 232, 229, 61, 53, 229, 44, 59, 51, 235, 226, 61, 55, 83, 131, 189, 178, 227, 247, 189, 156, 4, 75, 61, 206, 36, 242, 61, 64, 207, 96, 60, 91, 195, 97, 188, 120, 158, 162, 60, 78, 3, 252, 61, 233, 187, 105, 61, 154, 71, 114, 189, 68, 60, 16, 62, 199, 64, 45, 190, 187, 216, 176, 189, 203, 71, 51, 190, 72, 243, 129, 61, 15, 220, 59, 190, 86, 125, 194, 189, 103, 178, 155, 61, 124, 160, 67, 61, 150, 13, 154, 189, 151, 8, 220, 189, 199, 69, 14, 190, 0, 134, 194, 60, 65, 242, 176, 189, 58, 148, 186, 61, 81, 186, 144, 189, 98, 57, 43, 190, 0, 196, 72, 187, 189, 68, 149, 60, 243, 237, 144, 189, 36, 43, 59, 61, 144, 152, 255, 60, 184, 18, 31, 61, 16, 251, 234, 60, 177, 157, 52, 190, 172, 230, 104, 189, 236, 101, 133, 189, 173, 129, 45, 190, 222, 66, 159, 61, 142, 146, 172, 61, 182, 100, 161, 61, 72, 208, 157, 188, 230, 187, 197, 61, 167, 140, 27, 190, 214, 7, 38, 190, 213, 129, 191, 189, 140, 210, 33, 190, 199, 170, 0, 62, 64, 139, 61, 188, 64, 114, 39, 190, 4, 90, 126, 189, 131, 73, 37, 62, 1, 104, 161, 189, 242, 243, 195, 61, 16, 132, 129, 188, 58, 190, 202, 61, 193, 71, 12, 62, 164, 192, 15, 190, 48, 238, 56, 188, 139, 158, 16, 190, 213, 221, 30, 62, 36, 11, 142, 61, 73, 246, 149, 189, 23, 28, 222, 189, 188, 222, 113, 61, 97, 116, 21, 62, 0, 144, 4, 56, 211, 93, 24, 62, 188, 252, 9, 190, 21, 36, 9, 190, 148, 233, 80, 189, 80, 199, 87, 189, 222, 156, 40, 190, 224, 229, 63, 60, 238, 127, 22, 190, 162, 93, 146, 61, 191, 203, 46, 62, 187, 194, 24, 62, 170, 70, 143, 61, 136, 153, 229, 60, 160, 9, 69, 60, 249, 119, 49, 190, 248, 119, 123, 61, 111, 250, 226, 189, 144, 127, 76, 188, 96, 229, 119, 189, 9, 196, 191, 189, 128, 1, 217, 188, 105, 3, 7, 62, 224, 248, 247, 187, 244, 155, 81, 61, 225, 47, 16, 190, 154, 127, 232, 61, 194, 137, 180, 189, 183, 233, 4, 62, 20, 184, 236, 61, 0, 248, 212, 57, 190, 66, 133, 61, 88, 129, 45, 190, 205, 197, 84, 189, 102, 159, 53, 61, 60, 4, 27, 190, 28, 30, 136, 189, 80, 97, 194, 188, 8, 133, 221, 61, 170, 220, 39, 61, 36, 251, 20, 190, 58, 225, 139, 61, 172, 103, 34, 62, 118, 24, 24, 62, 128, 7, 243, 58, 10, 115, 18, 190, 19, 197, 17, 190, 254, 235, 169, 187, 30, 201, 136, 61, 176, 169, 99, 60, 104, 248, 25, 190, 64, 58, 208, 187, 170, 165, 210, 61, 26, 206, 191, 189, 161, 20, 204, 189, 234, 89, 120, 189, 240, 189, 84, 61, 1, 214, 192, 188, 131, 238, 241, 189, 106, 52, 216, 61, 207, 181, 3, 61, 5, 158, 179, 189, 142, 6, 44, 190, 180, 62, 211, 189, 14, 252, 217, 61, 38, 6, 146, 61, 205, 172, 21, 62, 183, 46, 70, 60, 97, 89, 41, 62, 107, 152, 144, 61, 212, 71, 218, 189, 68, 152, 12, 190, 9, 244, 58, 190, 198, 2, 231, 187, 90, 79, 135, 61, 107, 150, 72, 61, 46, 251, 22, 190, 45, 170, 21, 190, 73, 51, 42, 190, 5, 107, 204, 61, 254, 141, 56, 61, 95, 71, 132, 60, 41, 57, 14, 190, 6, 201, 166, 189, 132, 250, 198, 187, 163, 166, 0, 62, 19, 64, 237, 188, 127, 8, 72, 188, 204, 216, 107, 61, 43, 41, 50, 62, 148, 241, 30, 61, 148, 166, 181, 61, 68, 77, 6, 61, 121, 132, 215, 64, 44, 9, 47, 189, 151, 11, 166, 189, 237, 86, 219, 64, 32, 91, 216, 64, 125, 134, 222, 64, 236, 194, 2, 189, 116, 4, 214, 64, 118, 47, 43, 190, 110, 196, 220, 64, 171, 206, 220, 64, 182, 234, 200, 61, 191, 89, 215, 64, 226, 235, 174, 61, 171, 22, 221, 64, 70, 214, 170, 189, 57, 45, 223, 64, 222, 205, 239, 61, 27, 254, 219, 64, 6, 1, 18, 190, 75, 86, 86, 189, 191, 103, 142, 189, 211, 234, 143, 189, 23, 194, 222, 64, 159, 117, 9, 58, 245, 249, 203, 189, 166, 82, 246, 61, 89, 62, 17, 62, 237, 84, 221, 64, 109, 140, 15, 190, 0, 246, 242, 188, 114, 130, 217, 64, 207, 188, 220, 64, 72, 62, 22, 189, 180, 117, 215, 64, 128, 243, 148, 58, 84, 228, 236, 189, 34, 107, 175, 61, 18, 88, 213, 64, 8, 254, 223, 188, 255, 128, 215, 64, 7, 5, 214, 64, 112, 129, 193, 60, 36, 2, 215, 64, 208, 58, 214, 64, 23, 115, 204, 64, 1, 77, 220, 64, 186, 223, 219, 64, 157, 97, 220, 64, 116, 7, 220, 64, 111, 88, 222, 64, 21, 42, 221, 64, 11, 179, 214, 64, 240, 125, 33, 190, 46, 52, 167, 60, 91, 216, 11, 59, 231, 91, 223, 64, 74, 84, 224, 61, 97, 51, 218, 64, 44, 141, 48, 190, 20, 184, 122, 189, 57, 88, 6, 62, 124, 200, 96, 189, 168, 175, 245, 189, 27, 108, 76, 189, 113, 103, 29, 190, 48, 6, 149, 188, 118, 95, 147, 189, 10, 150, 179, 61, 183, 133, 231, 61, 219, 76, 40, 62, 190, 115, 202, 61, 209, 235, 152, 60, 48, 44, 13, 190, 222, 100, 143, 61, 38, 235, 137, 61, 70, 116, 212, 61, 191, 155, 108, 189, 119, 10, 11, 62, 117, 232, 245, 61, 106, 153, 166, 61, 64, 204, 107, 187, 171, 200, 125, 61, 0, 65, 234, 187, 225, 174, 144, 189, 108, 209, 2, 190, 48, 16, 72, 61, 55, 162, 91, 188, 113, 235, 21, 190, 39, 253, 1, 190, 14, 94, 20, 190, 26, 27, 220, 61, 240, 157, 34, 190, 176, 187, 144, 188, 151, 137, 132, 189, 164, 87, 147, 60, 156, 69, 167, 189, 236, 90, 88, 189, 121, 141, 44, 190, 183, 37, 245, 189, 121, 60, 17, 62, 209, 62, 169, 189, 132, 153, 63, 189, 20, 209, 32, 189, 204, 41, 27, 190, 35, 49, 255, 189, 152, 139, 47, 61, 180, 251, 42, 190, 206, 94, 158, 61, 27, 23, 11, 190, 216, 211, 36, 190, 152, 85, 30, 190, 68, 59, 39, 62, 107, 242, 28, 62, 212, 214, 192, 189, 81, 232, 34, 62, 14, 111, 199, 61, 72, 163, 84, 61, 128, 135, 76, 60, 74, 70, 182, 189, 62, 20, 248, 189, 88, 29, 45, 190, 209, 253, 140, 189, 226, 184, 41, 190, 178, 254, 18, 190, 75, 102, 153, 189, 203, 171, 204, 189, 71, 40, 36, 190, 255, 205, 26, 190, 213, 219, 32, 62, 158, 143, 197, 61, 90, 116, 183, 189, 133, 140, 189, 189, 113, 108, 50, 190, 118, 126, 153, 61, 200, 70, 120, 61, 174, 238, 108, 61, 218, 3, 16, 62, 182, 244, 65, 190, 62, 69, 237, 189, 250, 205, 218, 61, 73, 65, 11, 190, 222, 37, 194, 61, 103, 158, 121, 189, 27, 46, 11, 190, 75, 54, 19, 62, 235, 154, 122, 61, 240, 208, 48, 188, 155, 132, 203, 61, 15, 170, 233, 59, 67, 81, 3, 62, 216, 119, 217, 189, 18, 147, 135, 61, 79, 234, 49, 62, 222, 227, 252, 61, 109, 153, 138, 189, 70, 18, 250, 189, 204, 141, 31, 61, 12, 192, 65, 61, 63, 14, 0, 189, 84, 92, 213, 61, 112, 184, 224, 189, 225, 171, 150, 61, 102, 246, 6, 190, 116, 32, 88, 189, 242, 217, 252, 61, 37, 141, 143, 61, 169, 2, 217, 189, 208, 34, 168, 189, 116, 99, 217, 61, 114, 63, 247, 189, 31, 213, 224, 189, 99, 51, 24, 62, 155, 249, 55, 190, 126, 253, 59, 61, 228, 149, 193, 60, 148, 100, 62, 60, 248, 253, 32, 190, 187, 228, 149, 189, 178, 57, 250, 61, 211, 112, 34, 62, 60, 99, 211, 189, 8, 159, 209, 60, 41, 147, 191, 61, 151, 110, 98, 189, 55, 20, 68, 189, 180, 50, 246, 61, 0, 39, 33, 186, 116, 183, 2, 190, 197, 202, 15, 61, 230, 33, 182, 61, 179, 205, 33, 189, 117, 4, 213, 61, 82, 10, 86, 189, 228, 23, 13, 61, 238, 223, 32, 62, 117, 255, 200, 189, 235, 130, 125, 188, 102, 47, 252, 61, 255, 132, 2, 190, 254, 22, 195, 60, 165, 72, 18, 190, 221, 17, 10, 190, 30, 47, 200, 61, 12, 164, 215, 61, 199, 133, 200, 61, 247, 236, 183, 60, 55, 194, 145, 189, 181, 17, 8, 189, 189, 8, 22, 62, 150, 13, 254, 187, 227, 34, 33, 62, 216, 17, 171, 61, 127, 68, 226, 60, 18, 207, 224, 61, 173, 110, 213, 61, 193, 157, 90, 189, 80, 43, 132, 188, 226, 140, 167, 61, 225, 243, 52, 190, 216, 0, 58, 189, 144, 103, 54, 60, 116, 82, 213, 189, 26, 22, 148, 61, 125, 25, 32, 61, 28, 223, 70, 61, 201, 249, 14, 190, 32, 10, 6, 61, 87, 14, 20, 62, 128, 186, 32, 61, 3, 76, 141, 188, 114, 148, 140, 61, 211, 139, 100, 61, 9, 78, 144, 61, 96, 225, 60, 60, 104, 98, 29, 190, 126, 56, 104, 61, 205, 16, 128, 61, 63, 51, 195, 61, 250, 23, 210, 189, 153, 181, 198, 61, 109, 128, 19, 190, 60, 133, 100, 190, 114, 210, 250, 60, 19, 212, 211, 188, 96, 8, 123, 61, 1, 230, 37, 62, 187, 21, 16, 62, 76, 221, 19, 62, 176, 161, 61, 60, 105, 235, 26, 190, 28, 160, 178, 189, 88, 77, 24, 61, 227, 197, 130, 61, 252, 83, 208, 187, 160, 113, 208, 188, 108, 4, 43, 190, 160, 16, 144, 187, 80, 143, 58, 61, 64, 0, 120, 187, 196, 72, 157, 61, 187, 11, 25, 62, 46, 78, 147, 189, 220, 12, 223, 189, 108, 58, 95, 189, 74, 86, 157, 61, 220, 149, 53, 61, 128, 127, 250, 187, 87, 3, 25, 62, 136, 61, 141, 61, 41, 240, 54, 190, 251, 107, 39, 62, 174, 32, 30, 190, 10, 132, 226, 61, 84, 219, 13, 190, 153, 187, 52, 62, 254, 185, 132, 61, 151, 196, 186, 188, 50, 191, 209, 61, 178, 49, 53, 61, 142, 175, 43, 61, 213, 250, 171, 189, 181, 118, 30, 62, 54, 161, 179, 61, 20, 24, 10, 190, 10, 156, 230, 61, 144, 209, 38, 188, 7, 213, 208, 61, 146, 112, 159, 188, 146, 5, 235, 189, 242, 251, 72, 61, 32, 54, 126, 61, 124, 158, 48, 189, 7, 111, 13, 190, 168, 169, 22, 190, 64, 83, 15, 190, 26, 50, 35, 189, 153, 59, 148, 61, 60, 146, 136, 61, 233, 74, 149, 189, 27, 152, 23, 62, 40, 94, 106, 61, 56, 222, 127, 189, 49, 208, 124, 188, 134, 248, 141, 60, 254, 142, 190, 189, 232, 241, 147, 189, 152, 143, 31, 190, 37, 81, 23, 190, 192, 81, 115, 187, 180, 126, 121, 61, 47, 12, 241, 61, 208, 215, 4, 189, 58, 26, 236, 189, 61, 86, 248, 61, 112, 132, 68, 189, 107, 24, 11, 62, 101, 187, 128, 60, 179, 112, 25, 62, 158, 51, 29, 190, 28, 91, 219, 64, 192, 223, 221, 187, 189, 76, 50, 62, 68, 42, 211, 64, 168, 126, 217, 64, 230, 120, 223, 64, 36, 2, 211, 189, 34, 56, 222, 64, 157, 85, 62, 189, 83, 25, 217, 64, 73, 130, 222, 64, 48, 255, 148, 60, 154, 43, 218, 64, 12, 35, 22, 62, 139, 145, 225, 64, 231, 214, 27, 189, 253, 189, 218, 64, 198, 94, 233, 61, 64, 32, 225, 64, 7, 29, 132, 189, 58, 48, 180, 189, 169, 183, 2, 62, 214, 119, 94, 189, 42, 224, 225, 64, 127, 206, 8, 61, 86, 248, 120, 189, 24, 47, 13, 189, 64, 14, 211, 189, 207, 25, 216, 64, 209, 76, 54, 60, 168, 241, 103, 189, 242, 29, 220, 64, 201, 135, 220, 64, 144, 236, 117, 188, 193, 91, 222, 64, 32, 186, 12, 189, 1, 234, 43, 190, 38, 121, 175, 61, 94, 48, 214, 64, 99, 109, 33, 62, 146, 232, 223, 64, 68, 13, 217, 64, 122, 179, 201, 189, 23, 189, 220, 64, 225, 154, 215, 64, 203, 254, 207, 64, 149, 242, 223, 64, 96, 173, 225, 64, 191, 6, 222, 64, 12, 173, 221, 64, 192, 174, 215, 64, 226, 17, 215, 64, 248, 30, 222, 64, 148, 117, 7, 61, 136, 52, 87, 61, 60, 153, 200, 189, 239, 80, 220, 64, 241, 136, 44, 190, 45, 220, 225, 64, 0, 173, 73, 61, 158, 91, 21, 190, 136, 210, 227, 61, 127, 223, 32, 189, 251, 59, 249, 189, 96, 219, 224, 64, 99, 103, 10, 62, 49, 132, 163, 189, 14, 0, 218, 64, 241, 74, 217, 64, 70, 40, 222, 64, 26, 43, 234, 61, 11, 236, 212, 64, 81, 210, 136, 61, 226, 56, 221, 64, 53, 28, 217, 64, 217, 191, 9, 62, 28, 73, 222, 64, 25, 249, 157, 189, 97, 189, 215, 64, 47, 255, 22, 190, 25, 103, 215, 64, 120, 236, 26, 61, 143, 243, 223, 64, 137, 95, 49, 190, 9, 236, 117, 61, 83, 235, 246, 61, 194, 12, 200, 61, 213, 22, 223, 64, 46, 34, 95, 189, 57, 214, 237, 56, 115, 150, 174, 189, 202, 49, 31, 190, 72, 187, 223, 64, 206, 41, 18, 62, 181, 52, 42, 62, 170, 90, 224, 64, 92, 219, 223, 64, 160, 151, 253, 189, 14, 160, 214, 64, 120, 53, 126, 61, 221, 155, 23, 190, 194, 85, 130, 61, 161, 35, 216, 64, 14, 65, 147, 189, 148, 113, 225, 64, 134, 95, 215, 64, 208, 221, 183, 60, 15, 71, 219, 64, 72, 45, 224, 64, 159, 216, 205, 64, 112, 80, 219, 64, 193, 142, 219, 64, 131, 93, 217, 64, 79, 88, 215, 64, 140, 196, 224, 64, 169, 50, 217, 64, 106, 129, 223, 64, 4, 169, 28, 61, 27, 4, 56, 61, 74, 116, 44, 60, 204, 189, 220, 64, 103, 213, 156, 61, 126, 192, 219, 64, 128, 244, 59, 189, 131, 211, 232, 189, 237, 48, 234, 61, 94, 55, 241, 61, 146, 209, 11, 190, 34, 129, 7, 190, 120, 201, 55, 61, 84, 92, 69, 61, 192, 35, 15, 187, 83, 67, 14, 190, 0, 161, 125, 60, 255, 244, 1, 62, 152, 156, 96, 189, 51, 44, 16, 190, 9, 71, 22, 62, 0, 250, 225, 60, 127, 26, 143, 189, 159, 102, 32, 62, 184, 89, 135, 188, 208, 60, 91, 188, 108, 39, 151, 189, 96, 61, 134, 187, 176, 57, 96, 61, 64, 108, 64, 188, 99, 54, 14, 190, 210, 246, 33, 190, 52, 151, 4, 189, 80, 178, 176, 60, 200, 108, 28, 61, 145, 166, 156, 189, 228, 115, 7, 189, 132, 218, 33, 61, 0, 154, 0, 189, 182, 143, 17, 190, 162, 41, 154, 61, 251, 240, 49, 62, 131, 93, 135, 189, 88, 149, 98, 61, 61, 231, 15, 62, 147, 31, 37, 62, 196, 125, 100, 61, 73, 91, 46, 190, 223, 233, 28, 62, 34, 16, 168, 189, 224, 255, 142, 188, 98, 228, 141, 189, 66, 128, 239, 189, 58, 155, 161, 189, 245, 254, 223, 189, 208, 40, 86, 60, 227, 168, 40, 62, 163, 13, 48, 62, 196, 242, 4, 61, 78, 12, 131, 189, 185, 75, 207, 189, 168, 131, 27, 189, 42, 89, 19, 190, 185, 166, 210, 189, 40, 0, 89, 61, 64, 101, 162, 59, 208, 40, 250, 60, 24, 104, 182, 188, 26, 223, 180, 61, 224, 16, 42, 189, 200, 248, 12, 61, 56, 84, 167, 189, 174, 227, 229, 189, 224, 182, 131, 61, 12, 220, 213, 61, 150, 253, 220, 64, 216, 29, 27, 190, 176, 115, 64, 188, 49, 131, 212, 64, 234, 45, 224, 64, 131, 111, 218, 64, 132, 57, 16, 190, 74, 123, 216, 64, 160, 52, 167, 189, 35, 101, 221, 64, 61, 130, 224, 64, 64, 249, 116, 59, 186, 109, 221, 64, 29, 85, 193, 60, 192, 42, 223, 64, 129, 168, 76, 189, 190, 140, 225, 64, 74, 230, 232, 61, 214, 21, 220, 64, 204, 130, 15, 189, 71, 234, 66, 59, 168, 109, 145, 189, 168, 244, 45, 61, 231, 204, 222, 64, 75, 35, 142, 61, 22, 121, 100, 60, 224, 116, 40, 190, 103, 240, 5, 190, 53, 220, 224, 64, 253, 61, 137, 61, 6, 84, 188, 61, 161, 5, 220, 64, 170, 209, 221, 64, 80, 68, 143, 188, 13, 25, 216, 64, 165, 161, 201, 189, 8, 33, 143, 60, 136, 10, 149, 61, 170, 225, 218, 64, 194, 161, 243, 189, 156, 90, 218, 64, 222, 21, 217, 64, 136, 119, 3, 190, 242, 80, 224, 64, 80, 64, 221, 64, 83, 98, 208, 64, 92, 175, 216, 64, 214, 134, 225, 64, 167, 49, 220, 64, 51, 122, 218, 64, 243, 136, 225, 64, 99, 234, 216, 64, 187, 159, 219, 64, 114, 205, 252, 61, 179, 30, 222, 59, 151, 244, 43, 60, 193, 105, 214, 64, 185, 84, 43, 190, 161, 109, 217, 64, 71, 106, 195, 189, 110, 45, 173, 189, 77, 143, 11, 190, 141, 3, 168, 188, 141, 251, 138, 189, 75, 93, 222, 64, 135, 147, 33, 62, 88, 97, 102, 189, 30, 71, 208, 64, 181, 155, 222, 64, 194, 34, 225, 64, 96, 155, 58, 61, 72, 121, 214, 64, 117, 232, 244, 189, 118, 164, 219, 64, 50, 252, 217, 64, 137, 232, 5, 62, 23, 198, 219, 64, 181, 154, 61, 59, 138, 66, 221, 64, 112, 229, 95, 189, 43, 0, 221, 64, 176, 22, 122, 188, 20, 20, 219, 64, 144, 80, 241, 60, 81, 136, 6, 190, 58, 155, 182, 189, 228, 91, 83, 61, 197, 20, 219, 64, 34, 14, 32, 189, 185, 34, 182, 60, 190, 57, 46, 190, 86, 10, 195, 61, 76, 213, 222, 64, 251, 167, 43, 190, 98, 241, 228, 61, 149, 193, 219, 64, 25, 144, 223, 64, 237, 74, 144, 189, 61, 51, 222, 64, 0, 214, 106, 61, 100, 64, 11, 189, 112, 38, 71, 61, 254, 45, 216, 64, 131, 20, 10, 190, 107, 163, 218, 64, 208, 239, 225, 64, 156, 25, 177, 189, 219, 168, 218, 64, 251, 129, 224, 64, 49, 95, 198, 64, 97, 20, 224, 64, 126, 217, 224, 64, 35, 24, 215, 64, 7, 74, 221, 64, 138, 64, 224, 64, 168, 214, 224, 64, 113, 254, 214, 64, 199, 20, 159, 189, 194, 250, 122, 61, 53, 174, 40, 62, 94, 231, 222, 64, 58, 35, 222, 189, 148, 79, 225, 64, 84, 43, 88, 61, 100, 151, 60, 61, 73, 104, 8, 190, 26, 190, 3, 189, 217, 64, 87, 60, 249, 139, 215, 64, 77, 192, 187, 189, 80, 49, 48, 190, 151, 113, 214, 64, 132, 63, 225, 64, 216, 61, 222, 64, 95, 114, 26, 190, 168, 234, 219, 64, 63, 138, 4, 61, 208, 171, 215, 64, 211, 3, 224, 64, 248, 97, 92, 61, 218, 170, 217, 64, 2, 87, 70, 61, 59, 8, 222, 64, 95, 124, 33, 190, 151, 203, 216, 64, 0, 67, 14, 186, 110, 151, 223, 64, 116, 69, 15, 189, 129, 30, 45, 190, 129, 96, 148, 61, 78, 199, 255, 189, 65, 146, 218, 64, 188, 205, 178, 61, 27, 9, 140, 189, 82, 239, 22, 190, 96, 50, 54, 188, 90, 178, 218, 64, 180, 2, 209, 189, 20, 62, 141, 61, 226, 127, 223, 64, 87, 154, 224, 64, 0, 56, 49, 58, 112, 211, 222, 64, 59, 147, 232, 189, 106, 113, 229, 61, 73, 176, 16, 190, 105, 132, 223, 64, 172, 44, 105, 189, 152, 128, 214, 64, 130, 97, 221, 64, 42, 228, 174, 61, 140, 47, 221, 64, 117, 255, 223, 64, 8, 225, 203, 64, 179, 182, 219, 64, 214, 61, 214, 64, 66, 211, 219, 64, 243, 17, 217, 64, 62, 155, 218, 64, 186, 107, 225, 64, 140, 87, 224, 64, 96, 1, 228, 188, 91, 61, 66, 62, 28, 249, 16, 62, 177, 67, 220, 64, 189, 169, 207, 187, 99, 16, 219, 64, 114, 16, 214, 61, 172, 247, 6, 61, 121, 58, 239, 189, 151, 247, 135, 60, 160, 224, 164, 188, 19, 48, 192, 189, 111, 66, 13, 190, 51, 5, 24, 62, 22, 74, 220, 61, 156, 182, 34, 190, 4, 255, 26, 190, 66, 165, 238, 61, 168, 26, 230, 189, 158, 19, 174, 61, 213, 24, 239, 58, 41, 255, 253, 61, 63, 188, 130, 189, 16, 107, 145, 189, 14, 109, 115, 189, 147, 101, 140, 189, 0, 232, 157, 186, 116, 212, 46, 60, 232, 22, 145, 61, 157, 103, 234, 60, 45, 21, 51, 62, 227, 121, 9, 62, 224, 1, 148, 189, 240, 181, 173, 188, 115, 76, 199, 61, 211, 53, 211, 189, 168, 238, 238, 189, 37, 172, 49, 190, 207, 210, 168, 189, 41, 196, 70, 60, 213, 98, 2, 190, 4, 235, 132, 61, 82, 170, 104, 188, 224, 173, 177, 61, 96, 239, 167, 59, 47, 200, 170, 61, 228, 62, 138, 61, 168, 156, 10, 61, 224, 21, 254, 60, 70, 116, 28, 190, 152, 145, 164, 60, 91, 203, 215, 61, 1, 8, 123, 189, 226, 178, 205, 61, 248, 15, 146, 61, 109, 123, 208, 60, 240, 13, 60, 60, 207, 10, 178, 61, 25, 120, 15, 190, 38, 89, 139, 61, 247, 91, 214, 61, 127, 86, 69, 60, 170, 144, 152, 61, 81, 185, 204, 61, 237, 139, 11, 62, 49, 176, 22, 62, 24, 126, 199, 60, 60, 165, 27, 190, 160, 77, 19, 60, 132, 50, 21, 190, 32, 93, 92, 188, 72, 98, 252, 188, 40, 197, 124, 189, 36, 34, 219, 189, 0, 132, 159, 60, 104, 145, 221, 64, 187, 24, 8, 62, 34, 124, 174, 189, 199, 24, 210, 64, 14, 219, 216, 64, 201, 75, 225, 64, 116, 166, 20, 190, 205, 254, 214, 64, 98, 157, 190, 189, 31, 221, 216, 64, 89, 158, 223, 64, 91, 1, 32, 62, 244, 183, 218, 64, 157, 228, 53, 189, 103, 141, 214, 64, 73, 190, 243, 61, 139, 244, 216, 64, 208, 196, 89, 188, 166, 38, 218, 64, 128, 193, 162, 59, 14, 12, 150, 188, 163, 109, 130, 61, 22, 171, 158, 189, 167, 186, 222, 64, 11, 208, 7, 190, 193, 192, 224, 61, 166, 252, 243, 61, 92, 61, 23, 189, 12, 123, 214, 64, 103, 139, 236, 61, 0, 42, 245, 189, 8, 78, 215, 64, 246, 9, 225, 64, 135, 44, 130, 189, 183, 112, 216, 64, 193, 167, 136, 189, 55, 114, 16, 62, 246, 164, 231, 61, 227, 26, 224, 64, 116, 6, 106, 61, 145, 18, 225, 64, 78, 64, 217, 64, 65, 105, 20, 62, 55, 243, 218, 64, 56, 118, 214, 64, 196, 190, 199, 64, 91, 159, 222, 64, 112, 69, 224, 64, 43, 2, 217, 64, 168, 118, 214, 64, 215, 237, 218, 64, 224, 246, 215, 64, 6, 233, 215, 64, 189, 193, 145, 189, 99, 214, 82, 189, 190, 34, 28, 62, 84, 104, 215, 64, 77, 207, 2, 190, 167, 232, 220, 64, 31, 83, 14, 62, 141, 192, 41, 62, 181, 48, 161, 188, 123, 161, 30, 190, 135, 61, 33, 62, 35, 53, 50, 190, 204, 63, 47, 61, 80, 18, 83, 189, 190, 58, 179, 189, 103, 101, 21, 62, 220, 134, 174, 61, 72, 26, 230, 189, 32, 113, 130, 59, 209, 245, 15, 62, 244, 202, 150, 61, 13, 154, 88, 188, 82, 248, 179, 61, 45, 185, 94, 61, 169, 26, 233, 189, 161, 210, 5, 62, 96, 148, 178, 61, 149, 100, 18, 190, 208, 176, 84, 60, 250, 83, 228, 61, 57, 141, 17, 190, 205, 112, 29, 190, 23, 17, 228, 61, 88, 201, 50, 189, 27, 68, 10, 190, 5, 43, 216, 189, 0, 53, 130, 186, 154, 154, 234, 189, 240, 154, 239, 60, 77, 215, 49, 190, 248, 234, 238, 189, 169, 56, 52, 190, 115, 168, 131, 189, 120, 219, 32, 62, 142, 41, 242, 189, 33, 25, 135, 60, 106, 57, 206, 61, 136, 246, 154, 188, 192, 150, 187, 59, 55, 123, 20, 190, 246, 53, 201, 61, 245, 120, 29, 188, 128, 194, 8, 190, 48, 35, 11, 190, 62, 28, 59, 190, 229, 234, 46, 62, 246, 60, 207, 61, 188, 64, 92, 189, 252, 234, 14, 62, 247, 129, 210, 61, 240, 0, 207, 61, 25, 44, 111, 189, 84, 104, 171, 61, 93, 191, 57, 190, 232, 245, 34, 190, 153, 153, 227, 189, 151, 106, 28, 190, 16, 137, 58, 188, 64, 46, 134, 61, 218, 130, 234, 189, 255, 12, 36, 62, 54, 39, 255, 61, 132, 40, 163, 61, 171, 118, 41, 190, 2, 95, 191, 61, 126, 171, 7, 190, 78, 71, 165, 61, 100, 4, 8, 190, 116, 184, 97, 61, 197, 76, 201, 189, 120, 81, 146, 188, 242, 44, 135, 61, 137, 42, 5, 62, 138, 213, 16, 190, 59, 141, 1, 62, 28, 253, 45, 190, 198, 130, 214, 189, 230, 186, 11, 190, 225, 87, 139, 189, 68, 101, 104, 189, 53, 206, 11, 62, 200, 146, 143, 60, 85, 234, 44, 190, 47, 57, 28, 62, 33, 174, 46, 190, 78, 0, 229, 61, 222, 255, 156, 61, 221, 223, 47, 190, 192, 5, 194, 60, 156, 233, 185, 189, 96, 60, 173, 187, 88, 89, 142, 61, 218, 237, 194, 61, 241, 31, 19, 190, 157, 207, 19, 62, 84, 201, 240, 189, 146, 85, 242, 189, 56, 20, 2, 189, 11, 69, 158, 189, 48, 126, 93, 61, 138, 31, 222, 61, 155, 209, 157, 189, 173, 35, 36, 190, 48, 59, 106, 60, 112, 104, 28, 60, 107, 41, 28, 190, 18, 88, 42, 190, 166, 186, 178, 61, 177, 139, 157, 189, 56, 76, 142, 61, 157, 207, 149, 189, 138, 141, 180, 61, 195, 146, 39, 62, 216, 201, 231, 188, 46, 0, 90, 189, 126, 169, 20, 190, 47, 75, 7, 190, 169, 200, 13, 62, 145, 142, 16, 62, 34, 9, 14, 190, 64, 117, 96, 60, 96, 155, 0, 190, 8, 198, 50, 189, 167, 39, 7, 62, 152, 42, 47, 61, 115, 221, 29, 190, 20, 86, 2, 189, 158, 199, 212, 189, 206, 11, 7, 189, 158, 84, 222, 64, 242, 65, 90, 189, 136, 180, 198, 189, 146, 49, 210, 64, 235, 141, 224, 64, 99, 3, 217, 64, 192, 80, 173, 60, 19, 119, 212, 64, 74, 202, 24, 61, 205, 74, 224, 64, 58, 254, 219, 64, 112, 104, 125, 188, 151, 210, 223, 64, 140, 44, 180, 185, 184, 13, 225, 64, 60, 129, 234, 189, 61, 91, 214, 64, 222, 190, 241, 61, 206, 64, 225, 64, 240, 79, 15, 190, 247, 114, 224, 61, 30, 90, 9, 190, 232, 118, 20, 189, 227, 242, 222, 64, 57, 137, 29, 62, 137, 102, 22, 190, 72, 126, 24, 190, 170, 204, 143, 189, 141, 130, 215, 64, 104, 216, 44, 190, 168, 20, 247, 60, 118, 165, 220, 64, 158, 69, 223, 64, 173, 236, 37, 62, 0, 11, 222, 64, 5, 214, 9, 62, 64, 137, 82, 188, 31, 131, 169, 189, 108, 116, 221, 64, 44, 28, 96, 189, 146, 252, 222, 64, 171, 74, 224, 64, 116, 71, 105, 61, 66, 207, 224, 64, 10, 159, 221, 64, 110, 196, 200, 64, 245, 123, 216, 64, 224, 58, 215, 64, 142, 131, 215, 64, 216, 88, 222, 64, 251, 52, 224, 64, 117, 22, 222, 64, 108, 50, 216, 64, 184, 52, 179, 188, 168, 182, 245, 61, 174, 44, 127, 189, 243, 43, 217, 64, 143, 64, 149, 61, 51, 230, 214, 64, 228, 9, 225, 189, 53, 186, 14, 190, 198, 214, 17, 190, 32, 251, 233, 60, 59, 42, 137, 61, 241, 29, 242, 60, 100, 228, 37, 190, 172, 131, 140, 61, 112, 45, 124, 61, 145, 55, 223, 61, 164, 207, 228, 189, 20, 237, 112, 61, 192, 173, 147, 189, 85, 79, 32, 62, 63, 62, 86, 187, 47, 65, 108, 189, 203, 85, 204, 189, 106, 16, 241, 189, 111, 255, 17, 62, 73, 155, 243, 60, 239, 71, 218, 61, 188, 246, 100, 189, 0, 196, 252, 185, 171, 109, 206, 61, 67, 149, 165, 189, 173, 54, 245, 189, 112, 0, 225, 189, 123, 8, 186, 189, 132, 80, 31, 61, 170, 40, 98, 189, 122, 137, 247, 61, 61, 92, 25, 62, 59, 15, 16, 62, 16, 177, 130, 61, 68, 199, 29, 61, 104, 63, 105, 61, 89, 201, 212, 61, 229, 215, 175, 61, 54, 114, 150, 61, 33, 191, 40, 62, 202, 227, 127, 189, 192, 244, 255, 188, 6, 222, 241, 61, 137, 201, 238, 189, 90, 37, 167, 189, 95, 23, 246, 189, 23, 101, 42, 190, 192, 21, 189, 187, 65, 248, 139, 61, 160, 149, 28, 61, 192, 159, 26, 59, 163, 56, 189, 189, 25, 234, 11, 62, 167, 191, 39, 190, 76, 233, 201, 61, 28, 254, 252, 189, 252, 3, 17, 188, 123, 126, 28, 190, 89, 150, 25, 62, 133, 202, 41, 61, 118, 77, 7, 190, 24, 84, 147, 60, 243, 69, 221, 189, 79, 199, 140, 189, 226, 244, 238, 61, 211, 119, 15, 62, 46, 192, 137, 189, 66, 241, 197, 61, 135, 173, 132, 189, 76, 45, 222, 64, 117, 224, 28, 62, 128, 130, 181, 187, 64, 255, 211, 64, 0, 240, 219, 64, 153, 9, 224, 64, 237, 98, 15, 62, 253, 152, 219, 64, 236, 223, 246, 189, 66, 204, 219, 64, 123, 209, 215, 64, 28, 116, 137, 61, 67, 211, 214, 64, 126, 202, 11, 61, 149, 173, 217, 64, 75, 199, 18, 190, 110, 84, 220, 64, 88, 25, 198, 189, 169, 34, 220, 64, 114, 6, 35, 190, 103, 97, 236, 189, 214, 60, 27, 190, 242, 127, 160, 61, 17, 38, 218, 64, 136, 201, 206, 61, 198, 43, 27, 62, 55, 82, 149, 189, 157, 14, 167, 189, 86, 168, 214, 64, 60, 82, 34, 190, 176, 53, 220, 189, 33, 144, 224, 64, 45, 69, 218, 64, 140, 18, 78, 189, 238, 90, 224, 64, 10, 39, 156, 61, 251, 124, 194, 189, 82, 255, 161, 61, 75, 64, 221, 64, 86, 119, 233, 189, 135, 128, 224, 64, 95, 249, 214, 64, 176, 206, 63, 189, 33, 40, 223, 64, 119, 229, 220, 64, 66, 58, 198, 64, 41, 24, 225, 64, 220, 172, 220, 64, 241, 232, 215, 64, 109, 65, 219, 64, 230, 188, 221, 64, 172, 137, 221, 64, 178, 223, 215, 64, 188, 85, 32, 61, 9, 185, 239, 188, 175, 149, 18, 189, 136, 199, 217, 64, 207, 45, 120, 188, 217, 76, 220, 64, 88, 135, 219, 60, 232, 119, 77, 189, 237, 151, 72, 189, 80, 177, 34, 190, 86, 89, 231, 61, 228, 177, 51, 61, 114, 73, 173, 61, 80, 44, 74, 60, 184, 93, 52, 189, 136, 172, 116, 189, 24, 5, 85, 189, 249, 206, 11, 190, 183, 17, 35, 62, 224, 226, 145, 187, 102, 62, 210, 61, 142, 61, 8, 190, 43, 80, 15, 190, 66, 217, 231, 61, 90, 151, 225, 61, 237, 16, 22, 62, 239, 176, 0, 62, 144, 54, 31, 190, 148, 24, 251, 189, 16, 247, 216, 60, 40, 14, 223, 188, 64, 87, 159, 187, 134, 213, 198, 189, 100, 62, 13, 61, 112, 243, 116, 188, 10, 218, 162, 61, 78, 26, 154, 189, 119, 156, 220, 189, 106, 94, 166, 61, 250, 43, 210, 189, 198, 19, 152, 189, 145, 111, 215, 189, 17, 122, 4, 190, 92, 245, 35, 190, 254, 98, 16, 190, 198, 55, 2, 190, 48, 228, 113, 188, 144, 141, 160, 188, 30, 127, 0, 190, 48, 244, 63, 188, 178, 237, 173, 61, 86, 83, 230, 189, 248, 82, 72, 61, 184, 179, 148, 60, 14, 254, 142, 189, 224, 124, 245, 187, 87, 49, 43, 62, 189, 10, 32, 190, 167, 12, 42, 190, 94, 51, 38, 190, 88, 102, 55, 61, 218, 89, 227, 61, 199, 166, 196, 189, 50, 113, 233, 61, 32, 78, 169, 59, 162, 175, 39, 190, 52, 51, 33, 190, 209, 237, 213, 189, 30, 159, 224, 189, 193, 207, 41, 190, 152, 6, 160, 60, 233, 56, 28, 62, 143, 232, 26, 62, 75, 103, 48, 62, 201, 196, 15, 62, 220, 8, 120, 189, 232, 133, 177, 189, 83, 16, 12, 190, 63, 202, 250, 189, 83, 71, 161, 189, 49, 39, 44, 190, 88, 253, 132, 60, 3, 215, 29, 62, 68, 71, 197, 189, 41, 220, 18, 190, 178, 230, 164, 61, 206, 82, 133, 189, 196, 70, 127, 189, 0, 178, 83, 187, 228, 55, 146, 189, 232, 67, 200, 188, 236, 106, 122, 189, 231, 225, 19, 62, 127, 136, 206, 189, 17, 139, 45, 62, 120, 132, 57, 189, 84, 110, 80, 189, 8, 154, 231, 188, 253, 40, 1, 62, 132, 218, 125, 61, 40, 56, 39, 61, 160, 79, 164, 59, 236, 127, 130, 61, 60, 251, 208, 189, 4, 185, 144, 189, 116, 212, 141, 189, 107, 111, 184, 189, 143, 146, 21, 62, 118, 77, 192, 61, 112, 254, 77, 189, 148, 32, 98, 61, 26, 110, 50, 190, 90, 28, 252, 61, 16, 118, 88, 61, 64, 162, 156, 188, 224, 226, 76, 61, 178, 181, 174, 61, 13, 20, 11, 190, 64, 129, 33, 188, 144, 113, 143, 60, 4, 144, 55, 61, 56, 167, 246, 189, 78, 170, 185, 189, 128, 159, 45, 60, 14, 128, 152, 61, 233, 235, 214, 189, 176, 220, 29, 190, 29, 89, 14, 62, 215, 87, 151, 189, 36, 190, 52, 190, 148, 218, 58, 61, 23, 176, 26, 190, 160, 15, 103, 60, 244, 50, 245, 189, 179, 215, 242, 189, 103, 56, 47, 62, 126, 202, 227, 61, 120, 176, 195, 60, 18, 65, 233, 189, 9, 113, 222, 64, 33, 129, 24, 62, 236, 39, 10, 190, 160, 230, 209, 64, 200, 8, 225, 64, 39, 168, 220, 64, 221, 77, 3, 62, 255, 15, 222, 64, 189, 184, 236, 60, 136, 142, 223, 64, 104, 33, 219, 64, 64, 181, 183, 189, 25, 6, 215, 64, 147, 231, 4, 62, 15, 51, 217, 64, 31, 59, 34, 190, 73, 236, 224, 64, 95, 46, 17, 190, 160, 84, 219, 64, 65, 94, 183, 189, 171, 229, 70, 188, 3, 154, 105, 61, 87, 162, 31, 62, 18, 206, 225, 64, 248, 21, 174, 61, 205, 104, 180, 60, 192, 171, 17, 190, 11, 113, 10, 62, 7, 121, 224, 64, 199, 214, 230, 60, 232, 4, 3, 189, 10, 105, 224, 64, 234, 192, 217, 64, 28, 103, 119, 189, 168, 28, 218, 64, 4, 161, 59, 189, 7, 159, 186, 189, 86, 132, 224, 61, 122, 200, 220, 64, 208, 112, 188, 189, 234, 236, 217, 64, 106, 64, 215, 64, 24, 254, 32, 190, 153, 155, 219, 64, 219, 36, 221, 64, 17, 56, 208, 64, 131, 224, 221, 64, 229, 26, 221, 64, 137, 128, 221, 64, 118, 95, 221, 64, 227, 131, 225, 64, 42, 189, 222, 64, 108, 183, 221, 64, 128, 76, 156, 58, 70, 219, 157, 61, 114, 89, 13, 190, 220, 185, 217, 64, 200, 145, 24, 59, 175, 53, 222, 64, 148, 95, 200, 189, 246, 56, 165, 61, 137, 0, 237, 60, 178, 157, 20, 62, 236, 101, 217, 61, 160, 70, 170, 64, 47, 243, 22, 62, 54, 94, 225, 61, 109, 254, 168, 64, 72, 149, 167, 64, 158, 103, 160, 64, 250, 62, 164, 189, 54, 247, 165, 64, 239, 115, 209, 60, 56, 36, 165, 64, 231, 88, 160, 64, 144, 253, 83, 188, 207, 127, 168, 64, 190, 219, 86, 60, 254, 8, 160, 64, 116, 245, 57, 189, 100, 240, 166, 64, 10, 141, 46, 190, 178, 90, 165, 64, 186, 119, 14, 190, 162, 50, 108, 189, 185, 232, 159, 61, 184, 88, 175, 188, 191, 80, 159, 64, 52, 105, 182, 189, 77, 155, 134, 189, 78, 132, 212, 61, 183, 220, 39, 62, 159, 38, 160, 64, 203, 31, 14, 62, 104, 22, 219, 189, 222, 82, 161, 64, 21, 203, 160, 64, 202, 74, 216, 61, 3, 155, 166, 64, 63, 118, 176, 189, 171, 217, 13, 190, 40, 142, 170, 188, 106, 176, 161, 64, 218, 247, 195, 61, 177, 44, 168, 64, 84, 192, 163, 64, 210, 117, 180, 61, 232, 221, 165, 64, 116, 185, 166, 64, 8, 52, 171, 64, 62, 240, 166, 64, 74, 171, 169, 64, 121, 217, 168, 64, 83, 86, 165, 64, 238, 253, 166, 64, 250, 223, 162, 64, 38, 146, 161, 64, 169, 24, 1, 62, 240, 114, 91, 60, 182, 91, 143, 61, 231, 40, 163, 64, 180, 205, 136, 61, 133, 100, 169, 64, 146, 75, 144, 61, 176, 129, 33, 61, 181, 200, 234, 189, 99, 38, 139, 189, 28, 19, 37, 190, 103, 118, 39, 190, 24, 135, 193, 188, 39, 138, 7, 62, 240, 33, 133, 60, 202, 81, 237, 61, 88, 179, 42, 190, 18, 245, 156, 61, 28, 10, 26, 189, 91, 172, 22, 62, 10, 16, 228, 61, 244, 80, 84, 189, 198, 247, 198, 61, 138, 120, 169, 61, 72, 161, 217, 188, 160, 111, 97, 61, 67, 38, 13, 190, 107, 150, 138, 189, 87, 207, 39, 62, 87, 150, 4, 190, 254, 128, 246, 61, 161, 245, 236, 189, 14, 58, 244, 61, 59, 89, 48, 62, 8, 24, 253, 60, 130, 10, 221, 61, 64, 147, 66, 189, 15, 84, 28, 62, 0, 116, 85, 188, 0, 120, 12, 187, 112, 56, 35, 61, 54, 189, 186, 61, 224, 145, 171, 187, 168, 23, 250, 60, 154, 229, 162, 189, 122, 194, 165, 61, 62, 29, 199, 61, 31, 146, 27, 190, 245, 231, 33, 62, 92, 58, 202, 189, 16, 84, 17, 61, 186, 27, 148, 189, 176, 69, 27, 190, 131, 91, 24, 190, 164, 238, 128, 189, 68, 137, 21, 61, 194, 84, 250, 189, 147, 95, 23, 62, 123, 222, 16, 190, 35, 192, 29, 62, 130, 40, 44, 190, 6, 6, 178, 61, 74, 116, 208, 189, 224, 9, 113, 60, 5, 59, 28, 190, 148, 75, 9, 189, 84, 203, 137, 61, 186, 170, 134, 61, 96, 143, 33, 60, 220, 36, 239, 189, 6, 247, 227, 189, 8, 124, 23, 189, 116, 44, 144, 61, 110, 50, 226, 61, 25, 235, 3, 62, 88, 253, 223, 64, 248, 141, 171, 188, 160, 141, 170, 188, 231, 99, 209, 64, 169, 176, 221, 64, 68, 132, 218, 64, 134, 255, 121, 189, 140, 100, 219, 64, 131, 226, 43, 62, 244, 111, 216, 64, 134, 140, 220, 64, 13, 61, 39, 62, 36, 248, 222, 64, 86, 184, 212, 189, 152, 216, 218, 64, 4, 79, 82, 61, 220, 33, 221, 64, 64, 67, 247, 189, 191, 68, 224, 64, 238, 103, 146, 61, 231, 168, 202, 189, 212, 165, 6, 62, 184, 216, 155, 188, 53, 252, 216, 64, 93, 252, 6, 62, 216, 170, 69, 189, 122, 16, 191, 61, 181, 85, 136, 189, 98, 46, 217, 64, 95, 138, 225, 188, 47, 150, 38, 190, 226, 194, 222, 64, 54, 94, 224, 64, 202, 26, 133, 189, 56, 112, 216, 64, 0, 194, 180, 57, 32, 252, 179, 59, 65, 138, 149, 189, 181, 193, 224, 64, 112, 246, 43, 189, 247, 226, 223, 64, 220, 146, 222, 64, 0, 33, 106, 188, 74, 86, 220, 64, 144, 230, 220, 64, 48, 236, 197, 64, 189, 62, 217, 64, 217, 229, 218, 64, 222, 236, 215, 64, 240, 180, 217, 64, 131, 207, 217, 64, 71, 83, 221, 64, 220, 245, 224, 64, 132, 24, 179, 189, 54, 137, 183, 189, 124, 59, 49, 189, 43, 163, 221, 64, 132, 230, 38, 190, 27, 56, 223, 64, 204, 243, 156, 189, 16, 68, 40, 188, 228, 125, 228, 61, 89, 171, 142, 61, 135, 216, 172, 61, 149, 101, 223, 64, 206, 26, 169, 61, 241, 146, 51, 62, 163, 181, 213, 64, 251, 187, 216, 64, 38, 47, 225, 64, 198, 145, 194, 189, 130, 114, 216, 64, 29, 187, 173, 61, 83, 248, 217, 64, 240, 61, 220, 64, 32, 234, 201, 188, 172, 212, 222, 64, 90, 111, 144, 61, 201, 161, 222, 64, 194, 183, 119, 189, 217, 151, 219, 64, 216, 116, 136, 188, 24, 223, 217, 64, 80, 235, 79, 60, 73, 111, 26, 62, 157, 108, 245, 60, 216, 231, 119, 61, 195, 243, 223, 64, 112, 157, 228, 189, 46, 21, 150, 61, 42, 35, 237, 61, 134, 217, 219, 189, 237, 88, 214, 64, 127, 16, 179, 61, 66, 175, 175, 61, 152, 192, 219, 64, 28, 85, 225, 64, 104, 161, 93, 189, 250, 139, 220, 64, 241, 226, 25, 62, 246, 250, 221, 61, 0, 12, 42, 186, 42, 190, 224, 64, 209, 7, 186, 189, 34, 230, 221, 64, 74, 40, 218, 64, 127, 209, 37, 190, 152, 208, 214, 64, 20, 48, 220, 64, 6, 65, 199, 64, 70, 59, 221, 64, 157, 253, 222, 64, 18, 49, 218, 64, 92, 83, 219, 64, 133, 124, 223, 64, 200, 104, 218, 64, 119, 110, 223, 64, 34, 78, 170, 61, 211, 45, 146, 61, 232, 99, 176, 61, 160, 177, 217, 64, 51, 141, 53, 62, 94, 226, 221, 64, 239, 41, 25, 190, 0, 52, 95, 186, 83, 244, 217, 189, 90, 208, 247, 60, 200, 247, 171, 189, 167, 90, 9, 62, 207, 253, 26, 62, 0, 112, 74, 56, 32, 159, 141, 187, 176, 25, 231, 188, 22, 238, 232, 61, 52, 234, 65, 61, 67, 225, 235, 189, 248, 1, 62, 61, 0, 93, 128, 187, 160, 139, 195, 188, 208, 138, 131, 61, 142, 7, 197, 61, 28, 23, 87, 61, 155, 68, 178, 189, 204, 203, 67, 61, 190, 243, 122, 189, 128, 227, 151, 187, 93, 95, 195, 189, 42, 114, 239, 61, 50, 174, 189, 61, 122, 241, 135, 189, 0, 157, 219, 60, 187, 115, 22, 62, 0, 208, 25, 187, 104, 28, 2, 190, 48, 99, 154, 60, 86, 95, 230, 189, 0, 231, 191, 186, 187, 255, 17, 190, 180, 0, 16, 189, 240, 79, 34, 190, 147, 26, 136, 189, 133, 12, 40, 62, 56, 248, 168, 189, 120, 92, 117, 189, 122, 188, 199, 61, 194, 252, 158, 189, 68, 125, 131, 189, 46, 220, 134, 189, 143, 140, 0, 62, 14, 12, 171, 61, 216, 107, 128, 61, 176, 42, 252, 60, 188, 38, 115, 61, 53, 101, 23, 62, 238, 213, 146, 189, 132, 149, 192, 189, 198, 41, 221, 61, 80, 167, 92, 189, 250, 213, 204, 189, 208, 219, 89, 61, 92, 224, 63, 189, 190, 65, 21, 190, 236, 96, 32, 189, 34, 14, 150, 61, 46, 20, 250, 61, 174, 120, 18, 190, 173, 191, 205, 189, 88, 108, 208, 188, 6, 238, 174, 189, 210, 58, 135, 61, 18, 211, 202, 61, 162, 202, 151, 189, 233, 147, 44, 190, 86, 77, 245, 189, 226, 37, 179, 189, 232, 184, 139, 61, 184, 105, 135, 188, 189, 7, 218, 189, 242, 176, 195, 189, 184, 187, 214, 60, 250, 147, 153, 189, 71, 249, 2, 62, 95, 83, 39, 62, 47, 244, 13, 190, 159, 100, 212, 189, 139, 11, 196, 189, 0, 144, 215, 186, 150, 25, 7, 190, 71, 144, 222, 189, 149, 251, 20, 190, 48, 61, 32, 190, 12, 230, 7, 61, 18, 78, 214, 189, 129, 145, 144, 189, 238, 231, 163, 61, 112, 160, 117, 61, 7, 203, 39, 62, 38, 48, 9, 190, 66, 241, 48, 190, 224, 187, 80, 188, 40, 242, 133, 60, 90, 62, 207, 189, 136, 235, 99, 61, 168, 202, 178, 60, 76, 235, 109, 61, 74, 51, 244, 189, 128, 28, 113, 61, 77, 13, 41, 62, 57, 28, 6, 62, 130, 107, 217, 61, 156, 168, 101, 61, 220, 66, 4, 190, 16, 41, 103, 60, 86, 125, 27, 190, 96, 150, 47, 61, 66, 182, 21, 190, 220, 222, 121, 61, 74, 49, 141, 61, 8, 168, 155, 60, 102, 88, 250, 189, 216, 172, 241, 60, 143, 216, 171, 189, 254, 205, 40, 190, 188, 44, 38, 189, 200, 180, 146, 61, 185, 97, 35, 62, 224, 53, 53, 61, 16, 123, 45, 188, 44, 0, 53, 189, 136, 59, 147, 60, 196, 8, 224, 189, 227, 134, 180, 189, 63, 31, 193, 189, 94, 50, 166, 61, 168, 95, 200, 188, 35, 111, 14, 190, 82, 10, 222, 64, 250, 150, 151, 61, 104, 143, 53, 61, 84, 166, 216, 64, 8, 4, 222, 64, 242, 125, 215, 64, 109, 158, 30, 62, 122, 173, 219, 64, 94, 169, 79, 61, 53, 32, 220, 64, 152, 48, 221, 64, 24, 23, 239, 189, 99, 217, 221, 64, 118, 57, 196, 60, 68, 144, 222, 64, 84, 158, 187, 61, 191, 83, 216, 64, 147, 154, 3, 62, 141, 245, 220, 64, 245, 21, 6, 62, 186, 253, 180, 61, 205, 10, 100, 189, 158, 253, 242, 61, 182, 136, 218, 64, 132, 174, 27, 190, 38, 112, 42, 62, 157, 95, 135, 189, 71, 218, 4, 190, 135, 218, 223, 64, 51, 208, 26, 62, 224, 63, 198, 59, 226, 4, 221, 64, 21, 64, 216, 64, 50, 244, 160, 189, 11, 10, 224, 64, 23, 166, 10, 62, 213, 158, 14, 62, 206, 243, 166, 61, 115, 142, 218, 64, 80, 159, 126, 61, 219, 15, 219, 64, 102, 107, 224, 64, 239, 110, 39, 190, 174, 208, 224, 64, 198, 167, 215, 64, 8, 146, 202, 64, 97, 250, 215, 64, 59, 117, 215, 64, 33, 167, 217, 64, 170, 24, 218, 64, 99, 32, 223, 64, 206, 166, 225, 64, 67, 184, 223, 64, 2, 171, 206, 61, 37, 45, 42, 62, 219, 145, 3, 190, 126, 20, 217, 64, 195, 247, 195, 60, 95, 123, 220, 64, 205, 226, 35, 190, 168, 162, 81, 61, 183, 119, 84, 189, 204, 33, 172, 189, 165, 124, 47, 61, 5, 97, 217, 64, 240, 5, 245, 60, 218, 232, 250, 189, 131, 204, 210, 64, 111, 21, 215, 64, 200, 164, 225, 64, 2, 120, 219, 189, 144, 240, 220, 64, 218, 211, 40, 190, 89, 206, 220, 64, 20, 75, 219, 64, 175, 198, 175, 189, 221, 31, 225, 64, 15, 174, 202, 189, 55, 140, 214, 64, 138, 187, 9, 190, 105, 205, 224, 64, 223, 198, 16, 62, 61, 63, 225, 64, 142, 100, 161, 61, 154, 22, 21, 62, 116, 209, 3, 61, 191, 4, 211, 189, 7, 162, 222, 64, 44, 135, 242, 61, 208, 70, 24, 190, 184, 70, 209, 189, 68, 163, 25, 189, 97, 252, 219, 64, 151, 161, 30, 62, 192, 62, 213, 60, 171, 79, 222, 64, 57, 112, 222, 64, 216, 21, 1, 189, 139, 198, 220, 64, 253, 130, 1, 62, 139, 140, 226, 189, 0, 194, 23, 189, 228, 217, 224, 64, 214, 171, 161, 61, 16, 253, 214, 64, 131, 219, 225, 64, 150, 2, 224, 61, 159, 153, 223, 64, 66, 195, 225, 64, 210, 151, 201, 64, 4, 71, 218, 64, 157, 32, 224, 64, 24, 19, 223, 64, 77, 230, 224, 64, 9, 129, 217, 64, 114, 147, 224, 64, 51, 140, 223, 64, 202, 146, 148, 61, 151, 199, 159, 61, 170, 151, 89, 61, 40, 23, 219, 64, 234, 245, 216, 189, 30, 142, 223, 64, 168, 82, 83, 61, 42, 115, 136, 61, 247, 0, 224, 189, 44, 46, 234, 189, 137, 211, 255, 186, 106, 162, 217, 64, 240, 19, 176, 60, 151, 87, 219, 189, 230, 111, 218, 64, 219, 48, 217, 64, 54, 217, 220, 64, 64, 64, 60, 189, 57, 46, 215, 64, 150, 54, 251, 189, 98, 248, 224, 64, 149, 96, 225, 64, 136, 138, 161, 188, 2, 63, 220, 64, 35, 10, 135, 61, 53, 10, 225, 64, 25, 95, 21, 62, 97, 164, 223, 64, 96, 69, 162, 60, 96, 189, 222, 64, 34, 176, 239, 61, 254, 20, 42, 62, 148, 189, 143, 189, 255, 6, 10, 62, 135, 219, 221, 64, 116, 137, 33, 190, 163, 249, 21, 62, 240, 243, 102, 61, 77, 192, 141, 189, 112, 225, 217, 64, 37, 229, 232, 61, 204, 222, 132, 189, 124, 4, 223, 64, 187, 199, 215, 64, 196, 42, 28, 190, 92, 210, 219, 64, 77, 208, 23, 62, 167, 77, 180, 189, 40, 126, 83, 61, 143, 57, 217, 64, 113, 132, 27, 62, 226, 142, 224, 64, 190, 172, 224, 64, 20, 140, 6, 190, 43, 189, 224, 64, 75, 145, 223, 64, 158, 102, 208, 64, 59, 126, 225, 64, 34, 186, 217, 64, 29, 62, 215, 64, 133, 70, 224, 64, 137, 22, 221, 64, 204, 132, 225, 64, 133, 108, 219, 64, 10, 66, 34, 190, 11, 183, 72, 188, 232, 202, 80, 189, 102, 210, 217, 64, 108, 64, 22, 187, 153, 229, 217, 64, 172, 116, 35, 189, 203, 94, 249, 189, 54, 180, 130, 188, 83, 41, 136, 189, 212, 183, 218, 189, 112, 226, 185, 188, 190, 88, 237, 61, 248, 39, 2, 189, 162, 94, 174, 61, 79, 53, 225, 189, 32, 166, 236, 189, 175, 241, 184, 189, 8, 46, 120, 61, 150, 146, 16, 190, 176, 126, 142, 189, 144, 15, 118, 60, 10, 2, 244, 61, 192, 89, 160, 188, 190, 14, 152, 61, 250, 17, 184, 61, 48, 181, 7, 188, 46, 35, 46, 190, 244, 181, 119, 189, 216, 79, 245, 188, 12, 247, 42, 190, 50, 192, 238, 61, 46, 219, 185, 189, 0, 56, 239, 189, 49, 60, 38, 62, 246, 210, 198, 189, 98, 15, 14, 190, 144, 168, 138, 61, 9, 162, 41, 190, 28, 110, 57, 61, 214, 25, 172, 61, 8, 250, 146, 60, 249, 88, 47, 62, 59, 71, 141, 189, 165, 54, 13, 62, 82, 221, 24, 190, 232, 220, 225, 60, 5, 240, 214, 189, 117, 87, 249, 189, 84, 120, 225, 189, 217, 119, 140, 189, 112, 66, 43, 189, 184, 94, 141, 61, 64, 245, 83, 59, 8, 235, 59, 189, 160, 205, 254, 188, 164, 49, 229, 189, 80, 104, 209, 188, 56, 72, 72, 61, 72, 188, 25, 61, 180, 241, 41, 190, 1, 130, 188, 189, 62, 210, 161, 61, 72, 175, 213, 189, 245, 162, 42, 62, 247, 172, 221, 189, 8, 112, 209, 188, 65, 222, 7, 62, 30, 197, 129, 61, 70, 34, 130, 189, 202, 151, 168, 61, 197, 181, 49, 62, 14, 28, 183, 61, 128, 248, 159, 187, 39, 11, 53, 62, 100, 6, 217, 64, 36, 220, 128, 61, 228, 210, 55, 189, 40, 58, 209, 64, 118, 203, 222, 64, 227, 213, 222, 64, 79, 225, 49, 62, 36, 218, 219, 64, 251, 1, 21, 189, 19, 137, 224, 64, 102, 199, 223, 64, 112, 77, 219, 188, 155, 237, 223, 64, 125, 232, 21, 187, 45, 120, 223, 64, 154, 28, 143, 61, 10, 127, 225, 64, 95, 224, 14, 62, 84, 211, 224, 64, 234, 172, 185, 61, 23, 167, 46, 62, 12, 161, 217, 189, 48, 96, 32, 60, 118, 75, 221, 64, 119, 90, 5, 189, 173, 218, 23, 62, 42, 169, 180, 61, 151, 98, 14, 62, 77, 189, 219, 64, 35, 142, 3, 190, 135, 167, 158, 189, 246, 120, 217, 64, 159, 72, 223, 64, 244, 104, 4, 190, 251, 40, 219, 64, 122, 162, 22, 190, 70, 126, 180, 61, 133, 140, 4, 62, 252, 51, 223, 64, 226, 183, 166, 61, 114, 42, 222, 64, 65, 105, 221, 64, 244, 226, 157, 189, 152, 120, 224, 64, 166, 255, 215, 64, 237, 191, 207, 64, 217, 2, 215, 64, 252, 45, 217, 64, 243, 234, 215, 64, 209, 153, 216, 64, 33, 66, 225, 64, 21, 62, 224, 64, 204, 102, 223, 64, 118, 204, 240, 189, 37, 123, 38, 62, 135, 86, 217, 61, 36, 127, 215, 64, 37, 144, 7, 62, 84, 100, 216, 64, 218, 156, 20, 190, 18, 8, 248, 61, 39, 8, 134, 189, 251, 81, 216, 189, 154, 218, 179, 61, 10, 143, 31, 190, 219, 113, 44, 62, 20, 192, 250, 189, 52, 46, 1, 190, 18, 121, 219, 189, 238, 253, 249, 61, 182, 123, 122, 189, 214, 162, 251, 61, 3, 227, 158, 189, 143, 176, 50, 190, 169, 166, 20, 62, 184, 189, 113, 61, 240, 15, 66, 188, 116, 38, 130, 61, 152, 74, 246, 60, 96, 55, 198, 187, 241, 129, 41, 62, 85, 172, 26, 62, 14, 16, 141, 61, 60, 141, 97, 189, 211, 157, 41, 62, 32, 92, 20, 188, 158, 240, 4, 190, 102, 76, 242, 189, 167, 113, 13, 62, 96, 108, 210, 60, 186, 25, 175, 61, 29, 36, 14, 190, 235, 44, 186, 189, 163, 50, 15, 190, 88, 156, 52, 61, 48, 161, 114, 189, 170, 72, 146, 61, 207, 143, 34, 62, 120, 5, 214, 60, 112, 211, 8, 188, 78, 139, 150, 61, 95, 168, 40, 62, 64, 228, 5, 190, 200, 15, 44, 190, 22, 241, 163, 189, 98, 74, 240, 61, 68, 113, 13, 61, 0, 22, 22, 187, 251, 150, 21, 190, 252, 190, 36, 190, 234, 71, 47, 190, 239, 214, 131, 189, 103, 187, 37, 190, 242, 82, 219, 61, 176, 239, 104, 189, 163, 109, 44, 190, 120, 76, 248, 188, 19, 71, 51, 190, 213, 130, 16, 62, 226, 186, 157, 61, 230, 47, 216, 189, 183, 234, 38, 190, 86, 148, 131, 61, 38, 96, 196, 61, 175, 178, 1, 62, 26, 124, 235, 61, 191, 120, 129, 189, 63, 59, 1, 62, 168, 168, 216, 64, 221, 19, 30, 62, 15, 87, 9, 62, 58, 250, 218, 64, 58, 150, 214, 64, 182, 135, 221, 64, 191, 14, 167, 189, 77, 154, 220, 64, 226, 239, 28, 62, 19, 41, 218, 64, 152, 110, 220, 64, 84, 126, 253, 189, 144, 83, 221, 64, 83, 216, 37, 62, 54, 99, 222, 64, 224, 68, 117, 189, 226, 22, 225, 64, 144, 111, 122, 61, 200, 193, 220, 64, 182, 200, 154, 61, 177, 254, 29, 62, 23, 129, 50, 190, 208, 89, 85, 189, 226, 43, 219, 64, 151, 58, 243, 189, 224, 130, 218, 60, 235, 29, 32, 62, 250, 76, 194, 61, 1, 58, 221, 64, 146, 67, 143, 61, 4, 246, 0, 61, 107, 203, 222, 64, 59, 27, 216, 64, 1, 149, 44, 190, 205, 136, 216, 64, 197, 171, 14, 62, 90, 91, 130, 61, 196, 109, 52, 189, 160, 160, 219, 64, 128, 106, 96, 188, 57, 98, 215, 64, 121, 138, 222, 64, 120, 150, 199, 188, 72, 244, 224, 64, 220, 67, 215, 64, 96, 200, 206, 64, 67, 130, 222, 64, 197, 128, 217, 64, 241, 219, 224, 64, 69, 212, 223, 64, 252, 64, 217, 64, 110, 251, 219, 64, 82, 57, 223, 64, 108, 137, 134, 61, 154, 232, 162, 189, 49, 190, 111, 61, 0, 2, 217, 64, 20, 147, 27, 61, 243, 197, 224, 64, 47, 81, 15, 62, 121, 17, 228, 189, 87, 134, 169, 61, 183, 240, 18, 61, 81, 233, 3, 62, 169, 19, 56, 189, 68, 132, 102, 61, 30, 244, 233, 61, 90, 227, 186, 61, 20, 163, 114, 60, 38, 36, 253, 61, 0, 97, 48, 58, 64, 86, 247, 59, 57, 141, 38, 62, 15, 30, 62, 189, 215, 189, 125, 61, 124, 229, 2, 189, 32, 167, 76, 189, 38, 130, 193, 189, 173, 103, 39, 188, 249, 131, 33, 62, 69, 76, 141, 189, 79, 18, 174, 189, 118, 157, 31, 188, 77, 55, 13, 62, 195, 6, 164, 189, 192, 65, 106, 59, 144, 5, 204, 60, 223, 195, 206, 189, 3, 95, 3, 62, 156, 124, 147, 61, 17, 117, 10, 62, 44, 94, 55, 189, 21, 185, 8, 61, 116, 70, 66, 61, 56, 103, 235, 189, 21, 27, 45, 190, 246, 217, 64, 60, 0, 16, 164, 189, 162, 212, 182, 188, 232, 2, 50, 189, 26, 39, 208, 61, 68, 237, 146, 61, 68, 248, 136, 189, 46, 192, 19, 190, 203, 45, 10, 190, 177, 12, 219, 188, 90, 64, 119, 189, 68, 38, 41, 62, 120, 202, 140, 60, 144, 103, 218, 60, 24, 112, 17, 62, 31, 62, 74, 187, 31, 210, 26, 189, 71, 133, 221, 188, 144, 123, 220, 60, 84, 0, 13, 190, 7, 230, 217, 59, 2, 226, 172, 61, 201, 0, 58, 190, 192, 69, 68, 60, 108, 99, 154, 189, 18, 195, 199, 187, 124, 76, 102, 60, 10, 190, 8, 190, 94, 145, 242, 189, 25, 86, 76, 189, 96, 139, 93, 61, 226, 197, 2, 190, 176, 6, 211, 60, 94, 52, 250, 61, 247, 48, 190, 189, 188, 183, 10, 189, 117, 24, 50, 62, 72, 38, 207, 188, 32, 253, 151, 189, 134, 131, 108, 189, 182, 29, 114, 189, 35, 202, 23, 190, 48, 14, 4, 190, 140, 162, 95, 189, 248, 53, 114, 189, 7, 233, 153, 189, 194, 57, 170, 61, 254, 164, 109, 189, 147, 214, 32, 62, 27, 119, 17, 190, 14, 221, 190, 189, 101, 234, 204, 189, 40, 152, 26, 190, 64, 202, 168, 59, 28, 110, 81, 61, 224, 152, 27, 189, 57, 190, 229, 189, 22, 219, 25, 190, 61, 154, 160, 189, 41, 13, 15, 62, 234, 5, 234, 61, 0, 94, 175, 58, 168, 107, 29, 61, 84, 250, 15, 190, 56, 36, 201, 60, 8, 43, 198, 60, 152, 40, 245, 188, 10, 23, 249, 61, 234, 59, 189, 61, 62, 104, 175, 61, 0, 208, 17, 56, 160, 115, 208, 187, 110, 200, 172, 61, 102, 202, 141, 61, 100, 31, 49, 189, 29, 128, 169, 189, 69, 193, 234, 189, 32, 252, 193, 187, 163, 199, 229, 189, 124, 226, 3, 61, 2, 207, 111, 189, 34, 77, 2, 190, 205, 156, 32, 190, 81, 48, 31, 62, 180, 73, 179, 189, 240, 87, 220, 60, 208, 158, 65, 61, 138, 191, 224, 61, 96, 120, 168, 60, 166, 157, 217, 189, 167, 46, 167, 189, 177, 15, 46, 62, 51, 75, 18, 62, 191, 134, 28, 190, 253, 122, 7, 62, 235, 236, 167, 60, 149, 90, 194, 64, 105, 222, 37, 62, 132, 99, 108, 61, 57, 234, 202, 64, 250, 188, 193, 64, 189, 231, 197, 64, 177, 20, 39, 62, 253, 229, 202, 64, 205, 154, 19, 62, 251, 85, 199, 64, 180, 46, 194, 64, 0, 103, 232, 188, 124, 212, 192, 64, 169, 31, 233, 189, 99, 216, 199, 64, 53, 47, 19, 190, 220, 11, 195, 64, 192, 101, 81, 59, 195, 59, 202, 64, 140, 236, 10, 189, 156, 179, 40, 190, 85, 44, 38, 61, 56, 82, 132, 61, 191, 240, 201, 64, 36, 182, 237, 189, 140, 175, 122, 61, 42, 167, 159, 61, 73, 136, 174, 189, 107, 42, 197, 64, 248, 27, 167, 188, 8, 221, 136, 189, 167, 244, 196, 64, 180, 194, 201, 64, 19, 209, 36, 62, 51, 172, 195, 64, 169, 105, 187, 189, 208, 96, 226, 189, 76, 235, 59, 61, 114, 211, 199, 64, 96, 193, 162, 188, 90, 38, 200, 64, 131, 102, 193, 64, 196, 129, 38, 189, 204, 132, 202, 64, 242, 110, 202, 64, 52, 81, 205, 64, 196, 6, 200, 64, 33, 25, 201, 64, 131, 230, 200, 64, 162, 253, 192, 64, 42, 107, 193, 64, 112, 161, 195, 64, 45, 141, 201, 64, 112, 111, 122, 188, 22, 11, 152, 61, 243, 94, 21, 62, 137, 31, 200, 64, 65, 249, 45, 62, 92, 183, 197, 64, 52, 80, 50, 61, 228, 27, 163, 189, 5, 218, 228, 61, 221, 185, 218, 189, 0, 11, 212, 60, 111, 235, 149, 189, 193, 19, 26, 62, 180, 108, 47, 61, 246, 141, 199, 61, 140, 117, 21, 61, 21, 164, 15, 62, 37, 225, 152, 189, 180, 181, 4, 61, 206, 77, 172, 61, 5, 221, 205, 189, 185, 117, 30, 190, 248, 179, 69, 189, 74, 97, 33, 190, 92, 116, 135, 189, 66, 249, 98, 189, 58, 81, 166, 61, 52, 50, 69, 189, 60, 125, 19, 190, 32, 225, 58, 189, 134, 6, 164, 61, 205, 35, 193, 189, 160, 160, 48, 60, 70, 209, 128, 61, 143, 85, 30, 190, 98, 251, 163, 61, 176, 168, 222, 60, 178, 228, 191, 189, 4, 154, 11, 189, 128, 74, 19, 59, 77, 161, 48, 62, 127, 104, 13, 62, 125, 32, 18, 190, 221, 138, 8, 62, 200, 34, 131, 60, 120, 11, 175, 60, 61, 107, 160, 189, 160, 15, 19, 190, 56, 148, 100, 61, 112, 130, 146, 188, 208, 90, 222, 188, 57, 40, 25, 62, 186, 98, 245, 61, 39, 88, 209, 189, 212, 12, 1, 189, 212, 208, 30, 189, 80, 35, 66, 189, 236, 141, 106, 61, 242, 182, 240, 61, 151, 247, 16, 62, 105, 240, 10, 190, 160, 175, 45, 190, 69, 158, 39, 62, 40, 249, 181, 188, 154, 248, 234, 189, 130, 134, 138, 189, 28, 181, 147, 189, 18, 65, 1, 190, 121, 47, 234, 189, 252, 97, 180, 189, 234, 109, 8, 190, 29, 68, 15, 190, 176, 51, 206, 189, 18, 103, 213, 189, 222, 158, 201, 61, 123, 152, 190, 60, 96, 100, 142, 187, 38, 91, 156, 189, 160, 143, 142, 60, 79, 99, 201, 61, 244, 151, 202, 60, 61, 183, 234, 189, 117, 46, 51, 190, 78, 167, 45, 190, 4, 3, 5, 190, 83, 116, 222, 189, 54, 236, 37, 190, 200, 30, 142, 60, 253, 110, 4, 62, 160, 56, 219, 188, 0, 152, 155, 187, 35, 191, 215, 189, 242, 217, 107, 189, 76, 166, 169, 189, 108, 174, 44, 61, 151, 69, 198, 189, 196, 175, 42, 190, 87, 220, 9, 62, 232, 50, 30, 62, 159, 248, 39, 190, 138, 108, 207, 61, 72, 44, 244, 189, 242, 150, 131, 61, 78, 155, 226, 61, 41, 117, 42, 190, 138, 147, 96, 189, 141, 116, 177, 189, 251, 6, 63, 61, 138, 111, 4, 190, 180, 170, 33, 190, 154, 19, 44, 190, 80, 209, 30, 189, 117, 212, 182, 189, 186, 228, 66, 61, 162, 170, 214, 61, 201, 236, 60, 189, 137, 142, 81, 61, 168, 217, 150, 188, 5, 72, 131, 189, 162, 227, 89, 189, 198, 5, 101, 61, 0, 246, 223, 188, 177, 170, 217, 189, 128, 88, 32, 62, 231, 56, 16, 190, 152, 110, 4, 189, 197, 146, 220, 189, 104, 98, 44, 62, 237, 236, 10, 62, 222, 241, 165, 61, 162, 19, 234, 60, 113, 200, 16, 62, 187, 138, 27, 190, 205, 228, 176, 189, 192, 243, 70, 189, 251, 116, 51, 62, 165, 123, 129, 189, 91, 16, 1, 62, 1, 200, 87, 189, 137, 215, 223, 64, 252, 83, 41, 189, 213, 191, 150, 189, 34, 214, 209, 64, 117, 231, 215, 64, 201, 158, 222, 64, 114, 238, 223, 61, 88, 18, 221, 64, 46, 64, 150, 59, 227, 0, 225, 64, 150, 249, 224, 64, 64, 21, 140, 59, 154, 197, 215, 64, 161, 66, 252, 189, 205, 19, 223, 64, 66, 137, 7, 189, 227, 81, 219, 64, 100, 28, 62, 61, 78, 242, 219, 64, 13, 169, 234, 189, 232, 159, 11, 62, 63, 104, 18, 190, 64, 131, 255, 59, 150, 83, 216, 64, 218, 60, 8, 62, 186, 80, 130, 61, 132, 34, 92, 61, 110, 239, 255, 189, 98, 119, 215, 64, 53, 18, 156, 188, 157, 210, 142, 189, 17, 198, 218, 64, 33, 98, 220, 64, 48, 179, 101, 60, 128, 216, 219, 64, 232, 60, 27, 189, 206, 75, 85, 189, 55, 202, 180, 189, 162, 139, 220, 64, 50, 3, 6, 190, 97, 176, 222, 64, 94, 219, 215, 64, 94, 186, 40, 190, 48, 233, 224, 64, 54, 166, 223, 64, 177, 136, 205, 64, 226, 145, 215, 64, 58, 104, 220, 64, 10, 215, 222, 64, 242, 133, 216, 64, 251, 147, 221, 64, 68, 195, 214, 64, 8, 134, 219, 64, 196, 158, 22, 190, 159, 113, 98, 188, 47, 129, 13, 61, 155, 148, 219, 64, 146, 150, 249, 188, 105, 233, 217, 64, 22, 219, 131, 61, 254, 4, 43, 190, 3, 115, 239, 60, 128, 112, 45, 62, 65, 103, 33, 62, 77, 150, 141, 189, 238, 223, 7, 190, 174, 185, 24, 190, 241, 166, 9, 190, 194, 71, 40, 188, 38, 120, 211, 60, 100, 92, 138, 61, 210, 82, 147, 189, 208, 198, 49, 189, 239, 120, 27, 61, 36, 184, 37, 62, 142, 108, 240, 61, 255, 124, 245, 60, 173, 161, 42, 62, 63, 218, 21, 62, 204, 13, 32, 190, 200, 133, 193, 61, 228, 253, 113, 189, 1, 70, 221, 189, 48, 236, 101, 61, 128, 192, 186, 187, 72, 216, 100, 189, 38, 133, 19, 190, 191, 77, 3, 62, 94, 17, 244, 61, 166, 18, 207, 61, 132, 24, 89, 61, 128, 161, 64, 61, 167, 13, 236, 61, 72, 105, 41, 190, 110, 174, 215, 61, 211, 229, 222, 189, 233, 201, 122, 61, 78, 180, 179, 61, 39, 82, 72, 61, 184, 81, 254, 60, 144, 61, 74, 61, 115, 38, 147, 189, 145, 47, 6, 190, 64, 220, 39, 189, 201, 96, 55, 190, 157, 112, 209, 189, 113, 133, 7, 62, 49, 203, 35, 62, 27, 124, 251, 189, 179, 58, 11, 62, 168, 49, 20, 190, 78, 39, 47, 61, 80, 242, 29, 61, 89, 27, 242, 189, 214, 49, 247, 61, 96, 213, 33, 190, 50, 2, 45, 190, 45, 165, 227, 189, 208, 67, 9, 62, 46, 201, 231, 61, 78, 144, 208, 61, 184, 44, 136, 189, 221, 200, 202, 61, 139, 135, 206, 189, 220, 227, 40, 61, 111, 14, 205, 189, 32, 88, 34, 62, 196, 61, 70, 61, 161, 185, 42, 190, 221, 57, 42, 190, 207, 18, 33, 62, 208, 81, 185, 60, 240, 10, 41, 60, 108, 59, 78, 189, 80, 197, 39, 188, 243, 120, 0, 62, 178, 222, 172, 189, 211, 111, 51, 62, 38, 39, 12, 190, 27, 0, 44, 62, 50, 221, 243, 189, 169, 109, 31, 62, 166, 151, 195, 61, 101, 2, 3, 62, 107, 216, 30, 62, 58, 200, 222, 189, 230, 210, 134, 61, 40, 178, 198, 188, 176, 223, 234, 60, 64, 255, 20, 190, 30, 199, 223, 189, 97, 162, 175, 189, 4, 192, 140, 61, 106, 178, 185, 189, 102, 172, 172, 61, 70, 254, 167, 61, 24, 15, 68, 189, 219, 150, 2, 62, 252, 247, 38, 189, 240, 143, 104, 60, 128, 98, 206, 188, 125, 1, 230, 189, 208, 5, 125, 188, 182, 161, 240, 61, 128, 34, 246, 186, 179, 175, 14, 62, 136, 252, 249, 60, 24, 113, 40, 189, 232, 65, 159, 188, 120, 64, 158, 189, 232, 29, 11, 190, 151, 3, 24, 62, 214, 143, 146, 189, 196, 66, 73, 61, 66, 191, 196, 189, 207, 130, 46, 190, 139, 251, 40, 62, 80, 110, 142, 188, 19, 228, 32, 190, 7, 177, 30, 62, 170, 101, 144, 61, 224, 216, 200, 187, 252, 127, 58, 61, 135, 237, 163, 189, 64, 197, 42, 60, 34, 16, 0, 190, 8, 189, 242, 189, 96, 168, 17, 188, 240, 188, 93, 189, 200, 107, 189, 188, 122, 116, 186, 61, 160, 57, 52, 61, 189, 146, 217, 64, 2, 135, 216, 61, 218, 175, 12, 190, 150, 122, 210, 64, 118, 214, 222, 64, 180, 164, 221, 64, 51, 64, 213, 189, 240, 132, 216, 64, 154, 98, 52, 62, 63, 100, 225, 64, 128, 152, 217, 64, 228, 200, 243, 189, 14, 215, 223, 64, 148, 144, 1, 190, 253, 95, 224, 64, 120, 195, 152, 188, 155, 135, 214, 64, 166, 186, 191, 61, 81, 253, 215, 64, 222, 114, 18, 190, 155, 164, 144, 61, 147, 244, 33, 189, 120, 111, 54, 61, 161, 112, 217, 64, 165, 1, 216, 189, 62, 176, 102, 60, 154, 233, 149, 61, 192, 234, 130, 59, 249, 71, 221, 64, 240, 220, 65, 189, 100, 79, 67, 189, 131, 34, 220, 64, 60, 89, 218, 64, 17, 147, 19, 62, 185, 232, 219, 64, 225, 176, 0, 62, 155, 187, 34, 62, 100, 118, 63, 189, 10, 209, 224, 64, 144, 228, 54, 188, 14, 118, 222, 64, 235, 173, 222, 64, 233, 164, 147, 189, 91, 179, 216, 64, 168, 95, 224, 64, 240, 192, 198, 64, 158, 206, 222, 64, 124, 72, 219, 64, 199, 6, 225, 64, 27, 182, 225, 64, 54, 211, 225, 64, 236, 131, 218, 64, 179, 220, 223, 64, 220, 171, 44, 61, 39, 124, 185, 61, 167, 73, 28, 62, 139, 119, 215, 64, 106, 113, 195, 61, 59, 126, 219, 64, 147, 141, 35, 62, 240, 3, 16, 190, 178, 251, 62, 62, 227, 253, 54, 62, 89, 95, 183, 189, 133, 70, 221, 64, 32, 73, 157, 59, 176, 174, 78, 188, 0, 109, 214, 64, 240, 151, 218, 64, 253, 104, 224, 64, 31, 182, 165, 189, 139, 95, 221, 64, 213, 1, 208, 189, 137, 9, 224, 64, 84, 24, 220, 64, 252, 193, 165, 189, 114, 239, 220, 64, 245, 44, 122, 61, 14, 121, 224, 64, 104, 162, 205, 189, 28, 104, 220, 64, 46, 73, 29, 190, 255, 8, 225, 64, 10, 217, 167, 61, 138, 16, 119, 189, 94, 142, 148, 60, 175, 3, 43, 62, 69, 143, 224, 64, 46, 184, 192, 189, 208, 37, 186, 189, 142, 144, 232, 61, 156, 15, 35, 61, 90, 238, 224, 64, 103, 57, 46, 190, 4, 55, 32, 61, 122, 43, 218, 64, 32, 143, 218, 64, 118, 165, 240, 61, 87, 188, 224, 64, 142, 127, 218, 61, 232, 4, 247, 60, 32, 184, 109, 61, 230, 80, 219, 64, 106, 72, 190, 61, 165, 90, 224, 64, 191, 190, 222, 64, 63, 48, 251, 189, 178, 61, 223, 64, 165, 187, 221, 64, 114, 52, 207, 64, 16, 210, 219, 64, 29, 234, 216, 64, 31, 52, 225, 64, 175, 160, 214, 64, 97, 45, 221, 64, 6, 160, 216, 64, 31, 204, 217, 64, 119, 33, 36, 190, 110, 228, 120, 61, 28, 76, 69, 189, 242, 5, 216, 64, 98, 171, 137, 189, 31, 235, 220, 64, 32, 180, 149, 61, 34, 167, 163, 61, 189, 46, 202, 189, 72, 62, 219, 61, 21, 84, 20, 190, 252, 184, 222, 64, 54, 55, 224, 61, 112, 13, 124, 61, 186, 128, 217, 64, 71, 162, 221, 64, 237, 205, 215, 64, 118, 12, 177, 61, 119, 119, 214, 64, 129, 86, 238, 61, 44, 158, 218, 64, 116, 184, 222, 64, 240, 6, 228, 60, 147, 123, 218, 64, 77, 208, 4, 189, 250, 182, 224, 64, 239, 130, 84, 189, 85, 251, 220, 64, 0, 119, 76, 189, 187, 102, 222, 64, 29, 184, 139, 189, 17, 83, 134, 189, 60, 10, 104, 60, 69, 96, 38, 62, 161, 221, 213, 64, 247, 87, 216, 188, 200, 77, 246, 188, 156, 224, 54, 189, 240, 202, 7, 190, 198, 32, 215, 64, 62, 194, 170, 61, 9, 52, 45, 190, 65, 118, 223, 64, 19, 221, 223, 64, 194, 94, 243, 61, 133, 76, 224, 64, 111, 217, 7, 190, 132, 16, 128, 61, 133, 214, 23, 62, 17, 228, 216, 64, 193, 123, 36, 190, 11, 252, 222, 64, 139, 246, 219, 64, 216, 76, 4, 190, 66, 106, 213, 64, 7, 93, 214, 64, 68, 104, 207, 64, 193, 203, 220, 64, 143, 211, 220, 64, 224, 85, 220, 64, 124, 189, 217, 64, 183, 56, 224, 64, 91, 136, 224, 64, 168, 113, 214, 64, 32, 162, 240, 187, 18, 152, 104, 189, 85, 202, 29, 62, 82, 23, 221, 64, 159, 80, 96, 189, 129, 108, 222, 64, 38, 73, 233, 61, 50, 121, 249, 61, 49, 72, 184, 59, 210, 238, 213, 189, 237, 126, 123, 61, 1, 28, 224, 64, 210, 204, 167, 61, 236, 145, 52, 190, 192, 71, 211, 64, 192, 117, 224, 64, 35, 136, 219, 64, 162, 178, 218, 61, 119, 73, 222, 64, 39, 235, 182, 189, 183, 36, 223, 64, 45, 210, 216, 64, 204, 143, 49, 190, 133, 123, 225, 64, 99, 165, 241, 60, 226, 173, 224, 64, 173, 114, 177, 189, 254, 139, 220, 64, 134, 224, 208, 61, 21, 133, 218, 64, 228, 65, 116, 189, 127, 49, 189, 60, 72, 63, 188, 61, 67, 203, 13, 62, 66, 192, 218, 64, 13, 48, 68, 188, 41, 95, 212, 189, 66, 38, 231, 61, 206, 223, 184, 61, 119, 14, 225, 64, 72, 52, 18, 190, 192, 92, 131, 188, 179, 182, 223, 64, 216, 192, 217, 64, 84, 59, 169, 189, 188, 168, 220, 64, 28, 171, 183, 189, 181, 23, 165, 189, 178, 90, 178, 61, 222, 166, 222, 64, 220, 250, 22, 61, 244, 212, 215, 64, 76, 220, 219, 64, 94, 183, 191, 61, 84, 62, 222, 64, 14, 16, 224, 64, 4, 10, 204, 64, 201, 88, 217, 64, 110, 174, 219, 64, 87, 72, 215, 64, 0, 124, 223, 64, 60, 4, 219, 64, 171, 175, 221, 64, 60, 148, 216, 64, 96, 98, 69, 189, 38, 128, 137, 59, 202, 46, 86, 61, 139, 180, 214, 64, 207, 11, 229, 61, 123, 21, 221, 64, 216, 34, 248, 188, 189, 161, 23, 62, 97, 170, 111, 189, 172, 16, 39, 190, 8, 18, 28, 190, 18, 22, 171, 60, 110, 1, 140, 61, 48, 33, 53, 189, 253, 243, 10, 62, 111, 194, 213, 61, 45, 226, 36, 190, 70, 47, 167, 189, 132, 174, 132, 189, 68, 94, 5, 190, 192, 25, 243, 189, 83, 74, 148, 61, 252, 243, 55, 189, 184, 154, 229, 189, 90, 64, 31, 190, 211, 72, 253, 60, 199, 185, 8, 62, 191, 250, 88, 61, 144, 186, 125, 189, 116, 133, 79, 189, 128, 191, 231, 186, 122, 203, 129, 189, 92, 231, 93, 61, 158, 147, 11, 190, 239, 45, 0, 62, 196, 144, 30, 190, 247, 96, 2, 190, 93, 248, 32, 62, 98, 89, 167, 61, 216, 167, 155, 189, 0, 166, 61, 58, 176, 152, 32, 61, 58, 152, 185, 60, 31, 152, 10, 190, 32, 92, 145, 188, 156, 68, 18, 62, 184, 109, 10, 189, 19, 211, 48, 62, 4, 52, 98, 61, 197, 236, 5, 62, 117, 182, 214, 189, 243, 246, 52, 190, 173, 81, 55, 189, 96, 255, 176, 59, 230, 205, 253, 60, 136, 50, 183, 61, 202, 237, 218, 189, 38, 121, 153, 61, 253, 121, 23, 190, 220, 179, 46, 61, 96, 94, 205, 61, 184, 100, 79, 61, 56, 154, 206, 189, 152, 184, 182, 189, 220, 122, 131, 61, 3, 1, 9, 62, 200, 52, 28, 61, 77, 82, 51, 62, 115, 156, 2, 190, 153, 54, 241, 189, 34, 141, 243, 61, 94, 99, 131, 189, 34, 8, 111, 189, 65, 64, 28, 62, 228, 180, 5, 62, 254, 217, 221, 64, 153, 166, 30, 62, 106, 194, 151, 189, 60, 131, 212, 64, 78, 138, 220, 64, 57, 177, 224, 64, 158, 62, 8, 190, 185, 161, 219, 64, 227, 70, 5, 190, 16, 196, 224, 64, 145, 176, 219, 64, 143, 170, 29, 62, 157, 1, 224, 64, 45, 113, 69, 61, 151, 139, 214, 64, 12, 46, 56, 62, 90, 132, 221, 64, 14, 8, 183, 61, 219, 197, 225, 64, 57, 4, 42, 190, 81, 236, 126, 61, 155, 12, 173, 60, 231, 24, 156, 189, 189, 184, 222, 64, 148, 205, 210, 189, 81, 6, 197, 61, 184, 245, 95, 61, 112, 223, 208, 189, 132, 150, 214, 64, 49, 66, 20, 62, 170, 94, 186, 61, 58, 219, 218, 64, 8, 25, 215, 64, 144, 71, 81, 188, 236, 12, 224, 64, 37, 214, 2, 190, 171, 24, 28, 62, 111, 207, 234, 189, 177, 211, 215, 64, 112, 45, 72, 189, 117, 127, 221, 64, 12, 2, 217, 64, 0, 223, 172, 58, 225, 250, 222, 64, 129, 37, 224, 64, 195, 240, 207, 64, 69, 31, 215, 64, 143, 114, 222, 64, 179, 92, 216, 64, 126, 84, 218, 64, 95, 127, 218, 64, 191, 52, 215, 64, 7, 243, 221, 64, 102, 57, 25, 190, 128, 193, 173, 189, 75, 42, 38, 190, 47, 144, 214, 64, 171, 230, 169, 61, 170, 246, 220, 64, 150, 155, 184, 61, 7, 161, 48, 62, 212, 82, 154, 187, 213, 77, 15, 62, 119, 193, 31, 190, 20, 52, 28, 189, 147, 103, 7, 62, 164, 74, 121, 189, 0, 90, 238, 59, 128, 66, 46, 188, 88, 163, 213, 188, 76, 42, 32, 189, 0, 234, 248, 60, 137, 180, 36, 62, 38, 110, 199, 189, 191, 132, 51, 62, 87, 60, 4, 190, 48, 180, 93, 61, 226, 10, 212, 61, 22, 215, 25, 190, 218, 125, 41, 190, 128, 254, 82, 187, 53, 249, 47, 62, 136, 165, 125, 61, 236, 27, 84, 61, 103, 15, 13, 190, 237, 124, 40, 190, 216, 186, 240, 60, 116, 150, 4, 61, 222, 225, 171, 61, 192, 65, 136, 188, 105, 7, 150, 189, 22, 217, 179, 61, 159, 195, 5, 62, 61, 239, 174, 189, 168, 175, 160, 60, 153, 170, 167, 189, 65, 219, 39, 190, 104, 177, 235, 188, 76, 34, 35, 189, 245, 218, 31, 62, 180, 93, 83, 189, 68, 90, 120, 189, 24, 131, 184, 188, 68, 168, 88, 189, 32, 236, 172, 187, 128, 82, 143, 186, 56, 97, 97, 189, 64, 62, 51, 187, 188, 63, 111, 61, 32, 115, 105, 61, 204, 221, 68, 189, 232, 135, 137, 61, 117, 163, 19, 62, 213, 6, 14, 190, 53, 25, 5, 62, 16, 44, 32, 190, 192, 46, 254, 59, 114, 197, 217, 189, 248, 245, 57, 189, 96, 27, 49, 61, 240, 36, 68, 189, 254, 172, 18, 190, 178, 201, 52, 190, 252, 224, 55, 61, 210, 240, 206, 61, 47, 238, 36, 190, 38, 252, 156, 189, 45, 143, 3, 189, 189, 123, 217, 64, 214, 62, 48, 190, 35, 12, 167, 189, 119, 168, 214, 64, 29, 249, 214, 64, 201, 219, 224, 64, 61, 179, 11, 190, 220, 143, 215, 64, 0, 70, 50, 59, 84, 183, 216, 64, 106, 177, 217, 64, 244, 234, 12, 190, 45, 51, 217, 64, 69, 189, 65, 189, 11, 165, 220, 64, 126, 151, 26, 190, 161, 70, 221, 64, 184, 106, 73, 189, 245, 0, 216, 64, 248, 80, 201, 189, 31, 175, 21, 61, 53, 142, 182, 61, 59, 193, 31, 62, 240, 248, 217, 64, 68, 86, 21, 190, 50, 160, 18, 60, 30, 206, 161, 189, 39, 117, 10, 62, 95, 89, 224, 64, 117, 228, 209, 189, 128, 132, 15, 187, 13, 218, 221, 64, 133, 40, 220, 64, 248, 112, 247, 189, 240, 48, 220, 64, 251, 146, 128, 189, 96, 54, 63, 60, 114, 65, 186, 189, 222, 82, 221, 64, 100, 95, 120, 61, 79, 42, 225, 64, 62, 239, 224, 64, 72, 52, 189, 188, 186, 18, 220, 64, 134, 9, 224, 64, 108, 18, 206, 64, 55, 128, 215, 64, 64, 62, 219, 64, 78, 51, 219, 64, 172, 141, 221, 64, 143, 43, 221, 64, 159, 172, 215, 64, 172, 50, 217, 64, 211, 45, 47, 62, 91, 66, 217, 189, 61, 166, 84, 61, 142, 132, 222, 64, 123, 120, 36, 62, 172, 115, 224, 64, 9, 247, 21, 62, 78, 236, 156, 61, 195, 47, 212, 61, 32, 214, 12, 60, 128, 180, 132, 61, 136, 94, 195, 188, 226, 225, 213, 189, 159, 49, 149, 189, 52, 108, 27, 190, 128, 193, 138, 59, 26, 176, 15, 190, 170, 204, 17, 190, 144, 126, 93, 188, 70, 30, 167, 61, 2, 249, 211, 189, 122, 63, 136, 189, 10, 66, 152, 61, 176, 138, 132, 188, 87, 4, 5, 190, 128, 120, 16, 190, 202, 64, 19, 190, 206, 123, 12, 190, 14, 187, 207, 61, 3, 116, 172, 189, 87, 94, 39, 62, 160, 67, 163, 59, 13, 181, 11, 62, 199, 126, 18, 190, 72, 103, 160, 60, 72, 35, 75, 189, 144, 68, 28, 60, 224, 194, 103, 188, 54, 127, 208, 61, 21, 251, 4, 190, 184, 229, 135, 189, 141, 107, 35, 190, 193, 80, 47, 62, 208, 99, 245, 60, 128, 104, 159, 187, 78, 237, 239, 61, 212, 73, 143, 61, 211, 183, 11, 190, 26, 231, 237, 61, 208, 20, 180, 188, 253, 120, 35, 62, 254, 215, 196, 61, 16, 33, 176, 189, 16, 125, 83, 188, 34, 52, 185, 61, 12, 92, 50, 189, 112, 250, 235, 188, 173, 5, 173, 189, 56, 246, 35, 61, 196, 121, 41, 61, 166, 149, 196, 61, 152, 35, 46, 61, 5, 157, 1, 190, 167, 159, 223, 189, 128, 169, 36, 189, 98, 5, 229, 61, 114, 34, 18, 190, 216, 114, 14, 190, 79, 138, 50, 190, 238, 241, 204, 189, 190, 237, 219, 61, 153, 252, 8, 62, 0, 248, 40, 188, 15, 193, 18, 62, 56, 100, 210, 188, 101, 124, 30, 62, 136, 166, 171, 189, 247, 125, 44, 62, 15, 123, 19, 190, 200, 25, 146, 189, 253, 174, 8, 189, 74, 173, 52, 190, 134, 171, 164, 61, 48, 244, 70, 60, 149, 39, 82, 189, 215, 171, 156, 61, 161, 90, 230, 189, 80, 138, 222, 60, 121, 135, 182, 189, 215, 128, 161, 60, 191, 246, 9, 190, 4, 90, 152, 189, 96, 204, 45, 190, 46, 149, 55, 190, 121, 202, 148, 189, 119, 127, 24, 190, 252, 114, 144, 61, 200, 100, 249, 189, 14, 186, 129, 188, 150, 1, 165, 189, 203, 60, 48, 62, 238, 36, 217, 61, 132, 172, 46, 190, 217, 29, 199, 61, 184, 15, 253, 188, 50, 79, 155, 61, 51, 224, 67, 189, 22, 125, 15, 62, 224, 137, 51, 190, 127, 241, 88, 189, 0, 14, 213, 59, 62, 162, 215, 61, 174, 174, 120, 189, 183, 59, 43, 190, 28, 195, 29, 190, 27, 105, 3, 189, 210, 180, 61, 190, 162, 18, 189, 61, 178, 223, 33, 62, 203, 85, 80, 61, 177, 123, 2, 190, 99, 36, 220, 61, 98, 66, 241, 61, 67, 252, 67, 189, 33, 16, 0, 189, 160, 48, 152, 189, 23, 17, 90, 189, 188, 13, 227, 188, 234, 153, 187, 61, 178, 231, 223, 61, 140, 66, 66, 61, 62, 15, 5, 190, 184, 31, 3, 190, 160, 175, 210, 61, 39, 165, 19, 62, 196, 71, 41, 190, 105, 31, 47, 190, 42, 58, 33, 190, 160, 133, 169, 188, 111, 218, 6, 190, 184, 171, 204, 60, 64, 67, 51, 190, 140, 96, 180, 189, 177, 106, 150, 189, 18, 209, 183, 189, 0, 26, 185, 187, 146, 189, 219, 189, 208, 47, 152, 60, 104, 251, 186, 188, 119, 41, 20, 62, 142, 187, 177, 61, 154, 251, 253, 61, 157, 142, 13, 62, 110, 62, 156, 61, 216, 239, 186, 188, 246, 83, 140, 189, 166, 207, 176, 61, 78, 75, 108, 189, 33, 244, 227, 189, 32, 231, 90, 60, 60, 253, 34, 190, 151, 114, 148, 189, 171, 220, 163, 189, 89, 240, 148, 189, 108, 243, 16, 61, 136, 64, 132, 60, 189, 250, 21, 62, 22, 14, 233, 61, 168, 151, 5, 189, 98, 158, 255, 61, 38, 40, 223, 189, 108, 142, 31, 189, 212, 186, 13, 190, 48, 117, 5, 189, 226, 65, 36, 190, 64, 117, 116, 189, 116, 215, 30, 61, 208, 131, 31, 190, 128, 124, 184, 189, 41, 106, 1, 62, 48, 75, 83, 61, 108, 128, 29, 61, 10, 70, 219, 61, 175, 125, 8, 62, 58, 152, 147, 61, 190, 18, 168, 61, 128, 232, 172, 187, 248, 96, 242, 60, 48, 246, 2, 189, 182, 148, 219, 189, 99, 102, 48, 62, 72, 63, 3, 189, 9, 85, 35, 190, 39, 198, 188, 189, 37, 67, 212, 189, 144, 59, 188, 60, 71, 132, 52, 62, 86, 19, 210, 189, 13, 46, 45, 62, 200, 150, 46, 190, 10, 65, 171, 189, 254, 162, 214, 61, 249, 50, 105, 189, 229, 251, 238, 61, 64, 100, 147, 59, 192, 107, 98, 61, 45, 92, 21, 62, 131, 82, 60, 189, 32, 120, 201, 61, 5, 87, 17, 190, 120, 7, 197, 61, 157, 6, 51, 62, 227, 142, 72, 61, 180, 65, 183, 60, 19, 184, 167, 189, 69, 73, 52, 190, 109, 182, 175, 188, 168, 145, 165, 189, 8, 134, 219, 188, 228, 112, 221, 189, 84, 53, 5, 190, 254, 161, 60, 190, 188, 106, 14, 190, 67, 247, 47, 62, 128, 101, 9, 190, 157, 35, 195, 189, 5, 85, 14, 189, 134, 91, 157, 61, 141, 33, 14, 62, 112, 155, 12, 188, 0, 37, 78, 186, 137, 35, 23, 60, 68, 190, 80, 189, 125, 104, 4, 62, 131, 66, 131, 61, 192, 168, 252, 61, 65, 209, 50, 62, 208, 128, 234, 188, 80, 227, 146, 60, 252, 10, 83, 61, 108, 147, 63, 61, 17, 126, 24, 190, 82, 57, 38, 190, 45, 79, 49, 190, 154, 163, 184, 189, 110, 108, 188, 61, 46, 2, 12, 190, 197, 210, 54, 190, 51, 67, 22, 62, 147, 37, 254, 188, 76, 142, 208, 61, 163, 15, 139, 61, 100, 146, 235, 187, 196, 192, 10, 189, 51, 240, 138, 57, 84, 209, 31, 190, 47, 179, 26, 62, 58, 224, 35, 190, 209, 141, 18, 62, 198, 105, 98, 189, 80, 98, 143, 61, 97, 35, 50, 59, 145, 217, 9, 62, 63, 142, 22, 62, 219, 78, 80, 61, 85, 33, 44, 62, 107, 4, 173, 189, 39, 12, 204, 64, 50, 57, 146, 189, 51, 44, 10, 190, 183, 14, 203, 64, 52, 197, 195, 64, 124, 125, 196, 64, 227, 8, 134, 189, 122, 239, 195, 64, 216, 215, 132, 188, 3, 106, 194, 64, 156, 235, 201, 64, 149, 182, 207, 189, 160, 43, 195, 64, 72, 193, 185, 188, 51, 128, 196, 64, 106, 7, 242, 61, 253, 113, 202, 64, 25, 110, 7, 190, 51, 144, 200, 64, 218, 123, 157, 61, 219, 220, 144, 189, 184, 89, 147, 61, 53, 114, 19, 62, 142, 99, 202, 64, 24, 134, 161, 188, 31, 242, 29, 62, 254, 239, 228, 61, 112, 217, 197, 60, 213, 175, 204, 64, 206, 167, 209, 61, 199, 156, 236, 189, 173, 182, 198, 64, 209, 186, 196, 64, 218, 206, 17, 190, 137, 109, 203, 64, 120, 180, 239, 189, 32, 185, 87, 189, 144, 117, 99, 60, 62, 193, 198, 64, 144, 198, 104, 60, 62, 66, 204, 64, 209, 22, 199, 64, 222, 15, 193, 61, 55, 213, 198, 64, 113, 88, 196, 64, 71, 200, 206, 64, 44, 91, 204, 64, 248, 209, 197, 64, 171, 255, 199, 64, 106, 91, 195, 64, 196, 88, 201, 64, 221, 135, 193, 64, 63, 191, 197, 64, 253, 115, 17, 190, 76, 