#pragma once

#include <cstdint>

const uint8_t mod_8[] = {
28, 0, 0, 0, 84, 70, 76, 51, 20, 0, 32, 0, 28, 0, 24, 0, 20, 0, 16, 0, 12, 0, 0, 0, 8, 0, 4, 0, 20, 0, 0, 0, 28, 0, 0, 0, 152, 0, 0, 0, 240, 0, 0, 0, 192, 5, 0, 0, 208, 5, 0, 0, 212, 8, 0, 0, 3, 0, 0, 0, 1, 0, 0, 0, 4, 0, 0, 0, 250, 249, 255, 255, 12, 0, 0, 0, 28, 0, 0, 0, 64, 0, 0, 0, 15, 0, 0, 0, 115, 101, 114, 118, 105, 110, 103, 95, 100, 101, 102, 97, 117, 108, 116, 0, 1, 0, 0, 0, 4, 0, 0, 0, 132, 255, 255, 255, 4, 0, 0, 0, 4, 0, 0, 0, 15, 0, 0, 0, 110, 110, 95, 111, 117, 116, 112, 117, 116, 95, 108, 97, 121, 101, 114, 0, 1, 0, 0, 0, 4, 0, 0, 0, 202, 250, 255, 255, 4, 0, 0, 0, 21, 0, 0, 0, 110, 110, 95, 111, 117, 116, 112, 117, 116, 95, 108, 97, 121, 101, 114, 95, 105, 110, 112, 117, 116, 0, 0, 0, 2, 0, 0, 0, 52, 0, 0, 0, 4, 0, 0, 0, 220, 255, 255, 255, 7, 0, 0, 0, 4, 0, 0, 0, 19, 0, 0, 0, 67, 79, 78, 86, 69, 82, 83, 73, 79, 78, 95, 77, 69, 84, 65, 68, 65, 84, 65, 0, 8, 0, 12, 0, 8, 0, 4, 0, 8, 0, 0, 0, 6, 0, 0, 0, 4, 0, 0, 0, 19, 0, 0, 0, 109, 105, 110, 95, 114, 117, 110, 116, 105, 109, 101, 95, 118, 101, 114, 115, 105, 111, 110, 0, 8, 0, 0, 0, 204, 4, 0, 0, 196, 4, 0, 0, 176, 4, 0, 0, 152, 0, 0, 0, 144, 0, 0, 0, 136, 0, 0, 0, 104, 0, 0, 0, 4, 0, 0, 0, 110, 251, 255, 255, 4, 0, 0, 0, 84, 0, 0, 0, 12, 0, 0, 0, 8, 0, 14, 0, 8, 0, 4, 0, 8, 0, 0, 0, 16, 0, 0, 0, 36, 0, 0, 0, 0, 0, 6, 0, 8, 0, 4, 0, 6, 0, 0, 0, 4, 0, 0, 0, 0, 0, 0, 0, 0, 0, 10, 0, 16, 0, 12, 0, 8, 0, 4, 0, 10, 0, 0, 0, 2, 0, 0, 0, 2, 0, 0, 0, 4, 0, 0, 0, 6, 0, 0, 0, 50, 46, 49, 51, 46, 48, 0, 0, 206, 251, 255, 255, 4, 0, 0, 0, 16, 0, 0, 0, 49, 46, 49, 52, 46, 48, 0, 0, 0, 0, 0, 0, 0, 0, 0, 0, 240, 248, 255, 255, 244, 248, 255, 255, 242, 251, 255, 255, 4, 0, 0, 0, 0, 4, 0, 0, 10, 240, 223, 64, 20, 49, 104, 189, 80, 159, 61, 188, 186, 117, 221, 64, 204, 225, 161, 189, 148, 74, 225, 64, 100, 168, 10, 190, 9, 234, 220, 64, 65, 114, 17, 190, 81, 46, 0, 190, 189, 216, 156, 188, 16, 123, 190, 189, 242, 80, 221, 64, 13, 161, 224, 64, 24, 76, 11, 61, 76, 183, 109, 61, 189, 67, 224, 64, 2, 164, 204, 61, 251, 83, 11, 190, 5, 92, 224, 64, 91, 65, 222, 64, 5, 79, 209, 64, 66, 217, 222, 64, 57, 38, 225, 64, 242, 7, 222, 64, 100, 9, 52, 188, 35, 195, 160, 189, 172, 169, 241, 189, 74, 61, 196, 64, 102, 251, 236, 61, 154, 8, 128, 61, 44, 3, 225, 64, 94, 30, 221, 64, 28, 35, 225, 64, 154, 11, 222, 189, 152, 9, 177, 60, 64, 220, 222, 64, 168, 79, 46, 61, 211, 156, 2, 189, 173, 131, 63, 188, 150, 123, 0, 190, 20, 81, 49, 189, 49, 248, 222, 64, 176, 26, 47, 60, 40, 85, 168, 188, 196, 64, 5, 190, 91, 26, 222, 64, 97, 46, 156, 189, 60, 158, 220, 64, 1, 65, 223, 64, 184, 210, 195, 188, 122, 61, 160, 61, 45, 173, 222, 64, 191, 23, 156, 187, 120, 36, 176, 60, 250, 77, 179, 189, 159, 80, 137, 189, 82, 129, 56, 187, 17, 241, 223, 64, 36, 229, 251, 189, 32, 0, 28, 190, 10, 64, 204, 61, 240, 255, 182, 60, 76, 43, 33, 188, 243, 233, 217, 189, 28, 218, 7, 190, 128, 24, 46, 189, 105, 252, 216, 59, 10, 48, 225, 64, 196, 12, 223, 64, 63, 74, 221, 64, 38, 194, 225, 61, 27, 165, 151, 189, 49, 38, 89, 188, 39, 248, 222, 64, 74, 246, 190, 61, 53, 247, 179, 189, 204, 205, 119, 61, 12, 255, 144, 188, 42, 100, 146, 189, 216, 130, 17, 189, 40, 94, 167, 61, 239, 60, 63, 189, 73, 108, 242, 188, 164, 39, 234, 189, 189, 82, 222, 64, 151, 253, 222, 64, 102, 118, 189, 189, 231, 158, 20, 190, 170, 30, 217, 189, 66, 6, 223, 64, 244, 76, 57, 188, 216, 104, 233, 188, 242, 98, 223, 64, 251, 74, 223, 64, 231, 1, 225, 64, 107, 103, 225, 64, 71, 87, 244, 189, 38, 148, 147, 189, 1, 164, 159, 189, 20, 148, 235, 189, 48, 90, 223, 64, 34, 172, 135, 189, 146, 246, 222, 64, 233, 33, 221, 64, 22, 136, 26, 189, 178, 62, 60, 189, 220, 49, 221, 64, 7, 146, 120, 189, 5, 174, 148, 59, 14, 68, 84, 189, 240, 251, 44, 188, 210, 220, 217, 64, 49, 203, 28, 189, 95, 154, 222, 64, 230, 149, 225, 64, 204, 210, 61, 189, 193, 246, 223, 64, 48, 77, 67, 61, 101, 156, 6, 190, 59, 77, 43, 188, 215, 253, 224, 64, 90, 226, 119, 189, 176, 192, 59, 60, 54, 74, 247, 188, 232, 96, 221, 64, 229, 33, 224, 64, 153, 61, 57, 189, 216, 251, 77, 61, 83, 221, 222, 64, 162, 230, 214, 189, 70, 143, 147, 61, 4, 208, 72, 61, 14, 222, 146, 189, 126, 132, 222, 64, 43, 32, 2, 62, 88, 0, 178, 189, 196, 149, 220, 64, 144, 0, 222, 64, 40, 194, 195, 188, 58, 145, 221, 64, 1, 99, 222, 189, 160, 175, 223, 64, 239, 197, 191, 189, 212, 164, 114, 59, 204, 70, 155, 61, 48, 167, 194, 64, 33, 124, 254, 189, 94, 235, 222, 64, 205, 186, 55, 189, 214, 127, 225, 64, 110, 165, 221, 64, 1, 65, 211, 189, 82, 101, 224, 61, 108, 165, 221, 64, 50, 204, 117, 58, 132, 144, 225, 64, 127, 4, 240, 189, 133, 94, 225, 64, 37, 51, 50, 187, 80, 72, 173, 61, 209, 8, 225, 64, 146, 162, 223, 64, 158, 117, 225, 64, 67, 32, 224, 64, 68, 187, 222, 64, 122, 44, 238, 61, 126, 154, 222, 61, 162, 129, 170, 59, 188, 49, 20, 190, 247, 190, 225, 64, 111, 240, 221, 64, 77, 188, 224, 64, 183, 13, 0, 190, 0, 0, 224, 64, 255, 233, 68, 189, 128, 166, 187, 60, 241, 1, 224, 64, 121, 143, 210, 188, 106, 239, 224, 64, 74, 182, 224, 64, 55, 35, 223, 64, 125, 69, 154, 188, 217, 63, 129, 189, 132, 247, 76, 61, 56, 51, 53, 61, 25, 61, 8, 62, 221, 128, 198, 188, 187, 175, 20, 62, 121, 140, 224, 64, 216, 180, 61, 61, 138, 222, 231, 188, 103, 153, 223, 64, 104, 203, 224, 64, 30, 99, 91, 189, 109, 211, 221, 64, 208, 36, 225, 64, 108, 219, 222, 64, 58, 85, 228, 188, 235, 94, 32, 189, 0, 87, 183, 187, 177, 231, 21, 188, 110, 171, 222, 64, 35, 142, 224, 64, 254, 34, 219, 189, 31, 115, 98, 189, 44, 54, 83, 185, 235, 189, 136, 189, 178, 41, 221, 61, 224, 7, 222, 64, 191, 177, 195, 189, 31, 234, 36, 189, 56, 20, 192, 188, 70, 44, 156, 189, 187, 29, 223, 64, 223, 0, 248, 188, 37, 114, 40, 188, 32, 25, 221, 64, 34, 214, 26, 188, 137, 159, 148, 189, 141, 142, 221, 64, 134, 14, 135, 61, 178, 255, 217, 61, 36, 227, 250, 189, 14, 58, 255, 189, 41, 115, 221, 64, 248, 33, 225, 64, 238, 19, 221, 64, 120, 243, 184, 187, 178, 236, 7, 190, 204, 127, 223, 189, 148, 250, 4, 190, 107, 126, 224, 64, 150, 166, 225, 64, 63, 132, 137, 60, 139, 38, 17, 62, 228, 143, 129, 188, 154, 83, 89, 189, 39, 251, 148, 189, 209, 199, 240, 189, 208, 249, 12, 189, 96, 232, 155, 189, 92, 112, 139, 61, 149, 229, 100, 189, 34, 218, 248, 189, 89, 254, 61, 188, 57, 66, 225, 64, 183, 5, 54, 189, 106, 198, 221, 64, 244, 29, 223, 189, 142, 117, 6, 190, 137, 43, 168, 64, 189, 29, 32, 189, 62, 164, 224, 64, 121, 227, 220, 64, 189, 205, 166, 189, 0, 0, 6, 0, 8, 0, 4, 0, 6, 0, 0, 0, 4, 0, 0, 0, 4, 0, 0, 0, 227, 7, 40, 64, 28, 253, 255, 255, 32, 253, 255, 255, 15, 0, 0, 0, 77, 76, 73, 82, 32, 67, 111, 110, 118, 101, 114, 116, 101, 100, 46, 0, 1, 0, 0, 0, 20, 0, 0, 0, 0, 0, 14, 0, 24, 0, 20, 0, 16, 0, 12, 0, 8, 0, 4, 0, 14, 0, 0, 0, 20, 0, 0, 0, 28, 0, 0, 0, 144, 0, 0, 0, 148, 0, 0, 0, 152, 0, 0, 0, 4, 0, 0, 0, 109, 97, 105, 110, 0, 0, 0, 0, 2, 0, 0, 0, 68, 0, 0, 0, 16, 0, 0, 0, 0, 0, 10, 0, 16, 0, 12, 0, 8, 0, 4, 0, 10, 0, 0, 0, 12, 0, 0, 0, 16, 0, 0, 0, 1, 0, 0, 0, 1, 0, 0, 0, 4, 0, 0, 0, 1, 0, 0, 0, 3, 0, 0, 0, 0, 0, 14, 0, 20, 0, 0, 0, 16, 0, 12, 0, 11, 0, 4, 0, 14, 0, 0, 0, 16, 0, 0, 0, 0, 0, 0, 8, 12, 0, 0, 0, 16, 0, 0, 0, 208, 253, 255, 255, 1, 0, 0, 0, 3, 0, 0, 0, 3, 0, 0, 0, 0, 0, 0, 0, 2, 0, 0, 0, 1, 0, 0, 0, 1, 0, 0, 0, 4, 0, 0, 0, 1, 0, 0, 0, 0, 0, 0, 0, 5, 0, 0, 0, 216, 1, 0, 0, 92, 1, 0, 0, 236, 0, 0, 0, 96, 0, 0, 0, 4, 0, 0, 0, 82, 254, 255, 255, 0, 0, 0, 1, 20, 0, 0, 0, 28, 0, 0, 0, 28, 0, 0, 0, 5, 0, 0, 0, 52, 0, 0, 0, 2, 0, 0, 0, 255, 255, 255, 255, 1, 0, 0, 0, 60, 254, 255, 255, 25, 0, 0, 0, 83, 116, 97, 116, 101, 102, 117, 108, 80, 97, 114, 116, 105, 116, 105, 111, 110, 101, 100, 67, 97, 108, 108, 58, 48, 0, 0, 0, 2, 0, 0, 0, 1, 0, 0, 0, 1, 0, 0, 0, 170, 254, 255, 255, 0, 0, 0, 1, 20, 0, 0, 0, 28, 0, 0, 0, 28, 0, 0, 0, 4, 0, 0, 0, 100, 0, 0, 0, 2, 0, 0, 0, 255, 255, 255, 255, 1, 0, 0, 0, 148, 254, 255, 255, 74, 0, 0, 0, 115, 101, 113, 117, 101, 110, 116, 105, 97, 108, 95, 50, 50, 47, 110, 110, 95, 111, 117, 116, 112, 117, 116, 95, 108, 97, 121, 101, 114, 47, 77, 97, 116, 77, 117, 108, 59, 115, 101, 113, 117, 101, 110, 116, 105, 97, 108, 95, 50, 50, 47, 110, 110, 95, 111, 117, 116, 112, 117, 116, 95, 108, 97, 121, 101, 114, 47, 66, 105, 97, 115, 65, 100, 100, 0, 0, 2, 0, 0, 0, 1, 0, 0, 0, 1, 0, 0, 0, 170, 255, 255, 255, 0, 0, 0, 1, 16, 0, 0, 0, 16, 0, 0, 0, 3, 0, 0, 0, 52, 0, 0, 0, 12, 255, 255, 255, 36, 0, 0, 0, 115, 101, 113, 117, 101, 110, 116, 105, 97, 108, 95, 50, 50, 47, 110, 110, 95, 111, 117, 116, 112, 117, 116, 95, 108, 97, 121, 101, 114, 47, 77, 97, 116, 77, 117, 108, 0, 0, 0, 0, 2, 0, 0, 0, 1, 0, 0, 0, 0, 1, 0, 0, 0, 0, 22, 0, 24, 0, 20, 0, 0, 0, 16, 0, 12, 0, 8, 0, 0, 0, 0, 0, 0, 0, 7, 0, 22, 0, 0, 0, 0, 0, 0, 1, 16, 0, 0, 0, 16, 0, 0, 0, 2, 0, 0, 0, 68, 0, 0, 0, 120, 255, 255, 255, 52, 0, 0, 0, 115, 101, 113, 117, 101, 110, 116, 105, 97, 108, 95, 50, 50, 47, 110, 110, 95, 111, 117, 116, 112, 117, 116, 95, 108, 97, 121, 101, 114, 47, 66, 105, 97, 115, 65, 100, 100, 47, 82, 101, 97, 100, 86, 97, 114, 105, 97, 98, 108, 101, 79, 112, 0, 0, 0, 0, 1, 0, 0, 0, 1, 0, 0, 0, 0, 0, 22, 0, 28, 0, 24, 0, 0, 0, 20, 0, 16, 0, 12, 0, 0, 0, 0, 0, 8, 0, 7, 0, 22, 0, 0, 0, 0, 0, 0, 1, 20, 0, 0, 0, 32, 0, 0, 0, 32, 0, 0, 0, 1, 0, 0, 0, 68, 0, 0, 0, 2, 0, 0, 0, 255, 255, 255, 255, 0, 1, 0, 0, 4, 0, 4, 0, 4, 0, 0, 0, 39, 0, 0, 0, 115, 101, 114, 118, 105, 110, 103, 95, 100, 101, 102, 97, 117, 108, 116, 95, 110, 110, 95, 111, 117, 116, 112, 117, 116, 95, 108, 97, 121, 101, 114, 95, 105, 110, 112, 117, 116, 58, 48, 0, 2, 0, 0, 0, 1, 0, 0, 0, 0, 1, 0, 0, 2, 0, 0, 0, 32, 0, 0, 0, 4, 0, 0, 0, 244, 255, 255, 255, 14, 0, 0, 0, 0, 0, 0, 14, 12, 0, 12, 0, 11, 0, 0, 0, 0, 0, 4, 0, 12, 0, 0, 0, 9, 0, 0, 0, 0, 0, 0, 9
};
