#pragma once

#include <cstdint>

const uint8_t mod_5[] = {
28, 0, 0, 0, 84, 70, 76, 51, 20, 0, 32, 0, 28, 0, 24, 0, 20, 0, 16, 0, 12, 0, 0, 0, 8, 0, 4, 0, 20, 0, 0, 0, 28, 0, 0, 0, 156, 0, 0, 0, 244, 0, 0, 0, 184, 34, 0, 0, 200, 34, 0, 0, 8, 37, 0, 0, 3, 0, 0, 0, 1, 0, 0, 0, 16, 0, 0, 0, 0, 0, 10, 0, 16, 0, 12, 0, 8, 0, 4, 0, 10, 0, 0, 0, 12, 0, 0, 0, 28, 0, 0, 0, 60, 0, 0, 0, 15, 0, 0, 0, 115, 101, 114, 118, 105, 110, 103, 95, 100, 101, 102, 97, 117, 108, 116, 0, 1, 0, 0, 0, 4, 0, 0, 0, 140, 255, 255, 255, 3, 0, 0, 0, 4, 0, 0, 0, 10, 0, 0, 0, 110, 110, 95, 108, 97, 121, 101, 114, 95, 54, 0, 0, 1, 0, 0, 0, 4, 0, 0, 0, 214, 222, 255, 255, 4, 0, 0, 0, 16, 0, 0, 0, 110, 110, 95, 108, 97, 121, 101, 114, 95, 54, 95, 105, 110, 112, 117, 116, 0, 0, 0, 0, 2, 0, 0, 0, 52, 0, 0, 0, 4, 0, 0, 0, 220, 255, 255, 255, 6, 0, 0, 0, 4, 0, 0, 0, 19, 0, 0, 0, 67, 79, 78, 86, 69, 82, 83, 73, 79, 78, 95, 77, 69, 84, 65, 68, 65, 84, 65, 0, 8, 0, 12, 0, 8, 0, 4, 0, 8, 0, 0, 0, 5, 0, 0, 0, 4, 0, 0, 0, 19, 0, 0, 0, 109, 105, 110, 95, 114, 117, 110, 116, 105, 109, 101, 95, 118, 101, 114, 115, 105, 111, 110, 0, 7, 0, 0, 0, 192, 33, 0, 0, 184, 33, 0, 0, 168, 32, 0, 0, 144, 0, 0, 0, 136, 0, 0, 0, 104, 0, 0, 0, 4, 0, 0, 0, 114, 223, 255, 255, 4, 0, 0, 0, 84, 0, 0, 0, 12, 0, 0, 0, 8, 0, 14, 0, 8, 0, 4, 0, 8, 0, 0, 0, 16, 0, 0, 0, 36, 0, 0, 0, 0, 0, 6, 0, 8, 0, 4, 0, 6, 0, 0, 0, 4, 0, 0, 0, 0, 0, 0, 0, 0, 0, 10, 0, 16, 0, 12, 0, 8, 0, 4, 0, 10, 0, 0, 0, 2, 0, 0, 0, 2, 0, 0, 0, 4, 0, 0, 0, 6, 0, 0, 0, 50, 46, 49, 51, 46, 48, 0, 0, 210, 223, 255, 255, 4, 0, 0, 0, 16, 0, 0, 0, 49, 46, 53, 46, 48, 0, 0, 0, 0, 0, 0, 0, 0, 0, 0, 0, 184, 220, 255, 255, 242, 223, 255, 255, 4, 0, 0, 0, 0, 32, 0, 0, 228, 243, 80, 190, 67, 98, 8, 61, 96, 142, 200, 61, 215, 58, 253, 61, 118, 6, 129, 189, 213, 119, 131, 189, 56, 175, 156, 61, 57, 253, 47, 190, 106, 9, 18, 62, 223, 100, 71, 190, 231, 130, 84, 61, 250, 16, 41, 62, 96, 161, 221, 189, 64, 195, 109, 190, 248, 126, 98, 190, 40, 90, 32, 190, 100, 13, 32, 62, 184, 166, 95, 190, 128, 176, 185, 59, 192, 73, 101, 61, 176, 56, 99, 190, 48, 95, 69, 190, 32, 151, 170, 189, 136, 93, 179, 189, 1, 72, 67, 190, 168, 124, 197, 61, 150, 141, 83, 61, 208, 10, 53, 189, 113, 88, 5, 61, 192, 172, 234, 188, 0, 20, 218, 188, 134, 158, 36, 62, 68, 140, 226, 64, 56, 53, 227, 64, 136, 199, 2, 62, 143, 188, 220, 64, 188, 18, 123, 62, 178, 9, 213, 64, 200, 136, 121, 62, 132, 201, 219, 64, 84, 162, 222, 64, 146, 140, 215, 64, 18, 54, 225, 64, 187, 242, 36, 189, 32, 78, 254, 60, 239, 137, 214, 64, 8, 224, 169, 189, 200, 250, 44, 62, 116, 82, 227, 64, 252, 231, 40, 190, 172, 159, 212, 64, 79, 4, 223, 64, 0, 97, 222, 60, 12, 242, 91, 189, 132, 107, 63, 190, 234, 97, 4, 61, 154, 148, 226, 64, 140, 147, 125, 62, 221, 239, 226, 64, 155, 18, 52, 62, 1, 83, 224, 64, 136, 178, 195, 61, 24, 126, 46, 190, 191, 189, 219, 64, 140, 194, 104, 190, 192, 65, 13, 61, 152, 111, 42, 190, 52, 168, 126, 190, 24, 16, 225, 189, 220, 79, 23, 190, 16, 128, 35, 62, 0, 196, 108, 58, 88, 60, 109, 62, 0, 99, 93, 62, 4, 4, 101, 190, 40, 250, 102, 190, 0, 24, 108, 62, 84, 164, 41, 190, 100, 113, 64, 190, 56, 33, 16, 62, 120, 122, 169, 61, 172, 195, 115, 190, 56, 163, 241, 61, 40, 35, 236, 189, 128, 4, 116, 61, 136, 211, 80, 62, 80, 231, 23, 62, 140, 220, 33, 62, 84, 234, 19, 190, 64, 69, 96, 62, 176, 48, 80, 190, 24, 135, 187, 61, 252, 62, 126, 190, 96, 125, 95, 189, 252, 137, 83, 190, 148, 199, 22, 62, 224, 128, 242, 61, 72, 110, 137, 61, 208, 143, 20, 189, 0, 138, 39, 188, 76, 239, 80, 190, 48, 82, 8, 62, 132, 181, 95, 62, 96, 221, 235, 188, 120, 83, 178, 189, 192, 32, 89, 189, 240, 76, 149, 189, 0, 111, 254, 188, 160, 3, 210, 188, 100, 194, 96, 62, 12, 161, 17, 190, 128, 155, 174, 188, 28, 184, 24, 190, 40, 173, 127, 190, 128, 69, 61, 188, 24, 11, 209, 189, 92, 53, 99, 62, 236, 226, 9, 190, 128, 152, 54, 188, 48, 121, 205, 61, 0, 41, 191, 59, 252, 99, 3, 190, 248, 124, 56, 62, 184, 95, 113, 190, 172, 169, 85, 190, 152, 177, 181, 61, 136, 86, 116, 190, 64, 93, 119, 188, 52, 70, 212, 64, 119, 246, 218, 64, 196, 205, 26, 190, 20, 0, 218, 64, 126, 131, 66, 189, 175, 37, 207, 64, 144, 182, 17, 61, 133, 72, 215, 64, 153, 38, 219, 64, 225, 112, 206, 64, 25, 198, 218, 64, 68, 12, 139, 189, 160, 226, 216, 188, 19, 189, 220, 64, 4, 20, 58, 190, 200, 65, 216, 189, 25, 174, 212, 64, 80, 60, 112, 62, 154, 148, 217, 64, 238, 135, 210, 64, 8, 135, 220, 189, 200, 214, 93, 190, 24, 202, 17, 190, 56, 123, 251, 61, 172, 144, 208, 64, 64, 188, 32, 188, 65, 78, 215, 64, 80, 126, 67, 61, 5, 240, 206, 64, 160, 97, 21, 190, 0, 102, 195, 60, 253, 206, 219, 64, 164, 222, 223, 64, 102, 46, 215, 64, 60, 43, 2, 190, 144, 235, 225, 64, 114, 96, 166, 61, 14, 28, 225, 64, 8, 16, 97, 62, 114, 168, 227, 64, 15, 140, 214, 64, 112, 83, 226, 64, 239, 250, 227, 64, 90, 13, 3, 62, 152, 246, 8, 62, 243, 224, 226, 64, 144, 148, 224, 189, 128, 104, 132, 189, 190, 111, 221, 64, 103, 82, 208, 189, 253, 191, 209, 64, 56, 166, 220, 64, 144, 18, 89, 190, 248, 142, 140, 189, 32, 65, 208, 61, 252, 241, 253, 60, 173, 170, 221, 64, 80, 183, 49, 190, 86, 43, 218, 64, 209, 129, 201, 60, 70, 248, 224, 64, 164, 231, 45, 190, 48, 212, 90, 189, 1, 132, 224, 64, 94, 180, 218, 64, 96, 144, 226, 64, 192, 175, 35, 189, 28, 243, 226, 64, 41, 119, 53, 59, 124, 39, 216, 64, 184, 195, 88, 62, 248, 7, 227, 64, 71, 43, 213, 64, 238, 188, 222, 64, 4, 112, 228, 64, 5, 250, 137, 62, 144, 19, 2, 61, 101, 214, 222, 64, 224, 127, 30, 190, 48, 37, 145, 61, 156, 180, 213, 64, 87, 127, 235, 189, 194, 70, 214, 64, 68, 117, 213, 64, 168, 54, 226, 189, 127, 243, 31, 62, 192, 11, 41, 60, 77, 144, 23, 190, 70, 72, 216, 64, 192, 23, 32, 190, 56, 162, 222, 64, 50, 128, 195, 61, 243, 164, 221, 64, 116, 17, 68, 62, 64, 192, 190, 188, 7, 250, 227, 64, 236, 51, 124, 190, 228, 144, 16, 190, 40, 83, 231, 61, 128, 108, 130, 188, 40, 209, 50, 190, 164, 82, 35, 62, 128, 111, 218, 61, 112, 126, 75, 61, 104, 65, 176, 189, 64, 12, 97, 190, 48, 130, 72, 190, 76, 156, 74, 62, 236, 92, 98, 190, 96, 217, 41, 190, 76, 32, 14, 190, 180, 219, 43, 190, 192, 65, 47, 189, 8, 187, 153, 189, 140, 61, 102, 62, 120, 189, 21, 190, 80, 231, 185, 61, 156, 93, 120, 190, 128, 85, 125, 61, 24, 42, 62, 62, 28, 212, 17, 190, 112, 66, 20, 190, 168, 59, 227, 189, 232, 192, 67, 190, 12, 57, 75, 62, 192, 139, 148, 188, 104, 33, 231, 61, 224, 136, 3, 61, 27, 17, 224, 64, 91, 73, 224, 64, 64, 162, 103, 61, 99, 115, 209, 64, 104, 142, 17, 62, 198, 173, 223, 64, 0, 8, 105, 62, 220, 109, 222, 64, 224, 253, 213, 64, 242, 196, 213, 64, 42, 180, 221, 64, 72, 240, 204, 189, 36, 79, 41, 62, 189, 140, 214, 64, 0, 221, 71, 188, 168, 62, 30, 190, 113, 49, 212, 64, 88, 117, 215, 189, 122, 76, 220, 64, 251, 203, 210, 64, 64, 20, 195, 61, 240, 223, 234, 61, 32, 183, 127, 190, 72, 241, 222, 61, 55, 28, 220, 64, 112, 189, 11, 61, 245, 187, 223, 64, 240, 18, 70, 190, 76, 99, 209, 64, 52, 61, 81, 190, 32, 230, 19, 62, 182, 25, 220, 64, 80, 115, 53, 190, 204, 211, 145, 61, 136, 231, 206, 189, 144, 153, 21, 190, 35, 76, 30, 62, 215, 238, 164, 61, 0, 213, 201, 188, 144, 60, 11, 190, 214, 16, 46, 62, 75, 18, 253, 61, 217, 223, 100, 61, 121, 101, 103, 60, 96, 155, 53, 189, 24, 75, 147, 189, 164, 120, 85, 190, 116, 208, 126, 62, 196, 149, 9, 62, 32, 145, 27, 190, 64, 68, 62, 61, 28, 47, 112, 189, 40, 189, 134, 189, 0, 182, 233, 188, 156, 248, 96, 190, 176, 118, 11, 62, 123, 81, 115, 62, 112, 181, 43, 189, 89, 135, 45, 190, 248, 222, 213, 189, 134, 215, 57, 190, 144, 118, 246, 189, 180, 80, 25, 190, 99, 64, 162, 189, 242, 152, 214, 64, 64, 59, 220, 64, 168, 232, 179, 189, 85, 55, 214, 64, 26, 150, 34, 62, 222, 73, 215, 64, 232, 81, 245, 189, 146, 93, 226, 64, 162, 141, 221, 64, 147, 58, 221, 64, 235, 77, 227, 64, 151, 82, 116, 189, 220, 53, 109, 190, 133, 64, 224, 64, 192, 25, 90, 60, 208, 249, 11, 62, 8, 53, 224, 64, 116, 129, 27, 190, 138, 68, 219, 64, 64, 192, 220, 64, 120, 104, 230, 189, 42, 150, 55, 62, 124, 22, 54, 190, 42, 100, 237, 189, 158, 161, 221, 64, 208, 163, 25, 61, 200, 66, 222, 64, 52, 189, 38, 190, 118, 252, 222, 64, 252, 245, 70, 62, 32, 220, 191, 189, 255, 29, 221, 64, 245, 47, 218, 64, 167, 170, 224, 64, 0, 32, 115, 62, 33, 31, 221, 64, 89, 215, 63, 189, 189, 115, 222, 64, 108, 114, 23, 62, 7, 97, 222, 64, 238, 31, 218, 64, 196, 215, 221, 64, 202, 219, 225, 64, 221, 101, 60, 190, 240, 147, 29, 62, 193, 201, 221, 64, 244, 107, 73, 190, 112, 198, 106, 190, 226, 226, 227, 64, 17, 217, 54, 190, 36, 78, 209, 64, 93, 9, 227, 64, 32, 6, 206, 189, 141, 13, 15, 190, 160, 37, 0, 61, 101, 209, 61, 190, 199, 27, 223, 64, 80, 163, 88, 62, 64, 152, 222, 64, 0, 120, 109, 61, 219, 110, 212, 64, 40, 135, 97, 190, 168, 35, 153, 189, 207, 103, 225, 64, 32, 23, 153, 60, 20, 34, 52, 62, 64, 106, 79, 62, 168, 217, 210, 189, 32, 77, 113, 62, 120, 167, 89, 190, 128, 124, 18, 60, 72, 183, 146, 189, 192, 145, 86, 189, 48, 213, 19, 190, 244, 125, 21, 62, 48, 28, 108, 62, 248, 92, 198, 61, 192, 99, 61, 62, 236, 155, 90, 190, 20, 69, 66, 62, 32, 177, 24, 61, 200, 73, 9, 62, 160, 132, 192, 61, 128, 29, 169, 189, 76, 3, 14, 190, 192, 230, 26, 189, 152, 22, 230, 189, 8, 241, 40, 190, 160, 170, 102, 190, 8, 133, 22, 190, 228, 203, 7, 62, 116, 150, 59, 190, 192, 106, 55, 60, 160, 25, 211, 61, 24, 20, 159, 189, 80, 85, 121, 190, 38, 211, 220, 64, 211, 182, 213, 64, 12, 250, 42, 190, 243, 101, 224, 64, 93, 181, 189, 189, 207, 206, 221, 64, 48, 148, 96, 62, 23, 99, 218, 64, 200, 246, 225, 64, 222, 158, 221, 64, 250, 89, 216, 64, 12, 120, 145, 188, 136, 93, 71, 62, 125, 100, 216, 64, 44, 107, 95, 190, 208, 231, 78, 189, 190, 189, 226, 64, 169, 175, 132, 62, 232, 105, 209, 64, 113, 175, 227, 64, 16, 177, 46, 61, 104, 149, 78, 190, 244, 120, 45, 190, 128, 4, 95, 190, 120, 45, 225, 64, 128, 209, 42, 190, 150, 242, 212, 64, 102, 129, 66, 190, 120, 104, 221, 64, 128, 106, 155, 61, 32, 249, 192, 60, 3, 60, 224, 64, 254, 181, 131, 190, 62, 223, 100, 189, 120, 193, 65, 62, 94, 60, 140, 61, 183, 68, 41, 190, 73, 150, 21, 190, 180, 33, 65, 62, 222, 141, 32, 62, 15, 251, 131, 190, 217, 84, 235, 189, 124, 59, 50, 62, 112, 77, 81, 189, 96, 78, 68, 62, 72, 103, 92, 190, 144, 182, 86, 190, 0, 225, 161, 61, 106, 103, 63, 190, 220, 185, 67, 190, 180, 150, 1, 190, 109, 3, 193, 61, 124, 107, 38, 62, 76, 82, 100, 190, 192, 10, 188, 60, 0, 53, 72, 190, 244, 253, 161, 60, 128, 32, 116, 189, 88, 85, 56, 190, 32, 151, 25, 190, 85, 75, 96, 189, 28, 170, 10, 190, 64, 230, 74, 188, 182, 71, 242, 61, 86, 147, 219, 64, 139, 13, 219, 64, 128, 130, 35, 61, 51, 238, 220, 64, 97, 86, 46, 60, 4, 27, 221, 64, 128, 130, 96, 189, 66, 107, 223, 64, 170, 22, 222, 64, 197, 174, 226, 64, 191, 154, 212, 64, 79, 51, 82, 62, 120, 183, 143, 61, 194, 127, 224, 64, 32, 64, 103, 189, 28, 3, 37, 190, 95, 138, 226, 64, 59, 48, 50, 61, 35, 218, 215, 64, 156, 104, 227, 64, 84, 192, 113, 62, 157, 221, 63, 62, 96, 22, 114, 61, 150, 54, 21, 62, 88, 37, 222, 64, 208, 238, 20, 61, 206, 198, 223, 64, 133, 162, 104, 190, 152, 176, 216, 64, 48, 16, 63, 190, 32, 165, 170, 189, 250, 115, 216, 64, 250, 70, 168, 189, 132, 108, 123, 190, 164, 89, 82, 190, 205, 100, 31, 62, 132, 141, 206, 189, 131, 100, 28, 62, 88, 41, 186, 189, 110, 9, 10, 62, 68, 22, 107, 62, 49, 110, 22, 62, 193, 88, 65, 190, 26, 70, 250, 189, 88, 158, 80, 62, 220, 109, 70, 190, 160, 190, 130, 60, 224, 35, 185, 61, 235, 74, 49, 190, 48, 109, 78, 190, 168, 90, 238, 189, 235, 121, 52, 189, 224, 192, 21, 62, 240, 200, 79, 62, 144, 39, 30, 62, 180, 171, 114, 190, 118, 98, 147, 189, 192, 90, 71, 190, 142, 73, 124, 190, 232, 65, 66, 190, 184, 234, 188, 189, 160, 165, 148, 61, 184, 12, 232, 61, 140, 123, 219, 189, 61, 72, 226, 64, 233, 32, 217, 64, 192, 123, 254, 189, 199, 60, 216, 64, 84, 174, 23, 62, 227, 142, 221, 64, 248, 251, 227, 189, 18, 210, 223, 64, 104, 230, 214, 64, 95, 68, 218, 64, 25, 63, 225, 64, 11, 85, 25, 62, 80, 182, 242, 189, 5, 109, 218, 64, 68, 81, 8, 190, 168, 42, 94, 190, 140, 45, 224, 64, 120, 229, 181, 189, 224, 34, 212, 64, 139, 68, 219, 64, 24, 197, 48, 190, 127, 131, 89, 187, 40, 173, 115, 62, 56, 129, 12, 190, 210, 19, 218, 64, 64, 250, 43, 188, 199, 164, 224, 64, 172, 178, 114, 190, 81, 104, 217, 64, 240, 47, 117, 61, 252, 229, 108, 190, 83, 203, 224, 64, 116, 141, 70, 190, 96, 110, 1, 189, 240, 166, 76, 61, 152, 158, 191, 189, 52, 144, 33, 62, 200, 37, 106, 190, 108, 74, 117, 62, 172, 159, 107, 62, 16, 129, 91, 190, 160, 152, 42, 189, 128, 56, 17, 62, 112, 141, 182, 61, 192, 36, 66, 189, 128, 147, 19, 190, 176, 44, 146, 61, 88, 150, 26, 62, 96, 0, 51, 61, 16, 194, 107, 61, 136, 111, 142, 189, 48, 13, 93, 190, 32, 156, 138, 189, 120, 84, 0, 190, 132, 60, 31, 190, 88, 44, 39, 190, 112, 69, 52, 189, 252, 124, 29, 62, 184, 196, 52, 190, 196, 115, 90, 190, 88, 160, 100, 190, 96, 1, 13, 190, 24, 197, 67, 190, 200, 198, 28, 62, 210, 227, 212, 64, 121, 3, 227, 64, 128, 189, 219, 61, 141, 230, 219, 64, 17, 3, 7, 62, 72, 63, 217, 64, 240, 128, 133, 189, 9, 238, 222, 64, 33, 163, 224, 64, 221, 188, 226, 64, 138, 144, 216, 64, 93, 86, 166, 189, 232, 79, 248, 189, 127, 78, 216, 64, 200, 25, 149, 61, 248, 73, 46, 190, 162, 221, 221, 64, 12, 56, 106, 190, 172, 19, 207, 64, 7, 45, 224, 64, 172, 90, 102, 62, 63, 38, 88, 190, 80, 199, 64, 189, 96, 52, 113, 190, 248, 127, 215, 64, 192, 170, 224, 188, 231, 105, 213, 64, 86, 239, 157, 189, 79, 173, 225, 64, 188, 137, 84, 62, 120, 6, 130, 189, 81, 181, 226, 64, 24, 177, 223, 61, 12, 45, 79, 62, 160, 115, 170, 61, 40, 12, 154, 189, 0, 204, 127, 189, 236, 168, 15, 190, 160, 243, 143, 61, 136, 142, 55, 190, 96, 26, 231, 188, 244, 118, 92, 190, 140, 94, 109, 190, 224, 73, 185, 60, 80, 53, 118, 62, 0, 127, 247, 59, 16, 31, 28, 190, 192, 204, 181, 61, 176, 158, 193, 61, 192, 68, 102, 190, 104, 56, 69, 62, 68, 129, 100, 62, 0, 17, 4, 189, 196, 185, 67, 62, 0, 216, 35, 189, 144, 24, 29, 190, 88, 188, 113, 190, 40, 227, 154, 189, 216, 176, 210, 61, 64, 183, 163, 60, 100, 154, 124, 190, 80, 194, 9, 190, 72, 17, 87, 190, 72, 123, 104, 62, 93, 70, 41, 190, 166, 170, 181, 60, 32, 138, 49, 61, 167, 17, 110, 61, 104, 29, 46, 190, 13, 5, 139, 60, 224, 173, 30, 61, 234, 181, 128, 58, 40, 63, 50, 190, 140, 8, 106, 62, 131, 27, 201, 61, 224, 80, 39, 190, 192, 166, 94, 60, 40, 2, 161, 61, 236, 182, 107, 190, 8, 254, 42, 190, 212, 153, 173, 60, 21, 35, 31, 62, 80, 205, 244, 189, 213, 249, 131, 189, 168, 121, 94, 190, 184, 176, 212, 61, 240, 19, 18, 62, 69, 67, 198, 188, 73, 121, 12, 59, 240, 8, 60, 62, 78, 30, 77, 190, 53, 253, 239, 189, 1, 254, 27, 190, 96, 106, 144, 61, 16, 223, 130, 189, 187, 158, 94, 188, 244, 159, 65, 190, 33, 89, 49, 189, 180, 251, 118, 190, 51, 96, 43, 190, 125, 30, 185, 189, 146, 18, 59, 62, 92, 203, 94, 190, 43, 103, 111, 62, 176, 70, 107, 190, 98, 75, 44, 62, 40, 239, 129, 190, 92, 221, 146, 61, 184, 155, 156, 189, 248, 241, 29, 190, 184, 2, 200, 61, 104, 72, 56, 190, 0, 215, 63, 188, 222, 136, 60, 61, 216, 237, 38, 190, 97, 182, 43, 62, 184, 178, 28, 62, 112, 124, 39, 190, 32, 223, 213, 60, 72, 119, 12, 190, 250, 62, 97, 62, 0, 245, 58, 60, 254, 4, 241, 189, 101, 215, 140, 60, 91, 115, 101, 190, 184, 6, 227, 189, 80, 174, 73, 61, 19, 138, 99, 61, 104, 243, 246, 189, 16, 96, 107, 189, 20, 139, 26, 190, 0, 215, 111, 190, 0, 48, 38, 58, 188, 204, 91, 62, 64, 56, 186, 188, 160, 139, 155, 61, 248, 218, 253, 61, 96, 127, 147, 189, 32, 70, 216, 61, 148, 249, 119, 62, 236, 219, 115, 62, 8, 254, 132, 61, 176, 210, 105, 62, 128, 33, 178, 188, 144, 118, 121, 190, 20, 45, 36, 62, 0, 220, 129, 186, 192, 230, 116, 61, 144, 123, 38, 62, 132, 151, 58, 62, 200, 187, 240, 189, 244, 9, 68, 62, 0, 179, 96, 189, 172, 71, 76, 190, 208, 135, 180, 61, 96, 18, 115, 61, 92, 202, 122, 190, 104, 61, 148, 61, 192, 114, 102, 190, 0, 95, 174, 60, 107, 240, 216, 64, 254, 207, 215, 64, 16, 25, 54, 189, 7, 103, 213, 64, 141, 142, 218, 189, 51, 110, 226, 64, 80, 122, 169, 189, 158, 5, 226, 64, 222, 16, 227, 64, 131, 239, 225, 64, 131, 23, 224, 64, 175, 106, 228, 61, 64, 136, 186, 188, 253, 154, 224, 64, 64, 150, 118, 188, 132, 66, 57, 190, 66, 84, 218, 64, 242, 247, 189, 189, 159, 32, 215, 64, 115, 122, 225, 64, 160, 181, 64, 61, 208, 243, 110, 190, 232, 173, 79, 190, 97, 231, 254, 186, 46, 56, 225, 64, 72, 83, 28, 62, 231, 4, 214, 64, 235, 223, 43, 62, 66, 109, 212, 64, 112, 81, 227, 61, 240, 186, 69, 61, 230, 12, 216, 64, 158, 201, 32, 189, 146, 131, 28, 190, 136, 201, 211, 189, 108, 81, 5, 62, 254, 168, 102, 61, 39, 142, 12, 190, 232, 192, 63, 190, 208, 193, 80, 189, 101, 235, 104, 188, 64, 241, 60, 190, 225, 165, 222, 61, 171, 223, 16, 62, 112, 252, 160, 189, 95, 2, 203, 189, 88, 249, 131, 189, 44, 219, 36, 62, 65, 190, 151, 189, 68, 189, 153, 61, 28, 246, 29, 190, 210, 212, 142, 189, 48, 69, 39, 62, 45, 71, 76, 190, 240, 107, 89, 189, 10, 182, 70, 62, 194, 151, 32, 190, 192, 48, 52, 189, 233, 139, 134, 61, 144, 231, 212, 61, 74, 197, 115, 61, 104, 234, 193, 61, 100, 159, 21, 62, 167, 28, 216, 189, 20, 81, 40, 61, 91, 149, 45, 62, 116, 66, 19, 190, 121, 112, 73, 190, 165, 250, 120, 190, 150, 146, 249, 186, 72, 129, 50, 62, 91, 228, 203, 61, 243, 228, 66, 62, 61, 244, 252, 189, 119, 145, 181, 189, 200, 187, 59, 190, 248, 155, 205, 61, 178, 27, 118, 190, 108, 34, 2, 190, 180, 122, 19, 190, 176, 196, 84, 190, 116, 35, 103, 62, 0, 87, 106, 62, 179, 230, 129, 190, 48, 102, 59, 190, 148, 177, 35, 190, 104, 28, 60, 190, 72, 205, 189, 189, 122, 148, 37, 61, 112, 84, 104, 62, 239, 239, 13, 190, 236, 12, 117, 62, 111, 219, 193, 61, 252, 191, 115, 62, 24, 28, 224, 61, 61, 171, 109, 62, 88, 176, 147, 61, 32, 71, 12, 62, 200, 237, 213, 189, 108, 166, 23, 190, 204, 155, 96, 190, 144, 227, 54, 62, 92, 225, 22, 190, 24, 65, 69, 190, 136, 119, 170, 189, 8, 202, 122, 190, 64, 214, 187, 60, 156, 98, 75, 190, 64, 183, 81, 190, 0, 128, 95, 190, 48, 105, 31, 62, 160, 210, 95, 189, 212, 207, 87, 190, 192, 102, 41, 188, 252, 185, 87, 190, 32, 181, 111, 62, 60, 135, 68, 190, 100, 90, 48, 190, 28, 162, 18, 62, 80, 210, 80, 190, 96, 212, 122, 190, 152, 179, 126, 190, 60, 143, 65, 190, 128, 33, 176, 187, 24, 205, 128, 189, 240, 133, 120, 62, 32, 57, 130, 189, 184, 99, 168, 61, 108, 109, 71, 190, 156, 168, 70, 190, 56, 249, 243, 61, 48, 13, 25, 190, 64, 116, 190, 188, 16, 115, 193, 189, 168, 81, 252, 61, 248, 85, 196, 61, 232, 106, 12, 190, 176, 49, 163, 189, 192, 212, 208, 60, 120, 201, 96, 62, 224, 133, 241, 188, 24, 11, 143, 61, 0, 128, 60, 190, 20, 223, 64, 190, 80, 201, 76, 190, 152, 231, 54, 190, 236, 137, 47, 62, 8, 136, 93, 190, 112, 247, 76, 61, 192, 91, 225, 60, 208, 81, 158, 61, 80, 118, 111, 190, 188, 4, 105, 190, 192, 131, 169, 188, 32, 209, 0, 61, 160, 229, 132, 189, 32, 141, 71, 61, 200, 152, 65, 62, 160, 180, 125, 61, 16, 203, 6, 61, 82, 123, 223, 64, 120, 146, 225, 64, 112, 7, 82, 61, 181, 183, 218, 64, 7, 246, 18, 188, 140, 230, 215, 64, 112, 248, 90, 190, 185, 55, 218, 64, 186, 92, 214, 64, 187, 73, 212, 64, 31, 141, 223, 64, 191, 201, 133, 61, 232, 228, 4, 62, 125, 114, 227, 64, 144, 180, 202, 189, 212, 244, 119, 190, 211, 147, 219, 64, 128, 101, 153, 189, 81, 55, 209, 64, 64, 61, 219, 64, 32, 20, 88, 189, 123, 70, 47, 61, 4, 67, 13, 190, 116, 10, 105, 62, 26, 225, 216, 64, 56, 96, 208, 189, 64, 123, 225, 64, 192, 148, 162, 189, 13, 35, 218, 64, 152, 79, 210, 61, 92, 193, 112, 190, 172, 24, 224, 64, 168, 140, 61, 62, 52, 97, 136, 189, 184, 250, 140, 189, 182, 112, 119, 189, 225, 186, 231, 61, 9, 172, 236, 188, 168, 83, 61, 190, 36, 50, 84, 190, 12, 197, 16, 190, 78, 169, 216, 61, 241, 187, 105, 190, 46, 233, 167, 188, 0, 245, 94, 61, 156, 224, 125, 190, 148, 242, 37, 62, 120, 155, 124, 62, 108, 50, 68, 62, 236, 22, 85, 190, 188, 216, 6, 190, 205, 2, 122, 190, 128, 115, 118, 189, 40, 32, 229, 189, 16, 2, 93, 190, 124, 83, 109, 62, 145, 52, 113, 189, 172, 11, 67, 190, 247, 38, 103, 62, 160, 182, 94, 189, 124, 211, 30, 62, 100, 119, 108, 190, 20, 212, 46, 62, 220, 186, 206, 61, 224, 93, 128, 61, 72, 57, 139, 189, 232, 174, 42, 62, 216, 73, 86, 190, 0, 226, 31, 61, 184, 216, 206, 189, 0, 210, 11, 59, 184, 21, 193, 189, 160, 37, 214, 60, 140, 158, 87, 190, 104, 26, 66, 62, 212, 255, 92, 190, 208, 248, 113, 190, 32, 30, 11, 190, 24, 135, 248, 61, 152, 192, 89, 62, 48, 238, 86, 61, 88, 84, 51, 190, 184, 50, 44, 62, 224, 22, 178, 189, 180, 211, 116, 190, 24, 39, 179, 61, 60, 171, 127, 62, 24, 79, 92, 190, 216, 159, 124, 190, 52, 148, 6, 62, 224, 253, 50, 62, 120, 45, 229, 189, 56, 70, 113, 190, 16, 244, 107, 189, 0, 149, 176, 59, 64, 253, 131, 61, 4, 181, 225, 64, 115, 223, 219, 64, 128, 1, 47, 62, 152, 137, 213, 64, 218, 98, 170, 189, 10, 207, 226, 64, 224, 106, 213, 60, 6, 92, 219, 64, 151, 227, 224, 64, 101, 174, 225, 64, 234, 86, 217, 64, 42, 217, 28, 190, 104, 23, 102, 62, 29, 225, 218, 64, 64, 161, 233, 60, 68, 64, 30, 190, 82, 76, 215, 64, 166, 226, 186, 189, 210, 80, 213, 64, 107, 147, 227, 64, 152, 67, 114, 190, 236, 116, 122, 189, 128, 188, 3, 189, 105, 80, 32, 62, 197, 26, 228, 64, 216, 194, 226, 61, 111, 191, 223, 64, 237, 173, 225, 60, 134, 160, 227, 64, 72, 202, 114, 62, 96, 141, 167, 61, 49, 112, 217, 64, 154, 169, 215, 64, 217, 35, 217, 64, 152, 234, 210, 189, 82, 244, 221, 64, 200, 191, 1, 189, 7, 76, 220, 64, 240, 177, 65, 61, 66, 96, 221, 64, 25, 127, 216, 64, 61, 246, 218, 64, 208, 231, 224, 64, 57, 113, 92, 190, 120, 169, 41, 190, 108, 101, 226, 64, 16, 201, 103, 189, 108, 87, 18, 190, 199, 87, 221, 64, 217, 159, 18, 62, 185, 117, 205, 64, 194, 190, 223, 64, 36, 33, 127, 190, 6, 89, 68, 62, 64, 157, 106, 189, 197, 92, 3, 190, 35, 72, 220, 64, 208, 192, 203, 189, 208, 60, 216, 64, 137, 87, 193, 61, 129, 76, 226, 64, 232, 120, 159, 189, 192, 162, 155, 188, 217, 87, 216, 64, 244, 52, 95, 190, 200, 141, 204, 189, 8, 252, 198, 189, 96, 209, 188, 189, 208, 150, 168, 189, 100, 58, 76, 190, 88, 46, 1, 62, 88, 164, 49, 62, 8, 225, 78, 62, 240, 59, 91, 190, 64, 78, 77, 61, 64, 52, 192, 189, 32, 150, 132, 188, 224, 175, 29, 61, 8, 140, 67, 62, 0, 160, 130, 57, 208, 125, 14, 190, 128, 236, 4, 188, 132, 38, 59, 62, 184, 29, 223, 189, 104, 141, 31, 190, 0, 210, 171, 186, 140, 46, 16, 62, 144, 237, 234, 189, 192, 205, 92, 61, 220, 101, 82, 190, 152, 137, 170, 61, 64, 213, 105, 190, 240, 113, 82, 61, 188, 3, 90, 62, 48, 2, 26, 62, 112, 90, 61, 190, 92, 45, 225, 64, 94, 46, 226, 64, 0, 201, 6, 188, 52, 153, 213, 64, 230, 163, 64, 189, 168, 125, 213, 64, 192, 173, 66, 188, 131, 121, 214, 64, 81, 120, 217, 64, 172, 162, 225, 64, 77, 163, 218, 64, 72, 98, 83, 190, 240, 19, 26, 190, 228, 11, 227, 64, 120, 151, 54, 190, 136, 17, 254, 189, 34, 41, 221, 64, 148, 15, 150, 61, 206, 149, 213, 64, 109, 86, 222, 64, 224, 13, 163, 61, 94, 97, 58, 190, 0, 158, 27, 190, 141, 191, 87, 62, 244, 185, 219, 64, 124, 69, 44, 190, 241, 120, 214, 64, 160, 12, 189, 189, 157, 179, 222, 64, 128, 48, 32, 61, 24, 14, 187, 189, 129, 48, 213, 64, 0, 215, 124, 62, 160, 212, 251, 61, 148, 197, 105, 62, 236, 89, 75, 190, 240, 209, 152, 189, 204, 230, 73, 190, 80, 225, 6, 190, 232, 11, 171, 189, 24, 46, 25, 62, 112, 138, 56, 61, 128, 137, 67, 60, 176, 54, 68, 62, 80, 155, 32, 189, 40, 48, 156, 189, 24, 163, 253, 189, 228, 192, 7, 62, 96, 34, 59, 190, 224, 230, 6, 189, 208, 65, 211, 189, 144, 98, 242, 189, 24, 111, 227, 61, 48, 92, 46, 62, 36, 48, 25, 62, 160, 126, 236, 188, 16, 174, 82, 62, 36, 138, 26, 62, 136, 232, 107, 190, 184, 1, 52, 62, 32, 66, 165, 188, 16, 140, 182, 61, 208, 24, 149, 189, 20, 144, 62, 190, 208, 150, 73, 62, 128, 237, 23, 61, 0, 186, 249, 187, 0, 113, 144, 59, 56, 235, 201, 189, 0, 195, 209, 60, 32, 138, 224, 189, 104, 155, 230, 189, 160, 20, 11, 190, 64, 192, 141, 188, 192, 15, 218, 61, 192, 115, 156, 189, 100, 28, 12, 62, 16, 192, 189, 61, 252, 249, 11, 190, 0, 169, 187, 61, 112, 33, 66, 190, 72, 73, 114, 62, 192, 248, 93, 61, 40, 237, 101, 190, 244, 213, 88, 190, 224, 80, 238, 60, 64, 145, 92, 62, 164, 27, 14, 190, 8, 22, 156, 189, 100, 249, 99, 62, 128, 167, 161, 60, 212, 160, 124, 62, 16, 28, 173, 189, 176, 178, 242, 61, 128, 33, 175, 189, 216, 58, 188, 189, 120, 89, 113, 62, 128, 67, 159, 59, 68, 71, 56, 62, 4, 251, 7, 190, 52, 11, 57, 62, 96, 145, 13, 62, 64, 26, 208, 188, 88, 60, 87, 190, 168, 178, 19, 190, 88, 139, 107, 190, 108, 60, 0, 62, 176, 190, 153, 189, 152, 4, 65, 62, 124, 196, 111, 62, 144, 239, 125, 189, 28, 75, 27, 190, 96, 20, 253, 188, 136, 55, 140, 189, 40, 120, 46, 62, 176, 27, 59, 61, 112, 37, 132, 189, 224, 248, 14, 189, 88, 177, 33, 190, 160, 48, 15, 62, 40, 66, 73, 190, 240, 138, 195, 61, 104, 209, 168, 189, 80, 237, 64, 190, 108, 77, 76, 190, 48, 91, 4, 190, 56, 58, 56, 190, 240, 195, 142, 61, 78, 18, 222, 64, 4, 49, 228, 64, 148, 104, 106, 62, 233, 186, 227, 64, 214, 177, 76, 187, 190, 167, 227, 64, 80, 197, 205, 61, 132, 238, 218, 64, 111, 28, 226, 64, 50, 180, 220, 64, 81, 169, 226, 64, 102, 193, 168, 61, 40, 203, 87, 62, 111, 100, 225, 64, 116, 221, 108, 62, 88, 9, 156, 61, 226, 246, 227, 64, 224, 202, 163, 187, 212, 148, 220, 64, 83, 19, 225, 64, 172, 217, 34, 190, 133, 139, 32, 62, 128, 175, 152, 189, 73, 230, 176, 189, 23, 162, 213, 64, 196, 200, 76, 62, 131, 227, 225, 64, 87, 152, 62, 62, 151, 188, 227, 64, 64, 51, 188, 60, 168, 37, 250, 189, 151, 146, 221, 64, 224, 219, 31, 61, 4, 60, 71, 62, 192, 197, 24, 60, 196, 178, 86, 62, 0, 219, 170, 188, 216, 23, 220, 61, 128, 43, 61, 188, 232, 8, 189, 189, 44, 6, 85, 190, 128, 219, 31, 190, 136, 79, 52, 190, 0, 76, 193, 59, 176, 35, 2, 62, 128, 149, 221, 60, 0, 46, 143, 187, 48, 249, 33, 62, 244, 119, 103, 190, 244, 201, 55, 190, 128, 184, 198, 189, 128, 158, 16, 189, 0, 90, 106, 61, 24, 4, 252, 189, 32, 211, 150, 189, 76, 112, 45, 62, 200, 29, 146, 61, 32, 213, 222, 61, 72, 76, 147, 61, 80, 158, 134, 189, 224, 75, 57, 190, 76, 242, 8, 62, 176, 3, 138, 189, 180, 11, 13, 62, 249, 227, 216, 64, 120, 55, 214, 64, 92, 211, 54, 190, 92, 113, 224, 64, 214, 153, 145, 189, 35, 141, 213, 64, 216, 171, 133, 189, 58, 169, 221, 64, 194, 239, 227, 64, 134, 216, 214, 64, 0, 134, 223, 64, 139, 191, 68, 189, 92, 65, 82, 190, 100, 135, 227, 64, 208, 163, 234, 189, 88, 238, 175, 61, 178, 47, 227, 64, 169, 18, 25, 190, 32, 55, 220, 64, 108, 247, 225, 64, 96, 45, 103, 190, 160, 122, 22, 190, 64, 22, 38, 62, 195, 244, 88, 62, 186, 93, 225, 64, 48, 246, 118, 189, 130, 136, 212, 64, 136, 93, 30, 61, 112, 20, 225, 64, 176, 69, 78, 62, 180, 241, 11, 190, 183, 2, 223, 64, 99, 54, 218, 64, 74, 18, 221, 64, 56, 53, 65, 62, 45, 209, 221, 64, 74, 120, 225, 189, 103, 228, 212, 64, 0, 40, 185, 185, 40, 98, 227, 64, 75, 43, 217, 64, 128, 196, 217, 64, 70, 130, 221, 64, 194, 130, 168, 60, 196, 193, 87, 190, 26, 42, 213, 64, 188, 102, 104, 62, 16, 238, 226, 189, 90, 109, 216, 64, 40, 210, 131, 61, 132, 16, 215, 64, 240, 235, 217, 64, 244, 245, 108, 190, 141, 18, 21, 190, 168, 56, 131, 189, 97, 226, 183, 189, 172, 119, 227, 64, 252, 245, 7, 190, 143, 122, 212, 64, 170, 131, 187, 189, 24, 172, 221, 64, 72, 193, 223, 189, 24, 54, 250, 189, 220, 90, 220, 64, 200, 16, 196, 61, 80, 145, 237, 61, 16, 126, 125, 189, 120, 156, 31, 190, 32, 187, 76, 189, 104, 243, 233, 189, 188, 255, 71, 62, 144, 220, 218, 61, 32, 120, 142, 60, 160, 70, 145, 188, 60, 7, 35, 62, 104, 92, 145, 189, 188, 23, 18, 62, 128, 195, 66, 190, 112, 122, 201, 189, 0, 32, 80, 187, 96, 76, 157, 60, 80, 15, 79, 62, 232, 88, 255, 61, 28, 170, 59, 190, 184, 134, 36, 190, 0, 10, 82, 61, 92, 241, 61, 190, 0, 212, 231, 60, 48, 85, 123, 189, 148, 45, 69, 62, 40, 56, 149, 189, 0, 109, 18, 189, 56, 168, 67, 190, 192, 156, 99, 188, 136, 239, 6, 190, 160, 154, 79, 190, 210, 171, 222, 64, 74, 218, 222, 64, 160, 2, 209, 188, 104, 237, 221, 64, 34, 223, 151, 189, 4, 41, 223, 64, 104, 37, 192, 189, 154, 169, 223, 64, 52, 134, 227, 64, 71, 245, 215, 64, 133, 74, 226, 64, 193, 0, 67, 190, 184, 232, 60, 62, 174, 70, 218, 64, 60, 168, 105, 62, 224, 233, 183, 60, 58, 201, 225, 64, 4, 72, 17, 190, 180, 204, 219, 64, 211, 205, 223, 64, 0, 135, 48, 61, 39, 176, 123, 62, 80, 12, 113, 61, 219, 58, 113, 188, 80, 178, 225, 64, 204, 140, 87, 190, 164, 126, 220, 64, 17, 131, 67, 62, 254, 167, 224, 64, 52, 203, 48, 62, 240, 243, 68, 61, 28, 43, 228, 64, 102, 72, 218, 64, 43, 184, 212, 64, 232, 239, 137, 189, 200, 151, 223, 64, 4, 165, 101, 190, 44, 53, 219, 64, 120, 43, 173, 61, 240, 116, 219, 64, 240, 124, 223, 64, 224, 198, 213, 64, 235, 29, 221, 64, 29, 100, 46, 190, 32, 57, 151, 60, 228, 186, 212, 64, 4, 132, 9, 62, 236, 5, 48, 62, 160, 203, 219, 64, 157, 35, 195, 189, 110, 34, 215, 64, 133, 72, 221, 64, 20, 47, 12, 190, 211, 129, 145, 60, 148, 14, 117, 190, 100, 162, 180, 189, 142, 161, 223, 64, 108, 251, 53, 190, 227, 245, 213, 64, 216, 225, 173, 61, 200, 129, 222, 64, 248, 211, 225, 189, 200, 140, 171, 61, 68, 205, 224, 64, 249, 243, 195, 64, 29, 140, 210, 64, 212, 129, 115, 62, 28, 242, 198, 64, 64, 161, 6, 188, 167, 107, 207, 64, 36, 182, 106, 62, 203, 55, 208, 64, 145, 140, 201, 64, 82, 124, 210, 64, 144, 105, 196, 64, 117, 255, 10, 190, 232, 34, 173, 189, 106, 160, 204, 64, 240, 182, 173, 189, 184, 120, 12, 190, 38, 253, 202, 64, 89, 223, 57, 62, 84, 144, 207, 64, 169, 231, 201, 64, 232, 81, 47, 62, 232, 195, 102, 190, 4, 203, 32, 190, 114, 194, 132, 61, 78, 25, 198, 64, 220, 8, 24, 190, 80, 250, 210, 64, 92, 164, 54, 62, 48, 187, 198, 64, 100, 16, 4, 62, 200, 52, 208, 189, 32, 116, 203, 64, 6, 241, 225, 64, 244, 75, 221, 64, 96, 199, 164, 60, 106, 202, 214, 64, 82, 233, 5, 189, 145, 89, 225, 64, 56, 93, 29, 62, 102, 113, 216, 64, 137, 170, 213, 64, 79, 185, 212, 64, 252, 33, 225, 64, 67, 247, 252, 188, 48, 72, 99, 62, 83, 43, 219, 64, 72, 86, 238, 189, 0, 91, 15, 190, 191, 153, 218, 64, 172, 71, 22, 190, 150, 179, 205, 64, 25, 199, 214, 64, 84, 177, 29, 62, 138, 174, 8, 190, 32, 245, 229, 60, 60, 164, 55, 190, 101, 221, 219, 64, 80, 89, 192, 189, 236, 148, 226, 64, 36, 118, 71, 190, 73, 0, 224, 64, 32, 252, 122, 61, 96, 203, 226, 60, 219, 142, 221, 64, 244, 238, 218, 64, 216, 194, 214, 64, 48, 192, 59, 190, 191, 232, 226, 64, 101, 190, 79, 62, 121, 137, 227, 64, 36, 93, 51, 190, 201, 194, 216, 64, 138, 6, 224, 64, 10, 152, 225, 64, 119, 31, 220, 64, 85, 16, 40, 62, 128, 124, 159, 187, 101, 27, 227, 64, 0, 223, 10, 189, 208, 215, 29, 190, 18, 212, 216, 64, 130, 225, 63, 190, 10, 253, 215, 64, 147, 7, 212, 64, 72, 244, 30, 62, 224, 58, 210, 189, 104, 194, 158, 189, 235, 191, 187, 60, 21, 133, 222, 64, 240, 38, 4, 189, 89, 104, 227, 64, 10, 11, 165, 187, 161, 27, 225, 64, 64, 124, 40, 189, 108, 79, 97, 62, 184, 60, 227, 64, 157, 229, 227, 64, 25, 42, 213, 64, 208, 162, 221, 189, 185, 45, 214, 64, 87, 21, 240, 61, 244, 5, 220, 64, 160, 135, 48, 189, 173, 76, 227, 64, 214, 185, 220, 64, 80, 57, 217, 64, 6, 47, 226, 64, 133, 247, 106, 62, 64, 160, 8, 189, 121, 222, 221, 64, 32, 136, 251, 61, 16, 148, 74, 189, 96, 97, 220, 64, 173, 92, 84, 62, 18, 22, 217, 64, 16, 37, 213, 64, 176, 188, 221, 189, 88, 70, 21, 190, 192, 92, 202, 60, 238, 238, 66, 62, 218, 158, 223, 64, 32, 66, 4, 190, 188, 236, 222, 64, 143, 49, 2, 62, 224, 243, 225, 64, 32, 157, 205, 61, 128, 222, 167, 189, 216, 131, 219, 64, 88, 129, 223, 64, 30, 214, 220, 64, 192, 162, 254, 61, 236, 110, 212, 64, 180, 120, 157, 189, 77, 155, 225, 64, 104, 154, 6, 190, 36, 234, 224, 64, 226, 107, 216, 64, 247, 38, 224, 64, 64, 195, 213, 64, 14, 48, 120, 190, 0, 12, 75, 186, 77, 161, 222, 64, 44, 236, 108, 62, 180, 212, 69, 190, 78, 165, 221, 64, 74, 75, 35, 190, 233, 135, 208, 64, 78, 216, 225, 64, 204, 145, 54, 62, 8, 89, 209, 61, 128, 2, 9, 62, 144, 221, 120, 62, 74, 128, 226, 64, 128, 202, 127, 189, 82, 21, 220, 64, 129, 176, 241, 61, 189, 153, 224, 64, 64, 124, 65, 62, 48, 53, 168, 189, 9, 191, 217, 64, 83, 112, 216, 64, 69, 33, 223, 64, 248, 24, 249, 61, 7, 52, 224, 64, 189, 145, 43, 190, 187, 137, 224, 64, 192, 213, 62, 188, 8, 195, 219, 64, 29, 247, 227, 64, 203, 221, 222, 64, 167, 126, 227, 64, 60, 65, 8, 61, 160, 239, 22, 62, 6, 145, 228, 64, 176, 231, 69, 61, 0, 50, 78, 187, 162, 83, 216, 64, 163, 89, 42, 58, 107, 141, 210, 64, 31, 166, 214, 64, 164, 91, 105, 62, 45, 36, 215, 61, 164, 223, 64, 62, 150, 113, 19, 62, 207, 27, 213, 64, 128, 99, 221, 187, 158, 150, 216, 64, 16, 4, 13, 190, 0, 29, 223, 64, 136, 129, 69, 62, 28, 76, 53, 62, 55, 224, 215, 64, 69, 180, 223, 64, 108, 152, 213, 64, 144, 242, 35, 189, 133, 4, 223, 64, 84, 214, 147, 189, 199, 141, 218, 64, 200, 29, 178, 61, 76, 116, 222, 64, 75, 178, 224, 64, 179, 130, 227, 64, 38, 167, 221, 64, 11, 215, 145, 59, 192, 243, 186, 61, 3, 226, 224, 64, 224, 65, 215, 189, 232, 213, 203, 61, 103, 40, 219, 64, 181, 118, 28, 190, 149, 72, 217, 64, 206, 151, 221, 64, 96, 204, 214, 60, 20, 198, 39, 190, 200, 63, 36, 190, 70, 160, 205, 189, 163, 45, 214, 64, 228, 239, 94, 62, 19, 32, 224, 64, 227, 118, 56, 62, 177, 2, 219, 64, 232, 121, 130, 61, 208, 217, 161, 189, 185, 138, 222, 64, 237, 101, 220, 64, 69, 223, 217, 64, 204, 138, 110, 62, 102, 101, 225, 64, 22, 50, 126, 190, 224, 107, 222, 64, 160, 175, 7, 190, 206, 73, 223, 64, 98, 155, 221, 64, 131, 106, 218, 64, 160, 123, 214, 64, 180, 137, 49, 62, 152, 73, 100, 62, 156, 112, 225, 64, 224, 141, 60, 190, 172, 164, 119, 190, 170, 249, 217, 64, 109, 99, 43, 190, 36, 29, 220, 64, 62, 233, 223, 64, 172, 179, 53, 62, 252, 170, 101, 190, 68, 170, 102, 190, 213, 246, 237, 60, 175, 207, 221, 64, 88, 208, 107, 62, 136, 215, 215, 64, 96, 138, 85, 61, 4, 222, 222, 64, 68, 9, 121, 62, 212, 195, 91, 62, 90, 191, 223, 64, 64, 135, 228, 188, 0, 117, 180, 61, 220, 139, 81, 190, 152, 78, 130, 189, 144, 245, 71, 61, 56, 136, 65, 190, 0, 118, 119, 61, 176, 171, 122, 190, 208, 251, 158, 61, 216, 115, 208, 189, 64, 204, 141, 189, 32, 119, 120, 62, 64, 57, 218, 189, 8, 180, 14, 190, 84, 60, 109, 62, 200, 41, 151, 61, 12, 63, 28, 62, 40, 248, 168, 61, 112, 22, 57, 61, 56, 167, 75, 190, 240, 229, 4, 61, 68, 208, 66, 62, 172, 171, 23, 190, 28, 120, 15, 62, 8, 120, 209, 189, 16, 227, 51, 62, 168, 198, 5, 62, 208, 214, 65, 61, 220, 191, 52, 190, 64, 128, 130, 189, 88, 245, 31, 62, 84, 203, 2, 62, 148, 215, 172, 61, 54, 44, 235, 61, 248, 217, 177, 189, 150, 58, 29, 190, 23, 76, 150, 189, 87, 148, 166, 189, 240, 183, 95, 190, 151, 96, 53, 190, 209, 205, 170, 189, 157, 118, 215, 189, 156, 61, 149, 61, 38, 76, 21, 190, 152, 234, 254, 189, 220, 62, 145, 61, 36, 163, 30, 190, 16, 193, 82, 62, 254, 221, 105, 61, 28, 120, 36, 190, 249, 165, 61, 62, 153, 54, 211, 189, 72, 59, 178, 189, 160, 138, 84, 190, 8, 0, 175, 189, 80, 147, 98, 190, 28, 73, 145, 189, 80, 126, 27, 61, 186, 238, 2, 61, 208, 8, 140, 61, 26, 162, 48, 62, 48, 178, 146, 61, 160, 89, 102, 189, 9, 117, 21, 188, 0, 253, 64, 188, 72, 88, 24, 190, 72, 187, 90, 62, 187, 247, 222, 189, 124, 77, 45, 62, 124, 88, 253, 189, 216, 93, 135, 189, 86, 215, 40, 62, 71, 43, 28, 62, 64, 75, 9, 61, 67, 198, 83, 60, 251, 200, 3, 190, 32, 99, 207, 61, 104, 3, 159, 189, 208, 216, 105, 61, 148, 72, 97, 62, 68, 34, 84, 190, 127, 40, 239, 61, 156, 111, 90, 62, 50, 205, 210, 59, 240, 117, 232, 61, 216, 10, 178, 61, 0, 119, 112, 188, 57, 179, 242, 189, 114, 19, 69, 190, 0, 178, 14, 190, 123, 232, 118, 190, 253, 253, 32, 189, 143, 171, 89, 62, 160, 32, 229, 189, 12, 19, 14, 62, 135, 213, 71, 190, 114, 174, 224, 64, 58, 231, 219, 64, 184, 226, 167, 189, 5, 201, 210, 64, 48, 176, 68, 61, 222, 85, 223, 64, 152, 250, 13, 190, 13, 251, 214, 64, 119, 157, 216, 64, 251, 162, 216, 64, 252, 79, 225, 64, 80, 1, 30, 61, 16, 219, 56, 190, 253, 228, 211, 64, 176, 73, 53, 189, 144, 64, 122, 190, 22, 122, 224, 64, 252, 96, 65, 62, 37, 217, 211, 64, 201, 1, 224, 64, 188, 250, 115, 190, 140, 80, 41, 190, 200, 192, 71, 190, 208, 126, 108, 62, 223, 110, 210, 64, 40, 218, 73, 190, 34, 139, 221, 64, 168, 217, 48, 62, 57, 125, 213, 64, 20, 23, 47, 190, 156, 169, 53, 62, 184, 213, 214, 64, 56, 109, 174, 61, 64, 255, 64, 189, 208, 211, 91, 62, 55, 206, 33, 62, 13, 190, 93, 62, 220, 64, 100, 190, 60, 53, 123, 190, 146, 176, 109, 190, 213, 237, 93, 62, 94, 104, 224, 189, 184, 255, 96, 190, 35, 80, 63, 190, 72, 146, 20, 190, 184, 193, 77, 62, 120, 197, 138, 189, 144, 235, 209, 189, 160, 155, 49, 189, 245, 133, 146, 189, 40, 195, 127, 190, 50, 187, 59, 190, 212, 15, 83, 62, 64, 6, 119, 60, 252, 167, 22, 62, 71, 130, 158, 61, 19, 159, 242, 61, 52, 172, 31, 62, 122, 109, 58, 61, 56, 14, 185, 189, 115, 125, 233, 61, 100, 144, 38, 190, 224, 229, 54, 189, 49, 86, 10, 62, 144, 128, 221, 64, 202, 174, 214, 64, 120, 254, 247, 61, 157, 77, 223, 64, 84, 118, 202, 61, 192, 145, 225, 64, 200, 172, 125, 62, 60, 248, 226, 64, 246, 216, 213, 64, 69, 82, 218, 64, 134, 191, 217, 64, 199, 3, 79, 62, 144, 127, 16, 62, 246, 117, 221, 64, 160, 130, 61, 61, 128, 202, 14, 188, 195, 117, 217, 64, 75, 47, 0, 62, 174, 168, 208, 64, 88, 39, 219, 64, 28, 147, 46, 190, 140, 42, 208, 61, 44, 242, 54, 190, 123, 182, 191, 188, 82, 196, 220, 64, 16, 22, 117, 190, 114, 240, 220, 64, 62, 17, 147, 61, 1, 219, 227, 64, 64, 189, 201, 60, 240, 85, 77, 189, 66, 18, 220, 64, 32, 20, 148, 61, 136, 30, 39, 62, 140, 72, 69, 190, 168, 112, 4, 190, 48, 53, 42, 190, 200, 142, 254, 189, 24, 224, 125, 190, 184, 89, 102, 190, 28, 245, 33, 62, 192, 80, 175, 189, 196, 98, 84, 190, 232, 42, 150, 61, 144, 10, 46, 62, 128, 176, 135, 188, 0, 36, 3, 58, 160, 185, 191, 60, 136, 234, 58, 190, 248, 249, 152, 189, 128, 254, 239, 187, 240, 142, 207, 189, 136, 171, 63, 62, 16, 255, 22, 62, 52, 134, 3, 190, 96, 52, 75, 62, 192, 244, 106, 189, 52, 143, 61, 190, 160, 227, 83, 190, 124, 2, 70, 62, 16, 120, 42, 189, 8, 214, 144, 189, 232, 104, 142, 61, 128, 242, 156, 188, 16, 226, 32, 189, 160, 202, 190, 61, 236, 24, 41, 190, 240, 186, 89, 61, 224, 189, 39, 61, 148, 218, 98, 190, 104, 212, 177, 189, 80, 137, 76, 61, 80, 237, 100, 189, 220, 130, 60, 190, 100, 68, 113, 190, 228, 165, 67, 190, 248, 223, 162, 189, 0, 51, 121, 187, 96, 231, 237, 189, 224, 153, 236, 189, 0, 94, 255, 59, 128, 226, 39, 190, 192, 41, 116, 62, 224, 112, 148, 189, 128, 199, 249, 61, 248, 250, 79, 62, 80, 244, 10, 61, 84, 6, 102, 190, 168, 246, 165, 61, 140, 227, 84, 62, 96, 161, 51, 62, 192, 80, 129, 189, 12, 210, 9, 62, 96, 183, 41, 62, 216, 144, 205, 61, 88, 178, 211, 189, 153, 146, 28, 62, 33, 231, 196, 61, 192, 169, 110, 189, 55, 47, 21, 62, 145, 35, 250, 189, 133, 65, 117, 190, 224, 86, 31, 62, 92, 61, 100, 190, 236, 137, 9, 61, 133, 168, 54, 189, 99, 88, 4, 190, 129, 88, 108, 190, 0, 16, 232, 57, 24, 245, 108, 190, 0, 105, 45, 62, 32, 126, 166, 60, 71, 92, 71, 189, 241, 157, 176, 189, 16, 214, 226, 61, 93, 114, 101, 62, 128, 218, 114, 60, 80, 168, 67, 190, 92, 158, 91, 190, 51, 35, 160, 58, 242, 149, 134, 59, 76, 121, 98, 190, 255, 133, 143, 60, 12, 148, 173, 61, 234, 61, 64, 60, 160, 78, 107, 62, 96, 160, 58, 190, 232, 0, 184, 61, 112, 37, 150, 189, 5, 7, 21, 190, 52, 142, 1, 190, 71, 245, 195, 188, 73, 166, 114, 62, 3, 240, 232, 188, 248, 151, 133, 189, 140, 173, 3, 62, 175, 82, 89, 190, 37, 187, 223, 189, 179, 19, 46, 190, 41, 225, 18, 62, 96, 37, 215, 189, 104, 30, 107, 62, 176, 143, 43, 190, 128, 177, 29, 60, 32, 185, 167, 60, 56, 227, 52, 190, 228, 226, 63, 62, 192, 163, 147, 61, 184, 108, 192, 61, 128, 52, 26, 188, 160, 219, 15, 190, 80, 193, 36, 190, 249, 63, 73, 190, 40, 71, 141, 61, 42, 182, 38, 62, 0, 176, 36, 189, 250, 90, 117, 62, 156, 76, 33, 190, 0, 237, 152, 61, 177, 76, 82, 190, 0, 0, 6, 0, 8, 0, 4, 0, 6, 0, 0, 0, 4, 0, 0, 0, 0, 1, 0, 0, 191, 112, 78, 188, 63, 197, 164, 64, 0, 0, 0, 0, 0, 0, 0, 0, 97, 17, 160, 64, 160, 227, 164, 64, 187, 156, 164, 64, 0, 0, 0, 0, 69, 120, 162, 64, 27, 85, 10, 188, 243, 217, 164, 64, 15, 218, 164, 64, 0, 0, 0, 0, 248, 184, 164, 64, 51, 220, 163, 188, 163, 166, 164, 64, 105, 36, 138, 188, 155, 175, 164, 64, 0, 0, 0, 0, 233, 181, 164, 64, 0, 0, 0, 0, 141, 14, 49, 188, 18, 80, 255, 187, 0, 0, 0, 0, 19, 133, 164, 64, 98, 212, 156, 59, 218, 249, 167, 187, 0, 0, 0, 0, 0, 0, 0, 0, 246, 88, 164, 64, 157, 52, 175, 187, 0, 0, 0, 0, 72, 165, 164, 64, 228, 53, 164, 64, 0, 0, 0, 0, 124, 207, 164, 64, 0, 0, 0, 0, 0, 0, 0, 0, 0, 0, 0, 0, 131, 158, 164, 64, 0, 0, 0, 0, 47, 99, 164, 64, 125, 37, 165, 64, 0, 0, 0, 0, 93, 83, 164, 64, 254, 180, 164, 64, 173, 183, 154, 64, 99, 178, 164, 64, 20, 126, 164, 64, 213, 69, 164, 64, 244, 236, 163, 64, 99, 195, 164, 64, 150, 101, 164, 64, 9, 84, 164, 64, 0, 0, 0, 0, 159, 1, 151, 188, 240, 230, 54, 188, 52, 41, 163, 64, 73, 227, 14, 188, 23, 132, 164, 64, 0, 0, 0, 0, 0, 0, 0, 0, 94, 16, 89, 188, 106, 243, 149, 187, 220, 253, 255, 255, 224, 253, 255, 255, 15, 0, 0, 0, 77, 76, 73, 82, 32, 67, 111, 110, 118, 101, 114, 116, 101, 100, 46, 0, 1, 0, 0, 0, 20, 0, 0, 0, 0, 0, 14, 0, 24, 0, 20, 0, 16, 0, 12, 0, 8, 0, 4, 0, 14, 0, 0, 0, 20, 0, 0, 0, 28, 0, 0, 0, 108, 0, 0, 0, 112, 0, 0, 0, 116, 0, 0, 0, 4, 0, 0, 0, 109, 97, 105, 110, 0, 0, 0, 0, 1, 0, 0, 0, 20, 0, 0, 0, 0, 0, 14, 0, 22, 0, 0, 0, 16, 0, 12, 0, 11, 0, 4, 0, 14, 0, 0, 0, 24, 0, 0, 0, 0, 0, 0, 8, 24, 0, 0, 0, 28, 0, 0, 0, 0, 0, 6, 0, 8, 0, 7, 0, 6, 0, 0, 0, 0, 0, 0, 1, 1, 0, 0, 0, 3, 0, 0, 0, 3, 0, 0, 0, 0, 0, 0, 0, 2, 0, 0, 0, 1, 0, 0, 0, 1, 0, 0, 0, 3, 0, 0, 0, 1, 0, 0, 0, 0, 0, 0, 0, 4, 0, 0, 0, 60, 1, 0, 0, 200, 0, 0, 0, 96, 0, 0, 0, 4, 0, 0, 0, 234, 254, 255, 255, 0, 0, 0, 1, 20, 0, 0, 0, 28, 0, 0, 0, 28, 0, 0, 0, 4, 0, 0, 0, 52, 0, 0, 0, 2, 0, 0, 0, 255, 255, 255, 255, 64, 0, 0, 0, 212, 254, 255, 255, 25, 0, 0, 0, 83, 116, 97, 116, 101, 102, 117, 108, 80, 97, 114, 116, 105, 116, 105, 111, 110, 101, 100, 67, 97, 108, 108, 58, 48, 0, 0, 0, 2, 0, 0, 0, 1, 0, 0, 0, 64, 0, 0, 0, 178, 255, 255, 255, 0, 0, 0, 1, 16, 0, 0, 0, 16, 0, 0, 0, 3, 0, 0, 0, 44, 0, 0, 0, 28, 255, 255, 255, 31, 0, 0, 0, 115, 101, 113, 117, 101, 110, 116, 105, 97, 108, 95, 49, 57, 47, 110, 110, 95, 108, 97, 121, 101, 114, 95, 54, 47, 77, 97, 116, 77, 117, 108, 0, 2, 0, 0, 0, 64, 0, 0, 0, 32, 0, 0, 0, 0, 0, 22, 0, 24, 0, 20, 0, 0, 0, 16, 0, 12, 0, 8, 0, 0, 0, 0, 0, 0, 0, 7, 0, 22, 0, 0, 0, 0, 0, 0, 1, 16, 0, 0, 0, 16, 0, 0, 0, 2, 0, 0, 0, 60, 0, 0, 0, 128, 255, 255, 255, 47, 0, 0, 0, 115, 101, 113, 117, 101, 110, 116, 105, 97, 108, 95, 49, 57, 47, 110, 110, 95, 108, 97, 121, 101, 114, 95, 54, 47, 66, 105, 97, 115, 65, 100, 100, 47, 82, 101, 97, 100, 86, 97, 114, 105, 97, 98, 108, 101, 79, 112, 0, 1, 0, 0, 0, 64, 0, 0, 0, 0, 0, 22, 0, 28, 0, 24, 0, 0, 0, 20, 0, 16, 0, 12, 0, 0, 0, 0, 0, 8, 0, 7, 0, 22, 0, 0, 0, 0, 0, 0, 1, 20, 0, 0, 0, 32, 0, 0, 0, 32, 0, 0, 0, 1, 0, 0, 0, 64, 0, 0, 0, 2, 0, 0, 0, 255, 255, 255, 255, 32, 0, 0, 0, 4, 0, 4, 0, 4, 0, 0, 0, 34, 0, 0, 0, 115, 101, 114, 118, 105, 110, 103, 95, 100, 101, 102, 97, 117, 108, 116, 95, 110, 110, 95, 108, 97, 121, 101, 114, 95, 54, 95, 105, 110, 112, 117, 116, 58, 48, 0, 0, 2, 0, 0, 0, 1, 0, 0, 0, 32, 0, 0, 0, 1, 0, 0, 0, 16, 0, 0, 0, 12, 0, 12, 0, 11, 0, 0, 0, 0, 0, 4, 0, 12, 0, 0, 0, 9, 0, 0, 0, 0, 0, 0, 9
};
